/* Copyright 2019 The TensorFlow Authors. All Rights Reserved.

Licensed under the Apache License, Version 2.0 (the "License");
you may not use this file except in compliance with the License.
You may obtain a copy of the License at

    http://www.apache.org/licenses/LICENSE-2.0

Unless required by applicable law or agreed to in writing, software
distributed under the License is distributed on an "AS IS" BASIS,
WITHOUT WARRANTIES OR CONDITIONS OF ANY KIND, either express or implied.
See the License for the specific language governing permissions and
limitations under the License.
==============================================================================*/

// Automatically created from a TensorFlow Lite flatbuffer using the command:
// xxd -i magic_wand_model.tflite > magic_wand_model_data.cc
// See the README for a full description of the creation process.

// We need to keep the data array aligned on some architectures.
#ifdef __has_attribute
#define HAVE_ATTRIBUTE(x) __has_attribute(x)
#else
#define HAVE_ATTRIBUTE(x) 0
#endif
#if HAVE_ATTRIBUTE(aligned) || (defined(__GNUC__) && !defined(__clang__))
#define DATA_ALIGN_ATTRIBUTE __attribute__((aligned(4)))
#else
#define DATA_ALIGN_ATTRIBUTE
#endif

const unsigned char g_tof_detector_model_data[] DATA_ALIGN_ATTRIBUTE = {
  0x1c, 0x00, 0x00, 0x00, 0x54, 0x46, 0x4c, 0x33, 0x14, 0x00, 0x20, 0x00,
  0x1c, 0x00, 0x18, 0x00, 0x14, 0x00, 0x10, 0x00, 0x0c, 0x00, 0x00, 0x00,
  0x08, 0x00, 0x04, 0x00, 0x14, 0x00, 0x00, 0x00, 0x1c, 0x00, 0x00, 0x00,
  0x84, 0x00, 0x00, 0x00, 0xdc, 0x00, 0x00, 0x00, 0x48, 0x32, 0x00, 0x00,
  0x58, 0x32, 0x00, 0x00, 0x04, 0x3b, 0x00, 0x00, 0x03, 0x00, 0x00, 0x00,
  0x01, 0x00, 0x00, 0x00, 0x04, 0x00, 0x00, 0x00, 0x6a, 0xcd, 0xff, 0xff,
  0x0c, 0x00, 0x00, 0x00, 0x1c, 0x00, 0x00, 0x00, 0x38, 0x00, 0x00, 0x00,
  0x0f, 0x00, 0x00, 0x00, 0x73, 0x65, 0x72, 0x76, 0x69, 0x6e, 0x67, 0x5f,
  0x64, 0x65, 0x66, 0x61, 0x75, 0x6c, 0x74, 0x00, 0x01, 0x00, 0x00, 0x00,
  0x04, 0x00, 0x00, 0x00, 0x98, 0xff, 0xff, 0xff, 0x17, 0x00, 0x00, 0x00,
  0x04, 0x00, 0x00, 0x00, 0x05, 0x00, 0x00, 0x00, 0x64, 0x65, 0x6e, 0x73,
  0x65, 0x00, 0x00, 0x00, 0x01, 0x00, 0x00, 0x00, 0x04, 0x00, 0x00, 0x00,
  0x5e, 0xce, 0xff, 0xff, 0x04, 0x00, 0x00, 0x00, 0x0a, 0x00, 0x00, 0x00,
  0x6c, 0x73, 0x74, 0x6d, 0x5f, 0x69, 0x6e, 0x70, 0x75, 0x74, 0x00, 0x00,
  0x02, 0x00, 0x00, 0x00, 0x34, 0x00, 0x00, 0x00, 0x04, 0x00, 0x00, 0x00,
  0xdc, 0xff, 0xff, 0xff, 0x1a, 0x00, 0x00, 0x00, 0x04, 0x00, 0x00, 0x00,
  0x13, 0x00, 0x00, 0x00, 0x43, 0x4f, 0x4e, 0x56, 0x45, 0x52, 0x53, 0x49,
  0x4f, 0x4e, 0x5f, 0x4d, 0x45, 0x54, 0x41, 0x44, 0x41, 0x54, 0x41, 0x00,
  0x08, 0x00, 0x0c, 0x00, 0x08, 0x00, 0x04, 0x00, 0x08, 0x00, 0x00, 0x00,
  0x19, 0x00, 0x00, 0x00, 0x04, 0x00, 0x00, 0x00, 0x13, 0x00, 0x00, 0x00,
  0x6d, 0x69, 0x6e, 0x5f, 0x72, 0x75, 0x6e, 0x74, 0x69, 0x6d, 0x65, 0x5f,
  0x76, 0x65, 0x72, 0x73, 0x69, 0x6f, 0x6e, 0x00, 0x1b, 0x00, 0x00, 0x00,
  0x68, 0x31, 0x00, 0x00, 0x60, 0x31, 0x00, 0x00, 0x28, 0x31, 0x00, 0x00,
  0x0c, 0x31, 0x00, 0x00, 0x6c, 0x2f, 0x00, 0x00, 0xcc, 0x2d, 0x00, 0x00,
  0x2c, 0x2c, 0x00, 0x00, 0x8c, 0x2a, 0x00, 0x00, 0x54, 0x2a, 0x00, 0x00,
  0x1c, 0x2a, 0x00, 0x00, 0xe4, 0x29, 0x00, 0x00, 0xac, 0x29, 0x00, 0x00,
  0x9c, 0x1f, 0x00, 0x00, 0x8c, 0x15, 0x00, 0x00, 0x7c, 0x0b, 0x00, 0x00,
  0x6c, 0x01, 0x00, 0x00, 0x34, 0x01, 0x00, 0x00, 0x18, 0x01, 0x00, 0x00,
  0xfc, 0x00, 0x00, 0x00, 0xe0, 0x00, 0x00, 0x00, 0xa8, 0x00, 0x00, 0x00,
  0xa0, 0x00, 0x00, 0x00, 0x98, 0x00, 0x00, 0x00, 0x90, 0x00, 0x00, 0x00,
  0x88, 0x00, 0x00, 0x00, 0x68, 0x00, 0x00, 0x00, 0x04, 0x00, 0x00, 0x00,
  0x42, 0xcf, 0xff, 0xff, 0x04, 0x00, 0x00, 0x00, 0x54, 0x00, 0x00, 0x00,
  0x0c, 0x00, 0x00, 0x00, 0x08, 0x00, 0x0e, 0x00, 0x08, 0x00, 0x04, 0x00,
  0x08, 0x00, 0x00, 0x00, 0x10, 0x00, 0x00, 0x00, 0x24, 0x00, 0x00, 0x00,
  0x00, 0x00, 0x06, 0x00, 0x08, 0x00, 0x04, 0x00, 0x06, 0x00, 0x00, 0x00,
  0x04, 0x00, 0x00, 0x00, 0x00, 0x00, 0x00, 0x00, 0x00, 0x00, 0x0a, 0x00,
  0x10, 0x00, 0x0c, 0x00, 0x08, 0x00, 0x04, 0x00, 0x0a, 0x00, 0x00, 0x00,
  0x02, 0x00, 0x00, 0x00, 0x02, 0x00, 0x00, 0x00, 0x04, 0x00, 0x00, 0x00,
  0x06, 0x00, 0x00, 0x00, 0x32, 0x2e, 0x31, 0x35, 0x2e, 0x30, 0x00, 0x00,
  0xa2, 0xcf, 0xff, 0xff, 0x04, 0x00, 0x00, 0x00, 0x10, 0x00, 0x00, 0x00,
  0x31, 0x2e, 0x31, 0x34, 0x2e, 0x30, 0x00, 0x00, 0x00, 0x00, 0x00, 0x00,
  0x00, 0x00, 0x00, 0x00, 0xf4, 0xc6, 0xff, 0xff, 0xf8, 0xc6, 0xff, 0xff,
  0xfc, 0xc6, 0xff, 0xff, 0x00, 0xc7, 0xff, 0xff, 0xce, 0xcf, 0xff, 0xff,
  0x04, 0x00, 0x00, 0x00, 0x28, 0x00, 0x00, 0x00, 0x00, 0x00, 0x00, 0x00,
  0x00, 0x00, 0x00, 0x00, 0x00, 0x00, 0x00, 0x00, 0x00, 0x00, 0x00, 0x00,
  0x00, 0x00, 0x00, 0x00, 0x00, 0x00, 0x00, 0x00, 0x00, 0x00, 0x00, 0x00,
  0x00, 0x00, 0x00, 0x00, 0x00, 0x00, 0x00, 0x00, 0x00, 0x00, 0x00, 0x00,
  0x02, 0xd0, 0xff, 0xff, 0x04, 0x00, 0x00, 0x00, 0x0c, 0x00, 0x00, 0x00,
  0x01, 0x00, 0x00, 0x00, 0x01, 0x00, 0x00, 0x00, 0x01, 0x00, 0x00, 0x00,
  0x1a, 0xd0, 0xff, 0xff, 0x04, 0x00, 0x00, 0x00, 0x0c, 0x00, 0x00, 0x00,
  0x00, 0x00, 0x00, 0x00, 0x00, 0x00, 0x00, 0x00, 0x00, 0x00, 0x00, 0x00,
  0x32, 0xd0, 0xff, 0xff, 0x04, 0x00, 0x00, 0x00, 0x0c, 0x00, 0x00, 0x00,
  0x00, 0x00, 0x00, 0x00, 0xff, 0xff, 0xff, 0xff, 0x00, 0x00, 0x00, 0x00,
  0x4a, 0xd0, 0xff, 0xff, 0x04, 0x00, 0x00, 0x00, 0x28, 0x00, 0x00, 0x00,
  0x11, 0xe8, 0xc7, 0xbf, 0x60, 0x8a, 0x90, 0xbf, 0xf7, 0xad, 0x69, 0x3f,
  0x69, 0x3e, 0x77, 0xbe, 0x59, 0x1e, 0xa1, 0x3f, 0xd9, 0x22, 0xae, 0xbf,
  0x82, 0x2d, 0x2d, 0x3f, 0x93, 0xdd, 0xe7, 0x3f, 0xf5, 0x5c, 0xbe, 0x3f,
  0xc6, 0xa9, 0x9b, 0x3f, 0x7e, 0xd0, 0xff, 0xff, 0x04, 0x00, 0x00, 0x00,
  0x00, 0x0a, 0x00, 0x00, 0xaf, 0x21, 0x39, 0x3e, 0x87, 0x30, 0x6a, 0xbd,
  0x20, 0xed, 0x4e, 0xbd, 0xaf, 0xc7, 0x02, 0x3d, 0xa0, 0x34, 0x5c, 0x3e,
  0xc2, 0x6b, 0xdc, 0x3c, 0x82, 0xb4, 0x3b, 0xbe, 0x06, 0x79, 0x0f, 0x3e,
  0x8c, 0x20, 0x42, 0xbb, 0x4d, 0xf5, 0x48, 0xbe, 0x9c, 0xd7, 0x05, 0x3e,
  0x31, 0x51, 0x0c, 0xbd, 0xbc, 0xad, 0x67, 0x3e, 0x47, 0x60, 0x94, 0xbd,
  0x11, 0x17, 0x34, 0x3d, 0xd7, 0x88, 0x88, 0x3d, 0xce, 0x7e, 0x5c, 0xbd,
  0x46, 0x5a, 0xf0, 0x3d, 0xb9, 0xce, 0x40, 0x3d, 0x67, 0x9b, 0x79, 0xbe,
  0x24, 0xa8, 0x0a, 0xbc, 0x4a, 0x69, 0x86, 0x3e, 0x0c, 0xd2, 0x1a, 0x3e,
  0xc1, 0x7a, 0xde, 0x3e, 0xa4, 0x17, 0x83, 0x3b, 0x47, 0x1d, 0x87, 0xbe,
  0x84, 0x77, 0x7e, 0xbe, 0x90, 0x1e, 0xff, 0xbd, 0x43, 0xef, 0x0b, 0x3e,
  0x60, 0x26, 0x45, 0x3e, 0xa7, 0xc7, 0x44, 0x3d, 0xcb, 0x1a, 0xbf, 0x3e,
  0x5c, 0xf0, 0x0c, 0xbd, 0xb3, 0xfd, 0x1d, 0x3e, 0x02, 0xfd, 0x68, 0x3d,
  0x5a, 0xbb, 0x76, 0xbe, 0x53, 0x77, 0x4f, 0x3e, 0x9c, 0xdb, 0xc2, 0x3d,
  0x19, 0xd8, 0x84, 0xbd, 0x4e, 0x48, 0xbd, 0x3e, 0xd7, 0x2b, 0xd6, 0x3b,
  0xb7, 0x21, 0x79, 0x3e, 0x92, 0x8b, 0x3c, 0xbe, 0x20, 0x00, 0xc4, 0x3d,
  0x49, 0x7a, 0x7e, 0x3d, 0x17, 0x1b, 0x11, 0xbd, 0x10, 0x3d, 0x96, 0x3e,
  0x16, 0x13, 0xf7, 0x3c, 0x40, 0x5d, 0x35, 0x3e, 0x2e, 0x1b, 0xc0, 0xbb,
  0xb3, 0x7b, 0x8c, 0xbe, 0xdd, 0x03, 0x32, 0x3e, 0x7a, 0xdb, 0x51, 0x3e,
  0xe2, 0x87, 0x69, 0x3d, 0x4a, 0xc8, 0xfd, 0xbd, 0xf1, 0xd0, 0x1a, 0x3d,
  0xcf, 0x64, 0xf6, 0x3d, 0x0e, 0xb5, 0x52, 0x3e, 0x65, 0x61, 0x42, 0x3e,
  0x00, 0x66, 0x4d, 0x3e, 0x4e, 0x1b, 0x94, 0xbd, 0xb3, 0xa2, 0x32, 0x3e,
  0x19, 0x2d, 0x1f, 0x3d, 0x36, 0x91, 0xad, 0x3e, 0x73, 0xb8, 0xa3, 0x3e,
  0x11, 0xa7, 0x90, 0xbd, 0x3d, 0x7b, 0x1e, 0xbd, 0x06, 0x30, 0x35, 0xbe,
  0xf9, 0xef, 0x5c, 0xbd, 0x54, 0x95, 0x90, 0xbd, 0x3d, 0x1d, 0x96, 0x3d,
  0xe6, 0x63, 0x44, 0x3e, 0x1e, 0xbe, 0xb2, 0x3d, 0xbc, 0x35, 0x0d, 0x3d,
  0x02, 0x33, 0x84, 0xbd, 0x9e, 0x86, 0x70, 0xbe, 0x3b, 0xa2, 0x41, 0xbe,
  0x5a, 0x87, 0xa3, 0xbe, 0x34, 0x3a, 0xa1, 0xbd, 0x18, 0x9c, 0x53, 0xbe,
  0x4d, 0xe4, 0xab, 0x3c, 0xc5, 0x6b, 0x7b, 0xbd, 0x04, 0x0d, 0x24, 0x3c,
  0x16, 0x32, 0x99, 0xbe, 0x11, 0x72, 0x2b, 0xbc, 0xda, 0x73, 0x0d, 0xbf,
  0x2b, 0x95, 0xc3, 0xbe, 0xd5, 0x13, 0xe6, 0xbe, 0x6a, 0x35, 0x0f, 0x3d,
  0x8e, 0xf7, 0xdf, 0x3d, 0xa2, 0x36, 0x84, 0x3b, 0xd4, 0x00, 0xb1, 0xbe,
  0x44, 0xe3, 0xb8, 0xbc, 0x22, 0x1b, 0x29, 0xbf, 0x3c, 0xbd, 0x01, 0xbf,
  0xd0, 0xf2, 0x0d, 0xbf, 0x10, 0x49, 0xac, 0x3d, 0x32, 0xf6, 0x26, 0x3e,
  0x0a, 0x54, 0xac, 0x39, 0x3f, 0xed, 0x4a, 0xbd, 0xfa, 0x06, 0xac, 0xbe,
  0x68, 0xa6, 0x0b, 0xbf, 0x33, 0x99, 0x86, 0xbe, 0x68, 0x7c, 0x01, 0xbf,
  0x4a, 0x3d, 0x8f, 0x3e, 0xb5, 0xc5, 0x67, 0xbc, 0x44, 0x4f, 0x8e, 0xbe,
  0x99, 0x4d, 0xae, 0xbe, 0x8a, 0xf1, 0xc7, 0xbe, 0x7d, 0xa5, 0xd3, 0xbd,
  0xbd, 0x83, 0xb2, 0xbd, 0xe9, 0x03, 0xcf, 0xbe, 0x04, 0xbe, 0xe5, 0xbd,
  0xdf, 0xd2, 0x38, 0xbe, 0xa1, 0x6b, 0x12, 0xbe, 0xd7, 0xca, 0x51, 0xbc,
  0xb3, 0xc9, 0x0f, 0xbf, 0xf5, 0x5a, 0xbe, 0xbe, 0x93, 0x51, 0x4f, 0xbe,
  0x1a, 0x97, 0xa7, 0xbe, 0x93, 0x47, 0x81, 0x3c, 0xfa, 0x40, 0x81, 0xbe,
  0xb0, 0x9a, 0x62, 0xbe, 0xb0, 0x1c, 0x32, 0xbe, 0xc3, 0x71, 0xda, 0xbe,
  0x9a, 0xd8, 0xf0, 0x3d, 0x5f, 0x7a, 0xc9, 0x3d, 0xc4, 0xe2, 0xe6, 0xbe,
  0x5b, 0xf0, 0xaa, 0xbd, 0x49, 0x86, 0x84, 0x3d, 0x0b, 0xf3, 0x11, 0x3c,
  0xba, 0x37, 0xc7, 0xbd, 0xbe, 0x63, 0xa5, 0xbc, 0x83, 0x20, 0x4e, 0xbe,
  0x85, 0x85, 0xca, 0x3d, 0x3b, 0x52, 0x02, 0xbe, 0xab, 0x3a, 0xe7, 0x3b,
  0x4d, 0x76, 0x28, 0x3e, 0x38, 0xfb, 0x79, 0x3e, 0xcb, 0x29, 0x97, 0x3d,
  0x29, 0xbb, 0xdf, 0x3e, 0x8f, 0x61, 0x0a, 0xbd, 0x15, 0xe7, 0x25, 0xbc,
  0xee, 0x17, 0x98, 0x3e, 0xf7, 0x0f, 0x3b, 0x3e, 0x40, 0xf6, 0x9e, 0xbc,
  0x27, 0x05, 0x43, 0xbd, 0x99, 0x10, 0xd0, 0x3e, 0xe9, 0xbc, 0x1b, 0x3e,
  0x44, 0x15, 0xa7, 0xbd, 0x29, 0x4a, 0x02, 0x3e, 0xc2, 0x1b, 0xb4, 0x3e,
  0x08, 0x2b, 0xd9, 0x3c, 0x8f, 0xdc, 0xeb, 0x3d, 0x15, 0x29, 0x56, 0x3e,
  0xed, 0x90, 0x44, 0x3e, 0x12, 0x2a, 0xc4, 0x3d, 0x9b, 0x4e, 0x85, 0x3e,
  0x8b, 0x68, 0x83, 0x3e, 0x37, 0x98, 0x8b, 0x3e, 0x0b, 0xb8, 0x78, 0x3e,
  0x7f, 0x72, 0x51, 0x3e, 0xb1, 0x38, 0xe2, 0xbc, 0x79, 0x59, 0x27, 0x3d,
  0xd7, 0x05, 0xa4, 0xbc, 0x7a, 0xd7, 0x1e, 0xbe, 0x9a, 0x07, 0x0a, 0x3e,
  0xe2, 0xc3, 0x7e, 0x3e, 0x99, 0xef, 0x87, 0x3d, 0x81, 0x5f, 0x8e, 0x3b,
  0x32, 0xd3, 0x58, 0xbd, 0x31, 0xdc, 0x3d, 0x3e, 0xd8, 0x2f, 0xea, 0xbd,
  0xaf, 0x10, 0x24, 0xbe, 0x68, 0x90, 0x36, 0xbe, 0x77, 0xb4, 0x41, 0x3d,
  0x5d, 0x0d, 0x95, 0x3d, 0x3b, 0x3d, 0xa3, 0x3d, 0x56, 0xed, 0x49, 0xbe,
  0x75, 0xed, 0x11, 0x3e, 0x32, 0x62, 0x3f, 0x3e, 0x06, 0xff, 0x80, 0x3e,
  0xcf, 0x23, 0xfc, 0x3d, 0xcc, 0x09, 0x66, 0x3e, 0xca, 0xe1, 0x02, 0x3d,
  0x49, 0xb4, 0x69, 0x3e, 0xa5, 0xef, 0x15, 0xbc, 0xb9, 0x5d, 0x05, 0x3d,
  0xc8, 0xca, 0x41, 0x3d, 0xd5, 0xc1, 0x68, 0xbd, 0x1d, 0x41, 0x53, 0x3c,
  0x10, 0x69, 0xef, 0x3d, 0x76, 0xa4, 0x65, 0xbe, 0x8b, 0x0b, 0x3e, 0x3e,
  0xe1, 0xdf, 0x56, 0xbe, 0x90, 0xed, 0x75, 0xbe, 0x44, 0x52, 0x3f, 0xbe,
  0xdc, 0x54, 0x87, 0xbd, 0xbc, 0x9f, 0x27, 0x3e, 0x0f, 0x98, 0x0d, 0x3d,
  0xbe, 0xfe, 0x93, 0xbd, 0x36, 0x06, 0x51, 0xbe, 0x89, 0x62, 0xea, 0xbb,
  0x6a, 0xbc, 0x32, 0xbe, 0xfa, 0xe7, 0xb5, 0x3d, 0x9b, 0xb3, 0x8e, 0xbe,
  0x3d, 0x13, 0x98, 0x3e, 0xae, 0xff, 0xad, 0x3d, 0x9b, 0xa3, 0xcb, 0xbe,
  0x96, 0xa2, 0x0a, 0xbe, 0xeb, 0x55, 0x51, 0xbe, 0x9b, 0x3a, 0x09, 0xbe,
  0x48, 0xc7, 0x67, 0xbe, 0x08, 0x8e, 0x3c, 0x3e, 0x93, 0x59, 0xa4, 0xbe,
  0xd4, 0x7b, 0x7f, 0x3e, 0x6a, 0x57, 0x83, 0xbe, 0x9e, 0x7a, 0x98, 0xbe,
  0x03, 0x4e, 0x91, 0xbe, 0xbe, 0x0b, 0xa0, 0x3d, 0x96, 0x9f, 0x53, 0xbe,
  0x0d, 0x17, 0x8e, 0x3e, 0x3c, 0x6f, 0x17, 0x3e, 0xba, 0x3a, 0xb3, 0x3e,
  0xf6, 0xca, 0xa6, 0xbe, 0xfb, 0x4e, 0xa0, 0xbe, 0x1e, 0x6d, 0x43, 0x3e,
  0x37, 0x05, 0xd7, 0xbd, 0x43, 0xc3, 0x04, 0xbe, 0xab, 0xee, 0xfd, 0xbc,
  0xfe, 0xc5, 0x57, 0xbe, 0xd4, 0x73, 0xe1, 0x3d, 0x2f, 0x3b, 0x96, 0xbe,
  0x30, 0xf2, 0x06, 0xbe, 0xd4, 0x6a, 0x47, 0xbe, 0xb1, 0xae, 0x8b, 0x3d,
  0xa2, 0x35, 0xc6, 0xbd, 0x22, 0x3d, 0x85, 0xbd, 0xfb, 0xa3, 0x7a, 0x3d,
  0xe3, 0xe0, 0xd6, 0x3d, 0xce, 0xbf, 0x15, 0xbf, 0xa8, 0x7c, 0xcc, 0xbe,
  0x6c, 0x87, 0x92, 0xbe, 0x48, 0x4b, 0x20, 0xbe, 0xf7, 0xe9, 0x36, 0xbe,
  0xac, 0x9d, 0x98, 0xbb, 0xd5, 0xe6, 0x79, 0xbc, 0x80, 0x7b, 0x8a, 0x3e,
  0x26, 0xdb, 0x0d, 0xbf, 0x8a, 0x3b, 0xd1, 0xbc, 0x1b, 0x5d, 0x07, 0xbe,
  0xce, 0xc8, 0x27, 0xbe, 0xfa, 0xe8, 0x26, 0xbe, 0xc3, 0x73, 0xe1, 0x3e,
  0xa5, 0x17, 0xc6, 0x38, 0xa2, 0xe2, 0xad, 0x3e, 0xad, 0x24, 0x3b, 0x3d,
  0x1e, 0x87, 0xcb, 0xbd, 0xc0, 0xda, 0xb6, 0xbd, 0xd3, 0x1c, 0xb8, 0xbc,
  0x03, 0xce, 0x9b, 0xbd, 0x62, 0x5f, 0xf8, 0xbd, 0x45, 0x67, 0x58, 0xba,
  0x20, 0x50, 0xe9, 0xbb, 0x17, 0x9e, 0x04, 0xbe, 0x73, 0x9b, 0xc3, 0xbc,
  0x13, 0x80, 0x55, 0xbe, 0x84, 0xbe, 0x1e, 0x3d, 0x5e, 0x50, 0x8a, 0xbe,
  0xaf, 0xd7, 0x26, 0xbe, 0x4c, 0xb7, 0xd7, 0x3d, 0xe3, 0x64, 0xa4, 0xbe,
  0x6a, 0x7b, 0x42, 0xbe, 0xa4, 0xf8, 0x32, 0xbe, 0x31, 0x88, 0x2f, 0xbe,
  0x0a, 0x4c, 0x83, 0xbe, 0x8b, 0x44, 0xb7, 0xbe, 0xa5, 0xa0, 0x16, 0xbf,
  0x1c, 0x5a, 0xca, 0xbd, 0xde, 0xbc, 0x3d, 0xbf, 0xaa, 0xd0, 0x21, 0xbe,
  0x7b, 0x73, 0x38, 0xbe, 0x46, 0x23, 0xbc, 0x3d, 0x8a, 0xf8, 0x79, 0xbe,
  0x4c, 0x36, 0x1f, 0xbe, 0xfd, 0x15, 0x13, 0xbf, 0x83, 0x17, 0x11, 0xbf,
  0xf2, 0xec, 0xa2, 0xbe, 0x0c, 0x95, 0x0a, 0xbe, 0xf8, 0x04, 0x7e, 0xbe,
  0x5c, 0x28, 0xa5, 0xbc, 0xff, 0x8e, 0xfe, 0xbc, 0x6a, 0xb9, 0xb7, 0xbd,
  0xd9, 0x19, 0xe1, 0xbe, 0xf1, 0x7b, 0x14, 0xbe, 0x2e, 0xb1, 0x3c, 0xbf,
  0xa4, 0x7a, 0x13, 0x3d, 0x18, 0x82, 0x50, 0xbe, 0x8e, 0x7b, 0x90, 0xbe,
  0xb6, 0xd4, 0x91, 0xbe, 0xe0, 0x56, 0x85, 0xbe, 0x64, 0x22, 0xbb, 0xbc,
  0xf4, 0x98, 0xb5, 0xbc, 0x9c, 0xa4, 0x1b, 0xbf, 0xe4, 0x66, 0xa0, 0xbd,
  0xb2, 0x11, 0xb5, 0xbe, 0xae, 0x1c, 0x0f, 0x3d, 0x0c, 0xc2, 0xa6, 0xbe,
  0x4a, 0xc6, 0xbe, 0xbe, 0xc6, 0x85, 0xa2, 0xbe, 0xf1, 0x60, 0x9f, 0xbe,
  0xeb, 0xb3, 0x97, 0xbe, 0x11, 0x2e, 0xa5, 0x3c, 0x02, 0x75, 0x6b, 0x3d,
  0xe1, 0x1f, 0x10, 0x3d, 0x1f, 0x4c, 0x08, 0xbc, 0xdc, 0xe9, 0xe3, 0xbe,
  0x36, 0x44, 0x28, 0x3e, 0x3c, 0x3e, 0x70, 0xbd, 0xea, 0x40, 0x4c, 0xbe,
  0x40, 0xa4, 0x34, 0xbd, 0x6f, 0x74, 0xc7, 0xbd, 0x23, 0x9c, 0xf4, 0xbc,
  0xfd, 0xc8, 0x45, 0xbc, 0xe2, 0x9a, 0x06, 0x3e, 0x8c, 0xe8, 0xad, 0x3d,
  0x4c, 0xfc, 0x6f, 0xbd, 0x0a, 0xe6, 0xe6, 0x3d, 0x87, 0x95, 0x11, 0xbd,
  0xef, 0x74, 0xa1, 0xbe, 0x7a, 0x40, 0xbb, 0x3d, 0x67, 0x98, 0xb3, 0x3d,
  0x92, 0x00, 0xa4, 0xbc, 0xd7, 0x54, 0x45, 0xbe, 0x3f, 0x16, 0x91, 0xbd,
  0x0e, 0x9a, 0x4f, 0xbe, 0x4c, 0x5a, 0x69, 0xbe, 0x1a, 0x17, 0xc0, 0xbe,
  0xd2, 0x70, 0x1e, 0xbe, 0x82, 0xe3, 0x5a, 0xbe, 0x0b, 0xa6, 0xd8, 0xbe,
  0x35, 0x2f, 0x9d, 0xbe, 0x9b, 0x70, 0x16, 0xbf, 0x9b, 0x5d, 0xfc, 0xbe,
  0x05, 0x95, 0x34, 0xbd, 0x9a, 0xe5, 0x30, 0xbd, 0x18, 0x3c, 0x28, 0x3d,
  0x3e, 0x7a, 0xad, 0xbe, 0x7c, 0xc0, 0xf3, 0xbd, 0x49, 0x3a, 0xe3, 0xbe,
  0xa4, 0x04, 0x97, 0xbe, 0x19, 0x96, 0x36, 0xbe, 0x18, 0x24, 0xb5, 0xbe,
  0xae, 0xca, 0x83, 0xbe, 0x88, 0x58, 0x19, 0xbe, 0xd4, 0x43, 0xb3, 0xbc,
  0xca, 0x14, 0x0f, 0x3d, 0xf8, 0xd3, 0x02, 0xbe, 0xd1, 0x56, 0xa4, 0xbe,
  0xaa, 0x42, 0xc1, 0xbe, 0x33, 0x77, 0xaf, 0xbe, 0xf7, 0x5f, 0xd8, 0xbd,
  0x86, 0x8f, 0x90, 0xbe, 0x1f, 0xd3, 0x24, 0xbe, 0xc5, 0xa0, 0x3f, 0xbd,
  0x4e, 0x58, 0x34, 0xbe, 0x84, 0x77, 0x21, 0xbd, 0x5d, 0x23, 0x28, 0xbf,
  0x55, 0x80, 0xb1, 0xbd, 0x4f, 0x9e, 0x72, 0xbe, 0x28, 0xea, 0xcb, 0x3c,
  0x78, 0x25, 0xdb, 0x3a, 0xde, 0xa6, 0x35, 0x3d, 0x56, 0x0f, 0xd4, 0xbc,
  0xe5, 0x5b, 0x79, 0xbe, 0x26, 0x2b, 0x0a, 0xbc, 0x36, 0xcc, 0x16, 0xbe,
  0xa7, 0x78, 0x8c, 0xbe, 0x76, 0x30, 0xdb, 0xbe, 0x8f, 0xb1, 0x7c, 0xbe,
  0x17, 0x69, 0xab, 0xbe, 0xf6, 0xb5, 0xe3, 0xbe, 0x28, 0xb0, 0xd0, 0xbe,
  0xf2, 0x3b, 0x8e, 0xbe, 0x32, 0x2c, 0xf4, 0x3d, 0xba, 0xe0, 0x54, 0xbe,
  0x92, 0x89, 0xcd, 0xbd, 0xdc, 0x51, 0xf1, 0xbd, 0x07, 0x1f, 0x25, 0x3e,
  0xa5, 0x3b, 0x2a, 0xbe, 0x24, 0x14, 0x3c, 0xbc, 0x8b, 0x4a, 0xb0, 0x3d,
  0x35, 0x6c, 0x7b, 0xbe, 0x2b, 0xa3, 0xef, 0xbd, 0xe5, 0xee, 0x8b, 0xbe,
  0xd4, 0x3c, 0x8b, 0x3d, 0xf2, 0x07, 0x68, 0xbe, 0x3d, 0x0b, 0x96, 0xbe,
  0x47, 0x11, 0x8b, 0xbc, 0x24, 0xc9, 0xe6, 0x3d, 0x21, 0xf6, 0xc2, 0x3c,
  0xef, 0xdd, 0xa9, 0x3d, 0xc3, 0xba, 0xa8, 0xbe, 0x4e, 0xf5, 0x7a, 0xbe,
  0x73, 0xeb, 0xb7, 0xbe, 0xb3, 0x6d, 0x7c, 0xbe, 0x0a, 0x45, 0xed, 0xbe,
  0x3b, 0x82, 0x83, 0xbe, 0xe5, 0x54, 0x4f, 0x3c, 0x75, 0xff, 0x9f, 0xbe,
  0x62, 0x26, 0x29, 0xbc, 0x4f, 0x1f, 0xa0, 0xbd, 0x4b, 0x6f, 0xa2, 0xbe,
  0x67, 0x29, 0xbc, 0xbe, 0x13, 0x61, 0x9e, 0xbd, 0x2d, 0x86, 0xac, 0xbe,
  0x93, 0xd6, 0xcb, 0x3d, 0xad, 0xa5, 0xa3, 0xbd, 0x21, 0x94, 0x83, 0xbe,
  0x10, 0xa8, 0x94, 0xbe, 0x4a, 0x0d, 0x9a, 0xbe, 0xb0, 0x6e, 0xda, 0xbd,
  0x8e, 0x8e, 0xb4, 0xbe, 0xa7, 0xf9, 0x18, 0xbe, 0x58, 0x01, 0x73, 0xbe,
  0xf2, 0xc5, 0x03, 0xbe, 0x5a, 0xb7, 0x04, 0xbd, 0xc8, 0x71, 0x48, 0x3d,
  0x68, 0xc8, 0x51, 0xbe, 0x35, 0x0f, 0xc6, 0xbd, 0x9f, 0x15, 0x94, 0xbe,
  0x64, 0x60, 0xeb, 0xbe, 0x24, 0x52, 0xae, 0xbe, 0x68, 0xb4, 0xc8, 0xbd,
  0x12, 0xf6, 0xbe, 0xbd, 0xa5, 0x71, 0xc7, 0xbd, 0x0a, 0x01, 0xb4, 0xbe,
  0x45, 0xad, 0x80, 0xbe, 0x0b, 0x75, 0x8d, 0xbc, 0xde, 0x05, 0xc9, 0xbe,
  0x60, 0x58, 0xf0, 0xbd, 0x84, 0x0f, 0xec, 0xbd, 0xe1, 0x17, 0xca, 0xbe,
  0xb0, 0xb3, 0xa8, 0xbe, 0x2a, 0x42, 0x9b, 0xbe, 0x71, 0x3d, 0xb3, 0xbe,
  0xba, 0xfe, 0x30, 0xbe, 0xa1, 0x8d, 0x3b, 0xbe, 0x22, 0x87, 0x13, 0xbe,
  0xab, 0x11, 0x3c, 0xbb, 0xf1, 0xf5, 0x35, 0x3e, 0x77, 0xb5, 0xb2, 0xbe,
  0x3d, 0xd7, 0x4f, 0x3b, 0x08, 0xe2, 0x5d, 0xbd, 0x5c, 0x1a, 0x41, 0x3d,
  0x73, 0xd2, 0x5b, 0xbc, 0xd4, 0x41, 0x12, 0x3e, 0xeb, 0x6f, 0x15, 0xbe,
  0xe1, 0xd7, 0x5c, 0xbd, 0xa9, 0x86, 0xd8, 0x3d, 0x3a, 0xb5, 0xb4, 0x3e,
  0x78, 0xc4, 0xa4, 0xbe, 0x71, 0x7d, 0x2a, 0x3e, 0x6c, 0xa4, 0x33, 0x3e,
  0xab, 0xce, 0x3c, 0x3e, 0xd4, 0x35, 0xaf, 0x3d, 0xb5, 0x85, 0x16, 0x3d,
  0x74, 0xf8, 0xc6, 0xbd, 0xdb, 0x66, 0xa6, 0x3e, 0x64, 0x9c, 0xaa, 0x3e,
  0x43, 0x8b, 0x04, 0x3e, 0x6d, 0xe8, 0x67, 0x3e, 0x2c, 0x7e, 0x8d, 0x3e,
  0x02, 0x19, 0x54, 0xbd, 0x12, 0x57, 0xdf, 0x3d, 0x74, 0x78, 0xba, 0x3c,
  0x2d, 0x62, 0x2c, 0x3e, 0x1a, 0x08, 0xa0, 0x3e, 0x3d, 0xbc, 0x2e, 0x3e,
  0xb0, 0x2c, 0x85, 0x3d, 0x76, 0x5c, 0xa4, 0x3e, 0x3e, 0xbc, 0xfd, 0x3d,
  0x54, 0x78, 0xb5, 0x3d, 0xfc, 0x4e, 0x7a, 0x3d, 0x4b, 0x89, 0xbf, 0xbc,
  0x88, 0xe5, 0x07, 0x3d, 0xc9, 0x2c, 0x83, 0x3e, 0x1f, 0xf2, 0xe0, 0x3e,
  0x6a, 0x66, 0xa2, 0xbd, 0x42, 0x6c, 0xa3, 0x3d, 0xba, 0x1f, 0x6a, 0x3d,
  0x54, 0x65, 0xac, 0x3d, 0xa4, 0x51, 0x87, 0xbe, 0x85, 0x7c, 0x1f, 0xbd,
  0xc4, 0x5b, 0xa5, 0xbe, 0xc7, 0xa4, 0x01, 0x3f, 0x3c, 0x0a, 0x9a, 0x3d,
  0xc9, 0xaa, 0x1c, 0x3d, 0xbf, 0x4b, 0xad, 0xbe, 0x6e, 0x79, 0xef, 0x3d,
  0xba, 0x18, 0x87, 0xbd, 0xad, 0x42, 0x6c, 0x3e, 0x3e, 0x77, 0x0c, 0x3e,
  0x00, 0x71, 0x13, 0x3e, 0x50, 0xf6, 0x70, 0x3b, 0x66, 0x37, 0x83, 0x3e,
  0x04, 0xeb, 0xba, 0x3b, 0x1a, 0xfd, 0x13, 0xbc, 0xa8, 0x8f, 0xe7, 0x3d,
  0x9d, 0x00, 0xb6, 0x3c, 0x15, 0x5d, 0xc3, 0xbd, 0x18, 0xa9, 0x27, 0xbc,
  0xf4, 0xa8, 0x0c, 0x3d, 0x5e, 0x9f, 0x37, 0x3d, 0x1e, 0xcd, 0x61, 0xbe,
  0x68, 0xb1, 0xf5, 0xbd, 0x3b, 0x26, 0x67, 0x3e, 0x47, 0x18, 0xcd, 0x3d,
  0x30, 0x6e, 0x2f, 0xbd, 0x45, 0x16, 0xd2, 0xbc, 0xae, 0xe3, 0x57, 0xbe,
  0xb4, 0xe4, 0x7c, 0x3d, 0x7e, 0xc5, 0x78, 0x3d, 0x2d, 0x89, 0x23, 0x3e,
  0xac, 0x49, 0x41, 0x3b, 0x89, 0x7a, 0xd8, 0x3d, 0x2e, 0x75, 0xc5, 0x3d,
  0x83, 0x61, 0xf8, 0x3c, 0x93, 0x3f, 0x5d, 0xbd, 0x83, 0xbb, 0xdd, 0x3d,
  0x70, 0x3d, 0x2d, 0xbb, 0xca, 0xc3, 0x26, 0x3e, 0xea, 0x24, 0x7b, 0xbd,
  0x53, 0xff, 0xbe, 0x3c, 0x8f, 0x74, 0x38, 0xbe, 0xf4, 0x0c, 0x0f, 0x3e,
  0xf8, 0xa4, 0x19, 0xbd, 0x59, 0x60, 0xf9, 0xbb, 0xb9, 0xff, 0x2b, 0x3e,
  0xc7, 0x86, 0xa8, 0x3d, 0x13, 0xa8, 0x10, 0x3e, 0xd1, 0xa5, 0xb0, 0x3d,
  0xf7, 0x66, 0x23, 0xbe, 0xbf, 0xc4, 0x91, 0x3d, 0x8d, 0x98, 0xf2, 0x3d,
  0x46, 0x27, 0xad, 0x3c, 0x27, 0x28, 0x0a, 0xbd, 0x09, 0xc4, 0xe5, 0x3d,
  0x7d, 0x6d, 0x22, 0x3e, 0xa7, 0xbe, 0x09, 0x3e, 0x65, 0x34, 0xfe, 0x3d,
  0xb7, 0x9c, 0xac, 0x3e, 0xfe, 0x52, 0xae, 0x3d, 0x9c, 0xdc, 0x82, 0x3c,
  0xa0, 0x61, 0x9b, 0xbb, 0x15, 0xf4, 0x4d, 0xbd, 0x73, 0x9b, 0xc4, 0xbd,
  0xdc, 0xd2, 0xaf, 0x3d, 0x9c, 0x27, 0x90, 0x3b, 0x13, 0x0a, 0x00, 0xbe,
  0x5a, 0x38, 0x63, 0x3d, 0x26, 0x6e, 0x4e, 0x3d, 0x76, 0x41, 0xa0, 0x3c,
  0xad, 0xd8, 0x83, 0xbd, 0x4d, 0xa5, 0x80, 0x3d, 0xf5, 0x6c, 0x1a, 0xbe,
  0x6d, 0x36, 0x04, 0x3d, 0x08, 0xdb, 0xc0, 0xbe, 0x81, 0x9a, 0x47, 0x3d,
  0xdc, 0x76, 0xcd, 0xbd, 0x1b, 0x85, 0x3d, 0x3e, 0x5d, 0xb5, 0x4d, 0x3c,
  0x74, 0x62, 0xc5, 0x3d, 0x08, 0xab, 0x89, 0x3d, 0xbb, 0x44, 0x75, 0x3b,
  0xfa, 0xb7, 0x96, 0xbe, 0x16, 0x1b, 0xc3, 0x3c, 0x8a, 0xc1, 0x62, 0xbe,
  0x87, 0x3b, 0x44, 0xbe, 0x12, 0x17, 0xfe, 0xbd, 0x19, 0x5d, 0x1b, 0x3e,
  0x3a, 0x28, 0xb2, 0xbd, 0x40, 0x0d, 0x7a, 0xbd, 0xe6, 0xc5, 0x3c, 0xbd,
  0x07, 0x53, 0x4c, 0xbc, 0x5c, 0x0b, 0x27, 0xbd, 0x7b, 0xce, 0x6e, 0x3d,
  0xd3, 0x16, 0xeb, 0x3d, 0xa2, 0x00, 0x9e, 0x3d, 0xf1, 0x3d, 0x9f, 0xbd,
  0x2a, 0xc3, 0x25, 0x3e, 0xb6, 0x8f, 0xd4, 0xbd, 0xb7, 0x65, 0x12, 0x3b,
  0xda, 0x0f, 0xae, 0xbd, 0x4e, 0x10, 0xdd, 0x3d, 0xd9, 0xf5, 0xda, 0xbd,
  0xf4, 0xaa, 0x84, 0xbd, 0x4c, 0x1d, 0xf9, 0xbe, 0xed, 0xc6, 0x36, 0xbf,
  0x7e, 0x0b, 0x80, 0xbe, 0xf6, 0x31, 0x2f, 0x3e, 0xb5, 0x25, 0x23, 0x3d,
  0xda, 0x88, 0x45, 0xbc, 0x5c, 0xb7, 0x7c, 0xbe, 0x71, 0x65, 0x7d, 0xbe,
  0x91, 0xb4, 0xfd, 0xbe, 0x94, 0x95, 0x05, 0xbf, 0xe3, 0x1d, 0x80, 0xbe,
  0x7f, 0x18, 0x9e, 0x3d, 0x4c, 0x2e, 0xdf, 0xbd, 0xbc, 0x6b, 0x19, 0xbe,
  0x54, 0x34, 0xac, 0xbd, 0x6c, 0x01, 0x82, 0xbe, 0x13, 0x54, 0x11, 0xbf,
  0x28, 0x9e, 0x6e, 0xbe, 0x72, 0x81, 0xb8, 0xbe, 0x70, 0x8b, 0x21, 0x3e,
  0x08, 0xf7, 0xd0, 0xbd, 0xb2, 0x33, 0x59, 0xbe, 0xf4, 0x93, 0x23, 0xbe,
  0x61, 0x6f, 0xa7, 0xbe, 0xbf, 0x1b, 0x7c, 0xbe, 0x1b, 0xca, 0xe0, 0xbe,
  0x4b, 0xe7, 0xb9, 0xbe, 0x97, 0x72, 0x37, 0xbe, 0xb6, 0x33, 0xa2, 0xbe,
  0x89, 0x83, 0xb0, 0x3d, 0x74, 0x75, 0x8a, 0xbe, 0x83, 0x22, 0x04, 0xbf,
  0x23, 0x40, 0xed, 0xbe, 0x31, 0xd5, 0xbb, 0x3a, 0xa0, 0xf3, 0x97, 0xbd,
  0x19, 0x41, 0x19, 0xbd, 0x91, 0x1e, 0xc4, 0xbd, 0x26, 0x21, 0x63, 0xbe,
  0x03, 0x37, 0xd3, 0xbe, 0xe2, 0x7a, 0xfa, 0xbe, 0x8d, 0x5c, 0xca, 0xbe,
  0xb9, 0xe3, 0xc3, 0xbe, 0xbd, 0x32, 0x92, 0xbe, 0x8a, 0xda, 0xff, 0xff,
  0x04, 0x00, 0x00, 0x00, 0x00, 0x0a, 0x00, 0x00, 0x2f, 0x68, 0x01, 0x3e,
  0xd3, 0xfb, 0x1a, 0xbe, 0x57, 0xa1, 0x91, 0x3c, 0x64, 0xfb, 0x18, 0xbd,
  0xbc, 0x32, 0x0b, 0xbe, 0x91, 0x13, 0xe8, 0x3d, 0xae, 0xab, 0xad, 0x3d,
  0x4a, 0x9e, 0x91, 0xbc, 0x25, 0x09, 0x1d, 0x3e, 0x41, 0x69, 0x0c, 0x3e,
  0x42, 0xb1, 0xcb, 0x3d, 0x18, 0x74, 0x16, 0xbd, 0xab, 0x74, 0x6a, 0xbd,
  0x47, 0xa5, 0xb0, 0xbd, 0xf7, 0xca, 0x1f, 0xbc, 0x92, 0xcd, 0x67, 0xbe,
  0x29, 0xd7, 0x70, 0x3e, 0xe8, 0xea, 0x56, 0xbe, 0x0b, 0x64, 0xab, 0xbc,
  0x8f, 0x86, 0xe2, 0x3d, 0x8f, 0x9a, 0xd8, 0xbd, 0xd8, 0x1c, 0x1f, 0x3e,
  0x36, 0xaa, 0xd8, 0x3c, 0x68, 0x49, 0xb1, 0x3c, 0x2f, 0x6e, 0x02, 0xbe,
  0x26, 0x41, 0xcc, 0xbd, 0x38, 0x50, 0x67, 0xbd, 0xf0, 0x7f, 0x0e, 0xbe,
  0x06, 0x11, 0x7a, 0xbe, 0x57, 0x29, 0x8b, 0x3d, 0x26, 0x1d, 0x3d, 0xbd,
  0x64, 0x7c, 0x81, 0xbd, 0xb1, 0x37, 0xe7, 0x3c, 0x9d, 0x56, 0xb4, 0x3d,
  0x8d, 0xb6, 0xaf, 0x3c, 0x65, 0x40, 0x72, 0x3e, 0xe6, 0x2c, 0xa0, 0xbd,
  0x2f, 0xbf, 0x3b, 0x3e, 0x8b, 0xd3, 0xa0, 0x3d, 0x72, 0x61, 0xce, 0xbd,
  0xde, 0xc9, 0x6e, 0x3e, 0xfa, 0xe2, 0xa8, 0x3d, 0xec, 0x8d, 0x0d, 0xbe,
  0x35, 0xea, 0xc7, 0xbc, 0x7f, 0x6d, 0x54, 0x3e, 0xdb, 0x9a, 0x35, 0xbe,
  0x4e, 0xb6, 0x15, 0xbd, 0xdc, 0xdd, 0xf1, 0x3d, 0xc9, 0x2b, 0x43, 0xbe,
  0xbf, 0x3a, 0xdd, 0x3d, 0x27, 0xb0, 0x2a, 0xbd, 0xfa, 0x77, 0x91, 0x3d,
  0xd6, 0x7e, 0x27, 0xbe, 0x53, 0xcc, 0x67, 0x3d, 0x90, 0xba, 0x32, 0xbe,
  0xe2, 0x0b, 0x05, 0xbe, 0xc9, 0x18, 0x4a, 0xbe, 0xdc, 0x38, 0x31, 0xbc,
  0x3f, 0xf0, 0x89, 0xbd, 0x50, 0xed, 0x16, 0x3e, 0x47, 0x2f, 0xda, 0xbc,
  0xfd, 0x85, 0x45, 0x3e, 0x06, 0xce, 0xaa, 0xbd, 0xf3, 0xf8, 0x29, 0x3e,
  0xee, 0xb7, 0x8b, 0xbd, 0xb0, 0x15, 0x6e, 0xbc, 0xf8, 0x04, 0x43, 0xbe,
  0x99, 0x53, 0x78, 0xbe, 0xf1, 0x41, 0x0e, 0x3a, 0xb5, 0xf7, 0x37, 0x3c,
  0x71, 0xb9, 0xb9, 0xbd, 0xa2, 0xf5, 0xaa, 0x39, 0xa4, 0x19, 0x6d, 0x3e,
  0x8e, 0x74, 0xfb, 0x3d, 0xf1, 0x2a, 0x15, 0xbd, 0x24, 0x3c, 0x7c, 0xbd,
  0x72, 0x5b, 0x1d, 0x3e, 0x20, 0x7a, 0xfd, 0x3c, 0x7d, 0xea, 0x61, 0xbd,
  0x03, 0xf8, 0x00, 0x3e, 0xa5, 0xc0, 0xc4, 0x3d, 0x46, 0x49, 0x81, 0xbd,
  0xd3, 0x9e, 0x4a, 0x3e, 0x1d, 0xba, 0x2e, 0x3e, 0xdc, 0x0e, 0x3d, 0xbe,
  0x7e, 0xa1, 0x80, 0xbd, 0x34, 0xcc, 0x5a, 0xbe, 0x65, 0xe0, 0x24, 0xbe,
  0x82, 0x5e, 0x91, 0xbd, 0x82, 0xab, 0x02, 0xbe, 0x9e, 0x01, 0x56, 0x3e,
  0x12, 0x09, 0x67, 0xbd, 0x64, 0x07, 0x9d, 0xbc, 0xd3, 0xd7, 0x79, 0x3d,
  0xeb, 0x1e, 0x02, 0x3e, 0xcb, 0x9f, 0x87, 0x3d, 0xb0, 0x2f, 0xaf, 0x3b,
  0x16, 0x2b, 0x4b, 0xbd, 0x86, 0x82, 0x3e, 0x3e, 0xc7, 0x21, 0x2f, 0xbe,
  0x55, 0xba, 0x87, 0xbe, 0x41, 0x65, 0xba, 0x3d, 0x37, 0x31, 0xc6, 0x3d,
  0xf1, 0x91, 0xa6, 0xbe, 0x3e, 0xa8, 0x17, 0x3e, 0x4b, 0x0d, 0x41, 0x3e,
  0x7b, 0xa1, 0x48, 0xbe, 0x0f, 0x57, 0x32, 0xbe, 0x7c, 0xbf, 0x9d, 0x3d,
  0x1f, 0x1a, 0x5a, 0xbe, 0x65, 0x6d, 0x99, 0xbd, 0xe5, 0x9f, 0xf0, 0xbd,
  0xd8, 0x12, 0xd8, 0x3d, 0xb3, 0xd7, 0xdd, 0x3d, 0x4b, 0x9e, 0x12, 0xbe,
  0x71, 0x71, 0x01, 0x3e, 0xf9, 0xf0, 0x9d, 0xbe, 0x12, 0xe2, 0xda, 0x3d,
  0x7b, 0x3e, 0x15, 0x3e, 0x82, 0xa3, 0x8f, 0xbe, 0x83, 0x68, 0x2d, 0x3d,
  0x8f, 0x26, 0x84, 0xbd, 0x70, 0x87, 0x28, 0x3d, 0x67, 0x48, 0x62, 0xbe,
  0xc7, 0x42, 0xe2, 0xbd, 0x81, 0x95, 0xd7, 0x3d, 0x10, 0x85, 0x8e, 0xbe,
  0x4b, 0xf0, 0xac, 0xbe, 0x00, 0xfa, 0xb2, 0xbd, 0x37, 0xa6, 0x6b, 0xbc,
  0x14, 0x88, 0xc4, 0xbd, 0x9d, 0x5c, 0xb3, 0xbd, 0xb7, 0xa3, 0xe5, 0xbd,
  0x02, 0xa1, 0xbf, 0xbd, 0x2e, 0x1c, 0x38, 0x3c, 0x49, 0x1e, 0xc2, 0xbd,
  0x9d, 0xdb, 0x0d, 0x3e, 0x40, 0x03, 0xdd, 0x3d, 0x22, 0x37, 0xdd, 0x3d,
  0x59, 0x45, 0x06, 0x3e, 0x1a, 0xe5, 0xd4, 0xbd, 0x3c, 0x1b, 0x26, 0xbe,
  0x7e, 0x8c, 0xe4, 0x3d, 0x07, 0xb4, 0x17, 0xbe, 0x48, 0x91, 0x23, 0xbe,
  0x5a, 0xfe, 0x9e, 0xbc, 0xcc, 0xb5, 0xe2, 0x3d, 0xf1, 0xea, 0x02, 0xbe,
  0x90, 0xec, 0x2a, 0x3e, 0xa5, 0x84, 0x0f, 0x3e, 0x2a, 0xdf, 0xab, 0x3c,
  0x10, 0x65, 0x79, 0xbd, 0x6d, 0xa0, 0x8d, 0x3e, 0xcc, 0x10, 0x77, 0x3d,
  0xfc, 0xc7, 0x50, 0xbd, 0x8c, 0x28, 0xac, 0xbc, 0x99, 0x84, 0xa5, 0x3c,
  0x1c, 0x34, 0x5d, 0x3e, 0x4e, 0xfe, 0x91, 0x3d, 0x66, 0xae, 0x99, 0x3a,
  0x44, 0xcd, 0x9d, 0xbd, 0x1d, 0xe7, 0x4e, 0x3b, 0x92, 0xc0, 0x45, 0x3c,
  0xfe, 0x1a, 0x89, 0x3e, 0x64, 0x23, 0x1c, 0xbe, 0x68, 0xc5, 0x0f, 0xbd,
  0x10, 0x8c, 0x1a, 0x3e, 0x7c, 0xa4, 0xa2, 0x3d, 0x1d, 0x7c, 0x59, 0xbe,
  0xa4, 0xcb, 0xa9, 0xbd, 0xed, 0x9e, 0x94, 0x3e, 0x44, 0x83, 0xc3, 0x3d,
  0x0d, 0x3d, 0xd1, 0x3d, 0xb3, 0x68, 0x35, 0xbd, 0xd4, 0x47, 0x72, 0x3c,
  0xd5, 0xcc, 0x5c, 0x3e, 0x5b, 0x18, 0x4a, 0xbe, 0x44, 0xf1, 0x00, 0x3e,
  0xcd, 0x9a, 0x02, 0x3e, 0x5d, 0xc9, 0xd4, 0x3d, 0xb5, 0x5b, 0x98, 0x3e,
  0x39, 0x1c, 0x2a, 0x3e, 0x9e, 0x1b, 0x12, 0xbe, 0x29, 0x25, 0xf8, 0xbd,
  0x69, 0x01, 0x3e, 0xbe, 0x82, 0x78, 0x1a, 0xbe, 0x02, 0x81, 0xaa, 0xbd,
  0x53, 0x30, 0x24, 0x3e, 0x9e, 0xdd, 0x33, 0x3e, 0xb3, 0xad, 0x3b, 0xbd,
  0x24, 0x1b, 0x5d, 0xbc, 0xd5, 0x38, 0x95, 0x3d, 0xda, 0xa6, 0x79, 0x3d,
  0xf2, 0xd0, 0x7d, 0xbe, 0x04, 0xae, 0x9f, 0xbd, 0x92, 0x7b, 0x84, 0x3e,
  0xf6, 0xcb, 0xb2, 0x3d, 0x67, 0x66, 0xf3, 0xbd, 0x4f, 0xf9, 0x63, 0xbd,
  0xe5, 0x48, 0x6b, 0xbe, 0x79, 0x9c, 0x11, 0x3e, 0x3e, 0x9d, 0x0c, 0x3d,
  0x71, 0x31, 0xf4, 0x3c, 0xdd, 0x0e, 0x0b, 0xbd, 0x12, 0xf9, 0x69, 0xbc,
  0xed, 0x34, 0xec, 0x3d, 0x03, 0x01, 0xfd, 0x3c, 0x8e, 0x34, 0x5f, 0x3e,
  0x57, 0x1c, 0x4e, 0xbd, 0xc7, 0xdd, 0x41, 0x3e, 0xbc, 0x22, 0xbd, 0x3e,
  0x14, 0x0c, 0x89, 0x3e, 0xed, 0xab, 0xd4, 0x3d, 0xb8, 0xac, 0x2f, 0x3c,
  0xdd, 0xf5, 0x58, 0x3e, 0xa6, 0x68, 0x97, 0xbd, 0xf3, 0x53, 0x3d, 0x3d,
  0x18, 0x96, 0x45, 0x3e, 0x99, 0xad, 0x64, 0x3e, 0x1e, 0xcf, 0x9a, 0x3e,
  0x85, 0xa5, 0x0c, 0x3e, 0xf4, 0x1e, 0x8e, 0xbd, 0x51, 0x60, 0x8d, 0x3d,
  0x09, 0x26, 0x16, 0x3e, 0xaa, 0x69, 0x73, 0xbd, 0x7f, 0x69, 0x0d, 0xbd,
  0xf0, 0x2b, 0x2a, 0x3e, 0x12, 0xe5, 0x2a, 0x3e, 0x8e, 0x72, 0x9d, 0x3e,
  0x7e, 0x67, 0x9b, 0x3c, 0xdf, 0xa4, 0x27, 0x3e, 0x82, 0x4b, 0x69, 0xbe,
  0x3c, 0x68, 0xef, 0x3d, 0x9e, 0x46, 0xde, 0xbd, 0x1b, 0xa9, 0xc6, 0xbd,
  0x77, 0xfa, 0x72, 0xbe, 0x16, 0x4a, 0x69, 0x3e, 0x03, 0x06, 0xce, 0x3d,
  0x8b, 0x10, 0x51, 0x3d, 0xc9, 0xd1, 0xc0, 0xbd, 0x5c, 0xa4, 0x50, 0x3d,
  0xd8, 0x6c, 0x2f, 0x3e, 0x9c, 0xe4, 0x49, 0x3e, 0x23, 0x97, 0xeb, 0x3d,
  0xba, 0x01, 0xd2, 0xbd, 0x88, 0xe6, 0x8e, 0xbc, 0x50, 0x57, 0x96, 0xbe,
  0xd8, 0x92, 0xfc, 0xbd, 0x9e, 0x84, 0x05, 0xbe, 0x4a, 0x67, 0x33, 0xbe,
  0xcb, 0x8e, 0x40, 0x3d, 0xdf, 0xb5, 0xbc, 0x3e, 0xa1, 0x32, 0x00, 0x3e,
  0xbb, 0xce, 0x92, 0x3e, 0xf5, 0xfd, 0x58, 0x3e, 0xce, 0xa4, 0x92, 0xbc,
  0x71, 0x63, 0xcd, 0x3d, 0x08, 0x4f, 0xa2, 0xbd, 0x27, 0x35, 0x12, 0x3e,
  0xed, 0x62, 0x07, 0x3e, 0x46, 0xbf, 0x17, 0xbe, 0xed, 0x9f, 0x5d, 0xbd,
  0x76, 0xbf, 0xe2, 0x3c, 0xd6, 0xf3, 0x45, 0x3e, 0x1d, 0xee, 0xa4, 0xbe,
  0x5e, 0x8e, 0x90, 0x3d, 0xe9, 0x20, 0xaf, 0xbd, 0xd4, 0x5c, 0xf1, 0x3c,
  0x66, 0xdc, 0xda, 0xbd, 0x17, 0x80, 0x86, 0xba, 0x39, 0x5a, 0x43, 0xbe,
  0xb1, 0x0d, 0xff, 0x3d, 0x4c, 0xe3, 0x0d, 0xbc, 0xe6, 0x10, 0x32, 0x3e,
  0xc8, 0xf1, 0xf9, 0x3d, 0x0d, 0x1e, 0xf6, 0xbd, 0x37, 0x50, 0x46, 0xbe,
  0x5a, 0x14, 0x25, 0x3d, 0xd4, 0x45, 0x94, 0x3b, 0x95, 0xdf, 0x1a, 0x3e,
  0xa4, 0x28, 0x97, 0x3d, 0x47, 0x54, 0x46, 0x3e, 0x9c, 0x1b, 0x3c, 0xbd,
  0x86, 0x31, 0x32, 0x3e, 0xbe, 0x9d, 0x27, 0xbb, 0xc6, 0x1f, 0xa3, 0xbd,
  0x66, 0x88, 0x5e, 0x3e, 0xad, 0x59, 0x18, 0x3e, 0x48, 0x89, 0xcb, 0xbc,
  0x69, 0x62, 0xf9, 0x3d, 0xe5, 0xe1, 0x96, 0xbd, 0xb8, 0xd2, 0x41, 0x3d,
  0x6b, 0x5a, 0x86, 0x3e, 0x4c, 0xa6, 0x54, 0xbd, 0x46, 0x4d, 0x1c, 0xbe,
  0x44, 0x90, 0x9f, 0x3e, 0x6e, 0xc7, 0x53, 0xbe, 0xf4, 0x99, 0x91, 0xbd,
  0x73, 0x26, 0x5b, 0xbd, 0x82, 0xde, 0xa3, 0xbc, 0xad, 0x41, 0x44, 0xbe,
  0x02, 0x12, 0x55, 0xbc, 0x3d, 0x8f, 0x30, 0xbe, 0x24, 0x6e, 0x33, 0x3e,
  0x81, 0x31, 0x08, 0xbc, 0x47, 0x65, 0x46, 0x3e, 0xa9, 0xe3, 0x59, 0x3d,
  0x44, 0xc9, 0x89, 0x3e, 0x74, 0xcf, 0x2c, 0x3e, 0x4b, 0x77, 0xc4, 0x3d,
  0xb7, 0x10, 0x57, 0x3e, 0x62, 0x9e, 0xea, 0x3c, 0x69, 0xab, 0xdb, 0x3d,
  0x0f, 0xf7, 0xc4, 0xbb, 0xee, 0xaf, 0xdd, 0xbc, 0x6e, 0x35, 0x3e, 0x3d,
  0xde, 0xe6, 0x85, 0x3e, 0x40, 0x48, 0x79, 0x3e, 0x50, 0x0a, 0x80, 0xbd,
  0x21, 0xbe, 0xb4, 0x3d, 0x4c, 0xf0, 0x3b, 0xbe, 0xd8, 0x45, 0xd0, 0x3d,
  0x4d, 0x90, 0x87, 0xbd, 0xd0, 0x5c, 0x43, 0x3c, 0x59, 0x15, 0x2a, 0x3e,
  0x56, 0x0b, 0x46, 0xbe, 0xad, 0xa2, 0xbf, 0x3d, 0x3b, 0x9f, 0x81, 0xbe,
  0xa7, 0x7d, 0x3b, 0xbd, 0xd3, 0x73, 0xb4, 0xbd, 0x8c, 0x2d, 0x96, 0xbc,
  0x3b, 0xbb, 0x72, 0x3d, 0x2e, 0x97, 0x27, 0xbe, 0xdb, 0xce, 0x9c, 0xbe,
  0xeb, 0x7f, 0x06, 0xbd, 0x71, 0x3e, 0x1e, 0xbd, 0xdc, 0xd4, 0x73, 0x3e,
  0x84, 0x4a, 0x5f, 0x3e, 0xec, 0x1a, 0xfb, 0x3d, 0x9e, 0x02, 0x70, 0x3e,
  0x8c, 0x28, 0x3b, 0xbd, 0x26, 0x94, 0xcc, 0x3d, 0xfa, 0x7c, 0x0e, 0xbe,
  0xf5, 0x8f, 0x85, 0x3d, 0x43, 0x31, 0x1f, 0x3e, 0x1d, 0x90, 0x6a, 0xbd,
  0xd4, 0xfe, 0xfb, 0xbd, 0xb2, 0x6b, 0xc2, 0x3c, 0x27, 0xf2, 0x49, 0xbe,
  0x46, 0xc2, 0xb8, 0xbd, 0x2b, 0x10, 0xd2, 0x3d, 0xfb, 0x34, 0x99, 0x3c,
  0x92, 0x23, 0xda, 0xbd, 0xc7, 0x20, 0x9c, 0x3d, 0x85, 0xa7, 0x6f, 0xbe,
  0x58, 0x7d, 0x2c, 0xbd, 0x3a, 0x22, 0x16, 0x3e, 0x0e, 0x39, 0x80, 0xbe,
  0x70, 0x50, 0x12, 0xbe, 0x9a, 0xe8, 0x6c, 0x3d, 0xf3, 0x25, 0xf0, 0x3c,
  0x4d, 0xee, 0x10, 0xbe, 0x6e, 0x4d, 0xfb, 0x3d, 0xe7, 0xba, 0x8b, 0xbe,
  0xa2, 0x8d, 0xe7, 0xbd, 0xc3, 0x38, 0x15, 0xbe, 0x1c, 0x17, 0xc1, 0xbd,
  0x0b, 0xba, 0x91, 0xbe, 0xcc, 0x87, 0x07, 0xbe, 0x61, 0xbc, 0x49, 0x3e,
  0x90, 0x26, 0x2c, 0xbd, 0xab, 0x68, 0x89, 0xbd, 0xf0, 0x2a, 0x6c, 0xbe,
  0x37, 0xb2, 0x68, 0xbe, 0x15, 0x8f, 0x4b, 0xbe, 0x0d, 0x95, 0xbf, 0xbc,
  0xec, 0xe7, 0xcd, 0xbd, 0xfd, 0x7b, 0x5c, 0xbd, 0xde, 0xc7, 0x25, 0xbb,
  0xf9, 0x93, 0xe7, 0x3d, 0x46, 0x7f, 0x0c, 0x3e, 0x47, 0x29, 0x1b, 0x3d,
  0x12, 0x6d, 0x3e, 0x3d, 0x8b, 0x27, 0x7d, 0xbe, 0xc8, 0xc0, 0xf1, 0x3c,
  0xe8, 0xf9, 0x25, 0x3e, 0xc9, 0x16, 0x11, 0x3d, 0xf2, 0x2f, 0xb8, 0x3d,
  0x6f, 0x93, 0x9c, 0x3d, 0xc7, 0x6a, 0x22, 0xbd, 0x2f, 0x44, 0x83, 0x3e,
  0x54, 0xe7, 0x4c, 0xbd, 0x09, 0x8e, 0x82, 0xbe, 0x4f, 0x6b, 0xdd, 0xbd,
  0xf5, 0xe4, 0x69, 0x3d, 0x6b, 0xeb, 0x87, 0x3e, 0x01, 0x11, 0x0a, 0xbe,
  0x82, 0xf4, 0x93, 0x3b, 0xa3, 0x83, 0x70, 0xbe, 0x94, 0xcd, 0x85, 0x3d,
  0x13, 0xfe, 0x32, 0x3e, 0xa3, 0x09, 0x74, 0xbd, 0xdb, 0xd9, 0x05, 0xbe,
  0xa3, 0xec, 0xb0, 0x3d, 0x9e, 0x72, 0x4f, 0xbb, 0x3c, 0xad, 0x8e, 0x3e,
  0xed, 0xb3, 0x83, 0x3e, 0x41, 0xdc, 0x7c, 0x3e, 0x0f, 0x19, 0xdb, 0x3d,
  0x0e, 0x0e, 0x95, 0x3d, 0xca, 0x1c, 0x32, 0xbe, 0x16, 0xe4, 0x14, 0xbd,
  0x2e, 0xb2, 0x57, 0x3e, 0xfd, 0x20, 0x13, 0xbe, 0xa3, 0x0b, 0x5c, 0x3e,
  0x1e, 0x6b, 0x19, 0x3d, 0xcb, 0x0c, 0x9d, 0xbd, 0x9f, 0x54, 0x06, 0x3d,
  0x45, 0x76, 0x84, 0xbd, 0xb9, 0xa5, 0x83, 0x3b, 0x5b, 0xde, 0x3d, 0xba,
  0x53, 0xe3, 0x75, 0x3e, 0x4b, 0xb8, 0x94, 0x3e, 0x46, 0xe4, 0x6f, 0x3e,
  0x25, 0xc0, 0xc1, 0x3d, 0x6f, 0xab, 0x0f, 0x3e, 0x35, 0x5d, 0xac, 0x3d,
  0xdf, 0x10, 0x71, 0x3e, 0xdd, 0x24, 0x68, 0x3e, 0x42, 0xaf, 0x2e, 0xbd,
  0xb9, 0x71, 0x41, 0x3e, 0x08, 0x09, 0x99, 0x3e, 0xb7, 0x1e, 0x31, 0xbd,
  0xbc, 0x4c, 0xf0, 0xbd, 0x4f, 0x57, 0x51, 0x3e, 0x27, 0x31, 0x9f, 0xbd,
  0x01, 0x85, 0x8f, 0x3e, 0xbe, 0xbe, 0xf2, 0xbd, 0x88, 0x3f, 0x9d, 0xbd,
  0xf4, 0xbb, 0xa3, 0xbc, 0xfa, 0xa4, 0x55, 0x3d, 0xfa, 0xd4, 0xfc, 0xbc,
  0x3a, 0x72, 0xab, 0x3d, 0x21, 0x6d, 0xa9, 0xbc, 0xda, 0x83, 0x14, 0xbe,
  0x5d, 0x66, 0xb2, 0x3e, 0xc5, 0x07, 0x5b, 0xbe, 0x5b, 0x49, 0x60, 0xbc,
  0xdc, 0xfe, 0xd0, 0x3d, 0x20, 0xab, 0xd3, 0xbd, 0x8e, 0x3b, 0xdf, 0x3d,
  0xae, 0x35, 0xd4, 0xbd, 0xf8, 0x2d, 0x0e, 0xbd, 0x24, 0x5e, 0x4b, 0xbd,
  0xd1, 0x57, 0xad, 0xbd, 0xaf, 0xb3, 0x9e, 0xbd, 0xcc, 0xa4, 0xd4, 0x3d,
  0x7e, 0x27, 0x05, 0x3e, 0x7d, 0xc0, 0x72, 0x3e, 0xc5, 0x0b, 0xb1, 0x3d,
  0x87, 0x60, 0x2c, 0xbd, 0xe8, 0x58, 0x99, 0xbe, 0xd0, 0x7d, 0x19, 0x3e,
  0x9c, 0x2e, 0xfa, 0x3d, 0x82, 0x89, 0xac, 0x3b, 0xef, 0x6e, 0x26, 0xbe,
  0x8d, 0x21, 0x04, 0xbe, 0x8a, 0x86, 0x2d, 0x3e, 0xe2, 0xd2, 0xe5, 0xbd,
  0x5c, 0xc4, 0x62, 0xbe, 0x97, 0x2b, 0x80, 0x3d, 0xe1, 0x9a, 0xe9, 0x3d,
  0x6a, 0x88, 0xf4, 0xbd, 0xdd, 0xae, 0x55, 0x3e, 0x1a, 0x45, 0xfb, 0x3c,
  0x84, 0xf9, 0x4a, 0x3e, 0x13, 0x90, 0x85, 0xbc, 0xd0, 0x3e, 0x7a, 0xbd,
  0x20, 0x91, 0x7f, 0x3d, 0x76, 0x89, 0xc2, 0x3b, 0xea, 0x5f, 0x18, 0xbe,
  0xe5, 0x68, 0x59, 0x3e, 0xbc, 0xbc, 0xb9, 0x3d, 0x4a, 0x9d, 0xe0, 0x3c,
  0xa0, 0x92, 0xe4, 0x3d, 0x3b, 0x9b, 0x35, 0x3e, 0x53, 0xfe, 0x92, 0x3e,
  0xc7, 0x2f, 0x0f, 0x3e, 0x35, 0x91, 0x00, 0x3d, 0x34, 0xa2, 0x29, 0x3e,
  0x77, 0x9b, 0x15, 0xbe, 0x57, 0x63, 0xcf, 0xbb, 0xb1, 0xce, 0x9d, 0xbd,
  0xca, 0xf7, 0x0a, 0x3d, 0x16, 0x58, 0xae, 0xbd, 0xb1, 0xc0, 0x0b, 0xbe,
  0x90, 0xc4, 0xe8, 0xbd, 0x2e, 0x09, 0x01, 0x3c, 0x0f, 0x01, 0x92, 0xbe,
  0x7f, 0x2f, 0x33, 0xbe, 0xc9, 0xaa, 0xe1, 0x3c, 0x52, 0x96, 0x03, 0xbe,
  0x90, 0xed, 0x37, 0x3d, 0xeb, 0x6d, 0xc4, 0x3d, 0x4a, 0x38, 0x1b, 0xbd,
  0x4d, 0xa3, 0x07, 0xbe, 0x53, 0xcc, 0x95, 0xbd, 0x1a, 0xb2, 0x4d, 0xbd,
  0xac, 0xf2, 0x82, 0x3c, 0xe6, 0x99, 0x89, 0xbd, 0x50, 0xab, 0x9d, 0x3c,
  0xb3, 0x26, 0x2b, 0xbe, 0xa2, 0x7f, 0xb6, 0xbc, 0x90, 0xb4, 0x0b, 0x3e,
  0x40, 0xf4, 0x55, 0xbd, 0x92, 0xe5, 0x75, 0x3d, 0x01, 0x01, 0xbc, 0xbc,
  0x77, 0x6c, 0x2a, 0xbc, 0x3c, 0x67, 0x81, 0xbd, 0x57, 0x81, 0x38, 0x3d,
  0x5b, 0x7e, 0x91, 0xbc, 0x26, 0x7b, 0x49, 0xbd, 0x49, 0x98, 0x01, 0x3e,
  0x35, 0x56, 0xe2, 0x3d, 0x71, 0xa7, 0x00, 0xbe, 0xd3, 0x46, 0xcc, 0xbd,
  0xb3, 0x81, 0x99, 0xbd, 0xc4, 0xe4, 0x28, 0x38, 0xce, 0xe6, 0x39, 0xbe,
  0xb1, 0x32, 0x1d, 0xbe, 0x90, 0x59, 0x5d, 0x3e, 0xe5, 0x4e, 0xb1, 0xbd,
  0xe6, 0x5a, 0xc9, 0x3c, 0x3f, 0xc9, 0x28, 0xbe, 0xc0, 0x30, 0x04, 0x3d,
  0x73, 0xfa, 0xac, 0xbd, 0x82, 0x31, 0x7a, 0x3e, 0x19, 0x37, 0x07, 0x3e,
  0xd7, 0xef, 0x06, 0xbe, 0xda, 0x60, 0x83, 0x3e, 0x08, 0x2f, 0x82, 0xbd,
  0x95, 0x48, 0x23, 0xbe, 0xd8, 0x83, 0x99, 0x3e, 0xed, 0xdf, 0xbf, 0x3d,
  0x5a, 0x85, 0x4f, 0x3d, 0x0b, 0xd6, 0xda, 0xbd, 0xfa, 0xce, 0x48, 0xbe,
  0xff, 0xc3, 0xed, 0x3c, 0xca, 0x22, 0xe9, 0xbb, 0x13, 0x02, 0x86, 0xbd,
  0x1d, 0x72, 0xf3, 0xbd, 0x76, 0xc4, 0x45, 0xbe, 0xa4, 0x4f, 0x7c, 0x3d,
  0xa3, 0xea, 0x85, 0xbc, 0x2c, 0x71, 0x84, 0x3d, 0xdd, 0x7c, 0x0c, 0xbe,
  0x2d, 0x9d, 0xdc, 0xbd, 0x21, 0x1b, 0x5b, 0x3e, 0x25, 0xdb, 0x83, 0xbe,
  0x37, 0xee, 0xf2, 0x3d, 0x4c, 0xb5, 0xec, 0xbd, 0xa8, 0xb5, 0x68, 0x3e,
  0x70, 0xdf, 0xc5, 0xbd, 0x79, 0xf8, 0x2b, 0x3c, 0x72, 0x89, 0x7d, 0x3e,
  0x5b, 0x71, 0x62, 0x3c, 0x17, 0x74, 0x80, 0x3a, 0xfc, 0x2c, 0x0b, 0x3e,
  0x0d, 0x86, 0x0c, 0xbe, 0x2a, 0x70, 0xa5, 0x3d, 0x6c, 0x2d, 0x90, 0xbe,
  0xd3, 0x4c, 0xf0, 0xbd, 0x04, 0xe1, 0xa1, 0xbe, 0x64, 0xa5, 0x2a, 0xbe,
  0x2b, 0x81, 0x38, 0x3e, 0xa6, 0x1c, 0x70, 0x3e, 0x50, 0xb7, 0xe3, 0x3d,
  0x8c, 0x03, 0x3f, 0x3d, 0xdb, 0xd6, 0xe1, 0x3a, 0x70, 0xb1, 0x47, 0x3d,
  0xea, 0x51, 0x9e, 0x3d, 0xbd, 0x25, 0x0d, 0x3d, 0x8b, 0x4f, 0x1f, 0x3e,
  0x52, 0x2f, 0x50, 0xbd, 0x28, 0xd2, 0x5f, 0xbe, 0x29, 0x28, 0x5b, 0x3c,
  0xb0, 0x2b, 0x2c, 0xbd, 0x46, 0x98, 0x02, 0xbe, 0x08, 0x19, 0x99, 0x3d,
  0xd0, 0xb2, 0x2c, 0x3e, 0x9b, 0x43, 0x22, 0x3e, 0x49, 0xe3, 0xa9, 0x3c,
  0x63, 0x84, 0x1e, 0xbe, 0x73, 0xf0, 0x61, 0x3d, 0xe8, 0x09, 0x84, 0x3e,
  0xa0, 0x00, 0xfa, 0xbd, 0x4d, 0x7f, 0xe4, 0xbd, 0xbe, 0x96, 0xd1, 0xbd,
  0xc7, 0x88, 0x4d, 0x3e, 0x5f, 0xd2, 0xc7, 0xbd, 0x5e, 0x97, 0xba, 0xbd,
  0x31, 0x05, 0xf9, 0x3d, 0x06, 0x56, 0x4a, 0x3e, 0xa0, 0x8b, 0x14, 0xbe,
  0xb5, 0xaa, 0x2f, 0x3e, 0x91, 0xce, 0xff, 0x3d, 0x80, 0x21, 0x28, 0x3e,
  0x48, 0x5b, 0x2c, 0xbe, 0x5e, 0x34, 0x90, 0xbc, 0x5a, 0x15, 0xc3, 0x3b,
  0xd9, 0x4b, 0x21, 0xbe, 0xf1, 0xaa, 0x23, 0xbe, 0x03, 0xfe, 0x88, 0x3e,
  0xb1, 0x63, 0xa6, 0xbd, 0xd7, 0x6f, 0x9a, 0x3d, 0x69, 0x6e, 0x55, 0x3e,
  0x96, 0xbc, 0x40, 0xbe, 0xc8, 0xca, 0xc9, 0x3d, 0x18, 0x5a, 0x10, 0x3e,
  0x28, 0x96, 0x18, 0xbd, 0xf9, 0x32, 0x89, 0x3e, 0x34, 0x70, 0x7f, 0x3e,
  0x7a, 0xfe, 0x60, 0x3e, 0xd4, 0xdc, 0xc5, 0x3d, 0xc3, 0x3d, 0x94, 0xbd,
  0x0d, 0xef, 0x55, 0x3d, 0x8e, 0x3e, 0x1c, 0x3d, 0xfa, 0x3c, 0x66, 0x3e,
  0x9f, 0x9b, 0x0e, 0x3e, 0xf1, 0x01, 0xb4, 0x3b, 0x12, 0xa2, 0x00, 0x3e,
  0x32, 0xcd, 0xc9, 0xbd, 0xc2, 0x22, 0x36, 0xbe, 0x7c, 0x05, 0x0e, 0xbe,
  0x4c, 0x86, 0x54, 0x3e, 0xba, 0xfe, 0x8b, 0x3e, 0xf7, 0xdc, 0x50, 0x3e,
  0x26, 0x4d, 0xa9, 0x3e, 0x05, 0xbf, 0x83, 0xbd, 0xd0, 0xab, 0x8e, 0x3d,
  0x96, 0xe4, 0xff, 0xff, 0x04, 0x00, 0x00, 0x00, 0x00, 0x0a, 0x00, 0x00,
  0x97, 0x6f, 0xca, 0xbd, 0xb5, 0x13, 0xb3, 0x3c, 0x64, 0x9e, 0x7c, 0x3e,
  0x34, 0x4f, 0x61, 0xbe, 0x67, 0x11, 0x71, 0xbe, 0x1f, 0x38, 0x0a, 0x3e,
  0xd3, 0x21, 0x7b, 0xbe, 0xdf, 0x2f, 0xb1, 0x3d, 0x0b, 0xbf, 0xac, 0x3e,
  0xcc, 0x1e, 0x2b, 0x3e, 0x19, 0x40, 0x95, 0x3e, 0x3a, 0x18, 0x2d, 0x3e,
  0x45, 0x29, 0x91, 0x3e, 0xe4, 0x96, 0x73, 0x3d, 0x72, 0x6c, 0xfc, 0x3d,
  0x7f, 0x0b, 0x69, 0x3e, 0xc4, 0x3d, 0xa7, 0x3d, 0x60, 0x60, 0xaf, 0x3d,
  0x76, 0x83, 0x8d, 0x3e, 0xeb, 0xf7, 0x0e, 0x3e, 0xbd, 0xf0, 0x3d, 0xbe,
  0x17, 0x0f, 0x32, 0xbd, 0x1c, 0xc1, 0x26, 0xbc, 0xba, 0xa3, 0xf7, 0xbd,
  0xca, 0xdf, 0x6a, 0xbd, 0x89, 0x02, 0xd8, 0x3c, 0xf7, 0xfc, 0xe9, 0x3d,
  0x63, 0xa4, 0x3c, 0x3c, 0xd2, 0x59, 0x30, 0xbe, 0x72, 0x8e, 0xea, 0xbd,
  0x39, 0xf1, 0x41, 0xbe, 0xf9, 0x87, 0xba, 0xbd, 0x2b, 0x40, 0x21, 0x3d,
  0x65, 0x08, 0x39, 0x3e, 0x85, 0x72, 0x0c, 0xbd, 0x00, 0x6b, 0x17, 0x3e,
  0x92, 0x45, 0x39, 0x3e, 0x28, 0x5e, 0xc0, 0x3d, 0x5f, 0x09, 0xd9, 0xbd,
  0x22, 0x23, 0x2d, 0x3e, 0x0c, 0x46, 0x20, 0x3e, 0xc9, 0x54, 0xec, 0x3d,
  0x92, 0xde, 0x33, 0xbb, 0xbe, 0x34, 0x3e, 0x3e, 0xa0, 0x7b, 0xd8, 0xbd,
  0xf3, 0x96, 0x00, 0xbe, 0xdb, 0xbe, 0x52, 0xbe, 0x3a, 0xb2, 0xfb, 0x3d,
  0xa0, 0xac, 0x46, 0x3e, 0x97, 0x59, 0x2c, 0x3d, 0x78, 0xf2, 0x03, 0x3c,
  0xa6, 0xfc, 0x7e, 0x3e, 0xee, 0xf5, 0x30, 0xbe, 0xf2, 0x98, 0x9c, 0x3e,
  0x71, 0x9b, 0x59, 0x3e, 0x8b, 0x4c, 0x74, 0x3d, 0x8f, 0x9d, 0x0b, 0x3c,
  0x33, 0xb3, 0x10, 0x3e, 0xd4, 0x2b, 0x97, 0x3d, 0x44, 0xd4, 0x8c, 0x3e,
  0x1c, 0xd6, 0xb4, 0xbd, 0x64, 0x72, 0x84, 0x3d, 0x8c, 0x3f, 0x0d, 0xbe,
  0x0c, 0xfe, 0x57, 0xbb, 0x88, 0x77, 0x2f, 0xbb, 0xd9, 0x1a, 0xbc, 0xbd,
  0xa6, 0x38, 0x95, 0x3e, 0xab, 0xaf, 0xb5, 0xbc, 0x59, 0xc3, 0xa9, 0x3d,
  0x62, 0xd5, 0xd3, 0xbc, 0x98, 0xd9, 0x9e, 0xbd, 0xed, 0x64, 0x94, 0x3e,
  0x92, 0xd2, 0x2c, 0x3e, 0xfc, 0x28, 0x89, 0xbd, 0xa9, 0x99, 0x5b, 0xbe,
  0xe6, 0xe7, 0x2e, 0xbe, 0x90, 0x60, 0xfd, 0x3d, 0x88, 0xed, 0x7c, 0xbc,
  0xa2, 0xfe, 0x50, 0xbe, 0x3b, 0x15, 0xf6, 0x3d, 0x71, 0xde, 0x18, 0x3c,
  0xc9, 0x65, 0x7c, 0xbe, 0xb4, 0x4f, 0x99, 0xbd, 0x7f, 0x32, 0x81, 0x3c,
  0xd2, 0xe9, 0xde, 0xbd, 0x09, 0x32, 0x3d, 0xbe, 0x7b, 0x92, 0x17, 0x3e,
  0xff, 0xcf, 0xff, 0xbd, 0xaf, 0xf7, 0xdc, 0xbd, 0x11, 0xed, 0x63, 0x3e,
  0x03, 0x0c, 0x18, 0x3e, 0xaa, 0x01, 0x05, 0xbe, 0x60, 0x3a, 0x5d, 0xbe,
  0xf6, 0xf4, 0xc1, 0x3c, 0xf9, 0x5e, 0x35, 0x3d, 0xc8, 0x1f, 0xa1, 0xbe,
  0xc4, 0xcb, 0x29, 0xbe, 0x5d, 0x33, 0x34, 0x3e, 0x5f, 0xdc, 0x78, 0xbe,
  0xa4, 0xc7, 0xae, 0xbc, 0xd2, 0x48, 0xb4, 0x3d, 0x23, 0xea, 0x37, 0xbc,
  0xe7, 0xb9, 0x20, 0x3d, 0xea, 0x5c, 0x34, 0x3d, 0x83, 0x91, 0x18, 0x3e,
  0x7c, 0x74, 0xa9, 0xbd, 0x0f, 0x77, 0x18, 0xbd, 0x5d, 0xbe, 0x92, 0xbe,
  0xcd, 0x61, 0xe8, 0xbd, 0xd3, 0xe1, 0xf9, 0xbd, 0x69, 0x46, 0x8b, 0xbd,
  0x58, 0x12, 0x1c, 0x3e, 0x18, 0x07, 0x35, 0xbe, 0xf2, 0xbe, 0x3f, 0xbe,
  0x99, 0x9f, 0xe2, 0x3d, 0x42, 0x81, 0xd0, 0xbd, 0x28, 0x0f, 0x47, 0xbe,
  0xe7, 0x0e, 0x56, 0xbe, 0x3f, 0x33, 0xf6, 0xbc, 0x15, 0xc0, 0x5a, 0x3d,
  0x14, 0x15, 0x13, 0x3e, 0x5f, 0xb6, 0x8b, 0xbe, 0xea, 0x0e, 0xaa, 0xbc,
  0xa3, 0xf3, 0xa0, 0x3c, 0xec, 0x04, 0x5a, 0xbb, 0x88, 0xc4, 0x4b, 0xbe,
  0xb6, 0xd5, 0x87, 0xbd, 0x6b, 0x1b, 0x08, 0xbe, 0x9a, 0x48, 0x16, 0xbc,
  0xab, 0x57, 0x65, 0xbd, 0x12, 0xd9, 0x4d, 0xbe, 0x4a, 0x6b, 0x65, 0x3d,
  0x85, 0x44, 0x09, 0xbe, 0x5d, 0xba, 0x84, 0x37, 0xa6, 0x58, 0x72, 0xbe,
  0xb3, 0x0f, 0x56, 0xbe, 0xa3, 0x8d, 0x86, 0x3d, 0x84, 0x6e, 0x7d, 0x3d,
  0x31, 0xef, 0xdf, 0x3d, 0x8f, 0x6e, 0x01, 0x3e, 0x2a, 0xf6, 0xd3, 0xbd,
  0x5b, 0x37, 0x51, 0x3e, 0xac, 0xb5, 0x8e, 0xbc, 0x6a, 0x62, 0x08, 0x3e,
  0x6c, 0xbb, 0x6d, 0x3e, 0x15, 0xe1, 0x1b, 0x3e, 0x76, 0x9e, 0x2c, 0x3e,
  0xeb, 0xd4, 0xc4, 0x3e, 0x96, 0x6d, 0xa0, 0x3d, 0xa0, 0x40, 0x1b, 0x3e,
  0xc0, 0x96, 0xd9, 0xbd, 0xb7, 0xa2, 0x9a, 0x3e, 0xe9, 0xbf, 0x8d, 0xbd,
  0x56, 0x08, 0x25, 0xbe, 0x9e, 0x9a, 0x4a, 0xbe, 0xe9, 0xac, 0xbf, 0xbd,
  0xc6, 0x21, 0xd8, 0xbd, 0xa3, 0x8f, 0x24, 0x3e, 0xa1, 0x42, 0x24, 0xbe,
  0xcf, 0xce, 0x05, 0xbe, 0x59, 0xa8, 0x6d, 0x3e, 0xa5, 0xb1, 0xb2, 0xbc,
  0xef, 0x0c, 0x04, 0x3e, 0xfa, 0xc1, 0x4d, 0xbd, 0xc8, 0x5d, 0xf0, 0x3d,
  0xc2, 0x20, 0x91, 0x3e, 0x2f, 0x2f, 0xa9, 0x3d, 0xd0, 0x20, 0x21, 0x3e,
  0x13, 0xf7, 0x8d, 0x3e, 0x7a, 0x62, 0x24, 0xba, 0x81, 0x87, 0xf6, 0xbd,
  0x28, 0xd3, 0xec, 0x3d, 0x78, 0x96, 0x77, 0x3e, 0xc6, 0x88, 0xdb, 0xb9,
  0x44, 0x23, 0x68, 0x3e, 0xa4, 0xea, 0xad, 0x3e, 0xcc, 0xf1, 0xe0, 0x3d,
  0x0a, 0x44, 0x07, 0xbe, 0xf8, 0x75, 0xb4, 0xbd, 0xdb, 0x4c, 0x7a, 0xbd,
  0xad, 0xdc, 0x72, 0xbd, 0x7a, 0x7b, 0xbd, 0x3d, 0xd8, 0x38, 0x5d, 0xbc,
  0xd4, 0xb9, 0x85, 0x3e, 0xe7, 0xc5, 0x40, 0x3e, 0xcf, 0x03, 0x41, 0x3e,
  0x2a, 0xc1, 0x52, 0x3e, 0xcf, 0xdf, 0x2a, 0xbe, 0x04, 0x85, 0xe5, 0x3d,
  0x50, 0xcf, 0x91, 0x3d, 0xa3, 0xef, 0x4b, 0xbd, 0xe9, 0xb8, 0x00, 0xbe,
  0x20, 0x63, 0xd5, 0xbc, 0x56, 0x08, 0x44, 0x3d, 0x2a, 0xcf, 0xf4, 0xbd,
  0xbe, 0xa1, 0x1e, 0xbe, 0x78, 0xb3, 0xeb, 0xbd, 0x4b, 0x3c, 0x64, 0x3e,
  0x9a, 0x89, 0x5d, 0x3e, 0x5d, 0xc9, 0x85, 0xbd, 0xec, 0xa3, 0x61, 0xbc,
  0x03, 0x13, 0xfc, 0xbd, 0xbb, 0x45, 0x4f, 0xbe, 0x98, 0x85, 0xfc, 0xbd,
  0xcc, 0x02, 0xec, 0x3c, 0xb7, 0xf2, 0xbd, 0x3d, 0x5a, 0xc0, 0x55, 0xbe,
  0x5a, 0xe7, 0xb3, 0xbc, 0xde, 0xa7, 0xb0, 0xbd, 0xec, 0x0a, 0xbf, 0xbd,
  0x4b, 0xb7, 0xc3, 0xbd, 0x9b, 0xf4, 0x09, 0xbe, 0x38, 0x9b, 0x4f, 0x3e,
  0x90, 0x89, 0xe6, 0xbd, 0xfe, 0xd5, 0xcb, 0x3c, 0xa3, 0x5b, 0xd2, 0x3b,
  0x64, 0x80, 0x9c, 0x3c, 0x2c, 0x7b, 0xa6, 0x3d, 0x81, 0x0e, 0x22, 0xbe,
  0xf3, 0x13, 0x99, 0xbd, 0xb7, 0x01, 0x80, 0xbe, 0x75, 0x2c, 0x9b, 0x3e,
  0xbe, 0xc6, 0x8a, 0x3d, 0xb2, 0xd9, 0x29, 0xbd, 0x04, 0x26, 0x6a, 0xbe,
  0xbc, 0xca, 0x51, 0xbe, 0x49, 0x33, 0x8e, 0xbe, 0x8a, 0xca, 0xa8, 0xbd,
  0xc0, 0xa8, 0xcb, 0x3d, 0x2a, 0x03, 0xfe, 0xbc, 0xc8, 0x84, 0x35, 0x3e,
  0xbd, 0x12, 0x11, 0x3d, 0xab, 0xba, 0x9b, 0xbd, 0xc9, 0xcb, 0x55, 0x3d,
  0x8e, 0xb6, 0x63, 0x3d, 0x13, 0x12, 0x3c, 0x3c, 0x54, 0xfe, 0x01, 0xbf,
  0x64, 0xd3, 0x91, 0xbd, 0x74, 0x78, 0x0a, 0xbe, 0x5b, 0xc5, 0x2e, 0xbe,
  0xee, 0x63, 0xcd, 0xbe, 0xaf, 0xa8, 0x54, 0xbd, 0x11, 0xc7, 0x9a, 0x3c,
  0xc7, 0x4b, 0x85, 0x3d, 0xed, 0x0a, 0xd7, 0x3c, 0x22, 0x26, 0x92, 0x3d,
  0x3c, 0xde, 0x1b, 0x3d, 0x5e, 0xbb, 0xd8, 0xbd, 0x14, 0x5b, 0xb5, 0xbd,
  0x08, 0x30, 0x6c, 0x3d, 0xfc, 0x6e, 0x98, 0x3d, 0x12, 0xc1, 0xae, 0x3e,
  0xae, 0x65, 0x33, 0xbe, 0x8a, 0xc3, 0x89, 0x3d, 0x50, 0xe5, 0x5a, 0xbe,
  0x7f, 0x8a, 0x14, 0xbe, 0x31, 0xf8, 0x5f, 0x3e, 0xa8, 0x81, 0x22, 0xbe,
  0xc4, 0xb9, 0xed, 0xbd, 0x00, 0xbe, 0x94, 0xbd, 0x1e, 0xe4, 0xa3, 0xbd,
  0xc7, 0x36, 0x6b, 0xbd, 0x8a, 0xcf, 0xc2, 0x3c, 0x4e, 0x71, 0xa4, 0x3e,
  0xeb, 0x2e, 0x46, 0xbe, 0x73, 0xe1, 0xea, 0x3d, 0xab, 0xde, 0x54, 0x3d,
  0xa8, 0x0e, 0xeb, 0x3d, 0x74, 0x91, 0x25, 0x3c, 0x64, 0xcc, 0x1d, 0xbc,
  0x4b, 0x06, 0x0c, 0xbe, 0x0c, 0xdf, 0x7a, 0xbd, 0x3e, 0x41, 0x8e, 0x3d,
  0x6f, 0x81, 0x88, 0xbe, 0xde, 0x43, 0x34, 0xbe, 0xfc, 0x85, 0x9a, 0xbe,
  0x31, 0x12, 0x26, 0xbe, 0xa2, 0x9e, 0xf7, 0x3d, 0x9d, 0x0d, 0xd3, 0x3d,
  0xc7, 0xa9, 0x54, 0xbe, 0x3c, 0x40, 0x80, 0xbe, 0x2c, 0x4b, 0x45, 0x3e,
  0x89, 0x49, 0x95, 0xbe, 0x03, 0xf1, 0x79, 0xbd, 0xbd, 0x94, 0x34, 0xbd,
  0x29, 0xb2, 0xd2, 0xbd, 0x16, 0xa0, 0xba, 0x3d, 0xc8, 0x7b, 0x0b, 0xbe,
  0x91, 0xe2, 0xf1, 0xbd, 0xec, 0x00, 0x87, 0x3d, 0x69, 0xe9, 0x34, 0xbe,
  0x25, 0x3c, 0x67, 0xbe, 0xa0, 0x87, 0x33, 0x3e, 0x62, 0xcf, 0x97, 0x3d,
  0x95, 0xa8, 0x2c, 0xbd, 0xb5, 0x9a, 0x4f, 0xbe, 0x84, 0xf6, 0x4d, 0xbe,
  0x99, 0x22, 0x3f, 0xbe, 0xbd, 0x9e, 0x63, 0xbe, 0xd5, 0x8e, 0x02, 0xbe,
  0x44, 0x85, 0x1c, 0x3d, 0x3d, 0x1f, 0x3a, 0x3e, 0x4b, 0xb8, 0x7a, 0xbe,
  0x27, 0xb6, 0x1b, 0x3d, 0xba, 0xf4, 0x90, 0xbe, 0xf6, 0x48, 0x36, 0x3d,
  0x43, 0xa7, 0x91, 0xbc, 0x98, 0xc7, 0xfb, 0xbd, 0xa9, 0x77, 0x0a, 0x3e,
  0x8b, 0xfb, 0x1a, 0x3e, 0x43, 0x6f, 0x44, 0x3e, 0x7e, 0x03, 0xe2, 0xbd,
  0x04, 0x77, 0xb2, 0xbc, 0x42, 0x64, 0x1c, 0x3e, 0x70, 0x8e, 0xa1, 0x3d,
  0x72, 0x04, 0xcb, 0x3c, 0x38, 0x67, 0x83, 0xbe, 0x03, 0x9e, 0x73, 0x3e,
  0x40, 0x25, 0x63, 0xbe, 0x24, 0xe1, 0xaa, 0x3d, 0x11, 0x81, 0x0f, 0x3e,
  0x6b, 0x1e, 0x9d, 0x3d, 0x4c, 0x68, 0x07, 0x3e, 0x78, 0xd5, 0x69, 0xbd,
  0xef, 0xe1, 0x56, 0xbe, 0xe5, 0xfc, 0x08, 0xbe, 0x4a, 0x5c, 0xd5, 0xbc,
  0xc1, 0x75, 0x07, 0xbe, 0x44, 0xff, 0xe5, 0xbd, 0xc9, 0x14, 0x9c, 0xba,
  0xe9, 0x30, 0xa8, 0x3d, 0x0a, 0xaa, 0x96, 0x3d, 0xfc, 0x3a, 0x0b, 0x3d,
  0x38, 0x83, 0xc6, 0xbd, 0x38, 0x01, 0x3d, 0xbe, 0xc6, 0x38, 0x0f, 0x3e,
  0xef, 0xad, 0x17, 0xbe, 0xb1, 0xd6, 0x82, 0xbe, 0x0c, 0x97, 0x90, 0x3d,
  0x5f, 0x12, 0x5a, 0xbe, 0x9b, 0xe5, 0x74, 0xbe, 0x38, 0xc5, 0xdf, 0xbd,
  0xa2, 0xe4, 0x07, 0xbc, 0x9b, 0x8b, 0x90, 0x3c, 0x06, 0x57, 0x64, 0xbe,
  0xa4, 0x1b, 0xb5, 0xbd, 0x52, 0x35, 0x23, 0x3e, 0xbc, 0x08, 0x7d, 0xbe,
  0xf5, 0xd7, 0x1a, 0xbe, 0x0f, 0x3c, 0x5e, 0xbc, 0x84, 0xb1, 0x85, 0xbe,
  0x44, 0x76, 0x1a, 0xbe, 0x00, 0xd0, 0xa0, 0x3d, 0xbb, 0xc7, 0x4c, 0xbd,
  0xda, 0xe8, 0x6d, 0xbe, 0x69, 0x62, 0x55, 0x3e, 0x08, 0x6c, 0x59, 0xbe,
  0xc2, 0xcc, 0x68, 0xbe, 0xc4, 0x1d, 0x29, 0x3d, 0x47, 0xed, 0x4e, 0xbe,
  0x2b, 0x80, 0x17, 0xbe, 0xe6, 0xf9, 0x00, 0xbe, 0xed, 0x5f, 0xe6, 0xbd,
  0x25, 0x55, 0x68, 0x3d, 0x5b, 0xd8, 0x8f, 0xbe, 0xea, 0xcc, 0x86, 0x3d,
  0x27, 0xcc, 0x90, 0xbe, 0xe6, 0x08, 0x1d, 0xbe, 0x0b, 0xea, 0x43, 0x3d,
  0x21, 0xb5, 0x80, 0xbd, 0xf5, 0x08, 0x23, 0xbe, 0xeb, 0xcf, 0x86, 0xbe,
  0xfe, 0x53, 0xca, 0xbd, 0xd1, 0xa9, 0xa8, 0xbd, 0xc7, 0x4f, 0x5a, 0x3e,
  0x78, 0x26, 0x24, 0xbe, 0x22, 0x27, 0x06, 0x3e, 0x0a, 0x46, 0x05, 0xbe,
  0x6d, 0xb8, 0x2c, 0xbe, 0xaf, 0x92, 0x2b, 0xbe, 0x01, 0xd0, 0x3e, 0x3d,
  0xe4, 0x0b, 0x5b, 0xbd, 0xa9, 0x2a, 0x03, 0xbe, 0x0d, 0x84, 0xe3, 0x3d,
  0xa3, 0xf0, 0x46, 0x3e, 0x66, 0x38, 0x6e, 0xbe, 0xb1, 0x37, 0xca, 0x3d,
  0x07, 0x80, 0x76, 0xbd, 0x1d, 0x63, 0xd5, 0x3c, 0xb1, 0xba, 0xa7, 0x3d,
  0x5e, 0x35, 0xcc, 0x3d, 0xff, 0x08, 0x5c, 0x3d, 0xfc, 0xba, 0x6e, 0xbe,
  0x0e, 0x52, 0xce, 0x3c, 0xec, 0xb4, 0xca, 0xbd, 0x5d, 0xeb, 0xb7, 0x3d,
  0x7e, 0x5d, 0x49, 0x3e, 0x89, 0x5f, 0x29, 0x3e, 0xcf, 0x79, 0x0a, 0xbd,
  0xbf, 0x8e, 0xa8, 0x3d, 0x62, 0x70, 0x09, 0xbe, 0xaa, 0xca, 0x1a, 0x3e,
  0x68, 0x39, 0xd0, 0xbd, 0xc4, 0xed, 0x1d, 0xbe, 0x58, 0x65, 0x59, 0xbe,
  0x6b, 0x5b, 0x5b, 0xbe, 0x0a, 0xa6, 0xb9, 0xbd, 0x89, 0x07, 0x10, 0x3d,
  0x9a, 0x32, 0xb9, 0xbd, 0xcf, 0x5a, 0x20, 0x3d, 0x44, 0xb5, 0xc3, 0xbd,
  0x6a, 0xdf, 0x2e, 0x3d, 0xef, 0x86, 0xc3, 0x3d, 0x08, 0x0c, 0x64, 0xbe,
  0xf6, 0x08, 0xd6, 0xbc, 0xe7, 0x2d, 0x44, 0xbd, 0xe4, 0x9b, 0x42, 0x3e,
  0x83, 0xa5, 0x41, 0xbe, 0x02, 0xbd, 0x20, 0x3d, 0x27, 0x4e, 0x76, 0xbd,
  0x80, 0xbf, 0x14, 0x3e, 0x61, 0x5b, 0x82, 0xbe, 0x4c, 0x21, 0xab, 0xbd,
  0x54, 0xff, 0x6e, 0xbe, 0xbb, 0x6d, 0x0a, 0xbd, 0x11, 0xfc, 0x7b, 0xbe,
  0x86, 0x5d, 0x68, 0xbe, 0xcf, 0x37, 0x49, 0xbe, 0x88, 0x2c, 0x0a, 0xbd,
  0xb4, 0x6e, 0xe1, 0xbe, 0x79, 0xc3, 0x84, 0xbe, 0xe9, 0x45, 0x68, 0xbc,
  0x17, 0x96, 0xb4, 0xbc, 0xba, 0xa4, 0xd5, 0xbd, 0x41, 0xbe, 0xa6, 0xba,
  0xb5, 0x8b, 0xdc, 0xbc, 0x55, 0x41, 0x19, 0x3d, 0x71, 0x24, 0x3c, 0xbe,
  0xf0, 0xd1, 0x96, 0xbe, 0xf9, 0xc4, 0xe3, 0xbd, 0xcd, 0xda, 0xd1, 0xbd,
  0x98, 0x72, 0x80, 0xbe, 0xab, 0x58, 0x71, 0xbe, 0x5c, 0x39, 0xe9, 0xbd,
  0xd3, 0x9c, 0x3c, 0x3d, 0x34, 0xf9, 0x99, 0x3d, 0x45, 0xdf, 0x9c, 0xbc,
  0x14, 0x2a, 0xa6, 0xbc, 0xc3, 0xe3, 0x42, 0xbe, 0xd7, 0x38, 0x9b, 0xbe,
  0xa6, 0xf5, 0x0a, 0x3e, 0xeb, 0x8c, 0x08, 0x3e, 0x26, 0xa2, 0x33, 0x3a,
  0x02, 0x30, 0xa8, 0xbe, 0x94, 0x01, 0xde, 0xbe, 0xc8, 0x7f, 0xb7, 0xbd,
  0x22, 0xc4, 0xae, 0xbd, 0xf2, 0xcc, 0xe8, 0xbd, 0xea, 0x01, 0x4d, 0xbe,
  0x6c, 0x22, 0x96, 0xbd, 0x3b, 0xcd, 0x24, 0xbe, 0x66, 0x5f, 0xc2, 0x3d,
  0xfd, 0x12, 0x01, 0x3e, 0xae, 0x8b, 0x80, 0xbb, 0xad, 0x82, 0x76, 0xbd,
  0x07, 0x53, 0xb4, 0xbd, 0xfa, 0xa9, 0x7e, 0xbc, 0x9d, 0x4e, 0x6a, 0x3e,
  0xea, 0x3b, 0x12, 0x3e, 0x89, 0x3d, 0xf7, 0xbd, 0x85, 0x7c, 0x93, 0x3e,
  0x51, 0x9c, 0xa0, 0x3d, 0xe1, 0xd0, 0x73, 0xbe, 0xa0, 0x02, 0xb5, 0x3d,
  0xe8, 0x0b, 0xb6, 0xbc, 0x6b, 0x6d, 0x09, 0x3e, 0x4a, 0x93, 0x1b, 0x3e,
  0x23, 0xed, 0xa0, 0x3e, 0xe5, 0x94, 0xac, 0x3e, 0x9b, 0xc1, 0xe6, 0xbd,
  0x3d, 0x1f, 0x4e, 0x3e, 0x97, 0x31, 0x09, 0xbc, 0xb7, 0xd2, 0x82, 0x3e,
  0x3a, 0x4e, 0x82, 0x3e, 0x53, 0x24, 0xa4, 0x3e, 0x2c, 0x4c, 0xa6, 0x3e,
  0xc8, 0x04, 0x43, 0x3d, 0x7d, 0x1c, 0x7a, 0x3d, 0x64, 0xd1, 0x26, 0x3e,
  0x5d, 0xac, 0x22, 0x3e, 0xb0, 0xe7, 0x1d, 0x3e, 0xb2, 0x59, 0x17, 0xbe,
  0x10, 0xb0, 0x07, 0xbe, 0x76, 0x3f, 0x96, 0x3e, 0x2b, 0x7c, 0xbb, 0x3d,
  0xa5, 0x57, 0x66, 0x3e, 0x56, 0x11, 0x7a, 0x3d, 0x86, 0xfe, 0x99, 0x3e,
  0x7e, 0x1f, 0x67, 0x3d, 0xa9, 0x26, 0x86, 0x3e, 0x40, 0xde, 0xd8, 0x3e,
  0x8a, 0x24, 0x40, 0x3d, 0x2c, 0x33, 0x82, 0xbd, 0xed, 0xa4, 0x26, 0x3e,
  0xd5, 0x4f, 0xdc, 0x3e, 0xd3, 0x7e, 0x81, 0xbb, 0x2e, 0xa6, 0x67, 0x3c,
  0xf2, 0x5e, 0xa2, 0x3e, 0x4a, 0x4e, 0x14, 0xbd, 0xf9, 0x4a, 0x16, 0xbd,
  0x33, 0xc8, 0xb2, 0xbd, 0xbb, 0x5e, 0x7b, 0x3d, 0xbc, 0xe2, 0x23, 0x3e,
  0x1a, 0x8b, 0x4d, 0x3e, 0x24, 0x26, 0xdc, 0xbb, 0xb0, 0x8e, 0x15, 0x3d,
  0x2a, 0x71, 0x83, 0x3e, 0x61, 0xf0, 0x50, 0x3e, 0x56, 0x64, 0x0d, 0xbf,
  0x39, 0x90, 0xa6, 0xbd, 0x76, 0x42, 0x68, 0x3d, 0x09, 0xeb, 0x45, 0x3e,
  0x05, 0x51, 0x22, 0x3e, 0x08, 0xfb, 0x70, 0x3e, 0xb5, 0x6e, 0x50, 0x3e,
  0xbe, 0x87, 0x6a, 0x3d, 0x47, 0x26, 0xfd, 0x3c, 0x48, 0xe6, 0xbb, 0xbd,
  0x03, 0x86, 0xdc, 0x3d, 0x9a, 0x97, 0xc5, 0x3d, 0x25, 0x14, 0x71, 0x3e,
  0x0f, 0x6c, 0x0b, 0x3e, 0x6e, 0xf9, 0xb6, 0xbd, 0xdf, 0x0c, 0x92, 0x3c,
  0x99, 0x17, 0x2e, 0xbe, 0xea, 0x07, 0x02, 0x3e, 0xad, 0xe4, 0x4e, 0x3d,
  0x3e, 0x1b, 0x42, 0x3e, 0x69, 0xde, 0xbd, 0xbd, 0x62, 0x5b, 0x0c, 0x3e,
  0x2a, 0xf7, 0xf8, 0x3c, 0x31, 0x8f, 0x08, 0xbe, 0x84, 0x02, 0x88, 0x3e,
  0x0e, 0x22, 0xa2, 0xbd, 0x9c, 0x10, 0x55, 0x3e, 0x3e, 0x2f, 0x04, 0x3e,
  0x73, 0x3f, 0x9c, 0x3e, 0x41, 0x98, 0x31, 0x3e, 0x4d, 0x1d, 0xd0, 0xbd,
  0xe4, 0x80, 0xe6, 0xbd, 0x45, 0x41, 0xf8, 0x3d, 0xa2, 0x83, 0xf9, 0xbc,
  0xae, 0x20, 0x29, 0x3e, 0x60, 0x69, 0x44, 0x3d, 0x44, 0xb5, 0xea, 0x3c,
  0xf4, 0x79, 0x16, 0xbe, 0x6c, 0x4c, 0x14, 0x3e, 0x5b, 0xf0, 0x31, 0xbd,
  0x9a, 0x98, 0xaf, 0xbd, 0x2f, 0xd5, 0x57, 0x3e, 0x58, 0xfb, 0x29, 0xbe,
  0xa7, 0xe0, 0xb7, 0x3d, 0xb1, 0xae, 0x94, 0xbc, 0x50, 0x5d, 0x52, 0x3e,
  0x74, 0xef, 0x75, 0x3e, 0xb3, 0xb6, 0xe8, 0x3d, 0xb1, 0x0e, 0x73, 0xbe,
  0x6b, 0xb8, 0xea, 0xbd, 0x1d, 0x17, 0x81, 0x3e, 0x07, 0xc7, 0xe9, 0x3c,
  0x06, 0x87, 0x56, 0xbd, 0xba, 0x13, 0x55, 0xbe, 0xb7, 0x0d, 0x8b, 0x3c,
  0x39, 0x18, 0x36, 0xbd, 0x8b, 0xe8, 0x57, 0xbe, 0x28, 0x72, 0xa4, 0x3d,
  0x91, 0x25, 0xec, 0x3a, 0x0c, 0xc5, 0x01, 0xbe, 0xf6, 0x30, 0x5d, 0xbd,
  0x7e, 0xdf, 0x3e, 0xbe, 0x5f, 0x1d, 0xf6, 0x3d, 0x56, 0x9e, 0x13, 0xbe,
  0xdb, 0xb5, 0x29, 0x3d, 0xdb, 0x71, 0xc0, 0xbd, 0xd3, 0x5d, 0x6c, 0xbd,
  0xe4, 0xa5, 0x90, 0xbc, 0xb8, 0xc7, 0x6d, 0x3d, 0xf9, 0xdc, 0x6f, 0xbe,
  0x7d, 0x25, 0xd5, 0x3c, 0xc3, 0x71, 0xa8, 0xbd, 0x52, 0x41, 0x1e, 0xbe,
  0xbb, 0x7f, 0x02, 0x3e, 0x4a, 0x93, 0xd3, 0xbd, 0xe0, 0x50, 0xda, 0xbc,
  0x12, 0x8e, 0xc9, 0xbd, 0x28, 0xd6, 0x31, 0xbe, 0x0e, 0xa5, 0xaa, 0xbd,
  0x8b, 0xa0, 0x5f, 0xbe, 0x6b, 0x60, 0xf5, 0xbe, 0x6a, 0x5f, 0x81, 0xbe,
  0x4e, 0xcb, 0x61, 0x3d, 0x1a, 0xa3, 0x81, 0xbd, 0x37, 0x3b, 0xe4, 0x3d,
  0x51, 0xce, 0xa7, 0xbe, 0x71, 0x5c, 0xd8, 0xbc, 0xb2, 0x26, 0x8a, 0xbd,
  0x9a, 0x22, 0x33, 0xbe, 0x87, 0x66, 0x62, 0x3c, 0xcf, 0x8e, 0x47, 0xbe,
  0x0e, 0xd5, 0x7c, 0x3d, 0xb5, 0x79, 0x71, 0x3c, 0x1a, 0xf3, 0x40, 0x3d,
  0xc8, 0xa5, 0x63, 0xbe, 0xd1, 0x5b, 0xb0, 0xbe, 0xc3, 0xeb, 0x8b, 0xbe,
  0x28, 0x45, 0xa7, 0xbc, 0x87, 0x7c, 0x0f, 0xbe, 0x4f, 0x17, 0xca, 0x3d,
  0xce, 0xb1, 0x59, 0xbe, 0xdf, 0xbf, 0x7c, 0x3c, 0x65, 0x27, 0x70, 0xbe,
  0x71, 0x7b, 0x46, 0xbe, 0x51, 0x3a, 0x89, 0xbe, 0x95, 0xcd, 0x29, 0x3d,
  0xd2, 0x18, 0x93, 0xbc, 0xd6, 0x56, 0x91, 0xbe, 0x2a, 0x4e, 0x16, 0xbe,
  0x5a, 0x7d, 0xb6, 0xbe, 0x52, 0x0d, 0xad, 0xbe, 0xcb, 0x86, 0xad, 0xbd,
  0xd0, 0x86, 0x34, 0xbd, 0x5a, 0xc6, 0x96, 0xbd, 0x96, 0xf6, 0xa1, 0x3c,
  0x67, 0x36, 0x2b, 0xbd, 0x69, 0x9e, 0x8f, 0xbe, 0xb0, 0x1c, 0xa0, 0x3d,
  0xc0, 0xbf, 0x97, 0xbe, 0xbd, 0xa8, 0x1f, 0xbe, 0x69, 0x7a, 0x69, 0xbe,
  0x3e, 0x51, 0x97, 0x3d, 0xa2, 0xee, 0xff, 0xff, 0x04, 0x00, 0x00, 0x00,
  0x00, 0x0a, 0x00, 0x00, 0xb3, 0xc2, 0x24, 0xbd, 0xa0, 0x92, 0xeb, 0x3d,
  0xcf, 0xfa, 0xb1, 0xbc, 0x4a, 0xb2, 0x97, 0x3d, 0x45, 0xa4, 0xcc, 0x3b,
  0x4a, 0xeb, 0xec, 0x3c, 0x44, 0x43, 0xa8, 0x3d, 0x23, 0x8d, 0x8d, 0xbd,
  0x48, 0xdf, 0x32, 0x3e, 0x98, 0xe8, 0xa2, 0x3d, 0xe4, 0x03, 0x44, 0x3e,
  0xa6, 0xf8, 0x31, 0x3c, 0x2f, 0x8f, 0xb4, 0xbe, 0xdb, 0x50, 0x8a, 0xbd,
  0x63, 0xbf, 0x6d, 0x3d, 0xcd, 0xcf, 0xcf, 0xbe, 0xcb, 0x85, 0x86, 0x3e,
  0xa6, 0x5d, 0x51, 0x3e, 0x57, 0xfb, 0x10, 0xbe, 0x51, 0xc3, 0x61, 0x3e,
  0xe8, 0x44, 0xff, 0x3b, 0x11, 0xe3, 0x68, 0x3d, 0xcc, 0x43, 0xc2, 0x3d,
  0x30, 0x66, 0xa4, 0x3e, 0x79, 0x6e, 0x08, 0x3c, 0xa0, 0x3c, 0x0f, 0xbe,
  0xdc, 0xd2, 0x02, 0x3e, 0x56, 0x5d, 0xab, 0xbe, 0x9d, 0x8a, 0xdb, 0x3d,
  0xa7, 0x02, 0xa0, 0xbd, 0x84, 0x81, 0x48, 0x3e, 0xb0, 0x12, 0x14, 0x3e,
  0x53, 0x2c, 0x26, 0x3e, 0xf5, 0xc0, 0x11, 0xbd, 0xe5, 0x66, 0xa5, 0x3d,
  0x90, 0xf2, 0x48, 0x3d, 0xc7, 0x20, 0xf1, 0x3d, 0x8a, 0xc2, 0x1e, 0xbe,
  0xeb, 0xc7, 0x42, 0x3e, 0x18, 0x9b, 0x8a, 0xbe, 0xb8, 0x1e, 0xac, 0xbd,
  0xf9, 0x25, 0x04, 0xbe, 0x7d, 0xa7, 0x28, 0xbe, 0x96, 0xa7, 0xf0, 0x3d,
  0x3c, 0xa6, 0xbf, 0xbc, 0xa2, 0x3b, 0x71, 0x3d, 0x19, 0x1d, 0xe7, 0xbd,
  0x04, 0x31, 0x1f, 0x3d, 0xb1, 0x0f, 0x29, 0x3d, 0x0f, 0xbc, 0x5c, 0xbe,
  0x4a, 0xa9, 0x88, 0x3c, 0xce, 0x75, 0x2e, 0xbd, 0x0c, 0x97, 0x9f, 0xbd,
  0x60, 0xe1, 0x1d, 0xbe, 0x62, 0xfd, 0x24, 0xbd, 0x84, 0x76, 0x87, 0xbe,
  0xa6, 0xe1, 0x42, 0xbe, 0x3d, 0xb6, 0xd7, 0xbb, 0x5b, 0x04, 0x41, 0x3e,
  0xae, 0x4b, 0x4b, 0xbc, 0x82, 0x09, 0x00, 0x3e, 0xbc, 0x18, 0xb9, 0xbc,
  0x30, 0x4e, 0x83, 0x3e, 0x89, 0x1d, 0x38, 0x3e, 0xf9, 0x0a, 0x57, 0xbe,
  0x70, 0x71, 0x0e, 0x3d, 0x10, 0x82, 0x36, 0xbe, 0xe0, 0x9e, 0x9a, 0x3c,
  0x1e, 0x64, 0x54, 0xbe, 0xc0, 0x4f, 0x62, 0xbe, 0x81, 0xb0, 0xcc, 0x3d,
  0x98, 0x6d, 0xc8, 0xbe, 0x5a, 0x09, 0xbf, 0xbd, 0x2f, 0x6e, 0x97, 0x3e,
  0xef, 0x21, 0x10, 0x3d, 0x2e, 0xfd, 0x5e, 0x3e, 0x61, 0xc5, 0x25, 0xbc,
  0x6e, 0x9d, 0xaf, 0xbe, 0x8d, 0x59, 0xb3, 0xbe, 0x82, 0x45, 0x37, 0xbd,
  0x7c, 0x2b, 0x25, 0x3e, 0x9e, 0xcf, 0x84, 0xbd, 0x8b, 0x9a, 0xed, 0xbd,
  0x1f, 0xd9, 0x85, 0xbd, 0x85, 0xfe, 0xce, 0xbe, 0x18, 0xca, 0xa4, 0xbe,
  0x4f, 0x3f, 0x6b, 0x3d, 0xc7, 0x58, 0x54, 0x3e, 0x4e, 0x8d, 0x94, 0xbb,
  0xbc, 0x1c, 0xd2, 0xbd, 0x5c, 0x6f, 0x16, 0x3b, 0x6d, 0xee, 0x2c, 0xbe,
  0x41, 0xfe, 0x59, 0xbe, 0x93, 0x00, 0x6d, 0x3e, 0xfc, 0xc9, 0x82, 0xbd,
  0x60, 0x7a, 0x66, 0x3d, 0x0c, 0xeb, 0x3d, 0x3e, 0x80, 0x6a, 0xd2, 0xbd,
  0xee, 0x78, 0x53, 0x3d, 0x83, 0x22, 0x4c, 0xbe, 0xa0, 0xc1, 0x98, 0xbc,
  0xdb, 0xa4, 0xc2, 0xbd, 0x9a, 0x58, 0x92, 0x3d, 0xb2, 0x4c, 0x50, 0x3e,
  0x1c, 0xf9, 0x10, 0x3d, 0x2c, 0xb1, 0xb1, 0x3e, 0xa5, 0x0d, 0xdc, 0xbd,
  0x00, 0xfb, 0x9f, 0xbd, 0xa7, 0x29, 0x82, 0xbe, 0x61, 0xf5, 0x12, 0xbe,
  0x87, 0xa6, 0xe8, 0x3c, 0xeb, 0xdf, 0xc5, 0x3d, 0x44, 0x3d, 0x0e, 0xbe,
  0xfc, 0x3d, 0x62, 0xbe, 0x5f, 0x74, 0xae, 0xbd, 0x99, 0xc6, 0x65, 0xbe,
  0x1a, 0x69, 0xf7, 0x3c, 0x0a, 0x77, 0xeb, 0x3c, 0x38, 0x1a, 0x3b, 0xbd,
  0x4c, 0x7e, 0xce, 0xbd, 0x71, 0xe1, 0x0a, 0x3e, 0xc1, 0x27, 0xc9, 0xbd,
  0x69, 0x7d, 0xe5, 0x3d, 0xdc, 0x7c, 0x36, 0xbc, 0x93, 0xa3, 0xbc, 0xbe,
  0x40, 0xca, 0x94, 0x3e, 0x9c, 0x74, 0x01, 0xbe, 0xb9, 0x20, 0xbb, 0x3d,
  0xdd, 0x78, 0x16, 0x3e, 0xad, 0xf8, 0x3c, 0x3e, 0x8f, 0xb3, 0x95, 0x3d,
  0xcb, 0xdb, 0xb2, 0x3d, 0xa8, 0x3b, 0x83, 0xbd, 0xb2, 0x79, 0xa6, 0xbb,
  0x9b, 0x3d, 0xc1, 0x3d, 0x87, 0x78, 0xa9, 0xbd, 0x90, 0x6d, 0x49, 0x3c,
  0x4c, 0xa1, 0xc6, 0xbc, 0x40, 0xff, 0x31, 0x3d, 0xe3, 0x3b, 0xa6, 0xbe,
  0xc2, 0x94, 0x5c, 0x3e, 0x41, 0xc5, 0x03, 0x3e, 0x87, 0x0e, 0x3b, 0xbd,
  0xf7, 0x65, 0x92, 0xbd, 0x2e, 0x6d, 0x85, 0xbe, 0x0e, 0xec, 0x1c, 0xbb,
  0xcf, 0x29, 0x2d, 0xbe, 0x1f, 0x2d, 0x8d, 0x3d, 0x3c, 0x7f, 0xed, 0x3c,
  0x0a, 0x26, 0x5c, 0xbe, 0x2f, 0x56, 0xaa, 0xbc, 0x17, 0x3d, 0x14, 0xbe,
  0xdd, 0xc8, 0x1c, 0x3e, 0x60, 0xc6, 0x24, 0x3d, 0x53, 0x7e, 0x8e, 0x3e,
  0x5b, 0xa3, 0x9d, 0xbe, 0x4f, 0x42, 0xdd, 0x3d, 0x23, 0x40, 0x59, 0xbe,
  0x3d, 0x28, 0x87, 0xbd, 0x6e, 0xdd, 0xbd, 0xbd, 0xad, 0x2f, 0xca, 0x3d,
  0xa5, 0x99, 0x0b, 0xbe, 0x20, 0x4f, 0xf3, 0x3d, 0x9e, 0xa5, 0x6f, 0x3c,
  0x92, 0x25, 0xb5, 0xbd, 0x4d, 0xad, 0x95, 0xbe, 0xa8, 0xa5, 0xce, 0x3d,
  0x47, 0x0a, 0x82, 0xbe, 0xb8, 0xd9, 0x9b, 0xbe, 0x75, 0x87, 0x24, 0xbe,
  0x11, 0xfb, 0x74, 0x3d, 0x69, 0x77, 0x55, 0xbe, 0x0c, 0x5b, 0x39, 0xbd,
  0xcb, 0xa9, 0x93, 0xbd, 0xec, 0xbb, 0x32, 0x3d, 0x67, 0xb5, 0x8f, 0xbe,
  0x5f, 0xc5, 0xa8, 0xbc, 0xf6, 0x81, 0x20, 0xbe, 0x13, 0xf5, 0x30, 0xbe,
  0x40, 0x02, 0x03, 0xbd, 0x09, 0x0d, 0x7a, 0xbe, 0xee, 0xd3, 0xe7, 0xbc,
  0xd9, 0xf5, 0x2e, 0x3c, 0x97, 0xa4, 0xf3, 0x3d, 0xea, 0x86, 0x85, 0x3e,
  0x3f, 0x87, 0xa5, 0x3d, 0x84, 0xa8, 0xde, 0xbd, 0x6e, 0x68, 0x94, 0x3d,
  0x1d, 0xad, 0x44, 0x3c, 0x59, 0xf7, 0x06, 0xbe, 0x1d, 0xcc, 0x92, 0xbe,
  0x24, 0x8a, 0x7b, 0xbd, 0xd5, 0xf9, 0xd9, 0xbe, 0x72, 0x50, 0x2f, 0xbe,
  0xf6, 0x19, 0x5b, 0xbe, 0x82, 0xaa, 0xba, 0xbd, 0x08, 0x3a, 0x6d, 0xbd,
  0x45, 0x82, 0xdc, 0x3d, 0x4c, 0x68, 0xfd, 0x3d, 0xea, 0xbf, 0x31, 0x3e,
  0xcb, 0xf2, 0x50, 0xbd, 0xc2, 0x7e, 0x34, 0xbd, 0xaf, 0x41, 0x1d, 0x3d,
  0xab, 0x10, 0x58, 0xbe, 0xfa, 0x40, 0x96, 0xbe, 0xa1, 0x77, 0x0d, 0xbe,
  0x23, 0xfa, 0x83, 0x3e, 0x36, 0xd5, 0x18, 0xbe, 0x60, 0x5a, 0xe0, 0xbd,
  0xaa, 0xd8, 0x2a, 0xbd, 0x89, 0xca, 0x6f, 0x3e, 0xbd, 0x00, 0xef, 0x3d,
  0xc3, 0x79, 0x45, 0x3e, 0xa2, 0x6e, 0x60, 0xbe, 0xc2, 0xa8, 0x4a, 0xbd,
  0x79, 0x68, 0xbd, 0x3d, 0x2d, 0x4b, 0x0d, 0x3d, 0xd6, 0x62, 0x08, 0xbe,
  0xc2, 0x2f, 0x2f, 0x3d, 0x37, 0xe0, 0x7b, 0x3e, 0x41, 0xc9, 0x11, 0xbe,
  0x0f, 0xb4, 0xca, 0x3c, 0x02, 0x84, 0x81, 0x3e, 0x77, 0xea, 0x57, 0x3e,
  0x4b, 0xbd, 0x8f, 0x3d, 0x00, 0x81, 0x0b, 0x3d, 0x28, 0x63, 0xa6, 0xbd,
  0x36, 0xf0, 0x9c, 0xbc, 0x27, 0x8f, 0x62, 0x3e, 0x5a, 0xc4, 0x8e, 0x3e,
  0x6a, 0x78, 0x37, 0xbe, 0x96, 0xd3, 0x6f, 0x3d, 0xed, 0xc7, 0xf0, 0xbb,
  0xa6, 0x9d, 0x29, 0xbe, 0x80, 0x6e, 0xba, 0xbb, 0x65, 0x52, 0x1e, 0xbc,
  0x12, 0x50, 0xf1, 0xbd, 0x5e, 0x5c, 0xc5, 0x3d, 0xa4, 0xf9, 0x09, 0x3e,
  0x71, 0xed, 0x9b, 0x3d, 0x7b, 0x7c, 0x91, 0xbb, 0x76, 0x96, 0xe9, 0x3d,
  0x8a, 0x83, 0x76, 0xbd, 0x73, 0xfc, 0xb7, 0xbd, 0xae, 0x50, 0xe0, 0x3d,
  0x6b, 0x86, 0x4b, 0xbe, 0x0e, 0xe9, 0x4b, 0x3e, 0xce, 0x94, 0xef, 0xbd,
  0xd0, 0xb2, 0x83, 0xbe, 0x5c, 0xd4, 0x8c, 0x3e, 0x0c, 0x24, 0xb2, 0xbd,
  0xc4, 0xae, 0xd7, 0xbd, 0xd5, 0xfc, 0x31, 0x3e, 0xf3, 0x1c, 0x26, 0x3e,
  0x87, 0x0d, 0x3e, 0x3e, 0x9c, 0x2c, 0xc7, 0xbd, 0xc9, 0xf4, 0xe2, 0xbd,
  0x6f, 0x3d, 0x46, 0xbd, 0x6d, 0x65, 0xb9, 0xbd, 0x06, 0x5f, 0x36, 0xbd,
  0x1c, 0x28, 0x80, 0x3e, 0x7a, 0x87, 0x86, 0xbd, 0x1d, 0xe9, 0x98, 0xbd,
  0x08, 0xa1, 0x03, 0xbe, 0x26, 0x84, 0x9a, 0x3c, 0x83, 0x35, 0x09, 0xbe,
  0x0f, 0x47, 0x80, 0xbd, 0x9a, 0xb6, 0x7c, 0x3e, 0x4b, 0x36, 0x7c, 0x3e,
  0x72, 0x81, 0x89, 0xbd, 0x73, 0x9a, 0x91, 0x3e, 0x07, 0x34, 0x42, 0xbd,
  0xa2, 0x8a, 0x29, 0xbe, 0xaf, 0x44, 0x8e, 0xbd, 0xd1, 0x2e, 0x90, 0xbd,
  0x38, 0x57, 0x31, 0x3e, 0x35, 0x60, 0x85, 0x3d, 0xdc, 0xea, 0x42, 0xbd,
  0x00, 0x2b, 0x28, 0x3e, 0x38, 0x25, 0x69, 0xbe, 0x7f, 0xad, 0xf3, 0x3d,
  0x6e, 0xdf, 0x19, 0xbe, 0x33, 0x2c, 0xac, 0xbe, 0x14, 0x4c, 0x21, 0x3d,
  0x2d, 0xcc, 0x69, 0xbe, 0x82, 0xa1, 0x01, 0x3e, 0xfd, 0xc5, 0x7f, 0x3d,
  0x64, 0x36, 0x4c, 0x3e, 0xf9, 0x92, 0x43, 0xbd, 0x54, 0x16, 0x86, 0xbe,
  0xe3, 0xf0, 0x90, 0xbe, 0x5e, 0xb6, 0x3b, 0xbe, 0x0f, 0x25, 0x0e, 0x3e,
  0x22, 0xcf, 0x93, 0xbc, 0x69, 0xf0, 0x21, 0xbd, 0x4d, 0xb6, 0xa4, 0xbd,
  0x1d, 0x9d, 0x05, 0xbe, 0x36, 0x25, 0x97, 0x3d, 0xac, 0x30, 0x44, 0xbe,
  0x1e, 0x78, 0x2f, 0xbe, 0x7e, 0xef, 0x43, 0xbe, 0x38, 0x09, 0x46, 0xbd,
  0x4d, 0x6d, 0x0e, 0x3d, 0x1e, 0xe4, 0x67, 0x3e, 0xcd, 0x7e, 0x02, 0x3e,
  0xa2, 0x0b, 0x92, 0xbe, 0xd3, 0x9f, 0x11, 0xbe, 0x5d, 0x96, 0xcc, 0xbc,
  0x2f, 0x17, 0x05, 0xbe, 0xa0, 0xe1, 0xe8, 0x3d, 0xfc, 0x18, 0x9d, 0x3d,
  0x66, 0x49, 0x11, 0x3e, 0xdc, 0xc2, 0x84, 0xbe, 0x0e, 0x51, 0xab, 0x3d,
  0x6e, 0xbc, 0xd7, 0x3d, 0x95, 0x9a, 0x82, 0xbe, 0x63, 0xf2, 0xef, 0xbc,
  0x49, 0xaf, 0x73, 0x3d, 0xe8, 0x01, 0x91, 0x3e, 0x2b, 0x65, 0x8d, 0x3e,
  0x0f, 0x7a, 0x65, 0xbd, 0x05, 0x88, 0xca, 0x3d, 0xb5, 0x22, 0xdc, 0x3c,
  0x8f, 0x93, 0x6b, 0xbe, 0x4b, 0x66, 0xc6, 0x3d, 0x06, 0x02, 0x35, 0xbe,
  0x5e, 0x6b, 0x12, 0x3d, 0xf0, 0xcc, 0xc5, 0x3d, 0xfa, 0x4b, 0xaf, 0xbd,
  0xc9, 0xd6, 0x55, 0xbe, 0x5e, 0xe1, 0x22, 0xbe, 0x59, 0xac, 0xd4, 0xbd,
  0x9f, 0x0d, 0xa6, 0x3d, 0xdc, 0x14, 0x17, 0xbe, 0x9b, 0x74, 0xbc, 0xbd,
  0x89, 0xa2, 0x19, 0x3e, 0x1c, 0xd9, 0xd6, 0xbd, 0xed, 0x20, 0x64, 0xbe,
  0x3c, 0x5c, 0x02, 0xbe, 0x65, 0x72, 0x14, 0x3d, 0x69, 0x15, 0xf8, 0x3c,
  0xa6, 0x03, 0xa6, 0xbe, 0x69, 0xc9, 0x2c, 0xbe, 0x7f, 0xdd, 0x02, 0x3e,
  0xab, 0x76, 0x40, 0x3d, 0x65, 0xd0, 0x2a, 0xbe, 0x85, 0x63, 0x8f, 0x3d,
  0x79, 0x2a, 0xc5, 0x3d, 0xd3, 0xe7, 0x97, 0xbe, 0x49, 0x01, 0x3e, 0xbe,
  0xf8, 0xf4, 0x7c, 0x3d, 0x7b, 0x00, 0x8a, 0xbd, 0x4e, 0xf0, 0x90, 0x3c,
  0xe1, 0x32, 0x9c, 0xbe, 0x1a, 0xa9, 0x75, 0xbe, 0x65, 0xcb, 0xbf, 0x3d,
  0xac, 0x71, 0xda, 0xbd, 0xa5, 0x1a, 0xb9, 0xbe, 0x7e, 0xb4, 0x4d, 0xbc,
  0xc9, 0xbf, 0x6e, 0x3d, 0x6b, 0x24, 0x4b, 0xbe, 0x1f, 0x8d, 0xc4, 0x3d,
  0xc7, 0x72, 0x11, 0x3e, 0xb0, 0xf7, 0xb5, 0xbe, 0x31, 0xca, 0x35, 0x3d,
  0x7f, 0xf9, 0xd0, 0xbd, 0xcd, 0x74, 0x9a, 0xbd, 0xf1, 0x07, 0x8e, 0xbe,
  0x4c, 0x63, 0x94, 0xbe, 0x02, 0x7e, 0x9a, 0xbb, 0x19, 0xcd, 0x48, 0x3e,
  0xc1, 0xfc, 0x54, 0x3c, 0xce, 0x8b, 0x36, 0xbb, 0x55, 0x37, 0x01, 0x3e,
  0x56, 0xea, 0x0d, 0x3e, 0x58, 0x10, 0x24, 0xbd, 0xd2, 0xf4, 0xc6, 0xbe,
  0xc3, 0xa0, 0x81, 0xbd, 0xc7, 0xfb, 0x46, 0xbe, 0x49, 0xec, 0xdf, 0x3d,
  0x91, 0x9c, 0x2f, 0x3e, 0x88, 0xd3, 0x6c, 0x3e, 0x0e, 0x0f, 0xf0, 0x3d,
  0x8c, 0xfc, 0xc2, 0xbd, 0x33, 0xef, 0x4e, 0xbc, 0x77, 0xa5, 0xb9, 0x3d,
  0x4d, 0xa9, 0x6c, 0x3e, 0xbd, 0x00, 0x4f, 0xbd, 0x54, 0x2b, 0x13, 0x3e,
  0xc2, 0x07, 0x55, 0x3d, 0xd8, 0xd5, 0xd4, 0xbd, 0xab, 0x00, 0x26, 0xbe,
  0xf2, 0x43, 0x1a, 0x3e, 0xca, 0xd4, 0x7d, 0xbe, 0x83, 0x7b, 0x32, 0xbe,
  0xd5, 0x5e, 0x95, 0xbe, 0xfc, 0xab, 0x87, 0xbe, 0xb4, 0x42, 0x66, 0x3e,
  0x54, 0x55, 0xe1, 0xbd, 0x77, 0x70, 0xcd, 0x3d, 0x6a, 0xc9, 0x44, 0xbe,
  0x7f, 0x72, 0x5e, 0xbe, 0xeb, 0x3f, 0xee, 0xbd, 0x8f, 0x8f, 0x02, 0xbe,
  0x7b, 0xe0, 0xb0, 0xbd, 0x44, 0x93, 0x11, 0xbd, 0xd4, 0x9c, 0x5f, 0x3e,
  0xa7, 0xad, 0x15, 0x3e, 0xbc, 0xe8, 0x7a, 0xbe, 0x69, 0xd8, 0x12, 0xbe,
  0x49, 0xc6, 0xb3, 0x3d, 0x27, 0xf8, 0xe7, 0x3d, 0x81, 0xad, 0xb4, 0xbe,
  0x40, 0x8b, 0x82, 0xbd, 0x40, 0xe5, 0x06, 0xbe, 0x09, 0xa6, 0x50, 0xbe,
  0xbf, 0x8d, 0x80, 0xbc, 0xeb, 0x90, 0x86, 0xbe, 0xa5, 0xe2, 0x8d, 0xbe,
  0x30, 0xcc, 0xae, 0xbc, 0x87, 0x5f, 0xf9, 0x3c, 0x59, 0xfc, 0x1e, 0xbd,
  0xf7, 0x30, 0x73, 0x3d, 0x40, 0x44, 0x60, 0x3e, 0xbb, 0x9e, 0x6e, 0xbd,
  0x66, 0x36, 0x83, 0xbd, 0x7b, 0x81, 0x06, 0xbe, 0xe3, 0x19, 0x4d, 0x3e,
  0x1c, 0xa9, 0xfe, 0xbd, 0x7b, 0xc7, 0x13, 0xbe, 0x8d, 0x08, 0x4f, 0xbe,
  0x82, 0x87, 0x91, 0x3d, 0xdc, 0x99, 0xf4, 0xbd, 0xdb, 0x10, 0xfc, 0x3c,
  0x95, 0xdd, 0xf0, 0xbd, 0xfc, 0xa0, 0xe2, 0xbe, 0x67, 0xfc, 0xed, 0x3c,
  0x0f, 0xb7, 0xcc, 0xbd, 0x1f, 0xfa, 0xf8, 0xbd, 0x96, 0xb3, 0x19, 0xbe,
  0xa2, 0x93, 0x87, 0xbe, 0x55, 0x33, 0xa4, 0xbd, 0x64, 0x9a, 0xe7, 0xbd,
  0xa4, 0x69, 0x86, 0x3e, 0xc6, 0xcc, 0x03, 0x3e, 0xde, 0x41, 0x26, 0x3d,
  0xcc, 0xab, 0xb9, 0x3d, 0xb5, 0x9e, 0x40, 0xbe, 0x19, 0x8d, 0x50, 0xbe,
  0x27, 0xcf, 0x23, 0x3e, 0x18, 0xe2, 0xf1, 0x3d, 0x2b, 0x56, 0xec, 0x3d,
  0xd8, 0xdd, 0x2c, 0x3c, 0xd3, 0xfb, 0xa2, 0x3e, 0x4f, 0xc7, 0x55, 0xbc,
  0x78, 0x4c, 0x22, 0x3d, 0x70, 0x5c, 0x5b, 0x3c, 0x05, 0x0f, 0x3a, 0xbe,
  0x0b, 0x73, 0xcc, 0x3c, 0x01, 0xb6, 0xe0, 0x3d, 0x28, 0x09, 0x34, 0xbe,
  0xe4, 0xa3, 0xee, 0x3d, 0xcf, 0x0f, 0xb2, 0xbd, 0x2a, 0x82, 0x12, 0xbe,
  0x2b, 0x89, 0xc5, 0xbd, 0x25, 0x8d, 0x38, 0x3e, 0xdd, 0x41, 0x86, 0xbd,
  0xc0, 0xc9, 0x85, 0x3d, 0xc7, 0x40, 0xd3, 0x3d, 0xbd, 0x59, 0x9b, 0x3d,
  0xa3, 0x8c, 0x00, 0xbe, 0x99, 0x66, 0xa5, 0xbd, 0x12, 0xf7, 0xab, 0x3e,
  0xf7, 0x4a, 0x03, 0xbe, 0x0c, 0x0f, 0x58, 0xbe, 0xea, 0x59, 0x20, 0xbe,
  0x48, 0x4c, 0x69, 0x3d, 0x5e, 0xa9, 0x46, 0xbe, 0x04, 0x2a, 0xe7, 0xbe,
  0x7a, 0x0a, 0x68, 0x3e, 0x2f, 0xd8, 0xab, 0x3e, 0xbd, 0x61, 0xae, 0x3d,
  0xa7, 0xcf, 0xc3, 0xbb, 0x00, 0x0d, 0x7a, 0xbd, 0x24, 0x07, 0xd2, 0xbe,
  0x4b, 0x14, 0x41, 0xbe, 0xd1, 0x20, 0x50, 0xbe, 0x99, 0x36, 0xa8, 0x3d,
  0x21, 0xa1, 0x93, 0x3e, 0x3e, 0x6f, 0xc9, 0xbd, 0xef, 0x6f, 0xbc, 0xbb,
  0xa1, 0x1d, 0x19, 0xbe, 0xb6, 0xc0, 0xff, 0xbd, 0x37, 0xe6, 0x09, 0x3e,
  0xa0, 0x1a, 0x6c, 0xbd, 0x7e, 0xc8, 0x1e, 0x3d, 0x20, 0x56, 0x3c, 0x3c,
  0xa9, 0x20, 0x75, 0xbd, 0x91, 0xac, 0x8a, 0x3d, 0xc6, 0xfc, 0x06, 0x3d,
  0x32, 0x48, 0x4f, 0xbd, 0xd0, 0x5c, 0x4c, 0xbc, 0x95, 0xb6, 0x3e, 0xbe,
  0x7f, 0xb6, 0x73, 0xbd, 0x8d, 0x62, 0x24, 0xbd, 0x41, 0xf9, 0x8e, 0xbe,
  0x3c, 0xb4, 0x25, 0xbe, 0x35, 0x46, 0x3d, 0x3d, 0xb1, 0xfc, 0xdf, 0xbd,
  0x29, 0xfc, 0x7a, 0x3b, 0x04, 0x31, 0xe7, 0xbd, 0x16, 0x18, 0x41, 0x3e,
  0x6f, 0xf7, 0x3f, 0x3d, 0x47, 0xd4, 0xbe, 0x3b, 0x75, 0x64, 0x8c, 0x3e,
  0x62, 0x16, 0x3b, 0x3d, 0x4c, 0x1d, 0xfe, 0xbd, 0x8b, 0x54, 0x0d, 0xbc,
  0x7d, 0xe9, 0x7a, 0x3d, 0xeb, 0x27, 0x2b, 0xbe, 0xc8, 0x7c, 0x1a, 0xbd,
  0xdb, 0xe7, 0x26, 0xbc, 0xcd, 0xdc, 0x0c, 0xbe, 0xf2, 0xdd, 0x11, 0xbe,
  0x69, 0x2d, 0xc2, 0xbd, 0x82, 0xcf, 0xb8, 0xbd, 0xbf, 0x6d, 0x41, 0x3d,
  0x90, 0x45, 0x8e, 0x3c, 0xcb, 0x8b, 0x4b, 0x3e, 0x3a, 0x40, 0xa9, 0x3d,
  0x3f, 0x54, 0x25, 0xbe, 0x5c, 0x5c, 0x67, 0xbd, 0x0e, 0x69, 0x52, 0xbe,
  0x6e, 0xc8, 0x1a, 0x3e, 0xb7, 0xb6, 0x6c, 0x3e, 0x6e, 0x25, 0x88, 0xbb,
  0x75, 0xd6, 0x68, 0xbd, 0xd2, 0x9b, 0x3b, 0x3d, 0x54, 0x50, 0x27, 0x3e,
  0xd2, 0xe2, 0xda, 0xbd, 0x8a, 0xaf, 0xc3, 0xbe, 0x2b, 0xa7, 0xd1, 0x3d,
  0xe2, 0xc5, 0x42, 0x3e, 0xef, 0x78, 0xc8, 0x3d, 0x79, 0x4c, 0x96, 0x3d,
  0xa9, 0x31, 0x06, 0x3e, 0x33, 0x53, 0x9f, 0x3d, 0xc4, 0x78, 0x98, 0x3d,
  0xe8, 0x53, 0xbd, 0xbe, 0x1d, 0x8f, 0x44, 0xbd, 0xe2, 0x31, 0x07, 0x3e,
  0x16, 0x1b, 0xd8, 0xbd, 0x88, 0xd2, 0xbb, 0x3d, 0x7e, 0x12, 0x83, 0xbd,
  0xf0, 0x12, 0x20, 0x3e, 0xc0, 0xfb, 0x7f, 0xbe, 0xc6, 0x8b, 0x4a, 0xbe,
  0x9a, 0x44, 0x93, 0xbd, 0x8b, 0x17, 0x8f, 0x3d, 0xd5, 0xe3, 0x8a, 0x3d,
  0x3c, 0xdf, 0x9a, 0xbe, 0x64, 0xa4, 0x90, 0x3e, 0x65, 0xb9, 0x43, 0xbd,
  0x23, 0xa4, 0xd3, 0x3d, 0xb7, 0x5a, 0xf1, 0xbc, 0xce, 0xfb, 0x9c, 0x3d,
  0xef, 0xe9, 0x36, 0xbe, 0xc6, 0x4c, 0x62, 0xbe, 0x50, 0xc8, 0x2b, 0xbe,
  0xfb, 0x06, 0x8f, 0xbe, 0x58, 0x46, 0xb1, 0xbd, 0x8b, 0xe5, 0xf6, 0x3e,
  0x08, 0xb9, 0x8b, 0x3d, 0x0f, 0x59, 0x27, 0x3e, 0x0a, 0xf4, 0xa3, 0xbe,
  0x24, 0xa9, 0x8e, 0x3c, 0x55, 0x10, 0xff, 0xbd, 0x05, 0x0b, 0x45, 0xbe,
  0x4f, 0xc6, 0x99, 0xbe, 0x32, 0x92, 0xaf, 0xbd, 0xcd, 0x50, 0x31, 0x3c,
  0x84, 0x12, 0x84, 0xbe, 0xf2, 0x2d, 0x80, 0xbe, 0xd2, 0x92, 0x32, 0x3e,
  0xc0, 0x47, 0xa5, 0x3e, 0x52, 0x22, 0x72, 0xbe, 0xc9, 0xa2, 0x7b, 0xbd,
  0xfb, 0xd9, 0x1e, 0x3e, 0x13, 0x85, 0x98, 0xbe, 0x40, 0xac, 0x9c, 0xbe,
  0x3a, 0xba, 0xbe, 0x3d, 0x4d, 0xcc, 0xed, 0x3b, 0x07, 0x51, 0xc7, 0xbd,
  0x21, 0x25, 0x1f, 0x3d, 0xfb, 0x00, 0x5b, 0xbe, 0x7f, 0x79, 0x01, 0xbe,
  0x2d, 0x12, 0x4c, 0xbe, 0x12, 0xc2, 0x97, 0xbe, 0xe8, 0x46, 0x60, 0x3d,
  0x98, 0x67, 0x8c, 0x3e, 0x7e, 0xbd, 0x13, 0x3e, 0x83, 0x0a, 0x53, 0xbd,
  0xed, 0x46, 0x73, 0x3c, 0xe5, 0x29, 0x17, 0x3e, 0x04, 0x7c, 0xba, 0xba,
  0x9a, 0x84, 0x94, 0x3e, 0xcb, 0x57, 0x7a, 0x3e, 0x96, 0x65, 0x05, 0x3e,
  0xc8, 0x71, 0x43, 0x3c, 0xd4, 0x3f, 0x39, 0xbe, 0xb1, 0x16, 0xcb, 0xbc,
  0x0a, 0xd4, 0x29, 0xbe, 0xa1, 0x07, 0xef, 0xbd, 0xd7, 0x53, 0x8a, 0xbe,
  0xff, 0x36, 0xc4, 0x3d, 0x73, 0x9d, 0xe8, 0x39, 0xc4, 0x65, 0xe9, 0x3d,
  0x3e, 0x0d, 0x07, 0xbe, 0x1a, 0x62, 0x6d, 0xbe, 0x3a, 0xe9, 0xe5, 0xbc,
  0xae, 0x9e, 0xd4, 0xbe, 0x85, 0x45, 0x8d, 0xbd, 0x6a, 0x90, 0x38, 0xbe,
  0x96, 0x8a, 0xf1, 0xbd, 0x9f, 0x97, 0x96, 0xbd, 0xcb, 0xb1, 0x6a, 0xbe,
  0x34, 0x48, 0xb6, 0x3d, 0xd4, 0x28, 0xaa, 0xbe, 0x15, 0xa0, 0xf7, 0xbc,
  0xe1, 0x90, 0x18, 0x3e, 0x3e, 0x10, 0x70, 0xbd, 0x6b, 0xee, 0x73, 0x3e,
  0xf2, 0xf1, 0xd1, 0x3d, 0xef, 0xc4, 0xcc, 0x3b, 0xb1, 0x1d, 0xcd, 0xbe,
  0xbf, 0x14, 0x81, 0xbd, 0xd5, 0x28, 0x15, 0xbd, 0x44, 0x29, 0x41, 0xbc,
  0x05, 0x5b, 0x6b, 0x3b, 0x24, 0x3a, 0xac, 0x3e, 0xae, 0xf8, 0xff, 0xff,
  0x04, 0x00, 0x00, 0x00, 0x28, 0x00, 0x00, 0x00, 0xd0, 0x68, 0xbe, 0x3e,
  0x13, 0xd9, 0xcf, 0x3e, 0x2d, 0x13, 0xe5, 0x3e, 0x91, 0x7c, 0xc2, 0x3e,
  0xbe, 0x20, 0xbf, 0x3e, 0xc9, 0x88, 0x9c, 0x3e, 0x19, 0x35, 0x93, 0x3e,
  0x8a, 0x07, 0x2d, 0x3f, 0x2d, 0x12, 0x25, 0x3f, 0x63, 0x13, 0xad, 0x3e,
  0xe2, 0xf8, 0xff, 0xff, 0x04, 0x00, 0x00, 0x00, 0x28, 0x00, 0x00, 0x00,
  0x8e, 0x6a, 0x70, 0x3d, 0x3f, 0x71, 0x02, 0x3d, 0x1d, 0x03, 0x42, 0xbe,
  0x8d, 0x1f, 0x75, 0xb8, 0xa7, 0xd0, 0x2e, 0xbd, 0xf7, 0xfc, 0x71, 0x3d,
  0xd0, 0x5d, 0x60, 0xbd, 0xe6, 0x6e, 0x0a, 0xbe, 0x7f, 0x62, 0x96, 0xbd,
  0x99, 0x8c, 0x11, 0xbd, 0x16, 0xf9, 0xff, 0xff, 0x04, 0x00, 0x00, 0x00,
  0x28, 0x00, 0x00, 0x00, 0x97, 0x66, 0x82, 0x3f, 0xe7, 0x05, 0x94, 0x3f,
  0xb6, 0x82, 0xa1, 0x3f, 0xd2, 0x2a, 0x8c, 0x3f, 0x25, 0xaa, 0x90, 0x3f,
  0x0c, 0x9f, 0x8d, 0x3f, 0x76, 0xf5, 0x8d, 0x3f, 0xd0, 0x8a, 0x82, 0x3f,
  0xbc, 0x8e, 0x9a, 0x3f, 0x4a, 0xca, 0x9a, 0x3f, 0x4a, 0xf9, 0xff, 0xff,
  0x04, 0x00, 0x00, 0x00, 0x28, 0x00, 0x00, 0x00, 0xc6, 0x13, 0xc5, 0x3e,
  0xc9, 0x16, 0xd6, 0x3e, 0x4f, 0x95, 0xb2, 0x3e, 0xac, 0x9f, 0x9f, 0x3d,
  0x62, 0x01, 0x90, 0x3e, 0xb5, 0xa4, 0x72, 0x3e, 0x85, 0x8d, 0x8f, 0x3e,
  0x4a, 0x59, 0xb4, 0x3e, 0xce, 0x05, 0xd5, 0x3e, 0x1d, 0x96, 0x91, 0x3d,
  0x7e, 0xf9, 0xff, 0xff, 0x04, 0x00, 0x00, 0x00, 0x90, 0x01, 0x00, 0x00,
  0xf6, 0xa5, 0x9c, 0x3e, 0x26, 0x3e, 0xe1, 0x3e, 0x48, 0x9e, 0x99, 0xbe,
  0x67, 0x04, 0x9e, 0xbe, 0xa4, 0x1c, 0xc1, 0xbe, 0x2d, 0x52, 0xed, 0x3e,
  0x12, 0x32, 0xa6, 0xbe, 0xe7, 0xfe, 0xcc, 0xbe, 0x1f, 0xbc, 0xa0, 0xbe,
  0x79, 0x50, 0x06, 0xbf, 0x88, 0x77, 0x79, 0x3e, 0xe6, 0x75, 0xc6, 0x3d,
  0x6b, 0xeb, 0x38, 0xbf, 0xf9, 0xe9, 0x02, 0xbe, 0xcf, 0x3e, 0x2b, 0x3e,
  0x4a, 0xef, 0x90, 0xbe, 0x43, 0x78, 0x1b, 0x3d, 0x4a, 0x74, 0x96, 0xbe,
  0xb9, 0x05, 0x10, 0x3e, 0xd2, 0x6a, 0xa4, 0x3c, 0xe0, 0xed, 0x08, 0x3f,
  0xb7, 0x0c, 0x27, 0x3f, 0x96, 0x40, 0x85, 0xbe, 0x2c, 0x55, 0xaa, 0xbe,
  0x78, 0xa7, 0x88, 0xbe, 0x80, 0x4b, 0x7a, 0x3e, 0x1d, 0x48, 0x2b, 0xbf,
  0x9f, 0xa4, 0x9d, 0xbe, 0xae, 0xc3, 0x4a, 0xbf, 0x24, 0x8f, 0x28, 0xbf,
  0xf4, 0xa2, 0xa0, 0x3e, 0xda, 0x21, 0x18, 0xbe, 0x8c, 0x41, 0x2b, 0xbe,
  0xf8, 0xda, 0xba, 0xbd, 0x60, 0x29, 0xea, 0x3d, 0x5f, 0xaa, 0x69, 0xbe,
  0x03, 0x2e, 0xd0, 0x3d, 0xe8, 0x88, 0x84, 0x3b, 0x87, 0xee, 0xe9, 0xbd,
  0x0b, 0xbf, 0xea, 0xbd, 0xc5, 0x48, 0x54, 0x3e, 0xac, 0x56, 0x01, 0xbe,
  0x03, 0x87, 0xaa, 0xbe, 0x41, 0x65, 0x64, 0xbe, 0x5b, 0x9e, 0x2b, 0xbd,
  0x42, 0xfe, 0xf3, 0xbe, 0x1c, 0x80, 0xda, 0xbd, 0xe2, 0xcb, 0xfc, 0xbd,
  0x6d, 0xd1, 0xbb, 0x3e, 0x18, 0xea, 0x9a, 0xbd, 0x73, 0xb2, 0xa3, 0x3e,
  0x0a, 0x80, 0x00, 0x3e, 0xf2, 0x70, 0x07, 0xbf, 0xcf, 0x59, 0x2c, 0xbe,
  0xbe, 0x22, 0xf5, 0x3c, 0xb3, 0xec, 0x5f, 0xbd, 0x8d, 0xe4, 0xfa, 0x3d,
  0xef, 0x7c, 0x7e, 0x3d, 0x0c, 0x09, 0x78, 0x3e, 0x4a, 0xf7, 0x8e, 0xbd,
  0xe4, 0x35, 0x4b, 0x3e, 0x58, 0x52, 0xa7, 0x3d, 0xf8, 0xaa, 0xb3, 0xbe,
  0x58, 0x1d, 0xd7, 0x3d, 0x86, 0x18, 0x16, 0xbd, 0xec, 0xd3, 0xa6, 0xbc,
  0x40, 0xf1, 0x07, 0xbe, 0x3e, 0xe5, 0xc5, 0xbe, 0xbd, 0xfb, 0x04, 0x3e,
  0xc3, 0x37, 0xfc, 0xbd, 0x51, 0xbe, 0x12, 0x3e, 0x04, 0x39, 0x47, 0x3e,
  0x32, 0x5b, 0x0f, 0xbe, 0xac, 0xb7, 0xf2, 0xbe, 0x50, 0x9a, 0xd4, 0x3d,
  0x8c, 0x8f, 0xaf, 0x3e, 0xae, 0xea, 0x46, 0xbe, 0x16, 0xb1, 0x2b, 0xbf,
  0x91, 0x49, 0x16, 0xbf, 0x68, 0xa6, 0x37, 0xbf, 0xb6, 0x9b, 0x45, 0x3f,
  0x79, 0x88, 0x8c, 0x3e, 0xb0, 0x5d, 0x26, 0xbf, 0xe9, 0xf4, 0xaf, 0x3e,
  0xe9, 0x1b, 0x9e, 0x3e, 0x10, 0x27, 0x44, 0xbe, 0x58, 0xe2, 0x4b, 0x3e,
  0x4e, 0xfa, 0x2d, 0xbf, 0x82, 0xdf, 0x8d, 0x3c, 0x86, 0x92, 0x80, 0xbd,
  0x37, 0x7b, 0x45, 0x3e, 0x47, 0xca, 0x89, 0x3d, 0x3f, 0xfa, 0xf2, 0xbe,
  0x8f, 0x4d, 0x2f, 0xbd, 0xb3, 0x85, 0x22, 0x3e, 0x49, 0x9a, 0x09, 0xbe,
  0xbb, 0x62, 0x82, 0xbe, 0xa7, 0x00, 0x15, 0xbf, 0x33, 0xf4, 0x74, 0xbd,
  0xcf, 0xc1, 0xd9, 0x3d, 0x1a, 0xfb, 0xff, 0xff, 0x04, 0x00, 0x00, 0x00,
  0x90, 0x01, 0x00, 0x00, 0x69, 0x64, 0x59, 0xbe, 0x1f, 0x62, 0xa4, 0x3e,
  0x46, 0xdb, 0x0b, 0xbf, 0xfd, 0xcf, 0x0e, 0xbf, 0x8b, 0x44, 0xb6, 0xbe,
  0x36, 0xc2, 0xf2, 0x3c, 0x5e, 0xe2, 0xe0, 0xbe, 0x98, 0x8d, 0x1e, 0xbe,
  0xde, 0x87, 0xaa, 0xbe, 0xbf, 0x83, 0xd6, 0xbe, 0x42, 0x1b, 0xeb, 0xbd,
  0x44, 0xa4, 0x01, 0x3e, 0x03, 0x71, 0x36, 0xbd, 0xa6, 0x64, 0x1f, 0xbf,
  0x06, 0x24, 0x8a, 0x3c, 0x9a, 0xb1, 0xb2, 0x3e, 0x11, 0xd7, 0x0a, 0xbe,
  0x77, 0xa1, 0x13, 0xbe, 0x15, 0xd4, 0xc4, 0xbe, 0xf7, 0x96, 0xaf, 0xbe,
  0x65, 0x98, 0xd9, 0x3c, 0x29, 0xd0, 0x67, 0xbd, 0x36, 0xe7, 0xe1, 0x3e,
  0xd8, 0x6b, 0xce, 0x3e, 0x41, 0xb6, 0x57, 0x3e, 0xa9, 0xb4, 0x4f, 0xbe,
  0x88, 0x29, 0x0a, 0x3f, 0x14, 0xa9, 0xbe, 0x3d, 0x19, 0x25, 0x92, 0x3e,
  0xa8, 0x23, 0x37, 0x3f, 0xf5, 0xef, 0xe9, 0x3d, 0xfe, 0x5b, 0x92, 0x3e,
  0x03, 0x6c, 0xcb, 0xbd, 0xf7, 0xef, 0x35, 0x3e, 0x4e, 0xbe, 0xa4, 0xbe,
  0x0e, 0xf3, 0x8e, 0xbe, 0x5b, 0xa3, 0x9d, 0x3e, 0xe3, 0x22, 0x03, 0xbf,
  0x2d, 0x58, 0x5f, 0xbe, 0xa6, 0x8c, 0x35, 0x3e, 0xdc, 0x9d, 0x06, 0x3e,
  0x53, 0x87, 0x7d, 0xbd, 0x6f, 0xf2, 0x98, 0xbc, 0xe5, 0xea, 0x0f, 0x3d,
  0x9f, 0x1d, 0x4f, 0x3e, 0x7c, 0x05, 0x38, 0xbe, 0x23, 0x0d, 0x32, 0x3f,
  0xfc, 0xf0, 0xc8, 0x3d, 0xc5, 0x38, 0x79, 0x3e, 0x1b, 0x74, 0x1d, 0xbe,
  0x22, 0x29, 0x2e, 0xba, 0xf0, 0x20, 0x87, 0xbd, 0xd3, 0x52, 0x6a, 0x3e,
  0x98, 0xf9, 0x0a, 0xbf, 0x2c, 0x39, 0xae, 0xbe, 0xa2, 0xeb, 0x86, 0x3e,
  0x0d, 0x49, 0xba, 0xbe, 0xed, 0xc1, 0x42, 0xbe, 0x55, 0x95, 0xa6, 0xbd,
  0x78, 0xb8, 0xa4, 0xbe, 0xa4, 0x76, 0xe0, 0x3e, 0x9b, 0x1f, 0x54, 0xbd,
  0xac, 0x6f, 0x89, 0xbe, 0xb8, 0x32, 0x82, 0x3e, 0x0f, 0xad, 0x17, 0x3e,
  0x49, 0xce, 0x6d, 0xbe, 0xae, 0x31, 0x79, 0x3e, 0x24, 0xa5, 0x58, 0xbe,
  0x98, 0x21, 0x95, 0x3e, 0x4e, 0xbc, 0x1b, 0x3f, 0xe1, 0x77, 0x0d, 0xbe,
  0x58, 0x45, 0xca, 0xbe, 0x0f, 0xad, 0xd3, 0x3e, 0xcd, 0x42, 0xc2, 0x3e,
  0x65, 0x29, 0xaf, 0x3e, 0xed, 0xad, 0x73, 0xbe, 0x69, 0xe8, 0x25, 0x3f,
  0x63, 0xf8, 0x08, 0xbe, 0x57, 0xae, 0xfd, 0x3e, 0x58, 0xf4, 0x18, 0x3f,
  0x45, 0x8e, 0x0b, 0x3e, 0x65, 0x2e, 0x90, 0xbe, 0xcf, 0x16, 0x36, 0x3e,
  0x66, 0x53, 0x20, 0x3f, 0xd6, 0x5b, 0x63, 0x3e, 0x1d, 0x75, 0xda, 0xbd,
  0x32, 0x8a, 0x0e, 0x3f, 0xa0, 0xb0, 0xd1, 0xbd, 0x4b, 0x1d, 0xaa, 0x3e,
  0xa7, 0xee, 0xec, 0x3e, 0xaf, 0xf7, 0x94, 0x3e, 0x23, 0x1b, 0xb0, 0x3c,
  0xb6, 0x52, 0x33, 0xbe, 0xe5, 0x6f, 0x9f, 0x3e, 0x6b, 0x2f, 0xa3, 0x3e,
  0xd7, 0x36, 0x36, 0xbe, 0xdf, 0x41, 0x81, 0x3c, 0x6b, 0xd4, 0x5e, 0xbe,
  0x9b, 0x59, 0x28, 0x3e, 0xc0, 0x28, 0x11, 0x3e, 0xb6, 0xfc, 0xff, 0xff,
  0x04, 0x00, 0x00, 0x00, 0x90, 0x01, 0x00, 0x00, 0x11, 0x7a, 0x8b, 0x3e,
  0x31, 0xbd, 0xae, 0x3e, 0x64, 0x0f, 0x28, 0xbf, 0xe8, 0x38, 0xe9, 0xbe,
  0xeb, 0x98, 0xad, 0xbd, 0x92, 0x12, 0x62, 0x3e, 0xc5, 0x91, 0x2f, 0xbe,
  0xd0, 0xe6, 0xb9, 0xbe, 0x74, 0xa2, 0x2e, 0xbe, 0xcb, 0xfa, 0x98, 0xbe,
  0x16, 0xe8, 0x95, 0x3e, 0xaa, 0x74, 0x13, 0xbd, 0x85, 0xba, 0xfa, 0xbd,
  0xff, 0xd8, 0xe8, 0x3e, 0x88, 0x43, 0x04, 0xbe, 0x3f, 0x4a, 0x19, 0xbe,
  0x9b, 0xee, 0xd7, 0x3d, 0x3b, 0x7a, 0x0b, 0xbf, 0xc0, 0x5f, 0x92, 0xbe,
  0xea, 0xe4, 0xed, 0xbb, 0x4c, 0x9a, 0x49, 0x3e, 0x86, 0xed, 0xfe, 0xbd,
  0xae, 0x0d, 0x9f, 0xbe, 0xce, 0xa8, 0x2e, 0xbe, 0xe3, 0xc3, 0x02, 0xbe,
  0xf8, 0xd3, 0xfc, 0x3d, 0xaf, 0x89, 0x2d, 0xbe, 0x4a, 0x05, 0xa1, 0xbe,
  0x38, 0xd1, 0xa3, 0xbe, 0x05, 0xdc, 0xcc, 0xbe, 0x50, 0x8c, 0xe6, 0x3e,
  0xd7, 0x37, 0xac, 0x3b, 0xce, 0x05, 0xad, 0xbe, 0x61, 0xd1, 0xd6, 0x3c,
  0x49, 0x7a, 0x18, 0xbc, 0x25, 0x7e, 0xe6, 0xbd, 0xc1, 0x07, 0x2d, 0xbd,
  0x0f, 0x75, 0x0d, 0xbf, 0x93, 0x50, 0xb0, 0x3d, 0x0d, 0x0d, 0xfe, 0x3d,
  0xc7, 0x41, 0x91, 0x3e, 0xd8, 0xb0, 0x34, 0xbe, 0xa9, 0x0f, 0x1b, 0xbf,
  0x56, 0xac, 0x0f, 0x3f, 0x02, 0x20, 0xc0, 0xbd, 0x0f, 0xf7, 0xeb, 0x3d,
  0x44, 0xe8, 0x24, 0x3e, 0x05, 0xbb, 0x7b, 0xbe, 0xd7, 0x74, 0xa6, 0x3e,
  0x66, 0x82, 0xb8, 0xbc, 0x74, 0x1a, 0x44, 0x3e, 0x4d, 0x5b, 0xac, 0xbd,
  0x63, 0xd9, 0xa7, 0xbe, 0x66, 0xbf, 0x65, 0xbc, 0x97, 0x80, 0xe4, 0xbd,
  0xd4, 0x7c, 0x8d, 0xbc, 0xd7, 0x4d, 0xff, 0xbd, 0x5c, 0x12, 0x96, 0xbe,
  0x37, 0x6d, 0x77, 0xbc, 0xd1, 0xfd, 0x9b, 0x3d, 0xfe, 0xdb, 0xca, 0x3d,
  0x03, 0x2e, 0xbb, 0x3e, 0x6b, 0x4e, 0x96, 0xbe, 0x55, 0xda, 0x6e, 0x3b,
  0xdc, 0x84, 0xed, 0x3c, 0x66, 0xcd, 0x43, 0xbe, 0x12, 0xd6, 0x8f, 0xbd,
  0x7d, 0x2d, 0x36, 0xbb, 0xae, 0x47, 0xae, 0x3d, 0x15, 0xaf, 0x1a, 0xbd,
  0x9b, 0xee, 0x83, 0xbe, 0xf5, 0xc4, 0xee, 0x3e, 0x9c, 0x89, 0xe3, 0xbe,
  0x8c, 0x66, 0xc8, 0xbe, 0xac, 0x6a, 0xf3, 0xbd, 0xd5, 0x3a, 0x12, 0xbe,
  0x25, 0x1c, 0xe0, 0xbd, 0x16, 0x11, 0x9c, 0xbe, 0x61, 0xd8, 0x64, 0xbe,
  0x4f, 0x43, 0x05, 0xbf, 0x9e, 0x1c, 0xb5, 0x3e, 0x4f, 0x44, 0x52, 0x3e,
  0xb1, 0x63, 0xfc, 0xbd, 0xc8, 0x66, 0x12, 0xbe, 0x81, 0x2e, 0x07, 0x3d,
  0x89, 0x63, 0x43, 0x3b, 0x79, 0x67, 0x55, 0x3e, 0x65, 0x8b, 0x43, 0x3e,
  0xbe, 0x0a, 0x90, 0x3d, 0xf7, 0xfc, 0x90, 0xbd, 0x47, 0x58, 0x32, 0x3e,
  0x0f, 0x13, 0x98, 0xbe, 0xf5, 0xc4, 0x1e, 0xbf, 0x88, 0x6a, 0x11, 0xbe,
  0x29, 0x78, 0xe4, 0x3d, 0x9e, 0xef, 0x66, 0x3b, 0x4b, 0x5b, 0x3e, 0x3a,
  0x94, 0x59, 0xdf, 0xbe, 0x79, 0x05, 0xd2, 0xbd, 0x5b, 0xce, 0x8b, 0x3e,
  0x52, 0xfe, 0xff, 0xff, 0x04, 0x00, 0x00, 0x00, 0x90, 0x01, 0x00, 0x00,
  0x25, 0x5c, 0xaa, 0x3e, 0xc6, 0x3b, 0x04, 0x3e, 0x59, 0x2d, 0x12, 0xbe,
  0xef, 0x19, 0xf1, 0x3d, 0xfa, 0x2d, 0x9c, 0x3e, 0x32, 0x15, 0x7c, 0xbd,
  0xf8, 0x00, 0x02, 0xbd, 0x03, 0x1c, 0xf2, 0xbc, 0x2d, 0x06, 0x07, 0xbd,
  0x40, 0x4d, 0xf6, 0x3d, 0x27, 0x4d, 0xbf, 0x3d, 0x69, 0x1d, 0x40, 0xbe,
  0x80, 0x65, 0x2b, 0xbf, 0x7e, 0x9f, 0x66, 0xbe, 0xe1, 0x7f, 0x4f, 0xbd,
  0xc3, 0x4d, 0xa8, 0xbc, 0x53, 0x8c, 0x9e, 0x3d, 0x44, 0x2d, 0x83, 0xbe,
  0xb9, 0x1c, 0x13, 0xbe, 0x4d, 0x2d, 0xf1, 0xbb, 0xc7, 0x20, 0x89, 0x3e,
  0x98, 0x3d, 0x88, 0x3e, 0x56, 0x1f, 0x45, 0xbd, 0x75, 0xd9, 0xea, 0xbe,
  0x09, 0x43, 0xd6, 0x3d, 0x2d, 0xef, 0x6d, 0x3d, 0xbe, 0xa8, 0x4a, 0xbe,
  0x9a, 0x25, 0x97, 0xbe, 0x05, 0x59, 0xfe, 0xbc, 0x5c, 0xed, 0x68, 0xbe,
  0xa7, 0x58, 0x6d, 0xbe, 0xde, 0x90, 0x76, 0x3e, 0x61, 0xfd, 0xda, 0xbe,
  0xa0, 0x13, 0x16, 0xbe, 0xa6, 0x16, 0xbc, 0xbd, 0xac, 0x72, 0x9a, 0x3e,
  0xfd, 0x36, 0x03, 0xbd, 0x65, 0xf2, 0xb6, 0xbd, 0x49, 0xc1, 0x74, 0xbe,
  0xf8, 0x0e, 0x3d, 0xbe, 0x5b, 0xfe, 0x19, 0x3e, 0x4d, 0x9a, 0x48, 0xbe,
  0x12, 0x8e, 0xce, 0xbe, 0x0c, 0x14, 0xb9, 0x3d, 0xb5, 0xb5, 0x40, 0xbd,
  0xa4, 0x3d, 0x2b, 0xbe, 0xa8, 0xbc, 0xa7, 0x3e, 0x1d, 0x16, 0x3c, 0xbe,
  0x16, 0x87, 0x9b, 0xbe, 0x89, 0x9d, 0x94, 0x3d, 0x0e, 0x6d, 0xea, 0xbc,
  0x5f, 0xa7, 0x51, 0x3e, 0xcb, 0x77, 0x25, 0xbf, 0x43, 0x9a, 0xda, 0x3c,
  0x49, 0xe3, 0x4e, 0xbd, 0xa4, 0x89, 0xa6, 0x3c, 0x9f, 0xae, 0x1e, 0x3e,
  0xa5, 0x5f, 0x9a, 0xbd, 0x85, 0xce, 0xea, 0xbd, 0x3f, 0x2c, 0x2c, 0x3c,
  0xcb, 0xbb, 0x96, 0xbc, 0x0b, 0xff, 0x6d, 0x3b, 0xb7, 0x7b, 0xe5, 0xbe,
  0x87, 0x68, 0xe9, 0xbd, 0x70, 0xdd, 0x01, 0xbe, 0x2b, 0x1f, 0xd5, 0xbd,
  0xf4, 0x09, 0x31, 0x3e, 0xf2, 0x09, 0xb5, 0xbe, 0x22, 0xd5, 0xee, 0xbc,
  0x8c, 0xf4, 0x1a, 0x3d, 0x70, 0xef, 0xbd, 0x3e, 0xf2, 0xd4, 0xba, 0xbd,
  0x5e, 0xd7, 0xd8, 0xbe, 0xc6, 0x38, 0xd9, 0x3d, 0x16, 0x26, 0xfd, 0x3d,
  0xab, 0x74, 0xb4, 0xbe, 0xef, 0xaa, 0x54, 0x3a, 0x0c, 0xd1, 0x77, 0xbe,
  0x5f, 0x99, 0x27, 0x3e, 0xa2, 0xbe, 0x97, 0xbe, 0xf1, 0x27, 0xf3, 0x3e,
  0xdb, 0x43, 0xbd, 0xbd, 0x79, 0x5a, 0x53, 0xbf, 0xd3, 0x5e, 0x49, 0x3e,
  0xec, 0x66, 0x82, 0x3e, 0x71, 0x14, 0xa9, 0xbe, 0x51, 0x56, 0xf3, 0x3d,
  0x79, 0x07, 0xf9, 0xbd, 0x3b, 0x2d, 0x80, 0x3e, 0xc7, 0x72, 0x4f, 0x3d,
  0x82, 0xf5, 0xd6, 0xbd, 0x94, 0x6f, 0x62, 0x3e, 0x7b, 0x09, 0xc3, 0xbe,
  0x70, 0x28, 0xad, 0xbe, 0xbd, 0xa8, 0x9e, 0x3d, 0x1d, 0x59, 0x8b, 0x3e,
  0x08, 0xdf, 0x6d, 0xbe, 0xbe, 0x32, 0x53, 0xbe, 0xb8, 0x93, 0x8c, 0xbe,
  0x1e, 0xcd, 0xad, 0xbe, 0xee, 0xff, 0xff, 0xff, 0x04, 0x00, 0x00, 0x00,
  0x04, 0x00, 0x00, 0x00, 0x7c, 0x57, 0xe3, 0xbc, 0x00, 0x00, 0x06, 0x00,
  0x08, 0x00, 0x04, 0x00, 0x06, 0x00, 0x00, 0x00, 0x04, 0x00, 0x00, 0x00,
  0x28, 0x00, 0x00, 0x00, 0x00, 0x00, 0x00, 0x00, 0x00, 0x00, 0x00, 0x00,
  0x00, 0x00, 0x00, 0x00, 0x00, 0x00, 0x00, 0x00, 0x00, 0x00, 0x00, 0x00,
  0x00, 0x00, 0x00, 0x00, 0x00, 0x00, 0x00, 0x00, 0x00, 0x00, 0x00, 0x00,
  0x00, 0x00, 0x00, 0x00, 0x00, 0x00, 0x00, 0x00, 0x70, 0xf7, 0xff, 0xff,
  0x74, 0xf7, 0xff, 0xff, 0x0f, 0x00, 0x00, 0x00, 0x4d, 0x4c, 0x49, 0x52,
  0x20, 0x43, 0x6f, 0x6e, 0x76, 0x65, 0x72, 0x74, 0x65, 0x64, 0x2e, 0x00,
  0x01, 0x00, 0x00, 0x00, 0x14, 0x00, 0x00, 0x00, 0x00, 0x00, 0x0e, 0x00,
  0x18, 0x00, 0x14, 0x00, 0x10, 0x00, 0x0c, 0x00, 0x08, 0x00, 0x04, 0x00,
  0x0e, 0x00, 0x00, 0x00, 0x14, 0x00, 0x00, 0x00, 0x1c, 0x00, 0x00, 0x00,
  0xa4, 0x01, 0x00, 0x00, 0xa8, 0x01, 0x00, 0x00, 0xac, 0x01, 0x00, 0x00,
  0x04, 0x00, 0x00, 0x00, 0x6d, 0x61, 0x69, 0x6e, 0x00, 0x00, 0x00, 0x00,
  0x04, 0x00, 0x00, 0x00, 0xec, 0x00, 0x00, 0x00, 0x7c, 0x00, 0x00, 0x00,
  0x34, 0x00, 0x00, 0x00, 0x10, 0x00, 0x00, 0x00, 0x00, 0x00, 0x0a, 0x00,
  0x10, 0x00, 0x0c, 0x00, 0x08, 0x00, 0x04, 0x00, 0x0a, 0x00, 0x00, 0x00,
  0x0c, 0x00, 0x00, 0x00, 0x10, 0x00, 0x00, 0x00, 0x03, 0x00, 0x00, 0x00,
  0x01, 0x00, 0x00, 0x00, 0x17, 0x00, 0x00, 0x00, 0x01, 0x00, 0x00, 0x00,
  0x16, 0x00, 0x00, 0x00, 0xca, 0xff, 0xff, 0xff, 0x14, 0x00, 0x00, 0x00,
  0x00, 0x00, 0x00, 0x08, 0x10, 0x00, 0x00, 0x00, 0x14, 0x00, 0x00, 0x00,
  0x02, 0x00, 0x00, 0x00, 0x20, 0xf8, 0xff, 0xff, 0x01, 0x00, 0x00, 0x00,
  0x16, 0x00, 0x00, 0x00, 0x03, 0x00, 0x00, 0x00, 0x15, 0x00, 0x00, 0x00,
  0x0f, 0x00, 0x00, 0x00, 0x02, 0x00, 0x00, 0x00, 0x00, 0x00, 0x0e, 0x00,
  0x1a, 0x00, 0x14, 0x00, 0x10, 0x00, 0x0c, 0x00, 0x0b, 0x00, 0x04, 0x00,
  0x0e, 0x00, 0x00, 0x00, 0x24, 0x00, 0x00, 0x00, 0x00, 0x00, 0x00, 0x20,
  0x2c, 0x00, 0x00, 0x00, 0x30, 0x00, 0x00, 0x00, 0x01, 0x00, 0x00, 0x00,
  0x00, 0x00, 0x0e, 0x00, 0x10, 0x00, 0x0c, 0x00, 0x08, 0x00, 0x00, 0x00,
  0x00, 0x00, 0x04, 0x00, 0x0e, 0x00, 0x00, 0x00, 0x02, 0x00, 0x00, 0x00,
  0x05, 0x00, 0x00, 0x00, 0x05, 0x00, 0x00, 0x00, 0x01, 0x00, 0x00, 0x00,
  0x15, 0x00, 0x00, 0x00, 0x04, 0x00, 0x00, 0x00, 0x14, 0x00, 0x00, 0x00,
  0x10, 0x00, 0x00, 0x00, 0x11, 0x00, 0x00, 0x00, 0x12, 0x00, 0x00, 0x00,
  0x00, 0x00, 0x16, 0x00, 0x18, 0x00, 0x00, 0x00, 0x14, 0x00, 0x10, 0x00,
  0x0f, 0x00, 0x08, 0x00, 0x00, 0x00, 0x00, 0x00, 0x00, 0x00, 0x04, 0x00,
  0x16, 0x00, 0x00, 0x00, 0x14, 0x00, 0x00, 0x00, 0x1c, 0x00, 0x00, 0x00,
  0x00, 0x00, 0x00, 0x47, 0x20, 0x00, 0x00, 0x00, 0x24, 0x00, 0x00, 0x00,
  0x00, 0x00, 0x00, 0x00, 0x08, 0x00, 0x0c, 0x00, 0x0b, 0x00, 0x04, 0x00,
  0x08, 0x00, 0x00, 0x00, 0x00, 0x00, 0x20, 0x41, 0x00, 0x00, 0x00, 0x04,
  0x01, 0x00, 0x00, 0x00, 0x14, 0x00, 0x00, 0x00, 0x18, 0x00, 0x00, 0x00,
  0x00, 0x00, 0x00, 0x00, 0x0b, 0x00, 0x00, 0x00, 0x0c, 0x00, 0x00, 0x00,
  0x0d, 0x00, 0x00, 0x00, 0x0e, 0x00, 0x00, 0x00, 0x03, 0x00, 0x00, 0x00,
  0x04, 0x00, 0x00, 0x00, 0x05, 0x00, 0x00, 0x00, 0x06, 0x00, 0x00, 0x00,
  0xff, 0xff, 0xff, 0xff, 0xff, 0xff, 0xff, 0xff, 0xff, 0xff, 0xff, 0xff,
  0x07, 0x00, 0x00, 0x00, 0x08, 0x00, 0x00, 0x00, 0x09, 0x00, 0x00, 0x00,
  0x0a, 0x00, 0x00, 0x00, 0xff, 0xff, 0xff, 0xff, 0xff, 0xff, 0xff, 0xff,
  0x01, 0x00, 0x00, 0x00, 0x13, 0x00, 0x00, 0x00, 0xff, 0xff, 0xff, 0xff,
  0xff, 0xff, 0xff, 0xff, 0xff, 0xff, 0xff, 0xff, 0xff, 0xff, 0xff, 0xff,
  0x01, 0x00, 0x00, 0x00, 0x17, 0x00, 0x00, 0x00, 0x01, 0x00, 0x00, 0x00,
  0x00, 0x00, 0x00, 0x00, 0x18, 0x00, 0x00, 0x00, 0x80, 0x06, 0x00, 0x00,
  0x24, 0x06, 0x00, 0x00, 0xb8, 0x05, 0x00, 0x00, 0x78, 0x05, 0x00, 0x00,
  0x38, 0x05, 0x00, 0x00, 0xf8, 0x04, 0x00, 0x00, 0xb8, 0x04, 0x00, 0x00,
  0x7c, 0x04, 0x00, 0x00, 0x40, 0x04, 0x00, 0x00, 0x04, 0x04, 0x00, 0x00,
  0xc8, 0x03, 0x00, 0x00, 0x88, 0x03, 0x00, 0x00, 0x48, 0x03, 0x00, 0x00,
  0x04, 0x03, 0x00, 0x00, 0xc0, 0x02, 0x00, 0x00, 0x78, 0x02, 0x00, 0x00,
  0x34, 0x02, 0x00, 0x00, 0xd8, 0x01, 0x00, 0x00, 0x94, 0x01, 0x00, 0x00,
  0x50, 0x01, 0x00, 0x00, 0xf8, 0x00, 0x00, 0x00, 0xb4, 0x00, 0x00, 0x00,
  0x50, 0x00, 0x00, 0x00, 0x04, 0x00, 0x00, 0x00, 0xf6, 0xf9, 0xff, 0xff,
  0x00, 0x00, 0x00, 0x01, 0x10, 0x00, 0x00, 0x00, 0x10, 0x00, 0x00, 0x00,
  0x18, 0x00, 0x00, 0x00, 0x28, 0x00, 0x00, 0x00, 0xe0, 0xf9, 0xff, 0xff,
  0x19, 0x00, 0x00, 0x00, 0x53, 0x74, 0x61, 0x74, 0x65, 0x66, 0x75, 0x6c,
  0x50, 0x61, 0x72, 0x74, 0x69, 0x74, 0x69, 0x6f, 0x6e, 0x65, 0x64, 0x43,
  0x61, 0x6c, 0x6c, 0x3a, 0x30, 0x00, 0x00, 0x00, 0x02, 0x00, 0x00, 0x00,
  0x01, 0x00, 0x00, 0x00, 0x01, 0x00, 0x00, 0x00, 0x3e, 0xfa, 0xff, 0xff,
  0x00, 0x00, 0x00, 0x01, 0x10, 0x00, 0x00, 0x00, 0x10, 0x00, 0x00, 0x00,
  0x17, 0x00, 0x00, 0x00, 0x40, 0x00, 0x00, 0x00, 0x28, 0xfa, 0xff, 0xff,
  0x30, 0x00, 0x00, 0x00, 0x73, 0x65, 0x71, 0x75, 0x65, 0x6e, 0x74, 0x69,
  0x61, 0x6c, 0x2f, 0x64, 0x65, 0x6e, 0x73, 0x65, 0x2f, 0x4d, 0x61, 0x74,
  0x4d, 0x75, 0x6c, 0x3b, 0x73, 0x65, 0x71, 0x75, 0x65, 0x6e, 0x74, 0x69,
  0x61, 0x6c, 0x2f, 0x64, 0x65, 0x6e, 0x73, 0x65, 0x2f, 0x42, 0x69, 0x61,
  0x73, 0x41, 0x64, 0x64, 0x00, 0x00, 0x00, 0x00, 0x02, 0x00, 0x00, 0x00,
  0x01, 0x00, 0x00, 0x00, 0x01, 0x00, 0x00, 0x00, 0x9e, 0xfa, 0xff, 0xff,
  0x00, 0x00, 0x00, 0x01, 0x10, 0x00, 0x00, 0x00, 0x10, 0x00, 0x00, 0x00,
  0x16, 0x00, 0x00, 0x00, 0x20, 0x00, 0x00, 0x00, 0x88, 0xfa, 0xff, 0xff,
  0x11, 0x00, 0x00, 0x00, 0x74, 0x66, 0x6c, 0x2e, 0x73, 0x74, 0x72, 0x69,
  0x64, 0x65, 0x64, 0x5f, 0x73, 0x6c, 0x69, 0x63, 0x65, 0x00, 0x00, 0x00,
  0x02, 0x00, 0x00, 0x00, 0x01, 0x00, 0x00, 0x00, 0x0a, 0x00, 0x00, 0x00,
  0xde, 0xfa, 0xff, 0xff, 0x00, 0x00, 0x00, 0x01, 0x10, 0x00, 0x00, 0x00,
  0x10, 0x00, 0x00, 0x00, 0x15, 0x00, 0x00, 0x00, 0x30, 0x00, 0x00, 0x00,
  0xc8, 0xfa, 0xff, 0xff, 0x20, 0x00, 0x00, 0x00, 0x74, 0x66, 0x6c, 0x2e,
  0x75, 0x6e, 0x69, 0x64, 0x69, 0x72, 0x65, 0x63, 0x74, 0x69, 0x6f, 0x6e,
  0x61, 0x6c, 0x5f, 0x73, 0x65, 0x71, 0x75, 0x65, 0x6e, 0x63, 0x65, 0x5f,
  0x6c, 0x73, 0x74, 0x6d, 0x00, 0x00, 0x00, 0x00, 0x03, 0x00, 0x00, 0x00,
  0x01, 0x00, 0x00, 0x00, 0x14, 0x00, 0x00, 0x00, 0x0a, 0x00, 0x00, 0x00,
  0x8a, 0xfb, 0xff, 0xff, 0x00, 0x00, 0x01, 0x01, 0x0c, 0x00, 0x00, 0x00,
  0x0c, 0x00, 0x00, 0x00, 0x24, 0x00, 0x00, 0x00, 0x18, 0xfb, 0xff, 0xff,
  0x16, 0x00, 0x00, 0x00, 0x73, 0x65, 0x71, 0x75, 0x65, 0x6e, 0x74, 0x69,
  0x61, 0x6c, 0x2f, 0x6c, 0x73, 0x74, 0x6d, 0x2f, 0x7a, 0x65, 0x72, 0x6f,
  0x73, 0x31, 0x00, 0x00, 0x02, 0x00, 0x00, 0x00, 0x01, 0x00, 0x00, 0x00,
  0x0a, 0x00, 0x00, 0x00, 0x7e, 0xff, 0xff, 0xff, 0x00, 0x00, 0x00, 0x01,
  0x14, 0x00, 0x00, 0x00, 0x14, 0x00, 0x00, 0x00, 0x13, 0x00, 0x00, 0x00,
  0x00, 0x00, 0x00, 0x02, 0x20, 0x00, 0x00, 0x00, 0x60, 0xfb, 0xff, 0xff,
  0x10, 0x00, 0x00, 0x00, 0x61, 0x72, 0x69, 0x74, 0x68, 0x2e, 0x63, 0x6f,
  0x6e, 0x73, 0x74, 0x61, 0x6e, 0x74, 0x31, 0x34, 0x00, 0x00, 0x00, 0x00,
  0x01, 0x00, 0x00, 0x00, 0x03, 0x00, 0x00, 0x00, 0xbe, 0xff, 0xff, 0xff,
  0x00, 0x00, 0x00, 0x01, 0x14, 0x00, 0x00, 0x00, 0x14, 0x00, 0x00, 0x00,
  0x12, 0x00, 0x00, 0x00, 0x00, 0x00, 0x00, 0x02, 0x20, 0x00, 0x00, 0x00,
  0xa0, 0xfb, 0xff, 0xff, 0x10, 0x00, 0x00, 0x00, 0x61, 0x72, 0x69, 0x74,
  0x68, 0x2e, 0x63, 0x6f, 0x6e, 0x73, 0x74, 0x61, 0x6e, 0x74, 0x31, 0x33,
  0x00, 0x00, 0x00, 0x00, 0x01, 0x00, 0x00, 0x00, 0x03, 0x00, 0x00, 0x00,
  0x00, 0x00, 0x16, 0x00, 0x1c, 0x00, 0x18, 0x00, 0x17, 0x00, 0x10, 0x00,
  0x0c, 0x00, 0x08, 0x00, 0x00, 0x00, 0x00, 0x00, 0x00, 0x00, 0x07, 0x00,
  0x16, 0x00, 0x00, 0x00, 0x00, 0x00, 0x00, 0x01, 0x14, 0x00, 0x00, 0x00,
  0x14, 0x00, 0x00, 0x00, 0x11, 0x00, 0x00, 0x00, 0x00, 0x00, 0x00, 0x02,
  0x20, 0x00, 0x00, 0x00, 0xf8, 0xfb, 0xff, 0xff, 0x10, 0x00, 0x00, 0x00,
  0x61, 0x72, 0x69, 0x74, 0x68, 0x2e, 0x63, 0x6f, 0x6e, 0x73, 0x74, 0x61,
  0x6e, 0x74, 0x31, 0x32, 0x00, 0x00, 0x00, 0x00, 0x01, 0x00, 0x00, 0x00,
  0x03, 0x00, 0x00, 0x00, 0x4a, 0xfc, 0xff, 0xff, 0x00, 0x00, 0x00, 0x01,
  0x10, 0x00, 0x00, 0x00, 0x10, 0x00, 0x00, 0x00, 0x10, 0x00, 0x00, 0x00,
  0x24, 0x00, 0x00, 0x00, 0x34, 0xfc, 0xff, 0xff, 0x17, 0x00, 0x00, 0x00,
  0x73, 0x65, 0x71, 0x75, 0x65, 0x6e, 0x74, 0x69, 0x61, 0x6c, 0x2f, 0x64,
  0x65, 0x6e, 0x73, 0x65, 0x2f, 0x4d, 0x61, 0x74, 0x4d, 0x75, 0x6c, 0x00,
  0x02, 0x00, 0x00, 0x00, 0x01, 0x00, 0x00, 0x00, 0x0a, 0x00, 0x00, 0x00,
  0x8e, 0xfc, 0xff, 0xff, 0x00, 0x00, 0x00, 0x01, 0x10, 0x00, 0x00, 0x00,
  0x10, 0x00, 0x00, 0x00, 0x0f, 0x00, 0x00, 0x00, 0x20, 0x00, 0x00, 0x00,
  0x78, 0xfc, 0xff, 0xff, 0x10, 0x00, 0x00, 0x00, 0x61, 0x72, 0x69, 0x74,
  0x68, 0x2e, 0x63, 0x6f, 0x6e, 0x73, 0x74, 0x61, 0x6e, 0x74, 0x31, 0x31,
  0x00, 0x00, 0x00, 0x00, 0x02, 0x00, 0x00, 0x00, 0x0a, 0x00, 0x00, 0x00,
  0x40, 0x00, 0x00, 0x00, 0xce, 0xfc, 0xff, 0xff, 0x00, 0x00, 0x00, 0x01,
  0x10, 0x00, 0x00, 0x00, 0x10, 0x00, 0x00, 0x00, 0x0e, 0x00, 0x00, 0x00,
  0x20, 0x00, 0x00, 0x00, 0xb8, 0xfc, 0xff, 0xff, 0x10, 0x00, 0x00, 0x00,
  0x61, 0x72, 0x69, 0x74, 0x68, 0x2e, 0x63, 0x6f, 0x6e, 0x73, 0x74, 0x61,
  0x6e, 0x74, 0x31, 0x30, 0x00, 0x00, 0x00, 0x00, 0x02, 0x00, 0x00, 0x00,
  0x0a, 0x00, 0x00, 0x00, 0x40, 0x00, 0x00, 0x00, 0x0e, 0xfd, 0xff, 0xff,
  0x00, 0x00, 0x00, 0x01, 0x10, 0x00, 0x00, 0x00, 0x10, 0x00, 0x00, 0x00,
  0x0d, 0x00, 0x00, 0x00, 0x1c, 0x00, 0x00, 0x00, 0xf8, 0xfc, 0xff, 0xff,
  0x0f, 0x00, 0x00, 0x00, 0x61, 0x72, 0x69, 0x74, 0x68, 0x2e, 0x63, 0x6f,
  0x6e, 0x73, 0x74, 0x61, 0x6e, 0x74, 0x39, 0x00, 0x02, 0x00, 0x00, 0x00,
  0x0a, 0x00, 0x00, 0x00, 0x40, 0x00, 0x00, 0x00, 0x4a, 0xfd, 0xff, 0xff,
  0x00, 0x00, 0x00, 0x01, 0x10, 0x00, 0x00, 0x00, 0x10, 0x00, 0x00, 0x00,
  0x0c, 0x00, 0x00, 0x00, 0x1c, 0x00, 0x00, 0x00, 0x34, 0xfd, 0xff, 0xff,
  0x0f, 0x00, 0x00, 0x00, 0x61, 0x72, 0x69, 0x74, 0x68, 0x2e, 0x63, 0x6f,
  0x6e, 0x73, 0x74, 0x61, 0x6e, 0x74, 0x38, 0x00, 0x02, 0x00, 0x00, 0x00,
  0x0a, 0x00, 0x00, 0x00, 0x40, 0x00, 0x00, 0x00, 0x86, 0xfd, 0xff, 0xff,
  0x00, 0x00, 0x00, 0x01, 0x10, 0x00, 0x00, 0x00, 0x10, 0x00, 0x00, 0x00,
  0x0b, 0x00, 0x00, 0x00, 0x1c, 0x00, 0x00, 0x00, 0x70, 0xfd, 0xff, 0xff,
  0x0f, 0x00, 0x00, 0x00, 0x61, 0x72, 0x69, 0x74, 0x68, 0x2e, 0x63, 0x6f,
  0x6e, 0x73, 0x74, 0x61, 0x6e, 0x74, 0x37, 0x00, 0x01, 0x00, 0x00, 0x00,
  0x0a, 0x00, 0x00, 0x00, 0xbe, 0xfd, 0xff, 0xff, 0x00, 0x00, 0x00, 0x01,
  0x10, 0x00, 0x00, 0x00, 0x10, 0x00, 0x00, 0x00, 0x0a, 0x00, 0x00, 0x00,
  0x1c, 0x00, 0x00, 0x00, 0xa8, 0xfd, 0xff, 0xff, 0x0f, 0x00, 0x00, 0x00,
  0x61, 0x72, 0x69, 0x74, 0x68, 0x2e, 0x63, 0x6f, 0x6e, 0x73, 0x74, 0x61,
  0x6e, 0x74, 0x36, 0x00, 0x01, 0x00, 0x00, 0x00, 0x0a, 0x00, 0x00, 0x00,
  0xf6, 0xfd, 0xff, 0xff, 0x00, 0x00, 0x00, 0x01, 0x10, 0x00, 0x00, 0x00,
  0x10, 0x00, 0x00, 0x00, 0x09, 0x00, 0x00, 0x00, 0x1c, 0x00, 0x00, 0x00,
  0xe0, 0xfd, 0xff, 0xff, 0x0f, 0x00, 0x00, 0x00, 0x61, 0x72, 0x69, 0x74,
  0x68, 0x2e, 0x63, 0x6f, 0x6e, 0x73, 0x74, 0x61, 0x6e, 0x74, 0x35, 0x00,
  0x01, 0x00, 0x00, 0x00, 0x0a, 0x00, 0x00, 0x00, 0x2e, 0xfe, 0xff, 0xff,
  0x00, 0x00, 0x00, 0x01, 0x10, 0x00, 0x00, 0x00, 0x10, 0x00, 0x00, 0x00,
  0x08, 0x00, 0x00, 0x00, 0x1c, 0x00, 0x00, 0x00, 0x18, 0xfe, 0xff, 0xff,
  0x0f, 0x00, 0x00, 0x00, 0x61, 0x72, 0x69, 0x74, 0x68, 0x2e, 0x63, 0x6f,
  0x6e, 0x73, 0x74, 0x61, 0x6e, 0x74, 0x34, 0x00, 0x01, 0x00, 0x00, 0x00,
  0x0a, 0x00, 0x00, 0x00, 0x66, 0xfe, 0xff, 0xff, 0x00, 0x00, 0x00, 0x01,
  0x10, 0x00, 0x00, 0x00, 0x10, 0x00, 0x00, 0x00, 0x07, 0x00, 0x00, 0x00,
  0x1c, 0x00, 0x00, 0x00, 0x50, 0xfe, 0xff, 0xff, 0x0f, 0x00, 0x00, 0x00,
  0x61, 0x72, 0x69, 0x74, 0x68, 0x2e, 0x63, 0x6f, 0x6e, 0x73, 0x74, 0x61,
  0x6e, 0x74, 0x33, 0x00, 0x02, 0x00, 0x00, 0x00, 0x0a, 0x00, 0x00, 0x00,
  0x0a, 0x00, 0x00, 0x00, 0xa2, 0xfe, 0xff, 0xff, 0x00, 0x00, 0x00, 0x01,
  0x10, 0x00, 0x00, 0x00, 0x10, 0x00, 0x00, 0x00, 0x06, 0x00, 0x00, 0x00,
  0x1c, 0x00, 0x00, 0x00, 0x8c, 0xfe, 0xff, 0xff, 0x0f, 0x00, 0x00, 0x00,
  0x61, 0x72, 0x69, 0x74, 0x68, 0x2e, 0x63, 0x6f, 0x6e, 0x73, 0x74, 0x61,
  0x6e, 0x74, 0x32, 0x00, 0x02, 0x00, 0x00, 0x00, 0x0a, 0x00, 0x00, 0x00,
  0x0a, 0x00, 0x00, 0x00, 0xde, 0xfe, 0xff, 0xff, 0x00, 0x00, 0x00, 0x01,
  0x10, 0x00, 0x00, 0x00, 0x10, 0x00, 0x00, 0x00, 0x05, 0x00, 0x00, 0x00,
  0x1c, 0x00, 0x00, 0x00, 0xc8, 0xfe, 0xff, 0xff, 0x0f, 0x00, 0x00, 0x00,
  0x61, 0x72, 0x69, 0x74, 0x68, 0x2e, 0x63, 0x6f, 0x6e, 0x73, 0x74, 0x61,
  0x6e, 0x74, 0x31, 0x00, 0x02, 0x00, 0x00, 0x00, 0x0a, 0x00, 0x00, 0x00,
  0x0a, 0x00, 0x00, 0x00, 0x1a, 0xff, 0xff, 0xff, 0x00, 0x00, 0x00, 0x01,
  0x10, 0x00, 0x00, 0x00, 0x10, 0x00, 0x00, 0x00, 0x04, 0x00, 0x00, 0x00,
  0x1c, 0x00, 0x00, 0x00, 0x04, 0xff, 0xff, 0xff, 0x0e, 0x00, 0x00, 0x00,
  0x61, 0x72, 0x69, 0x74, 0x68, 0x2e, 0x63, 0x6f, 0x6e, 0x73, 0x74, 0x61,
  0x6e, 0x74, 0x00, 0x00, 0x02, 0x00, 0x00, 0x00, 0x0a, 0x00, 0x00, 0x00,
  0x0a, 0x00, 0x00, 0x00, 0x56, 0xff, 0xff, 0xff, 0x00, 0x00, 0x00, 0x01,
  0x10, 0x00, 0x00, 0x00, 0x10, 0x00, 0x00, 0x00, 0x03, 0x00, 0x00, 0x00,
  0x34, 0x00, 0x00, 0x00, 0x40, 0xff, 0xff, 0xff, 0x27, 0x00, 0x00, 0x00,
  0x73, 0x65, 0x71, 0x75, 0x65, 0x6e, 0x74, 0x69, 0x61, 0x6c, 0x2f, 0x64,
  0x65, 0x6e, 0x73, 0x65, 0x2f, 0x42, 0x69, 0x61, 0x73, 0x41, 0x64, 0x64,
  0x2f, 0x52, 0x65, 0x61, 0x64, 0x56, 0x61, 0x72, 0x69, 0x61, 0x62, 0x6c,
  0x65, 0x4f, 0x70, 0x00, 0x01, 0x00, 0x00, 0x00, 0x01, 0x00, 0x00, 0x00,
  0x00, 0x00, 0x16, 0x00, 0x14, 0x00, 0x10, 0x00, 0x00, 0x00, 0x00, 0x00,
  0x0c, 0x00, 0x08, 0x00, 0x07, 0x00, 0x00, 0x00, 0x00, 0x00, 0x06, 0x00,
  0x16, 0x00, 0x00, 0x00, 0x00, 0x00, 0x01, 0x01, 0x0c, 0x00, 0x00, 0x00,
  0x0c, 0x00, 0x00, 0x00, 0x24, 0x00, 0x00, 0x00, 0xa4, 0xff, 0xff, 0xff,
  0x15, 0x00, 0x00, 0x00, 0x73, 0x65, 0x71, 0x75, 0x65, 0x6e, 0x74, 0x69,
  0x61, 0x6c, 0x2f, 0x6c, 0x73, 0x74, 0x6d, 0x2f, 0x7a, 0x65, 0x72, 0x6f,
  0x73, 0x00, 0x00, 0x00, 0x02, 0x00, 0x00, 0x00, 0x01, 0x00, 0x00, 0x00,
  0x0a, 0x00, 0x00, 0x00, 0x00, 0x00, 0x16, 0x00, 0x18, 0x00, 0x14, 0x00,
  0x00, 0x00, 0x10, 0x00, 0x0c, 0x00, 0x08, 0x00, 0x00, 0x00, 0x00, 0x00,
  0x00, 0x00, 0x07, 0x00, 0x16, 0x00, 0x00, 0x00, 0x00, 0x00, 0x00, 0x01,
  0x14, 0x00, 0x00, 0x00, 0x14, 0x00, 0x00, 0x00, 0x01, 0x00, 0x00, 0x00,
  0x30, 0x00, 0x00, 0x00, 0x04, 0x00, 0x04, 0x00, 0x04, 0x00, 0x00, 0x00,
  0x1c, 0x00, 0x00, 0x00, 0x73, 0x65, 0x72, 0x76, 0x69, 0x6e, 0x67, 0x5f,
  0x64, 0x65, 0x66, 0x61, 0x75, 0x6c, 0x74, 0x5f, 0x6c, 0x73, 0x74, 0x6d,
  0x5f, 0x69, 0x6e, 0x70, 0x75, 0x74, 0x3a, 0x30, 0x00, 0x00, 0x00, 0x00,
  0x03, 0x00, 0x00, 0x00, 0x01, 0x00, 0x00, 0x00, 0x14, 0x00, 0x00, 0x00,
  0x40, 0x00, 0x00, 0x00, 0x04, 0x00, 0x00, 0x00, 0x40, 0x00, 0x00, 0x00,
  0x24, 0x00, 0x00, 0x00, 0x14, 0x00, 0x00, 0x00, 0x04, 0x00, 0x00, 0x00,
  0xdc, 0xff, 0xff, 0xff, 0x0e, 0x00, 0x00, 0x00, 0x00, 0x00, 0x00, 0x0e,
  0xe8, 0xff, 0xff, 0xff, 0x09, 0x00, 0x00, 0x00, 0x00, 0x00, 0x00, 0x09,
  0xf4, 0xff, 0xff, 0xff, 0x2d, 0x00, 0x00, 0x00, 0x00, 0x00, 0x00, 0x2d,
  0x0c, 0x00, 0x0c, 0x00, 0x0b, 0x00, 0x00, 0x00, 0x00, 0x00, 0x04, 0x00,
  0x0c, 0x00, 0x00, 0x00, 0x2c, 0x00, 0x00, 0x00, 0x00, 0x00, 0x00, 0x2c};
unsigned int model_tflite_len = 15240;

unsigned char* get_model_data() {
  return (unsigned char*)g_tof_detector_model_data;
}
