/* Copyright 2019 The TensorFlow Authors. All Rights Reserved.

Licensed under the Apache License, Version 2.0 (the "License");
you may not use this file except in compliance with the License.
You may obtain a copy of the License at

    http://www.apache.org/licenses/LICENSE-2.0

Unless required by applicable law or agreed to in writing, software
distributed under the License is distributed on an "AS IS" BASIS,
WITHOUT WARRANTIES OR CONDITIONS OF ANY KIND, either express or implied.
See the License for the specific language governing permissions and
limitations under the License.
==============================================================================*/

// Automatically created from a TensorFlow Lite flatbuffer using the command:
// xxd -i magic_wand_model.tflite > magic_wand_model_data.cc
// See the README for a full description of the creation process.

// We need to keep the data array aligned on some architectures.
#ifdef __has_attribute
#define HAVE_ATTRIBUTE(x) __has_attribute(x)
#else
#define HAVE_ATTRIBUTE(x) 0
#endif
#if HAVE_ATTRIBUTE(aligned) || (defined(__GNUC__) && !defined(__clang__))
#define DATA_ALIGN_ATTRIBUTE __attribute__((aligned(4)))
#else
#define DATA_ALIGN_ATTRIBUTE
#endif

const unsigned char g_tof_detector_model_data[] DATA_ALIGN_ATTRIBUTE = {
  0x1c, 0x00, 0x00, 0x00, 0x54, 0x46, 0x4c, 0x33, 0x14, 0x00, 0x20, 0x00,
  0x1c, 0x00, 0x18, 0x00, 0x14, 0x00, 0x10, 0x00, 0x0c, 0x00, 0x00, 0x00,
  0x08, 0x00, 0x04, 0x00, 0x14, 0x00, 0x00, 0x00, 0x1c, 0x00, 0x00, 0x00,
  0x84, 0x00, 0x00, 0x00, 0xdc, 0x00, 0x00, 0x00, 0x48, 0x32, 0x00, 0x00,
  0x58, 0x32, 0x00, 0x00, 0x04, 0x3b, 0x00, 0x00, 0x03, 0x00, 0x00, 0x00,
  0x01, 0x00, 0x00, 0x00, 0x04, 0x00, 0x00, 0x00, 0x6a, 0xcd, 0xff, 0xff,
  0x0c, 0x00, 0x00, 0x00, 0x1c, 0x00, 0x00, 0x00, 0x38, 0x00, 0x00, 0x00,
  0x0f, 0x00, 0x00, 0x00, 0x73, 0x65, 0x72, 0x76, 0x69, 0x6e, 0x67, 0x5f,
  0x64, 0x65, 0x66, 0x61, 0x75, 0x6c, 0x74, 0x00, 0x01, 0x00, 0x00, 0x00,
  0x04, 0x00, 0x00, 0x00, 0x98, 0xff, 0xff, 0xff, 0x17, 0x00, 0x00, 0x00,
  0x04, 0x00, 0x00, 0x00, 0x05, 0x00, 0x00, 0x00, 0x64, 0x65, 0x6e, 0x73,
  0x65, 0x00, 0x00, 0x00, 0x01, 0x00, 0x00, 0x00, 0x04, 0x00, 0x00, 0x00,
  0x5e, 0xce, 0xff, 0xff, 0x04, 0x00, 0x00, 0x00, 0x0a, 0x00, 0x00, 0x00,
  0x6c, 0x73, 0x74, 0x6d, 0x5f, 0x69, 0x6e, 0x70, 0x75, 0x74, 0x00, 0x00,
  0x02, 0x00, 0x00, 0x00, 0x34, 0x00, 0x00, 0x00, 0x04, 0x00, 0x00, 0x00,
  0xdc, 0xff, 0xff, 0xff, 0x1a, 0x00, 0x00, 0x00, 0x04, 0x00, 0x00, 0x00,
  0x13, 0x00, 0x00, 0x00, 0x43, 0x4f, 0x4e, 0x56, 0x45, 0x52, 0x53, 0x49,
  0x4f, 0x4e, 0x5f, 0x4d, 0x45, 0x54, 0x41, 0x44, 0x41, 0x54, 0x41, 0x00,
  0x08, 0x00, 0x0c, 0x00, 0x08, 0x00, 0x04, 0x00, 0x08, 0x00, 0x00, 0x00,
  0x19, 0x00, 0x00, 0x00, 0x04, 0x00, 0x00, 0x00, 0x13, 0x00, 0x00, 0x00,
  0x6d, 0x69, 0x6e, 0x5f, 0x72, 0x75, 0x6e, 0x74, 0x69, 0x6d, 0x65, 0x5f,
  0x76, 0x65, 0x72, 0x73, 0x69, 0x6f, 0x6e, 0x00, 0x1b, 0x00, 0x00, 0x00,
  0x68, 0x31, 0x00, 0x00, 0x60, 0x31, 0x00, 0x00, 0x28, 0x31, 0x00, 0x00,
  0x0c, 0x31, 0x00, 0x00, 0x6c, 0x2f, 0x00, 0x00, 0xcc, 0x2d, 0x00, 0x00,
  0x2c, 0x2c, 0x00, 0x00, 0x8c, 0x2a, 0x00, 0x00, 0x54, 0x2a, 0x00, 0x00,
  0x1c, 0x2a, 0x00, 0x00, 0xe4, 0x29, 0x00, 0x00, 0xac, 0x29, 0x00, 0x00,
  0x9c, 0x1f, 0x00, 0x00, 0x8c, 0x15, 0x00, 0x00, 0x7c, 0x0b, 0x00, 0x00,
  0x6c, 0x01, 0x00, 0x00, 0x34, 0x01, 0x00, 0x00, 0x18, 0x01, 0x00, 0x00,
  0xfc, 0x00, 0x00, 0x00, 0xe0, 0x00, 0x00, 0x00, 0xa8, 0x00, 0x00, 0x00,
  0xa0, 0x00, 0x00, 0x00, 0x98, 0x00, 0x00, 0x00, 0x90, 0x00, 0x00, 0x00,
  0x88, 0x00, 0x00, 0x00, 0x68, 0x00, 0x00, 0x00, 0x04, 0x00, 0x00, 0x00,
  0x42, 0xcf, 0xff, 0xff, 0x04, 0x00, 0x00, 0x00, 0x54, 0x00, 0x00, 0x00,
  0x0c, 0x00, 0x00, 0x00, 0x08, 0x00, 0x0e, 0x00, 0x08, 0x00, 0x04, 0x00,
  0x08, 0x00, 0x00, 0x00, 0x10, 0x00, 0x00, 0x00, 0x24, 0x00, 0x00, 0x00,
  0x00, 0x00, 0x06, 0x00, 0x08, 0x00, 0x04, 0x00, 0x06, 0x00, 0x00, 0x00,
  0x04, 0x00, 0x00, 0x00, 0x00, 0x00, 0x00, 0x00, 0x00, 0x00, 0x0a, 0x00,
  0x10, 0x00, 0x0c, 0x00, 0x08, 0x00, 0x04, 0x00, 0x0a, 0x00, 0x00, 0x00,
  0x02, 0x00, 0x00, 0x00, 0x02, 0x00, 0x00, 0x00, 0x04, 0x00, 0x00, 0x00,
  0x06, 0x00, 0x00, 0x00, 0x32, 0x2e, 0x31, 0x35, 0x2e, 0x30, 0x00, 0x00,
  0xa2, 0xcf, 0xff, 0xff, 0x04, 0x00, 0x00, 0x00, 0x10, 0x00, 0x00, 0x00,
  0x31, 0x2e, 0x31, 0x34, 0x2e, 0x30, 0x00, 0x00, 0x00, 0x00, 0x00, 0x00,
  0x00, 0x00, 0x00, 0x00, 0xf4, 0xc6, 0xff, 0xff, 0xf8, 0xc6, 0xff, 0xff,
  0xfc, 0xc6, 0xff, 0xff, 0x00, 0xc7, 0xff, 0xff, 0xce, 0xcf, 0xff, 0xff,
  0x04, 0x00, 0x00, 0x00, 0x28, 0x00, 0x00, 0x00, 0x00, 0x00, 0x00, 0x00,
  0x00, 0x00, 0x00, 0x00, 0x00, 0x00, 0x00, 0x00, 0x00, 0x00, 0x00, 0x00,
  0x00, 0x00, 0x00, 0x00, 0x00, 0x00, 0x00, 0x00, 0x00, 0x00, 0x00, 0x00,
  0x00, 0x00, 0x00, 0x00, 0x00, 0x00, 0x00, 0x00, 0x00, 0x00, 0x00, 0x00,
  0x02, 0xd0, 0xff, 0xff, 0x04, 0x00, 0x00, 0x00, 0x0c, 0x00, 0x00, 0x00,
  0x01, 0x00, 0x00, 0x00, 0x01, 0x00, 0x00, 0x00, 0x01, 0x00, 0x00, 0x00,
  0x1a, 0xd0, 0xff, 0xff, 0x04, 0x00, 0x00, 0x00, 0x0c, 0x00, 0x00, 0x00,
  0x00, 0x00, 0x00, 0x00, 0x00, 0x00, 0x00, 0x00, 0x00, 0x00, 0x00, 0x00,
  0x32, 0xd0, 0xff, 0xff, 0x04, 0x00, 0x00, 0x00, 0x0c, 0x00, 0x00, 0x00,
  0x00, 0x00, 0x00, 0x00, 0xff, 0xff, 0xff, 0xff, 0x00, 0x00, 0x00, 0x00,
  0x4a, 0xd0, 0xff, 0xff, 0x04, 0x00, 0x00, 0x00, 0x28, 0x00, 0x00, 0x00,
  0x98, 0xb0, 0xa0, 0xbf, 0xf3, 0x38, 0x13, 0x3f, 0xf1, 0x37, 0xa3, 0x3f,
  0xef, 0xbb, 0xf8, 0x3d, 0x91, 0xc5, 0x95, 0x3f, 0x7a, 0x47, 0xa6, 0x3f,
  0xbb, 0x01, 0x05, 0xbf, 0x3f, 0x77, 0x57, 0xbf, 0xbc, 0x86, 0x27, 0x3f,
  0xda, 0x5d, 0x42, 0xbf, 0x7e, 0xd0, 0xff, 0xff, 0x04, 0x00, 0x00, 0x00,
  0x00, 0x0a, 0x00, 0x00, 0xda, 0x96, 0x8e, 0xbc, 0x0e, 0xa5, 0x90, 0x3e,
  0x85, 0x73, 0x8c, 0x3d, 0xa1, 0x05, 0x84, 0x3e, 0x15, 0x54, 0x16, 0x3e,
  0x37, 0xd5, 0x3d, 0x3e, 0x74, 0xcf, 0xe6, 0x3e, 0x17, 0x05, 0xf6, 0x3e,
  0x94, 0x37, 0x3a, 0x3d, 0x2b, 0x38, 0x09, 0xbe, 0xc4, 0x74, 0x87, 0x3e,
  0x8b, 0x6b, 0x99, 0xbd, 0x75, 0x09, 0x1f, 0x3d, 0xd0, 0xc8, 0x64, 0x3e,
  0xb8, 0xaf, 0xd4, 0x3e, 0x7a, 0xa1, 0xbf, 0x3e, 0x67, 0xee, 0x53, 0x3e,
  0x71, 0xa1, 0x73, 0x3e, 0xf5, 0x07, 0x66, 0xbd, 0xda, 0x97, 0xc5, 0x3d,
  0x3c, 0xcc, 0x64, 0x3d, 0x99, 0x0c, 0x0a, 0x3d, 0x9b, 0x61, 0x77, 0x3e,
  0x27, 0x46, 0xfc, 0x3e, 0xfe, 0xe5, 0x0a, 0x3e, 0x72, 0x1b, 0x9f, 0xbd,
  0x49, 0x26, 0x39, 0x3e, 0x11, 0x81, 0xa1, 0x3d, 0x3a, 0xca, 0xe6, 0xbd,
  0x8a, 0xe2, 0xa1, 0x3e, 0xc1, 0xb8, 0x4f, 0x3e, 0x3c, 0x2e, 0xe6, 0x3e,
  0x43, 0x41, 0xd5, 0x3d, 0x51, 0xb3, 0x00, 0xbe, 0x76, 0x49, 0x84, 0xbe,
  0x5d, 0xbd, 0x08, 0xbd, 0x30, 0x51, 0x49, 0x3e, 0x06, 0x95, 0x9d, 0x3d,
  0xdd, 0x2c, 0x93, 0x3e, 0x6e, 0xf3, 0xbd, 0x3e, 0xb6, 0xf9, 0x19, 0xbb,
  0x5b, 0x8b, 0xac, 0x3d, 0x25, 0x78, 0xec, 0x3d, 0x69, 0x16, 0x09, 0xbe,
  0x95, 0xb9, 0x48, 0x3e, 0xba, 0x0b, 0x2c, 0x3e, 0xcd, 0x1e, 0xd1, 0x3d,
  0x21, 0x90, 0x95, 0x3e, 0x64, 0x93, 0xa6, 0x3d, 0x34, 0x2f, 0x1c, 0xbe,
  0xd0, 0x3e, 0x82, 0x3d, 0xf3, 0xb6, 0x0e, 0xbe, 0x65, 0x3b, 0xe8, 0x3d,
  0x95, 0xae, 0x84, 0x3e, 0xf2, 0x87, 0xda, 0x3d, 0xc2, 0xf3, 0x90, 0x3e,
  0xf2, 0xaa, 0x23, 0x3e, 0xf0, 0xa2, 0xc4, 0xbc, 0x70, 0xc4, 0x24, 0x3e,
  0xc4, 0x57, 0x3b, 0x3e, 0xaf, 0x57, 0x29, 0x3b, 0xb5, 0x3a, 0x67, 0x3e,
  0xa1, 0xe5, 0xd3, 0x3e, 0x4d, 0xd9, 0x1a, 0x3f, 0x35, 0x7b, 0xa6, 0x3e,
  0xa5, 0x8e, 0xd2, 0x3d, 0x44, 0xa8, 0x2a, 0x3e, 0x3f, 0x8b, 0xdb, 0x3e,
  0x80, 0xef, 0x9b, 0x3e, 0x05, 0x13, 0x18, 0xbe, 0x4b, 0x0e, 0xe1, 0xbb,
  0x38, 0x91, 0x0a, 0xbe, 0x1a, 0xf4, 0x9f, 0x3d, 0x79, 0x47, 0xc0, 0x3d,
  0x81, 0xed, 0x8b, 0x3e, 0xc0, 0x6f, 0x80, 0x3d, 0xf6, 0xa0, 0xac, 0xbd,
  0x6c, 0x61, 0x58, 0xbe, 0x90, 0xac, 0x02, 0x3e, 0x86, 0x4a, 0xbe, 0xbc,
  0x5a, 0x76, 0xe2, 0xbd, 0x5d, 0x05, 0x28, 0x3e, 0xcd, 0x1c, 0x86, 0x3d,
  0x3d, 0x1b, 0x60, 0xbe, 0x97, 0x60, 0x08, 0xbe, 0x3d, 0xf9, 0x61, 0xbe,
  0xaf, 0x24, 0xe7, 0xbd, 0x4b, 0xca, 0x3a, 0x3e, 0x33, 0xbb, 0xba, 0x3d,
  0x13, 0x2b, 0x8c, 0x3d, 0x9b, 0x38, 0x8b, 0xbe, 0x9d, 0x9b, 0xa3, 0xbe,
  0x9b, 0xe7, 0x30, 0x3c, 0xdb, 0x96, 0x0e, 0x3e, 0x60, 0xe0, 0x53, 0x3e,
  0x37, 0x3b, 0x45, 0xbc, 0x6a, 0x62, 0x92, 0xbd, 0x32, 0x28, 0xb2, 0xbd,
  0x52, 0x0e, 0x0f, 0x3e, 0xf4, 0x6a, 0x9d, 0xbd, 0xe3, 0xcd, 0x4e, 0xba,
  0x1c, 0x21, 0xb8, 0xbc, 0xfe, 0x28, 0x37, 0xbe, 0x57, 0xbb, 0xa7, 0x3e,
  0x40, 0xa1, 0x3d, 0x3e, 0xa8, 0x41, 0x9c, 0xbd, 0xce, 0x61, 0x85, 0xbe,
  0x07, 0xcf, 0x5a, 0xbe, 0xbb, 0x79, 0xcc, 0x3d, 0xfd, 0x14, 0x12, 0x3e,
  0x61, 0x06, 0x1f, 0xbe, 0x0c, 0x91, 0x1a, 0x3e, 0x47, 0x7c, 0xef, 0xbd,
  0xcd, 0xa4, 0xac, 0xbd, 0x70, 0x7f, 0xae, 0xbe, 0xb9, 0x49, 0x92, 0xbe,
  0xd1, 0x67, 0x14, 0xbe, 0xe1, 0xbd, 0x87, 0xbe, 0xa7, 0x3e, 0xb9, 0xbd,
  0xab, 0x42, 0x99, 0x3e, 0xf8, 0x0c, 0x8f, 0x3d, 0x5c, 0xfb, 0x14, 0xbd,
  0x0e, 0x00, 0x82, 0xbc, 0x3e, 0xe9, 0xb6, 0xbe, 0xe8, 0x9e, 0x71, 0xbe,
  0xc2, 0x41, 0x9d, 0x3d, 0xf3, 0xe9, 0x75, 0x3e, 0x72, 0x04, 0x05, 0x3f,
  0x6c, 0x4f, 0xc7, 0x3e, 0x53, 0xae, 0x36, 0x3e, 0xd5, 0x17, 0xd6, 0x3d,
  0xe2, 0x5b, 0x7d, 0x3e, 0xe8, 0x17, 0x66, 0x3e, 0x98, 0x5f, 0xe5, 0x3e,
  0xb1, 0xd0, 0x0b, 0x3f, 0x8c, 0x2a, 0xdd, 0x3e, 0xb4, 0x70, 0x2b, 0x3d,
  0x4f, 0x8f, 0x8d, 0x3e, 0x19, 0x73, 0x67, 0x3e, 0xdb, 0x01, 0x85, 0x3e,
  0xfc, 0x9e, 0x84, 0x3e, 0x87, 0x1b, 0x0e, 0xbe, 0x2c, 0x05, 0x0a, 0xbe,
  0x47, 0xc5, 0x20, 0x3e, 0xc7, 0x84, 0x6a, 0x3e, 0x72, 0x69, 0xfb, 0x3c,
  0x5d, 0x55, 0x1f, 0x3c, 0x55, 0x5e, 0x0e, 0xbe, 0x68, 0x5a, 0x4c, 0xbe,
  0xb9, 0xa8, 0x0a, 0x3e, 0x48, 0x07, 0xa8, 0x3d, 0x7c, 0x79, 0xca, 0x3d,
  0xeb, 0xc0, 0x45, 0x3d, 0xcd, 0xca, 0x6e, 0x3e, 0x9c, 0x80, 0x5f, 0x3e,
  0xc3, 0x0c, 0x17, 0xbe, 0xa2, 0x89, 0x9f, 0xbd, 0x9f, 0x52, 0x52, 0xbe,
  0x27, 0x6e, 0xc3, 0xbd, 0x5d, 0x1e, 0x90, 0x3d, 0x28, 0x91, 0xb9, 0x3e,
  0x58, 0xf3, 0x80, 0x3e, 0x21, 0x5b, 0x40, 0x3e, 0x7e, 0x4e, 0x5f, 0x3e,
  0x46, 0x00, 0x2a, 0x3e, 0xaa, 0x2d, 0x9e, 0x3c, 0xba, 0x09, 0x21, 0x3e,
  0x9f, 0xf9, 0xe5, 0xbd, 0xd9, 0x49, 0xc3, 0x3e, 0x50, 0x9d, 0x00, 0x3d,
  0x3e, 0xa5, 0x9b, 0x3e, 0x97, 0x41, 0xa9, 0xbd, 0x56, 0x58, 0x1f, 0x3e,
  0x65, 0x63, 0x2c, 0x3d, 0xa5, 0x5a, 0x9e, 0x3e, 0xfa, 0x37, 0x06, 0x3d,
  0x81, 0x4c, 0xb4, 0xbd, 0xce, 0x67, 0x21, 0x3c, 0x29, 0x60, 0x65, 0x3d,
  0x30, 0x00, 0x85, 0x3d, 0x39, 0x65, 0x03, 0xbe, 0x23, 0x24, 0x75, 0x3c,
  0x83, 0xf5, 0x69, 0x3d, 0xa3, 0xa4, 0x67, 0x3d, 0x64, 0x03, 0xa5, 0x3e,
  0xd2, 0xfe, 0x72, 0x3d, 0x5d, 0xd3, 0x12, 0x3e, 0x30, 0xab, 0x7f, 0x3e,
  0x3d, 0x01, 0xce, 0x3d, 0xea, 0xe4, 0x21, 0xbb, 0x5b, 0x9a, 0xc3, 0x3d,
  0xa8, 0xcf, 0x1a, 0x3e, 0xde, 0x11, 0xb8, 0x3b, 0x84, 0xca, 0x52, 0x3d,
  0xeb, 0xac, 0x80, 0x3d, 0x29, 0x1a, 0x09, 0x3c, 0x97, 0xb0, 0xdd, 0xbd,
  0xf3, 0x50, 0x66, 0xbe, 0x6c, 0x37, 0x76, 0xbc, 0x6e, 0x20, 0x62, 0xbe,
  0x3c, 0x6d, 0xbd, 0x3d, 0x71, 0x3c, 0xbf, 0x3d, 0x39, 0x90, 0xd3, 0xbd,
  0xcf, 0x40, 0xb0, 0xbd, 0xb9, 0xf4, 0x46, 0xbe, 0x1e, 0x45, 0x19, 0xbe,
  0x66, 0x67, 0x43, 0x3e, 0x01, 0xcc, 0x16, 0x3e, 0x75, 0xdc, 0x0d, 0x3c,
  0x29, 0x7a, 0x4f, 0xbe, 0xb5, 0xed, 0x9d, 0x3d, 0x93, 0xe8, 0x6c, 0xbd,
  0xa8, 0xfc, 0xff, 0x3d, 0xf4, 0x74, 0x70, 0x3d, 0x09, 0x5f, 0x52, 0xbe,
  0xf2, 0x81, 0x23, 0x3e, 0xeb, 0x28, 0x2b, 0x3e, 0x24, 0x63, 0x21, 0xbe,
  0xe2, 0xd1, 0x32, 0xbd, 0x69, 0xc8, 0x74, 0xbe, 0xa2, 0x17, 0x1c, 0x3e,
  0xf3, 0x5a, 0x80, 0x3c, 0x3e, 0x63, 0x62, 0x3d, 0x4f, 0xb4, 0x26, 0x3e,
  0xa2, 0xc2, 0xf6, 0xbd, 0x01, 0x94, 0x43, 0xbe, 0x77, 0x58, 0x4a, 0x3d,
  0x5d, 0x1e, 0xc1, 0xbc, 0x33, 0xba, 0x93, 0xbe, 0x09, 0x9a, 0x99, 0xbe,
  0xe9, 0xe9, 0xf3, 0x3c, 0xb0, 0xa3, 0xff, 0x3d, 0xc0, 0xb7, 0x94, 0x3e,
  0xb3, 0x99, 0x11, 0xbd, 0x4a, 0x22, 0x0f, 0x3d, 0x23, 0x33, 0xf3, 0xbd,
  0xb7, 0x90, 0x54, 0x3e, 0xd0, 0xb6, 0x76, 0xbe, 0xf3, 0x10, 0x11, 0x3e,
  0x42, 0xe3, 0x49, 0x3e, 0xd5, 0x92, 0x2c, 0x3e, 0xdb, 0x41, 0xad, 0x3d,
  0x63, 0x0a, 0xc1, 0x3d, 0x39, 0x5b, 0xa0, 0xbe, 0x6b, 0xe2, 0x4a, 0x3e,
  0x73, 0x01, 0x11, 0xbe, 0x64, 0xbe, 0xf4, 0xbd, 0xc4, 0xbe, 0xd4, 0xbd,
  0xfb, 0xc7, 0x39, 0x3e, 0xb4, 0x89, 0x4f, 0x3d, 0x75, 0xfe, 0x51, 0x3e,
  0x93, 0xe6, 0x2b, 0xbd, 0xe1, 0xd0, 0x85, 0x3d, 0xee, 0xaf, 0x1f, 0x3e,
  0xc7, 0xc8, 0xf2, 0xbc, 0x1d, 0xa1, 0x99, 0x3d, 0x60, 0xa4, 0xf4, 0x3e,
  0xd1, 0x28, 0x18, 0x3e, 0xf2, 0xde, 0xf5, 0xbd, 0x30, 0x07, 0x98, 0x3e,
  0x0b, 0xbc, 0x4d, 0x3e, 0xbe, 0x95, 0xd4, 0x3e, 0x84, 0x8a, 0x13, 0x3e,
  0x70, 0x88, 0xc5, 0x3d, 0xf7, 0xbb, 0x95, 0x3e, 0x4e, 0xb7, 0x7e, 0x3a,
  0x99, 0x26, 0x95, 0xbc, 0x48, 0x17, 0x06, 0xbe, 0x96, 0x07, 0xcf, 0x3d,
  0x50, 0xe0, 0x69, 0xbe, 0x01, 0x72, 0xa8, 0x3d, 0xde, 0x9e, 0x24, 0x3e,
  0xcc, 0xbe, 0xb2, 0x3e, 0x17, 0x6c, 0xc6, 0xbc, 0xf9, 0x4e, 0xa6, 0x3b,
  0x1a, 0x69, 0x37, 0xbc, 0x9c, 0xe9, 0x60, 0x3e, 0x45, 0x3a, 0x12, 0xbd,
  0x73, 0x6e, 0x11, 0x3d, 0x8a, 0xca, 0xbc, 0xbd, 0x17, 0xdf, 0xbd, 0x3e,
  0x38, 0x55, 0xe2, 0x3c, 0x3a, 0x69, 0x9f, 0x3e, 0x5c, 0xa9, 0x21, 0xbe,
  0x09, 0x1e, 0x5f, 0xbe, 0x09, 0x3e, 0x8a, 0xbe, 0xa9, 0xf4, 0xa0, 0xbe,
  0x05, 0x2d, 0x34, 0xbe, 0x23, 0x2d, 0x91, 0x3e, 0x48, 0x74, 0x07, 0xbe,
  0x72, 0xc2, 0xec, 0x3d, 0x71, 0x12, 0x10, 0x3e, 0xbd, 0xcf, 0xbd, 0xbd,
  0x2a, 0x97, 0x14, 0xbe, 0x72, 0x6c, 0x0b, 0xbe, 0x2a, 0x39, 0xb6, 0xbd,
  0x46, 0x94, 0xb0, 0x3d, 0x98, 0xc8, 0x65, 0xbc, 0x88, 0x00, 0x80, 0x3e,
  0x1c, 0x1a, 0x42, 0x3e, 0x55, 0xd2, 0x55, 0xbe, 0x00, 0x82, 0x1f, 0xbe,
  0x97, 0xc0, 0xfa, 0xbb, 0x62, 0x75, 0x3b, 0x3b, 0xbd, 0xf7, 0x2b, 0xbd,
  0x86, 0x1e, 0x77, 0x3d, 0x88, 0xf5, 0xb9, 0x3c, 0xd1, 0x56, 0x08, 0x3e,
  0xa3, 0xc2, 0x9e, 0x3e, 0xf0, 0xc3, 0x9e, 0x3e, 0x02, 0xbe, 0x92, 0x3d,
  0xbd, 0x56, 0x20, 0x3e, 0xc6, 0xe5, 0xd2, 0x3d, 0x2c, 0x2d, 0x58, 0x3e,
  0x00, 0xf1, 0xe9, 0xbc, 0xfa, 0x23, 0xae, 0x3e, 0x90, 0xd5, 0x1f, 0x3e,
  0xe3, 0x5b, 0x68, 0x3e, 0xcf, 0xe5, 0xd6, 0xbd, 0x01, 0x80, 0xd2, 0x3d,
  0x6a, 0x6a, 0x09, 0x3e, 0x8b, 0xee, 0xea, 0x3e, 0x06, 0x22, 0x3a, 0x3e,
  0x70, 0xc5, 0x9f, 0x3e, 0x44, 0x9b, 0x38, 0x3e, 0xd5, 0xbd, 0x1b, 0x3f,
  0x75, 0x13, 0xc3, 0x3e, 0x4f, 0x3f, 0x14, 0x3e, 0x1d, 0x97, 0x95, 0x3e,
  0x65, 0xcb, 0xb2, 0x3e, 0x98, 0xe6, 0xb8, 0x3e, 0x81, 0xe7, 0xa0, 0x3c,
  0x7f, 0xdc, 0xef, 0xbc, 0x72, 0x03, 0x51, 0x3d, 0x35, 0xfe, 0x33, 0x3e,
  0x36, 0x1e, 0x22, 0x3e, 0x52, 0x81, 0x6d, 0x3e, 0xc4, 0x42, 0x9f, 0x3c,
  0x64, 0x3d, 0x4a, 0xbc, 0x4a, 0x35, 0xa0, 0x3e, 0x1d, 0xf6, 0x7f, 0xbd,
  0x63, 0x4a, 0x7e, 0x3e, 0x23, 0xd8, 0x7f, 0x3e, 0x0b, 0x0b, 0x9e, 0x3d,
  0x12, 0xa6, 0xdc, 0x3e, 0xa4, 0xdf, 0x07, 0x3e, 0x5b, 0x50, 0x50, 0x3e,
  0x23, 0xe8, 0x6c, 0x3d, 0xaf, 0x9f, 0x32, 0x3d, 0xd2, 0x67, 0x28, 0xbe,
  0x52, 0x7a, 0x95, 0x3e, 0x5c, 0x04, 0xb4, 0x3e, 0x9e, 0xd2, 0x5d, 0x3c,
  0xd6, 0x71, 0x99, 0x3e, 0xc3, 0xf9, 0x98, 0x3e, 0x51, 0xa6, 0xaa, 0x3e,
  0xc0, 0x1f, 0x74, 0x3e, 0x3d, 0x42, 0x1b, 0x3c, 0x6d, 0xb8, 0x95, 0x3e,
  0x48, 0x0d, 0xe2, 0x3e, 0x44, 0x8b, 0x8e, 0x3e, 0x4c, 0x78, 0x70, 0x3e,
  0x2b, 0xe9, 0x8c, 0x3e, 0x85, 0xf5, 0xe7, 0x3b, 0x1a, 0xd3, 0x81, 0xbd,
  0xe5, 0x6b, 0xba, 0x3e, 0x25, 0xef, 0x8a, 0x3e, 0x7e, 0x50, 0xc8, 0x3e,
  0xcb, 0xdf, 0x81, 0x3e, 0xe3, 0x95, 0x84, 0x3d, 0x13, 0xb7, 0xd3, 0xbd,
  0x90, 0xe8, 0x3a, 0xbd, 0x8d, 0xf1, 0x9c, 0x3d, 0xd2, 0xb5, 0xfb, 0x3d,
  0xb2, 0x6b, 0x84, 0x3c, 0x1c, 0x65, 0xa4, 0x3e, 0x93, 0x3f, 0x99, 0x3e,
  0xaf, 0xd3, 0x3a, 0x3d, 0xb5, 0xf9, 0x59, 0x3d, 0x89, 0x37, 0x0d, 0x3d,
  0x22, 0x35, 0x6a, 0x3e, 0x59, 0xcb, 0x13, 0xbd, 0x00, 0x92, 0xa4, 0x3e,
  0x25, 0x14, 0xa9, 0x3d, 0xde, 0x75, 0x31, 0x3e, 0x0c, 0x44, 0x3f, 0x3e,
  0x55, 0x24, 0xdf, 0xbc, 0x04, 0xde, 0x15, 0x3e, 0x9a, 0xec, 0x46, 0x3e,
  0xdb, 0x03, 0xa2, 0xbc, 0x22, 0xb8, 0xbb, 0x3e, 0xfc, 0x08, 0xe5, 0x3e,
  0x14, 0xeb, 0xa0, 0xbd, 0x60, 0x19, 0x6e, 0xbd, 0x41, 0x22, 0x50, 0x3e,
  0x7c, 0x10, 0x4c, 0x3c, 0x93, 0xb2, 0x48, 0x3e, 0x27, 0xeb, 0x17, 0x3e,
  0x44, 0x1d, 0x4d, 0x3e, 0x76, 0xfb, 0x68, 0x3e, 0x96, 0x4f, 0x26, 0x3e,
  0x43, 0x5d, 0xac, 0x3e, 0x5d, 0xb6, 0x3f, 0xbd, 0x01, 0x57, 0x31, 0x3e,
  0xa2, 0xab, 0x70, 0xbb, 0x03, 0x88, 0x6f, 0x3e, 0xb9, 0x66, 0x0e, 0x3f,
  0xa9, 0x73, 0xc0, 0x3e, 0xe7, 0x1f, 0xef, 0x3d, 0x07, 0xde, 0x71, 0xbc,
  0xaa, 0xda, 0x59, 0x3e, 0xdb, 0x23, 0xcf, 0x3e, 0x63, 0xcb, 0xc8, 0x3e,
  0x99, 0x15, 0xc5, 0x3d, 0xf5, 0x08, 0xf5, 0xbd, 0x85, 0x63, 0x96, 0x3e,
  0xe1, 0x4e, 0x9d, 0x3b, 0x33, 0x7e, 0x09, 0x3e, 0x21, 0x91, 0x15, 0xbe,
  0xf5, 0x80, 0x35, 0x3e, 0x5d, 0x18, 0x59, 0x3e, 0x16, 0x2c, 0x03, 0xbd,
  0x42, 0x78, 0x2b, 0x3e, 0x70, 0x6e, 0x66, 0x3e, 0xe5, 0xde, 0xdf, 0xbd,
  0x42, 0xf7, 0xa1, 0x3e, 0x5f, 0xf2, 0x86, 0xbd, 0x11, 0xf6, 0x45, 0x3e,
  0x18, 0xfa, 0xf0, 0x3d, 0xe0, 0xe2, 0x78, 0x3e, 0xb8, 0xd1, 0x5f, 0x3c,
  0x64, 0xd4, 0x66, 0x3d, 0xe8, 0x27, 0xc0, 0x3d, 0x46, 0xff, 0x8e, 0x3e,
  0x68, 0x72, 0xd8, 0x3d, 0x42, 0x31, 0x42, 0x3e, 0xe9, 0x72, 0x46, 0x3e,
  0x1a, 0x47, 0x87, 0x3e, 0x40, 0x13, 0x5c, 0x3d, 0xe1, 0x2f, 0x0e, 0xbd,
  0x12, 0x6b, 0x32, 0xbe, 0x52, 0xdb, 0x95, 0x3e, 0x97, 0xeb, 0xa1, 0x3e,
  0xf6, 0x83, 0xfb, 0x3e, 0xc3, 0x9a, 0xc1, 0x3e, 0x9f, 0x48, 0x61, 0x3e,
  0x10, 0x32, 0x85, 0x3c, 0x87, 0x85, 0xfb, 0x3e, 0xa5, 0xc6, 0x9c, 0x3e,
  0x15, 0x49, 0xb7, 0x3e, 0x9d, 0x57, 0xbf, 0x3e, 0x58, 0x60, 0x9d, 0x3e,
  0xf5, 0xef, 0xa6, 0x3e, 0xe7, 0xc5, 0xf4, 0x3d, 0x68, 0x25, 0xcf, 0x3e,
  0xc4, 0x45, 0x57, 0x3e, 0xa4, 0xe1, 0xc3, 0x3d, 0xfc, 0x59, 0x55, 0x3d,
  0x6d, 0x13, 0x38, 0xbd, 0x64, 0xd0, 0x76, 0x3d, 0xec, 0x45, 0x63, 0x3e,
  0x98, 0x8b, 0x29, 0x3e, 0xa2, 0x1e, 0x13, 0x3e, 0xbb, 0xba, 0x80, 0x3e,
  0xf1, 0xbe, 0x61, 0x3e, 0x05, 0xf3, 0x13, 0x3e, 0x23, 0xe0, 0x57, 0xbd,
  0xf4, 0x00, 0x28, 0xbd, 0x85, 0x38, 0x30, 0x3e, 0x27, 0x9e, 0x08, 0xbe,
  0x1e, 0x12, 0x7f, 0x3e, 0x1a, 0xc4, 0x06, 0x3d, 0x24, 0x55, 0x5c, 0x3e,
  0xa7, 0x0a, 0x8e, 0x3e, 0x6b, 0x2d, 0x45, 0x3e, 0x4f, 0xfe, 0xf6, 0x3d,
  0xad, 0xc9, 0x95, 0x3e, 0x54, 0x1d, 0x18, 0xbe, 0xa3, 0xb3, 0x5e, 0x3d,
  0x99, 0xac, 0x83, 0x3e, 0xd4, 0xfe, 0x59, 0x3e, 0x6b, 0x6b, 0x43, 0xbe,
  0x25, 0x26, 0xb0, 0xbd, 0x1a, 0x24, 0x42, 0x3e, 0xf2, 0xba, 0x53, 0xbe,
  0x04, 0xe2, 0xbc, 0x3d, 0x76, 0xd1, 0x9b, 0xbd, 0x68, 0x99, 0xb4, 0x3c,
  0x71, 0x8d, 0x0f, 0x3e, 0x4a, 0xd2, 0xb9, 0xbd, 0x48, 0x6a, 0x91, 0xbd,
  0x4c, 0xc2, 0x2b, 0x3d, 0x3b, 0xa8, 0xc7, 0x3d, 0xe8, 0x9c, 0x2a, 0x3d,
  0xc9, 0x9e, 0x04, 0xbd, 0x14, 0xa9, 0x76, 0x3e, 0x67, 0x8f, 0x9a, 0x3e,
  0x0a, 0xb6, 0x1c, 0xbe, 0x22, 0x4d, 0xf9, 0x3c, 0x93, 0x75, 0x05, 0x3e,
  0xdd, 0x75, 0x78, 0x3e, 0x33, 0x1d, 0xb6, 0x3e, 0x42, 0x67, 0xd6, 0x3d,
  0xbc, 0xf2, 0x03, 0x3e, 0xbe, 0xbb, 0xce, 0x3d, 0x33, 0xf2, 0x38, 0x3b,
  0xef, 0x89, 0x20, 0x3d, 0x3d, 0xa1, 0x68, 0xbe, 0x5a, 0x98, 0x38, 0xbe,
  0x92, 0x33, 0xc0, 0x3e, 0xe1, 0x4f, 0x32, 0x3e, 0x40, 0x22, 0xd4, 0x3d,
  0x76, 0x85, 0xe5, 0x3e, 0x9a, 0x21, 0x8f, 0x3e, 0x6d, 0xa5, 0x0a, 0x3e,
  0xb1, 0xbb, 0x24, 0x3d, 0x69, 0xe1, 0xb5, 0xbb, 0xc4, 0x96, 0x4a, 0x3e,
  0x8b, 0x5c, 0xbc, 0xbc, 0xa5, 0x98, 0xe9, 0x3d, 0x9e, 0x20, 0x7d, 0x3e,
  0xfe, 0x72, 0x88, 0x3e, 0x99, 0x31, 0xa3, 0x3d, 0x44, 0xf6, 0x47, 0x3e,
  0x0d, 0x13, 0x2e, 0xbd, 0xfb, 0xa1, 0x3d, 0x3e, 0xff, 0xc3, 0xe7, 0x3e,
  0xcb, 0x58, 0x83, 0x3e, 0x99, 0xd2, 0xa2, 0x3e, 0x83, 0xc4, 0x26, 0x3e,
  0xdd, 0x6b, 0xe2, 0x3e, 0x3e, 0x2b, 0x43, 0x3d, 0x6a, 0x83, 0xa3, 0x3e,
  0xb1, 0xa4, 0xd5, 0x3d, 0x46, 0x38, 0xed, 0x3e, 0x52, 0x25, 0xf6, 0x3e,
  0x1a, 0x34, 0x1a, 0xbd, 0xb8, 0x4a, 0xc3, 0x3d, 0xb7, 0x22, 0xb6, 0x3c,
  0x05, 0x20, 0xc7, 0xbd, 0x80, 0xb1, 0x11, 0x3e, 0xb7, 0x56, 0x1e, 0x3d,
  0x13, 0x91, 0x4e, 0xbd, 0xf4, 0x47, 0xac, 0x3d, 0x99, 0x8d, 0x53, 0x3e,
  0x20, 0xb0, 0xa0, 0x3d, 0xf1, 0x72, 0x17, 0x3e, 0xd1, 0x0e, 0xb4, 0x3e,
  0x1e, 0x2a, 0x56, 0x3e, 0xf1, 0xd5, 0x8a, 0x3b, 0xd9, 0x3e, 0xc9, 0x3e,
  0x31, 0x64, 0x86, 0x3e, 0x5a, 0x5c, 0x27, 0x3e, 0x5b, 0x16, 0xed, 0x3b,
  0xda, 0x8b, 0x6c, 0x3e, 0xd2, 0xd6, 0xcb, 0x3e, 0x63, 0x2f, 0x88, 0x3e,
  0xd7, 0x41, 0x7f, 0x3d, 0x6a, 0xe6, 0x31, 0x3e, 0xdc, 0xa2, 0x08, 0x3f,
  0x44, 0x0c, 0xbf, 0x3e, 0xaf, 0xa8, 0x84, 0x3d, 0x8c, 0x02, 0xb5, 0x3e,
  0x51, 0xb6, 0x7c, 0x3e, 0xd2, 0xd4, 0xcb, 0xbd, 0xfe, 0x34, 0x90, 0x3e,
  0x93, 0x1c, 0xe6, 0x3d, 0xf7, 0xa1, 0x9a, 0x3d, 0x74, 0x93, 0x9d, 0x3a,
  0x4b, 0x8e, 0xad, 0x3e, 0x0c, 0x94, 0xfe, 0x3d, 0x28, 0x4c, 0x05, 0xbd,
  0x47, 0x82, 0xb2, 0x3e, 0xef, 0xad, 0xc5, 0x3e, 0x8e, 0x84, 0x9d, 0x3e,
  0x8d, 0xa7, 0xda, 0x3e, 0x12, 0x8e, 0xe1, 0x3d, 0x91, 0x8c, 0x5c, 0x3e,
  0x22, 0x9c, 0x93, 0x3e, 0xc2, 0xf8, 0xd3, 0x3e, 0xed, 0x44, 0xf1, 0x3d,
  0x51, 0xe0, 0x5f, 0x3e, 0x20, 0x29, 0x32, 0x3e, 0x21, 0x1a, 0xfd, 0x3d,
  0xdc, 0xa0, 0xf5, 0x3e, 0xeb, 0x39, 0x1b, 0x3e, 0x8e, 0x41, 0xd0, 0x3e,
  0x12, 0x78, 0xc0, 0x3e, 0xb2, 0x54, 0x86, 0x3e, 0x9d, 0xc9, 0x3b, 0x3d,
  0xe9, 0xdb, 0xa9, 0x3e, 0xa8, 0xbc, 0x47, 0x3e, 0x4a, 0x21, 0xfa, 0x3d,
  0x74, 0x3e, 0xf3, 0xbd, 0x7c, 0x58, 0xed, 0xbc, 0xad, 0x08, 0x79, 0x3e,
  0x3b, 0x70, 0xb1, 0x3e, 0x8c, 0x07, 0x92, 0xbd, 0x54, 0x11, 0x56, 0xbb,
  0x56, 0xef, 0x5b, 0xbd, 0x2a, 0xcd, 0x99, 0x3e, 0xd0, 0xc0, 0x28, 0xbe,
  0x9d, 0x7f, 0x1e, 0xbd, 0x41, 0x6a, 0x25, 0x3e, 0xe1, 0x3d, 0x45, 0xbd,
  0x96, 0x18, 0x8c, 0x3d, 0x9b, 0x8b, 0x74, 0x3e, 0xe8, 0x71, 0xbb, 0x3e,
  0x30, 0x5d, 0x81, 0x3d, 0xeb, 0x13, 0x5a, 0xbd, 0x4f, 0x88, 0x2d, 0x3e,
  0xb1, 0x8a, 0xe6, 0x3d, 0xec, 0x10, 0x5b, 0xbe, 0x42, 0xae, 0x90, 0x3e,
  0x54, 0xfb, 0xed, 0xbd, 0xad, 0xec, 0xc4, 0x3e, 0x0f, 0x1e, 0xda, 0x3d,
  0x2a, 0xb2, 0x49, 0xbd, 0xca, 0x2e, 0x52, 0xbe, 0x98, 0x03, 0x7f, 0x3d,
  0xdd, 0xeb, 0xfa, 0x3d, 0x66, 0x45, 0x47, 0x3e, 0xf8, 0x10, 0x34, 0xbe,
  0x7b, 0xba, 0x3b, 0x3e, 0x8b, 0x9e, 0x33, 0xbe, 0x4c, 0xe5, 0x3e, 0xbe,
  0xa5, 0xfc, 0xad, 0xbc, 0xb5, 0x73, 0x76, 0xbe, 0x47, 0x65, 0x65, 0xbd,
  0x2f, 0xad, 0x83, 0x3e, 0xbd, 0x60, 0x11, 0x3e, 0xe5, 0xf3, 0x3c, 0x3e,
  0x3f, 0xcf, 0x8b, 0x3e, 0x78, 0xfb, 0xc5, 0x3d, 0xc8, 0xe4, 0x3e, 0xbd,
  0x88, 0xf5, 0xcc, 0x3d, 0x6a, 0xfd, 0x0c, 0x3e, 0x55, 0x5f, 0x99, 0x3d,
  0x89, 0x38, 0x77, 0x3e, 0x6d, 0xa1, 0x98, 0x3e, 0x8a, 0xda, 0xff, 0xff,
  0x04, 0x00, 0x00, 0x00, 0x00, 0x0a, 0x00, 0x00, 0x48, 0x2a, 0x6d, 0x3e,
  0x9e, 0x51, 0x52, 0xbd, 0x9b, 0xfd, 0x41, 0xbd, 0x49, 0xd6, 0xd7, 0x3c,
  0xcf, 0xdb, 0x97, 0x3d, 0x30, 0xce, 0x43, 0xbd, 0x0e, 0x64, 0x06, 0xbe,
  0x79, 0xee, 0x86, 0xbe, 0x9f, 0x3b, 0x66, 0x3d, 0xc5, 0xee, 0x31, 0x3e,
  0xf0, 0x83, 0x6a, 0xbd, 0xb7, 0x3a, 0x6f, 0x3c, 0xe7, 0x9e, 0xe4, 0xbc,
  0x89, 0x54, 0x12, 0xbe, 0xee, 0x41, 0x24, 0xbd, 0xe2, 0x11, 0x57, 0xbe,
  0xa0, 0x8e, 0x04, 0xbd, 0x94, 0x9a, 0xa1, 0x3d, 0xe4, 0x9a, 0x63, 0x3e,
  0xa5, 0x5c, 0x4b, 0xbe, 0x9b, 0xdc, 0xf2, 0x3b, 0x20, 0xf5, 0x72, 0x3d,
  0xd2, 0xba, 0x29, 0x3e, 0xc4, 0x68, 0x99, 0xbc, 0x32, 0x3e, 0xf4, 0xbd,
  0x90, 0x74, 0x82, 0x3d, 0xbc, 0x41, 0xe5, 0x3d, 0x68, 0xe4, 0x18, 0xbe,
  0xcb, 0x33, 0x0c, 0x3e, 0x28, 0xfc, 0x8b, 0xbd, 0x48, 0x4d, 0xa8, 0x3c,
  0x18, 0xb7, 0x46, 0xbd, 0x70, 0x25, 0x8a, 0xbe, 0x4b, 0x8e, 0xcc, 0xbd,
  0x58, 0x47, 0xe2, 0x3d, 0x04, 0xc6, 0x4a, 0x3e, 0x80, 0xb2, 0x4f, 0x3d,
  0x84, 0xd3, 0x1c, 0x3b, 0x1e, 0x13, 0x24, 0x3d, 0x54, 0x4a, 0x04, 0x3e,
  0xfd, 0xf0, 0x09, 0xbe, 0x99, 0x5e, 0x4e, 0xbd, 0x94, 0x26, 0x9b, 0x3d,
  0x64, 0xb0, 0x5e, 0x3e, 0x6c, 0x7f, 0x0e, 0xbe, 0x0b, 0xd0, 0xc6, 0xbd,
  0xf3, 0xa4, 0x02, 0x3d, 0x9f, 0x96, 0xad, 0x3d, 0x06, 0xde, 0x34, 0x3c,
  0x57, 0x8b, 0xd5, 0x3b, 0x98, 0x91, 0xc2, 0xbd, 0x6f, 0xce, 0xa7, 0xbd,
  0xb6, 0x1f, 0x1c, 0x3b, 0xb7, 0xd0, 0xe0, 0x3d, 0xbe, 0xbc, 0xf3, 0x3d,
  0x35, 0xbd, 0xb3, 0x3d, 0x5f, 0xb5, 0x00, 0xbe, 0x0a, 0xf5, 0x90, 0x3d,
  0x6f, 0xb0, 0x6b, 0x3d, 0xfe, 0x31, 0x80, 0x3e, 0x72, 0x60, 0x7c, 0x3e,
  0x59, 0xb7, 0x9b, 0x3e, 0xb0, 0xa6, 0x98, 0x3e, 0x4f, 0xe8, 0x19, 0x3d,
  0xac, 0x05, 0x57, 0xbe, 0x5a, 0xc2, 0x86, 0xbe, 0x27, 0x36, 0xa3, 0xbe,
  0x28, 0xf8, 0x1e, 0xbe, 0xee, 0xa3, 0x1d, 0xbe, 0x6a, 0x4c, 0x1a, 0xbe,
  0xc1, 0x6b, 0xd0, 0x3c, 0xe4, 0xda, 0x88, 0x3e, 0x33, 0xaa, 0xcb, 0xbe,
  0x4f, 0xd9, 0x08, 0xbe, 0x27, 0x85, 0x94, 0xbd, 0x9c, 0xbc, 0xa8, 0xbc,
  0xf3, 0x7c, 0xac, 0xbd, 0x4f, 0xb4, 0x38, 0xbe, 0x42, 0x42, 0x43, 0x3d,
  0x7a, 0x6f, 0x52, 0xbd, 0x2a, 0x53, 0xa7, 0xbe, 0xe9, 0x4a, 0xa0, 0xbe,
  0x66, 0x4a, 0xe3, 0x3d, 0xaa, 0x57, 0x69, 0xbe, 0x8b, 0xf1, 0x20, 0xbe,
  0x02, 0x8f, 0xd1, 0x3d, 0x00, 0x08, 0x1f, 0x3e, 0xf6, 0xd4, 0x07, 0x3e,
  0xdf, 0x4e, 0x03, 0xbd, 0xb7, 0xf1, 0x23, 0x3e, 0x66, 0x9e, 0x00, 0x3e,
  0xfd, 0x7a, 0x4a, 0xbe, 0x2b, 0xdb, 0xc9, 0xbc, 0xa2, 0xcd, 0x4b, 0xbb,
  0x2a, 0x51, 0x58, 0xbe, 0xc0, 0x94, 0xb9, 0xbd, 0x94, 0x32, 0x81, 0xbe,
  0x4f, 0x54, 0x9a, 0xbe, 0x23, 0xf5, 0x83, 0xbe, 0x5f, 0x17, 0xe4, 0x3c,
  0x3a, 0x94, 0x17, 0xbe, 0xa4, 0xdb, 0xef, 0xbc, 0x2a, 0xca, 0x01, 0x3e,
  0x17, 0x93, 0x19, 0xbe, 0x8c, 0x21, 0x45, 0xba, 0xd0, 0x10, 0xa0, 0x3d,
  0xd5, 0xd7, 0x82, 0xbe, 0x72, 0x88, 0x92, 0x3e, 0xfd, 0xef, 0x2e, 0xbe,
  0x90, 0xcd, 0x80, 0x3e, 0xd9, 0x8f, 0xd3, 0xbd, 0x07, 0xdf, 0x9e, 0x3d,
  0x17, 0xa5, 0xb5, 0x3c, 0x89, 0x9d, 0x5b, 0xbe, 0x41, 0xfd, 0x55, 0x3e,
  0x79, 0x31, 0xce, 0x3c, 0x52, 0x0e, 0xa5, 0x3d, 0xb4, 0xd5, 0xfe, 0xbd,
  0x0f, 0xf0, 0xaa, 0x3e, 0xeb, 0x54, 0x49, 0x3d, 0x06, 0xe8, 0xa2, 0xbe,
  0x85, 0x6d, 0x9c, 0xbd, 0x8a, 0xb9, 0x52, 0xbe, 0x06, 0x0b, 0x7a, 0x3e,
  0xdd, 0x09, 0xc4, 0x3d, 0x90, 0xb5, 0xd5, 0x3e, 0x1f, 0xe6, 0x71, 0x3e,
  0x09, 0xb4, 0x11, 0xbe, 0x73, 0x0d, 0x35, 0xbe, 0x13, 0xaa, 0x74, 0xbe,
  0x85, 0x88, 0x5c, 0xbe, 0x6a, 0x95, 0xe8, 0x3b, 0x37, 0x2a, 0x9c, 0xbc,
  0x9e, 0x5a, 0x6c, 0x3e, 0x09, 0x64, 0x53, 0x3e, 0x82, 0xfc, 0xa7, 0x3e,
  0xb6, 0xd9, 0x8a, 0xbd, 0x20, 0x1a, 0xf2, 0x3b, 0x8e, 0xcf, 0x29, 0xbe,
  0x25, 0x43, 0x02, 0x3e, 0x1e, 0xb6, 0x08, 0xbe, 0x23, 0x02, 0x16, 0x3e,
  0x1c, 0x5b, 0x3b, 0x3a, 0x77, 0x96, 0xdb, 0x3d, 0x7d, 0x97, 0x51, 0xbd,
  0x24, 0x08, 0xdd, 0xbd, 0x48, 0x5b, 0x97, 0x3d, 0x12, 0x2e, 0x9d, 0x3e,
  0x9d, 0x8d, 0x92, 0x3d, 0x08, 0xc2, 0x80, 0x3e, 0xc0, 0x60, 0x22, 0x3e,
  0x65, 0x0b, 0x3f, 0xbd, 0x21, 0xb6, 0x5b, 0xbe, 0x95, 0x63, 0xc2, 0x3d,
  0xb2, 0x23, 0xf3, 0xbc, 0xdb, 0x43, 0xb9, 0x3c, 0x06, 0x30, 0x1b, 0x3e,
  0x92, 0x5e, 0xaf, 0x3e, 0xf4, 0xba, 0x81, 0x3e, 0x76, 0x53, 0x89, 0x3d,
  0x64, 0x0e, 0xdb, 0xbd, 0xbc, 0x18, 0x2b, 0xbe, 0x7b, 0x6a, 0x34, 0x3e,
  0x98, 0x3f, 0x4d, 0xbc, 0xec, 0x8d, 0x5b, 0x3c, 0x02, 0x5f, 0x6e, 0xbd,
  0xfd, 0x3b, 0x82, 0x3e, 0xfe, 0xf9, 0x7a, 0x3e, 0x83, 0x61, 0xbe, 0xbe,
  0x01, 0xc6, 0x1c, 0x3e, 0xa1, 0x45, 0x49, 0x3e, 0x39, 0xbe, 0x25, 0xbe,
  0x72, 0x15, 0xc2, 0x3d, 0xfb, 0x5d, 0x4d, 0xbb, 0xc4, 0x66, 0xc4, 0xbd,
  0x0d, 0x5b, 0xf0, 0xbd, 0xcc, 0x15, 0x5c, 0xbd, 0xb6, 0x0a, 0xa7, 0xbd,
  0x39, 0x00, 0x23, 0x3e, 0x1c, 0xea, 0x28, 0xbe, 0x62, 0xdc, 0xb7, 0x3c,
  0x7f, 0x3a, 0x95, 0xba, 0x45, 0x1a, 0xa8, 0xbd, 0xfd, 0xd8, 0x96, 0x3c,
  0x0c, 0xc1, 0xa8, 0xbe, 0x19, 0x15, 0x87, 0x3d, 0x1a, 0x71, 0x05, 0x3d,
  0x8f, 0x9c, 0x0d, 0xbd, 0x9a, 0x2f, 0x1e, 0xbc, 0x94, 0x8a, 0x57, 0x3e,
  0x55, 0x25, 0xa7, 0x3a, 0x79, 0x83, 0x90, 0xbd, 0xc9, 0x3c, 0x9c, 0x3d,
  0xb1, 0xc6, 0xd5, 0xbd, 0x52, 0xf0, 0x16, 0x3e, 0xf3, 0xba, 0x83, 0xbe,
  0xbf, 0xe5, 0xa3, 0xbd, 0x93, 0xa4, 0x14, 0xbe, 0x70, 0xe3, 0x57, 0x3e,
  0x97, 0x37, 0x5e, 0xbd, 0x86, 0xe8, 0x91, 0x3e, 0xef, 0xbd, 0x8b, 0x3e,
  0x13, 0xc2, 0xd2, 0x3d, 0xdc, 0x21, 0x4b, 0xbe, 0x69, 0x3b, 0xc7, 0x3e,
  0x8d, 0x03, 0x92, 0x3d, 0x04, 0xdd, 0x75, 0xbe, 0x8c, 0xa4, 0x28, 0xbc,
  0x71, 0x62, 0x8c, 0x3d, 0x56, 0x29, 0x0e, 0x3d, 0xfd, 0x86, 0x20, 0xbc,
  0x79, 0xca, 0x15, 0x3e, 0x7e, 0x3e, 0x8d, 0xbd, 0xe4, 0x72, 0x65, 0xbe,
  0x61, 0x31, 0x4a, 0x3e, 0x58, 0x9f, 0x6c, 0x3c, 0x77, 0x4b, 0x3d, 0x3d,
  0xb5, 0x52, 0x75, 0x3e, 0xe4, 0x55, 0xf6, 0x3d, 0x37, 0xd2, 0x09, 0xbe,
  0x78, 0x40, 0x95, 0x3e, 0xe2, 0x42, 0xb8, 0xbd, 0xa1, 0x52, 0x26, 0xbc,
  0x9a, 0x40, 0xc0, 0xbd, 0xfd, 0xc2, 0x25, 0x3e, 0xc8, 0xe4, 0x00, 0x3e,
  0x1a, 0xe3, 0x16, 0xbc, 0xe0, 0x19, 0x6a, 0x3e, 0x2c, 0xeb, 0x0a, 0xbd,
  0x86, 0xae, 0x83, 0x3e, 0x4f, 0xc8, 0xd7, 0x3d, 0x04, 0xac, 0x31, 0xbe,
  0x3d, 0x03, 0x12, 0xbe, 0x6e, 0x38, 0x35, 0x3e, 0xf1, 0x39, 0xd2, 0x3d,
  0xa1, 0xbb, 0x2a, 0x3e, 0x55, 0x5d, 0xb4, 0x3d, 0x0c, 0x4a, 0x33, 0xbe,
  0x92, 0xef, 0x65, 0xbe, 0xa0, 0x58, 0x64, 0xbe, 0x34, 0x4a, 0x62, 0xbe,
  0x86, 0xf3, 0x10, 0xbe, 0xb8, 0x48, 0x43, 0xbe, 0xeb, 0xc8, 0x5a, 0xbe,
  0xd4, 0x90, 0x3c, 0xbe, 0x37, 0xba, 0xd5, 0x3d, 0x73, 0x88, 0x02, 0xbd,
  0xc8, 0xa3, 0xac, 0xbe, 0x76, 0x36, 0xee, 0xbe, 0x1e, 0x24, 0x96, 0xbe,
  0x2e, 0x33, 0xaf, 0xbe, 0x1a, 0x57, 0x78, 0x3d, 0x2e, 0x83, 0xa5, 0xbe,
  0xb9, 0x0e, 0xf8, 0xbe, 0x95, 0x74, 0x80, 0xbd, 0x70, 0x5a, 0x06, 0xbf,
  0x15, 0x72, 0x58, 0x3e, 0xed, 0xdb, 0x09, 0xbe, 0xca, 0x24, 0xf7, 0xbc,
  0xa7, 0x29, 0x8e, 0x3c, 0x58, 0x61, 0x13, 0xbe, 0x61, 0xea, 0x0b, 0x3b,
  0xab, 0xd3, 0x20, 0x3e, 0xd7, 0x74, 0x89, 0x3a, 0x27, 0xae, 0x9b, 0xbe,
  0x99, 0xd2, 0x54, 0xbe, 0xad, 0x06, 0x2f, 0x3d, 0x0a, 0x35, 0xf9, 0x3d,
  0x55, 0xb5, 0x9a, 0x3d, 0x4c, 0x32, 0xce, 0x3d, 0xe1, 0x39, 0x60, 0x3e,
  0x52, 0x50, 0x52, 0x3e, 0x0d, 0xb9, 0x1d, 0x3e, 0xb0, 0xc4, 0xb5, 0xbb,
  0xc2, 0x10, 0x0c, 0x3e, 0x85, 0x2d, 0xdf, 0xbd, 0xd7, 0x1f, 0x21, 0x3d,
  0xd2, 0x79, 0x3b, 0x3e, 0x1a, 0x1f, 0x00, 0x3d, 0xae, 0xaa, 0x0e, 0x3e,
  0xef, 0xb7, 0x3a, 0xbe, 0x70, 0x49, 0xda, 0x3d, 0x88, 0xa0, 0x8c, 0xbe,
  0x63, 0x59, 0xac, 0x3d, 0x24, 0xb2, 0x16, 0xbe, 0xed, 0xb3, 0x91, 0x3e,
  0x25, 0x9d, 0x82, 0xbc, 0x51, 0xe8, 0x55, 0x3e, 0x3a, 0x72, 0xc1, 0xbd,
  0x74, 0xf9, 0x0b, 0xbd, 0x75, 0x2f, 0x5e, 0xbe, 0xec, 0x53, 0x75, 0xbe,
  0x43, 0x03, 0x56, 0x3e, 0x21, 0xe8, 0x10, 0x3e, 0x3e, 0x52, 0x86, 0xbd,
  0xee, 0xe1, 0xae, 0x3d, 0x93, 0x0d, 0xe0, 0x3d, 0x09, 0x63, 0xc2, 0xbd,
  0xb2, 0x8a, 0x00, 0xbe, 0x08, 0x11, 0xfe, 0xbc, 0xe6, 0x8b, 0xdc, 0x3c,
  0x29, 0xd8, 0xdd, 0x3d, 0xa1, 0x12, 0x36, 0xbd, 0x9a, 0x58, 0x04, 0xbe,
  0x42, 0x8d, 0xbd, 0x3d, 0xfc, 0x73, 0xf0, 0xba, 0xb5, 0x01, 0x85, 0xbd,
  0x3f, 0xca, 0x0e, 0xbe, 0xc0, 0xb9, 0x2e, 0x3d, 0xcd, 0xa1, 0x56, 0x3d,
  0xc0, 0x02, 0x0c, 0x3d, 0x67, 0xa2, 0xb7, 0xbd, 0xdc, 0xa1, 0x88, 0xbe,
  0xe1, 0x15, 0x10, 0xbe, 0xfb, 0xef, 0x05, 0xbe, 0xa2, 0xb5, 0x4a, 0x3e,
  0x9d, 0x6c, 0x44, 0xbe, 0xc8, 0x95, 0x5f, 0x3e, 0xf2, 0xa8, 0x93, 0xbd,
  0x57, 0x49, 0x37, 0xbe, 0x70, 0x30, 0x87, 0xbe, 0x6e, 0xa3, 0x6e, 0x3d,
  0x97, 0x02, 0xe0, 0x3d, 0x25, 0xa4, 0x26, 0xbe, 0xda, 0x44, 0xf7, 0xbd,
  0x32, 0x3c, 0x21, 0x3a, 0xa3, 0x8b, 0x3b, 0x3e, 0xe6, 0x9a, 0xf6, 0x3b,
  0x53, 0x8e, 0xaa, 0x3d, 0x33, 0xd8, 0x01, 0xbd, 0xfb, 0x1d, 0x84, 0xbe,
  0x84, 0x9f, 0x88, 0x3d, 0x71, 0x5c, 0x16, 0xbe, 0x7b, 0x90, 0xa5, 0x3c,
  0x12, 0x69, 0x84, 0x3e, 0x1b, 0x86, 0xbb, 0xbd, 0xca, 0xa3, 0x81, 0xbe,
  0xb1, 0x26, 0xb7, 0x3d, 0x4d, 0xe5, 0x98, 0xbb, 0xd8, 0x90, 0xed, 0x3c,
  0x0f, 0x9e, 0x35, 0x3e, 0xef, 0x66, 0x99, 0x3d, 0xec, 0xd8, 0x02, 0x3e,
  0xd2, 0x2f, 0x6d, 0xbe, 0x28, 0x6c, 0xc6, 0x3d, 0xe2, 0xec, 0xf5, 0x3d,
  0x8e, 0x09, 0x5a, 0xbe, 0x4d, 0xc3, 0x23, 0x3e, 0xd7, 0x5d, 0x3b, 0xbd,
  0x9e, 0x7c, 0x72, 0xbe, 0xaf, 0x6e, 0x7f, 0x3d, 0x5a, 0x22, 0x96, 0xbe,
  0x4b, 0x08, 0x60, 0x3e, 0x7d, 0x8d, 0xff, 0xbd, 0x6c, 0x25, 0x57, 0xbd,
  0x51, 0x0d, 0x5f, 0xbd, 0xb9, 0x64, 0x94, 0xbc, 0x9a, 0x5d, 0x9d, 0xbe,
  0xf8, 0x14, 0x5e, 0x3e, 0xfa, 0xcb, 0x31, 0x3e, 0xb1, 0x95, 0x5d, 0x3e,
  0x70, 0x09, 0x3b, 0x3e, 0xf1, 0x59, 0x8c, 0x3b, 0xd0, 0xb9, 0xfc, 0xbc,
  0xe1, 0x19, 0xa9, 0xbd, 0x3f, 0xc9, 0x06, 0xbd, 0x15, 0x76, 0xfa, 0x3c,
  0x65, 0xb2, 0x31, 0x3d, 0x64, 0x1b, 0x14, 0xbe, 0x2a, 0x2f, 0x7e, 0x3e,
  0x0d, 0xc7, 0xbb, 0xba, 0x64, 0x14, 0x89, 0xbc, 0x04, 0x0a, 0x12, 0x3e,
  0xfd, 0x6f, 0x56, 0x3e, 0xe1, 0xa9, 0x13, 0xbe, 0xbb, 0x72, 0x93, 0x3c,
  0xfe, 0xf5, 0x1e, 0x3d, 0x47, 0x41, 0x12, 0xbd, 0x98, 0x41, 0xdf, 0xbd,
  0xf2, 0xe3, 0x5b, 0x3e, 0x85, 0xf6, 0x47, 0xbd, 0xc6, 0xcc, 0x21, 0x3e,
  0x0f, 0x0f, 0x2a, 0xbe, 0xae, 0x53, 0x01, 0xbe, 0x77, 0x63, 0x09, 0xbe,
  0xf7, 0xb8, 0x4d, 0xbe, 0xeb, 0xc0, 0x11, 0xbe, 0x58, 0x0e, 0xdc, 0xbd,
  0x70, 0x35, 0xa9, 0x3c, 0xdf, 0xd6, 0x1f, 0xbd, 0x03, 0x85, 0x71, 0xbd,
  0x2d, 0xe3, 0x51, 0xbe, 0x89, 0xda, 0x44, 0xbe, 0x40, 0xbb, 0x7c, 0x3c,
  0xeb, 0x07, 0x0a, 0xbe, 0x7c, 0x0d, 0xaf, 0x3d, 0xc4, 0x88, 0x2f, 0xbd,
  0xf0, 0x12, 0xf8, 0xbd, 0x35, 0xb5, 0x57, 0xbe, 0x4f, 0x38, 0xd6, 0x3d,
  0x41, 0x2d, 0xef, 0x3b, 0x1e, 0x60, 0x76, 0xbe, 0x65, 0x57, 0x78, 0xbe,
  0x0b, 0x2d, 0x0d, 0x3e, 0x5e, 0x23, 0xab, 0x3d, 0xb4, 0xef, 0x30, 0xbe,
  0x27, 0x94, 0x32, 0x3e, 0x83, 0xd7, 0xc2, 0x3d, 0xcf, 0x53, 0x9c, 0xbe,
  0xbd, 0x9f, 0x40, 0xbd, 0x34, 0xf5, 0x90, 0xbe, 0x8b, 0x48, 0x6c, 0xbd,
  0x18, 0xff, 0x70, 0x3d, 0xea, 0x49, 0x89, 0xbd, 0x43, 0x16, 0xfa, 0xbc,
  0x92, 0xe2, 0x00, 0x3e, 0x0b, 0x97, 0x85, 0xbe, 0x5e, 0xa9, 0x63, 0xbd,
  0x1c, 0xfb, 0xc7, 0x38, 0xa3, 0xa4, 0x8c, 0xbe, 0x85, 0x58, 0x8a, 0xbe,
  0x0e, 0x4b, 0x98, 0x3d, 0x60, 0xb5, 0x2a, 0xbc, 0xde, 0x0c, 0xff, 0x3d,
  0x90, 0x4a, 0x04, 0x3e, 0x76, 0x13, 0x79, 0x3d, 0xc2, 0x6b, 0x59, 0xbe,
  0x18, 0xa8, 0x37, 0x3c, 0xb4, 0xd7, 0xbc, 0xbd, 0xc7, 0x05, 0x2e, 0xbd,
  0x4b, 0xb2, 0x1d, 0x3e, 0x6b, 0xe0, 0x5b, 0x3e, 0xbc, 0x8c, 0xd3, 0x3d,
  0xff, 0xd2, 0x92, 0xbe, 0x8f, 0xfd, 0xea, 0x3d, 0xaf, 0xd6, 0x0b, 0x3e,
  0x68, 0x34, 0x9e, 0x3e, 0x4a, 0x19, 0x23, 0x3e, 0x7b, 0x9e, 0x97, 0xbd,
  0x56, 0x9d, 0x20, 0x3e, 0xef, 0x69, 0xae, 0xbd, 0x80, 0x29, 0x2a, 0xbc,
  0x37, 0xf8, 0x34, 0xbe, 0xd6, 0xb3, 0x6c, 0x3d, 0x7b, 0x30, 0x02, 0x3d,
  0xd6, 0x32, 0x48, 0x3e, 0xf2, 0x9f, 0xa7, 0x3e, 0xb6, 0xf2, 0x84, 0x3d,
  0x98, 0xa3, 0xab, 0x3b, 0x27, 0xb2, 0xa9, 0x3e, 0xac, 0x20, 0x41, 0xbd,
  0x5d, 0x36, 0x52, 0x3d, 0xdb, 0xda, 0x0a, 0xbd, 0x41, 0xf5, 0xb0, 0x3d,
  0xec, 0xac, 0x4e, 0xbe, 0x26, 0xe6, 0x4c, 0x3d, 0xad, 0x87, 0x9a, 0x3e,
  0xab, 0xcd, 0x5d, 0x3e, 0x16, 0x82, 0x17, 0x3d, 0x03, 0x49, 0x28, 0xbe,
  0xb0, 0xbe, 0xeb, 0xbd, 0x72, 0xaf, 0x4d, 0x3e, 0x30, 0x07, 0x7a, 0x3c,
  0x38, 0x3a, 0x95, 0xbe, 0xa0, 0xe5, 0xc4, 0x3d, 0x0f, 0xdc, 0x48, 0x3e,
  0xf9, 0x96, 0x2f, 0x3c, 0x08, 0x54, 0x55, 0x3e, 0x02, 0x43, 0x60, 0xbd,
  0x43, 0x5f, 0x8b, 0xbe, 0x34, 0xe1, 0xdc, 0xbd, 0x68, 0xe6, 0x85, 0xbe,
  0x2e, 0x09, 0x54, 0x3e, 0xd8, 0x79, 0x04, 0xbe, 0x27, 0x7a, 0xba, 0xbd,
  0x9f, 0x7d, 0x9d, 0xbe, 0x6e, 0x34, 0x85, 0xbe, 0x79, 0xbe, 0xeb, 0x3d,
  0x6d, 0x49, 0x2b, 0x3e, 0xcd, 0x90, 0x8b, 0x3d, 0x86, 0x57, 0xd6, 0xbc,
  0x8b, 0x81, 0xc5, 0xbd, 0x6f, 0xc1, 0x0d, 0x3e, 0x05, 0x9b, 0xfa, 0x3d,
  0xdf, 0x5e, 0x66, 0xbe, 0xf7, 0xed, 0xbd, 0xbd, 0xc4, 0x57, 0x9c, 0xbd,
  0xe6, 0x1b, 0x5a, 0xbc, 0x30, 0xd5, 0x97, 0x3e, 0x8e, 0x19, 0x1d, 0xbc,
  0xd5, 0x50, 0x0a, 0x3e, 0xb7, 0xc5, 0xc5, 0xbc, 0x13, 0x4e, 0x14, 0xbe,
  0x2a, 0xfe, 0xe3, 0xbd, 0x9e, 0xf5, 0xb3, 0x3d, 0x52, 0x4d, 0x8c, 0x3d,
  0x74, 0xa0, 0xd7, 0x3c, 0x38, 0x3e, 0x35, 0xbe, 0x63, 0x52, 0xfb, 0x3d,
  0xaa, 0x31, 0x47, 0xbe, 0xa3, 0x2d, 0xad, 0x3c, 0xdc, 0xc8, 0x31, 0x3b,
  0x0c, 0x04, 0xdd, 0x3c, 0x6f, 0x2b, 0x76, 0x3e, 0x8d, 0x22, 0x8b, 0x3d,
  0x7d, 0x11, 0x62, 0xbc, 0x39, 0x5b, 0x69, 0x3e, 0xa6, 0x8a, 0xd6, 0xbd,
  0xa7, 0x98, 0x50, 0x3e, 0x75, 0xa8, 0x47, 0xbe, 0xb3, 0x9a, 0x44, 0x3e,
  0x6a, 0x31, 0x90, 0x3d, 0x96, 0xdf, 0x29, 0x3d, 0x7b, 0x68, 0x47, 0x3e,
  0x16, 0x44, 0x8d, 0xbc, 0x18, 0x7a, 0xfc, 0xbd, 0x32, 0x20, 0x72, 0x3d,
  0xb5, 0xb8, 0xa8, 0xbd, 0xac, 0xf8, 0x02, 0x3e, 0xa0, 0x0b, 0x7f, 0x3d,
  0x1e, 0x43, 0x92, 0xbe, 0x25, 0xfd, 0x3f, 0xbe, 0x54, 0x56, 0x26, 0xbe,
  0xd7, 0xc8, 0x98, 0x3d, 0xfe, 0x4e, 0xe1, 0x3d, 0x76, 0x0d, 0x2b, 0xbe,
  0x9e, 0x36, 0xfb, 0x3c, 0x55, 0xe3, 0x5f, 0xbe, 0x20, 0x6e, 0x2f, 0x3b,
  0x20, 0x7c, 0x05, 0x3e, 0x3c, 0x7e, 0x4d, 0xbe, 0x50, 0xbe, 0x38, 0xbe,
  0x7a, 0x2c, 0x6f, 0xbe, 0x73, 0xa9, 0x3d, 0x3e, 0x7f, 0x39, 0x8a, 0x3d,
  0x06, 0x70, 0x98, 0x3d, 0x5d, 0x39, 0xc7, 0xbd, 0x19, 0xf9, 0xbd, 0xbd,
  0x2c, 0xd7, 0x73, 0x3c, 0x66, 0xb7, 0x45, 0x3d, 0x44, 0x54, 0x44, 0xbe,
  0x63, 0x4d, 0x27, 0xbd, 0xb7, 0x2d, 0x87, 0xbd, 0xee, 0xf4, 0x2b, 0xbe,
  0x72, 0xf3, 0x65, 0x3e, 0x12, 0x41, 0xfd, 0x3d, 0x9d, 0x4d, 0xd4, 0x3d,
  0x89, 0xc4, 0xf2, 0xbd, 0xb3, 0xd6, 0x3e, 0xbe, 0xed, 0x32, 0xac, 0xbc,
  0x34, 0xd0, 0x02, 0x3d, 0x91, 0xd9, 0xaf, 0xbd, 0xbc, 0x57, 0x0c, 0x3d,
  0xcf, 0xb6, 0x70, 0xbe, 0x97, 0x15, 0x1b, 0xbe, 0xdf, 0x4b, 0x2d, 0x3c,
  0x3b, 0xf5, 0x87, 0x3e, 0x74, 0x5c, 0xef, 0xbd, 0x44, 0xd7, 0x50, 0x3e,
  0x14, 0xf1, 0x30, 0x3e, 0xff, 0xf7, 0xb2, 0xbb, 0xad, 0x30, 0x9c, 0xbd,
  0x6d, 0x89, 0x59, 0x3e, 0x76, 0x43, 0xb0, 0x3d, 0xa9, 0xa9, 0x25, 0xbb,
  0xc2, 0x94, 0xf6, 0xbd, 0xed, 0xda, 0x07, 0xbe, 0x66, 0xd2, 0xcd, 0xbd,
  0x48, 0xa4, 0x79, 0xbe, 0x06, 0xed, 0xfd, 0xbd, 0xfc, 0x8b, 0x4a, 0x3e,
  0xfe, 0x17, 0x13, 0x3c, 0xcb, 0xa9, 0xa4, 0xbd, 0xc0, 0x4a, 0xfd, 0x3d,
  0xb5, 0xce, 0x80, 0xbe, 0xec, 0x1b, 0x40, 0x3e, 0xd7, 0xb9, 0x3b, 0x3e,
  0x4c, 0x6c, 0xbb, 0xbd, 0xbe, 0x93, 0x80, 0x3e, 0xed, 0xb4, 0xd3, 0x3d,
  0x47, 0x37, 0x31, 0x3d, 0x53, 0x52, 0xdd, 0xbd, 0x13, 0xd2, 0x2e, 0xbe,
  0x97, 0x60, 0x2b, 0xbe, 0xc5, 0x48, 0xcf, 0x3e, 0xf7, 0x31, 0xf5, 0x3d,
  0x37, 0x58, 0xb6, 0x3b, 0xdc, 0xf9, 0xd1, 0x3c, 0xc9, 0xd1, 0xef, 0xbb,
  0x08, 0xca, 0x56, 0x3e, 0x23, 0xe3, 0x8b, 0x3e, 0x6d, 0x30, 0x01, 0xbd,
  0x58, 0x55, 0x00, 0xbe, 0x04, 0xd9, 0x88, 0x3e, 0x6e, 0xa3, 0x76, 0x3d,
  0x1c, 0x18, 0xd1, 0x3c, 0xa6, 0x43, 0x8e, 0x3e, 0xfa, 0x00, 0xed, 0xbd,
  0x0b, 0x0c, 0x6f, 0x3d, 0xa4, 0xaa, 0x3c, 0xbd, 0xe1, 0x40, 0x22, 0xbd,
  0x73, 0x4b, 0xe1, 0x3d, 0xfc, 0xfb, 0x04, 0xbe, 0xc4, 0x62, 0x55, 0x3e,
  0x6b, 0x5e, 0x86, 0x3e, 0xdc, 0x39, 0x4b, 0xbe, 0x63, 0xc0, 0x81, 0x3e,
  0x23, 0x6f, 0x27, 0xbd, 0xae, 0x28, 0xe2, 0x3c, 0xd7, 0x03, 0x5c, 0xbe,
  0xf3, 0x24, 0x9e, 0x3e, 0x10, 0xb6, 0x78, 0x3e, 0x42, 0xe0, 0x91, 0xbb,
  0xfb, 0xca, 0x6a, 0x3d, 0x5b, 0x89, 0xe1, 0xbc, 0x25, 0xda, 0x6d, 0x3e,
  0x77, 0x78, 0xc2, 0x3d, 0x96, 0x9f, 0x22, 0x3d, 0xa3, 0xef, 0x2a, 0xbe,
  0x34, 0xf8, 0xc6, 0x3d, 0xe6, 0x7a, 0x0a, 0x3d, 0x92, 0x54, 0x28, 0x3e,
  0xf2, 0x20, 0xa0, 0x3c, 0x11, 0x53, 0x35, 0xbd, 0xf0, 0x39, 0x64, 0x3c,
  0x34, 0x86, 0x45, 0x3d, 0x36, 0x34, 0x1a, 0xbe, 0xb0, 0xd1, 0xef, 0x3d,
  0xd6, 0x31, 0xe3, 0xbd, 0x95, 0x04, 0x74, 0xbd, 0xcf, 0x73, 0x8c, 0xbc,
  0xf0, 0x2d, 0xdb, 0xbd, 0xf4, 0xe7, 0x65, 0x3e, 0xcf, 0xf7, 0xba, 0xbd,
  0x9f, 0xe0, 0x1e, 0xbe, 0x8a, 0xdb, 0x3b, 0x3e, 0x75, 0x2b, 0x54, 0xbd,
  0xc5, 0xfa, 0x23, 0x3e, 0x05, 0x26, 0xe2, 0x3c, 0x68, 0xc7, 0x18, 0x3e,
  0x96, 0xe4, 0xff, 0xff, 0x04, 0x00, 0x00, 0x00, 0x00, 0x0a, 0x00, 0x00,
  0xf3, 0x27, 0x07, 0x3d, 0xa7, 0x7a, 0xe4, 0xbd, 0xb2, 0x40, 0xd1, 0x3d,
  0x63, 0x38, 0x8a, 0x3d, 0x47, 0xc9, 0x8f, 0x3e, 0x14, 0x9f, 0x88, 0x3e,
  0xdd, 0x40, 0xad, 0x3d, 0xb6, 0x88, 0x25, 0xbe, 0xa3, 0xe0, 0x03, 0xbd,
  0x61, 0xad, 0x1f, 0xbd, 0x2a, 0x72, 0xa5, 0xbd, 0xc2, 0xe8, 0xde, 0xbd,
  0xbf, 0x08, 0x32, 0x3e, 0xd7, 0x2a, 0x9e, 0x3e, 0x19, 0xca, 0x62, 0x3e,
  0x6d, 0x79, 0x7c, 0x3e, 0xfd, 0x5a, 0x16, 0xbe, 0xbe, 0x50, 0x08, 0x3e,
  0x66, 0xb0, 0x35, 0xbe, 0x51, 0xca, 0xe5, 0x3d, 0x29, 0x30, 0x35, 0x3e,
  0x1d, 0xc5, 0x47, 0x3e, 0x4e, 0x9b, 0x40, 0x3e, 0xa6, 0x8c, 0x9c, 0x3e,
  0x58, 0x33, 0xe3, 0xbd, 0xea, 0x61, 0xcd, 0x3c, 0x8b, 0x46, 0x2d, 0x3e,
  0x87, 0x5d, 0x69, 0x3e, 0xe8, 0xba, 0x4f, 0xbd, 0x7a, 0xa8, 0xc1, 0x3d,
  0x05, 0x36, 0x39, 0x3d, 0x5d, 0x50, 0x77, 0x3e, 0x31, 0x4b, 0x32, 0xbe,
  0x9c, 0x54, 0x30, 0xbe, 0x94, 0x82, 0x60, 0xbe, 0xa4, 0x98, 0xa3, 0xbd,
  0xff, 0xae, 0x47, 0xbe, 0x0f, 0xee, 0x76, 0x3e, 0xc1, 0xa3, 0xea, 0xbd,
  0xde, 0xd3, 0x4a, 0xbe, 0x63, 0x7f, 0x07, 0xbe, 0xc2, 0xab, 0x6e, 0xbe,
  0xae, 0xd7, 0xbb, 0xbe, 0x86, 0xbb, 0x64, 0xbe, 0x32, 0xb5, 0x22, 0xbe,
  0x50, 0xb1, 0x46, 0xbe, 0x7d, 0x4f, 0xf1, 0x3d, 0xd3, 0x6c, 0xd1, 0xbd,
  0x3f, 0x16, 0x6e, 0x3e, 0x83, 0x57, 0xee, 0x3d, 0x16, 0x39, 0xa3, 0x3c,
  0x4b, 0x89, 0x84, 0xbe, 0x2a, 0xdb, 0x84, 0xbe, 0xc8, 0x3e, 0x95, 0xbe,
  0x6d, 0xb2, 0x97, 0xbd, 0x0a, 0x80, 0xa0, 0xbe, 0x46, 0x75, 0xa8, 0xbe,
  0xb6, 0xd6, 0x8c, 0xbe, 0x76, 0xeb, 0x87, 0xbe, 0xab, 0x75, 0xfd, 0xbd,
  0x85, 0xbd, 0x6c, 0xbe, 0x9d, 0x1e, 0x23, 0xbc, 0xc4, 0x35, 0x89, 0xbd,
  0x2c, 0x5c, 0xe5, 0xbd, 0x9a, 0x37, 0x1f, 0x3d, 0xb3, 0x66, 0x5f, 0x3c,
  0x18, 0x33, 0x20, 0x3e, 0xbf, 0x44, 0x63, 0x3d, 0x45, 0xd1, 0x91, 0xbd,
  0xbb, 0xe0, 0x68, 0xbe, 0xc0, 0xd9, 0x17, 0xbd, 0x7c, 0x3b, 0x52, 0xbe,
  0x6c, 0xd4, 0x21, 0x3d, 0x25, 0x9d, 0xb4, 0xbd, 0xb1, 0x1a, 0x61, 0x3e,
  0x12, 0x81, 0x73, 0x3d, 0x8d, 0x37, 0x44, 0x3d, 0x44, 0x21, 0x8f, 0xbe,
  0xd2, 0x6e, 0x38, 0xbe, 0x66, 0xc5, 0xda, 0xbd, 0x84, 0xf7, 0xd1, 0xbd,
  0x56, 0x85, 0x9c, 0x3d, 0xc7, 0x7b, 0x81, 0xbe, 0x84, 0xef, 0xf2, 0x3d,
  0x78, 0xd9, 0x5c, 0xbe, 0x73, 0x9d, 0x81, 0xbe, 0x64, 0x2f, 0xbb, 0xbe,
  0x07, 0x7a, 0x57, 0xbe, 0x03, 0xbf, 0x14, 0x3e, 0xa5, 0xf9, 0x84, 0x3d,
  0xa1, 0x90, 0x47, 0xbd, 0xf1, 0xfa, 0xb7, 0xbe, 0x1c, 0xc1, 0x7a, 0xbd,
  0xd5, 0x27, 0x65, 0xbe, 0x2c, 0xea, 0x55, 0xbd, 0x2b, 0x6c, 0x80, 0x3e,
  0xe5, 0x35, 0x3a, 0xbe, 0x2e, 0x71, 0x21, 0xbb, 0xd4, 0xe2, 0x22, 0xbe,
  0xc7, 0x61, 0xf4, 0xbc, 0x67, 0xda, 0x22, 0xbe, 0x75, 0xb8, 0x07, 0x3e,
  0xa8, 0x56, 0x92, 0xbe, 0xd9, 0xb1, 0x51, 0xbe, 0x89, 0x58, 0x09, 0x3c,
  0xe5, 0xe2, 0xcc, 0x3d, 0xb2, 0xd3, 0x02, 0xbe, 0x86, 0x84, 0xfc, 0xbd,
  0xe6, 0xcd, 0x5a, 0xbe, 0xe3, 0x3a, 0x93, 0x3d, 0xff, 0x30, 0xa7, 0xbe,
  0xe4, 0x3b, 0xca, 0xbe, 0xb8, 0x81, 0xf7, 0xbc, 0xd7, 0x43, 0x9b, 0xbe,
  0x8b, 0xe8, 0xa6, 0xbe, 0x00, 0xd8, 0xc1, 0xbe, 0x6b, 0xe4, 0x7a, 0xbe,
  0x2c, 0x12, 0x7f, 0xbe, 0x6a, 0x4c, 0x6c, 0xbe, 0x5d, 0x75, 0xcb, 0x3d,
  0xb1, 0xeb, 0xab, 0x3e, 0x28, 0x3e, 0xe3, 0xbe, 0x16, 0xd1, 0xc4, 0xbe,
  0x8c, 0xcc, 0x17, 0xbf, 0xc2, 0x2a, 0x46, 0xbe, 0x44, 0x6e, 0x3f, 0xbe,
  0xc4, 0xc0, 0x2e, 0xbe, 0x2e, 0xa5, 0x7a, 0x3e, 0xf6, 0x6a, 0x94, 0x3d,
  0x2e, 0xa9, 0x89, 0x3e, 0x0a, 0x1f, 0x36, 0x3e, 0x30, 0xc8, 0x8c, 0x3e,
  0xdc, 0x14, 0x94, 0x3d, 0xcd, 0xc8, 0x38, 0x3e, 0x3d, 0x82, 0x3e, 0x3e,
  0x9b, 0xae, 0x31, 0x3e, 0x3f, 0x9e, 0x01, 0x3e, 0x5e, 0x47, 0x84, 0xbe,
  0x82, 0x82, 0xc5, 0xbd, 0x13, 0xee, 0x3f, 0xbb, 0x40, 0x68, 0x61, 0xbe,
  0x75, 0xdd, 0x91, 0xbe, 0x09, 0x3a, 0xaf, 0xbd, 0xf7, 0xca, 0x85, 0xbc,
  0x3f, 0x50, 0xd0, 0xbc, 0x83, 0x29, 0xa5, 0xbc, 0x10, 0xf7, 0x6c, 0xbe,
  0x7b, 0xb9, 0x61, 0xbe, 0xac, 0x3e, 0x9e, 0xbe, 0xc8, 0x02, 0x34, 0x3e,
  0x03, 0x23, 0x78, 0xbb, 0x36, 0x9a, 0x11, 0xbc, 0x51, 0x63, 0x17, 0x3e,
  0x6f, 0x7b, 0xd1, 0xbd, 0x6c, 0x14, 0x3b, 0x3a, 0x2c, 0xf4, 0x69, 0xbe,
  0x3c, 0x75, 0xb6, 0xbd, 0xea, 0x63, 0x39, 0x3d, 0x6f, 0x09, 0xd0, 0xbd,
  0x0f, 0xd8, 0xaf, 0xbd, 0xab, 0x84, 0x09, 0x3e, 0x12, 0x88, 0xe9, 0xbd,
  0x8d, 0x22, 0xa9, 0x3c, 0x48, 0x18, 0xb9, 0xbd, 0x87, 0x5e, 0x88, 0xbe,
  0x93, 0x04, 0xa3, 0xbe, 0x08, 0xb9, 0xe4, 0xbd, 0x82, 0x66, 0x37, 0x3d,
  0x82, 0xfd, 0x20, 0x3d, 0xb6, 0x61, 0xcf, 0xbd, 0x70, 0x18, 0x3b, 0x3e,
  0x0a, 0x37, 0x5f, 0xbe, 0x6c, 0x3e, 0x9f, 0xbe, 0x8b, 0x2b, 0xd7, 0xbe,
  0x5c, 0xa9, 0x2e, 0xbe, 0xf7, 0xd7, 0x11, 0x3e, 0x3a, 0xf4, 0xc9, 0xbd,
  0xec, 0xe6, 0xc2, 0xbc, 0xec, 0x8e, 0xa5, 0xbe, 0x90, 0xf9, 0x76, 0xbe,
  0x48, 0xee, 0xa8, 0xbe, 0x68, 0xda, 0x8c, 0xbe, 0xd7, 0x28, 0x41, 0xbd,
  0x79, 0x1f, 0x56, 0x3d, 0xa6, 0x9d, 0x7b, 0x3e, 0x6b, 0xc6, 0x9c, 0x3e,
  0x85, 0xf6, 0x32, 0x3e, 0xc3, 0x1f, 0x84, 0xbe, 0xba, 0x4f, 0xfc, 0xbd,
  0xff, 0xa9, 0x7d, 0xbd, 0xbc, 0xa9, 0x84, 0xbe, 0x69, 0xc5, 0x9a, 0xbe,
  0x81, 0x36, 0xbe, 0xbd, 0xf7, 0x73, 0x2e, 0x3e, 0x7b, 0x4d, 0x4b, 0x3e,
  0x2f, 0x88, 0x92, 0x3d, 0x8e, 0x84, 0x9a, 0x3e, 0xea, 0x87, 0x1f, 0xbe,
  0x07, 0x1c, 0x0c, 0x3e, 0x23, 0x9b, 0xeb, 0x3d, 0x6e, 0xc4, 0x8c, 0xbd,
  0xbb, 0x7c, 0x47, 0x3b, 0x41, 0x8c, 0x6b, 0x3e, 0x2c, 0xac, 0x4f, 0x3e,
  0x7f, 0xe1, 0x17, 0x3d, 0xff, 0x58, 0x3c, 0x3e, 0x60, 0x3d, 0xef, 0xbd,
  0x6b, 0x84, 0x18, 0x3e, 0x0c, 0xe2, 0x7e, 0x3c, 0xf9, 0xee, 0x9f, 0xbe,
  0x67, 0x77, 0x3a, 0x3e, 0x40, 0xbd, 0xe2, 0xbd, 0x59, 0xbb, 0xb4, 0x3d,
  0xa8, 0xfe, 0x6b, 0x3e, 0xeb, 0x95, 0xfe, 0xbd, 0x6c, 0x3d, 0x27, 0xbd,
  0x0d, 0x2d, 0x51, 0x3e, 0xdb, 0xa8, 0xfb, 0x3d, 0x8c, 0xfd, 0xb9, 0xbc,
  0x28, 0xec, 0xd4, 0xbd, 0x52, 0xf2, 0xcb, 0xbc, 0xd4, 0x0f, 0x37, 0x3e,
  0x95, 0x87, 0xe3, 0xbd, 0xee, 0x47, 0xae, 0xbd, 0x2c, 0xa9, 0xfb, 0x3d,
  0xdf, 0x4e, 0x20, 0x3e, 0xb1, 0xdd, 0x21, 0x3e, 0x6a, 0x16, 0xda, 0xbd,
  0xeb, 0xdf, 0xf0, 0x3d, 0xc3, 0x3e, 0xed, 0xbd, 0x01, 0xfa, 0x62, 0x3e,
  0x0a, 0xf8, 0x75, 0x3e, 0x29, 0xfa, 0xcc, 0x3d, 0x40, 0x5e, 0x36, 0x3d,
  0xed, 0xd7, 0x95, 0xbd, 0xd5, 0xed, 0x67, 0xbe, 0x2b, 0xe7, 0xa0, 0x3e,
  0x16, 0xcd, 0x4b, 0xbd, 0xa8, 0xa7, 0x3b, 0x3e, 0xee, 0x64, 0x85, 0x3e,
  0x45, 0x96, 0xe8, 0xbd, 0x8b, 0x6a, 0x89, 0xbd, 0xb6, 0x58, 0x9d, 0x3d,
  0x76, 0xa8, 0x64, 0x3c, 0x20, 0x3f, 0xe6, 0xbd, 0x17, 0x3c, 0x47, 0x3e,
  0x71, 0xbf, 0x16, 0xbe, 0xce, 0x67, 0xa8, 0x3e, 0xdc, 0x58, 0x78, 0x3e,
  0xb2, 0x11, 0x13, 0x3e, 0x77, 0xd6, 0xcb, 0xbd, 0xc0, 0xa6, 0xad, 0xbe,
  0x91, 0x70, 0x17, 0x3e, 0xff, 0x5a, 0x02, 0xbd, 0x83, 0x10, 0x1d, 0xbe,
  0x47, 0xf7, 0xbf, 0x3e, 0xbc, 0x9d, 0x25, 0x3e, 0xc8, 0x5b, 0x90, 0x3e,
  0xd5, 0x13, 0x51, 0x3e, 0xe3, 0x86, 0x2b, 0x3e, 0x12, 0x0f, 0x1d, 0x3e,
  0xc7, 0x06, 0x3f, 0x3d, 0xe4, 0x26, 0x65, 0xbe, 0x1e, 0x03, 0xeb, 0xbb,
  0xbb, 0xc4, 0x65, 0x3e, 0x12, 0xaa, 0x7b, 0x3e, 0x22, 0xae, 0xf5, 0x3d,
  0x19, 0x17, 0x33, 0x3c, 0x40, 0x5d, 0x8e, 0x3e, 0xea, 0x52, 0xde, 0x3d,
  0xbe, 0xe5, 0x63, 0x3d, 0x6b, 0x54, 0x66, 0xbd, 0x16, 0x38, 0xa4, 0x3d,
  0xbf, 0x53, 0x65, 0x3e, 0x30, 0x0f, 0xa6, 0x3e, 0xef, 0x13, 0xc1, 0x3d,
  0x6d, 0x47, 0x81, 0x3e, 0x11, 0x6a, 0xba, 0x3d, 0x69, 0xa5, 0x0c, 0xbd,
  0x32, 0x68, 0xc5, 0x3e, 0xed, 0x90, 0x2a, 0x3e, 0x84, 0x85, 0x46, 0x3e,
  0xe5, 0x29, 0x0b, 0xbe, 0xe1, 0x64, 0x04, 0xbe, 0xf2, 0x17, 0x9d, 0x3e,
  0xd9, 0xe5, 0xd4, 0x3d, 0x18, 0x0f, 0x90, 0xbd, 0x18, 0x27, 0x8b, 0xbe,
  0xb9, 0xf7, 0x44, 0x3e, 0xd2, 0x60, 0xe3, 0x3e, 0x93, 0x0e, 0xf2, 0x3e,
  0xa6, 0x11, 0xc4, 0x3e, 0xa9, 0xc0, 0xd5, 0xbd, 0xb4, 0x9e, 0xb7, 0x3e,
  0x40, 0xd3, 0x6e, 0x3e, 0x4b, 0xf8, 0xe1, 0x3d, 0x30, 0xa2, 0x85, 0x3e,
  0x63, 0xff, 0x4e, 0x3d, 0x3b, 0x9f, 0x02, 0x3e, 0x3d, 0xa9, 0x3d, 0x3d,
  0x7c, 0xb3, 0xc5, 0x3e, 0x0f, 0x89, 0xe9, 0x3b, 0x0e, 0x55, 0x00, 0xbc,
  0xc8, 0x6b, 0x71, 0xbc, 0x5f, 0x1f, 0xfe, 0xbc, 0xb5, 0x4b, 0x62, 0x3e,
  0xe9, 0x61, 0x82, 0x3e, 0x6f, 0xb4, 0x35, 0x3e, 0x22, 0xd7, 0xb4, 0x3d,
  0x20, 0x81, 0x46, 0x3e, 0x06, 0xbe, 0xcb, 0x3e, 0x23, 0x9a, 0xf0, 0x3b,
  0x61, 0xd8, 0xd2, 0x3e, 0x3b, 0x6f, 0xff, 0x3d, 0xb0, 0x15, 0x36, 0xbd,
  0xc5, 0x32, 0xc2, 0x3d, 0xf4, 0x94, 0x8f, 0x3e, 0x27, 0xe5, 0x85, 0xbd,
  0x98, 0xc1, 0xa7, 0xbd, 0x05, 0xbf, 0x42, 0xbe, 0x94, 0x94, 0xf6, 0x3d,
  0xda, 0x5c, 0x95, 0x3e, 0x2a, 0x9c, 0x08, 0x3e, 0x4d, 0x35, 0x7e, 0x3e,
  0x5e, 0x2b, 0x55, 0x3e, 0x05, 0x3e, 0x6e, 0x3c, 0x14, 0x52, 0x19, 0x3e,
  0x0d, 0xc6, 0x89, 0xbe, 0x09, 0xa6, 0x67, 0x3e, 0x95, 0x48, 0xa3, 0x3e,
  0xd9, 0x0a, 0xcd, 0xbd, 0x94, 0xd5, 0x02, 0x3e, 0xfc, 0xaf, 0x21, 0xbc,
  0xee, 0x31, 0xaa, 0x3d, 0xa8, 0x89, 0x5c, 0x3e, 0x2a, 0xf8, 0x98, 0xbd,
  0x82, 0xc2, 0x94, 0xbd, 0x2f, 0x27, 0x2d, 0x3e, 0x40, 0x26, 0x81, 0x3d,
  0x27, 0x58, 0x7c, 0x3e, 0x31, 0x9c, 0xba, 0x3e, 0x66, 0xc3, 0xcd, 0x3d,
  0x31, 0xe2, 0x4f, 0x3e, 0x6e, 0x89, 0x10, 0x3e, 0xa3, 0x78, 0xf4, 0xbd,
  0x67, 0x0a, 0xa8, 0x3d, 0x06, 0x76, 0x93, 0x3e, 0x04, 0x44, 0x38, 0x3d,
  0x0d, 0xb7, 0xbb, 0x3e, 0xd3, 0x4a, 0x99, 0x3d, 0x6f, 0x1c, 0x18, 0x3e,
  0xc6, 0xec, 0xa8, 0x3e, 0x28, 0xbd, 0x5e, 0x3d, 0x09, 0xb6, 0xb8, 0x3e,
  0x9b, 0x59, 0x4a, 0x3e, 0xac, 0x8e, 0x12, 0x3e, 0x1d, 0xf9, 0x3d, 0x3e,
  0x83, 0x02, 0x39, 0x3d, 0x01, 0x46, 0x01, 0x3e, 0xe5, 0x9d, 0xf5, 0xbc,
  0xd3, 0x52, 0x80, 0x3d, 0x2a, 0x77, 0x34, 0x3e, 0x81, 0x4a, 0xcb, 0xbd,
  0x16, 0xd8, 0x43, 0x3e, 0xd2, 0xde, 0x93, 0x3d, 0x74, 0xd1, 0xbe, 0x3d,
  0x3c, 0xcc, 0xb6, 0x3c, 0x2c, 0x81, 0x83, 0xbd, 0xff, 0xbd, 0x6b, 0x3b,
  0x2a, 0xea, 0xf8, 0x3c, 0x88, 0xce, 0x1c, 0xbe, 0xcd, 0x35, 0x21, 0x3e,
  0x5f, 0xb1, 0xf4, 0xbd, 0x9d, 0x01, 0x1e, 0xbe, 0xbf, 0xb4, 0xf9, 0xbd,
  0x30, 0x48, 0xfe, 0xbd, 0x2c, 0x12, 0x69, 0x3e, 0x4c, 0x26, 0x49, 0xbe,
  0x5d, 0xa4, 0x06, 0xbc, 0x80, 0x0c, 0x21, 0x3e, 0x2a, 0xf3, 0x40, 0xbc,
  0xe6, 0xbd, 0x78, 0x3b, 0x79, 0xb5, 0x04, 0x3e, 0xc0, 0x25, 0x34, 0xbc,
  0xee, 0xa3, 0xfa, 0xbc, 0xde, 0x8e, 0x2a, 0x3e, 0xf7, 0x68, 0x1b, 0x3e,
  0x07, 0x34, 0xbc, 0x3e, 0x1e, 0xbf, 0x2d, 0x3e, 0x9f, 0x72, 0x4a, 0x3d,
  0x7a, 0xdb, 0x51, 0x3e, 0x6e, 0x95, 0x4f, 0x3e, 0x78, 0x77, 0xac, 0x3d,
  0x7b, 0x19, 0xcc, 0xbd, 0x94, 0x5e, 0xb8, 0x3e, 0x3d, 0x1e, 0xa4, 0x3e,
  0xc5, 0x30, 0x64, 0x3e, 0xea, 0x54, 0xd2, 0x3e, 0x56, 0x9e, 0xcd, 0x3d,
  0x91, 0x8f, 0xf7, 0x3e, 0x08, 0xfb, 0xcd, 0xbd, 0xbf, 0x7e, 0xd6, 0x3d,
  0x19, 0x32, 0x0e, 0x3e, 0xdc, 0xca, 0x91, 0xbd, 0xc2, 0x7e, 0x87, 0x3d,
  0x4f, 0x00, 0xa6, 0x3e, 0x63, 0xe9, 0x01, 0x3f, 0xcf, 0xb4, 0x60, 0x3e,
  0x21, 0xe2, 0x9a, 0x3d, 0xd1, 0x59, 0x9f, 0x3e, 0x7b, 0x91, 0x9a, 0x3b,
  0x16, 0xa9, 0x96, 0x3e, 0xd1, 0xb3, 0x04, 0x3f, 0x36, 0x94, 0xc7, 0x3e,
  0x79, 0x93, 0x80, 0x3e, 0xf1, 0x72, 0xda, 0x3e, 0x32, 0x35, 0x91, 0xbd,
  0xc9, 0x3a, 0xe8, 0x3d, 0xd4, 0xcb, 0x35, 0x3e, 0x87, 0xdf, 0xa9, 0x3e,
  0x24, 0x3b, 0x8b, 0x3d, 0xb2, 0x5d, 0x0c, 0x3e, 0xbf, 0xa5, 0x65, 0x3e,
  0x6a, 0xff, 0x49, 0x3e, 0x07, 0xdd, 0xd6, 0x3c, 0x7e, 0x05, 0x5a, 0x3e,
  0x44, 0x89, 0xde, 0xbc, 0xfc, 0xe7, 0x8c, 0x3e, 0x6b, 0x87, 0x55, 0xbd,
  0xd4, 0x75, 0x92, 0x3e, 0x48, 0x16, 0x42, 0x3e, 0xcc, 0xd0, 0xab, 0xbd,
  0x9e, 0x00, 0xab, 0x3d, 0x53, 0xfa, 0xd2, 0x3d, 0x7a, 0xe5, 0xaf, 0x3c,
  0x57, 0x68, 0xa0, 0x3e, 0x27, 0x8a, 0x8a, 0x3e, 0xc0, 0xd8, 0x9b, 0xbc,
  0xf6, 0x39, 0xa6, 0x3e, 0xa5, 0x0a, 0xd8, 0x3d, 0xaf, 0x77, 0x10, 0xbe,
  0x34, 0x4a, 0x61, 0xbb, 0x4b, 0x86, 0xc1, 0x3e, 0x2a, 0x1c, 0x92, 0x3e,
  0xc2, 0x6e, 0x2e, 0x3c, 0x6c, 0x7d, 0x01, 0x3e, 0x31, 0x36, 0xcf, 0x3d,
  0x08, 0xeb, 0xb2, 0x3e, 0x98, 0x07, 0x09, 0xbe, 0x20, 0xd0, 0x92, 0xbd,
  0x60, 0x5e, 0x71, 0xbe, 0xde, 0x83, 0x52, 0x3e, 0x42, 0xa2, 0x67, 0x3d,
  0xe4, 0x7e, 0xa3, 0xbe, 0xfe, 0x59, 0x57, 0xbe, 0x3b, 0x10, 0x4c, 0xbd,
  0xf9, 0x0d, 0x24, 0xbe, 0x82, 0xec, 0xaa, 0xbe, 0x43, 0x98, 0x05, 0xbd,
  0x7e, 0xf9, 0x74, 0xbe, 0x31, 0xab, 0x92, 0xbe, 0x0c, 0x1a, 0x43, 0xbe,
  0x6a, 0xec, 0xad, 0x3d, 0xcd, 0xd5, 0x91, 0x3e, 0xfc, 0xe4, 0x87, 0xbe,
  0x19, 0x8b, 0x31, 0xbe, 0x21, 0x9d, 0xa5, 0xbe, 0xc5, 0x23, 0xad, 0xbe,
  0x9c, 0x72, 0x31, 0x3c, 0x15, 0x74, 0xee, 0xbd, 0xcf, 0x5f, 0x3f, 0xbe,
  0xea, 0x8e, 0x09, 0x3e, 0x79, 0xcf, 0x27, 0x3d, 0x11, 0x2d, 0xa2, 0xbe,
  0x21, 0xda, 0xa1, 0xbd, 0xbd, 0x0a, 0x9c, 0xbe, 0xe3, 0x80, 0xcd, 0xbd,
  0xf7, 0xd4, 0x9f, 0xbd, 0x7a, 0x92, 0xb3, 0xbd, 0xf5, 0xe2, 0x77, 0xbd,
  0x90, 0x4b, 0xa7, 0xbe, 0x9e, 0x60, 0x6c, 0xbe, 0x8c, 0x7e, 0xc7, 0xbe,
  0x20, 0xd5, 0x71, 0xbe, 0x81, 0xd7, 0x5f, 0x3b, 0x06, 0xd0, 0x82, 0x3d,
  0xf3, 0xb0, 0x69, 0x3e, 0x45, 0xf9, 0x29, 0xbd, 0x3f, 0x4d, 0xa0, 0x3a,
  0x93, 0xcf, 0x80, 0x3d, 0x0e, 0xd6, 0xac, 0xbc, 0xb1, 0xf8, 0xd1, 0xbe,
  0xf3, 0x60, 0x40, 0x3d, 0xd0, 0x01, 0x18, 0xbe, 0x93, 0xa2, 0x2e, 0x3e,
  0x8f, 0x1c, 0xa0, 0x3e, 0x8f, 0xb2, 0xa2, 0xbe, 0x19, 0x24, 0x23, 0xbe,
  0x4c, 0x1e, 0xdd, 0xbc, 0xb3, 0x24, 0x98, 0xbe, 0x66, 0xfb, 0xa7, 0xbd,
  0xd9, 0xde, 0x88, 0x3d, 0xf5, 0x01, 0x94, 0x3d, 0x44, 0x6d, 0x13, 0x3e,
  0x21, 0x67, 0x36, 0x3d, 0xe5, 0x5e, 0x47, 0x3d, 0x66, 0xf8, 0x06, 0xbd,
  0x1e, 0x3d, 0xb0, 0xbe, 0x32, 0xe4, 0xbb, 0xbb, 0x42, 0xec, 0x3e, 0xbe,
  0x33, 0x18, 0xaa, 0xbd, 0x3f, 0xd0, 0x1a, 0x3e, 0x32, 0x18, 0xe2, 0x3b,
  0x0c, 0xe1, 0xad, 0x3e, 0x7c, 0x82, 0x29, 0xbd, 0x17, 0xbe, 0x28, 0x3e,
  0xf6, 0x73, 0xb3, 0xbd, 0xaf, 0xf0, 0x5c, 0xbe, 0xb0, 0x5f, 0x55, 0x3d,
  0x83, 0x1b, 0x4a, 0xbe, 0x6f, 0x2d, 0x72, 0xbc, 0xe5, 0x41, 0xc1, 0x3e,
  0xa0, 0x9f, 0xda, 0x3e, 0x88, 0xb1, 0xbc, 0x3e, 0xe6, 0x1f, 0x48, 0xbd,
  0x59, 0xa7, 0x21, 0xbe, 0x82, 0x51, 0x7f, 0xbe, 0x46, 0xef, 0xd7, 0x3c,
  0x29, 0x97, 0x97, 0x3e, 0x3c, 0x0d, 0x85, 0x3e, 0x64, 0x79, 0xbf, 0x3e,
  0xef, 0xaa, 0xbf, 0x3e, 0x3c, 0x79, 0xd9, 0x3d, 0xff, 0xe1, 0x1a, 0xbe,
  0x1b, 0x30, 0x29, 0xbe, 0x3d, 0x3f, 0x45, 0xbd, 0x78, 0x93, 0x8a, 0x3d,
  0xb7, 0xdf, 0x49, 0x3e, 0x3f, 0xfc, 0xb4, 0x3d, 0xbc, 0xa5, 0xc4, 0x3d,
  0xe1, 0x66, 0x9f, 0x3d, 0x61, 0x1a, 0x79, 0xbe, 0x8d, 0x5d, 0x58, 0x3e,
  0x13, 0x65, 0x34, 0xbe, 0x4f, 0xbc, 0x2c, 0x3e, 0x52, 0xa5, 0x85, 0x3e,
  0x4f, 0x15, 0x4d, 0x3d, 0xbc, 0x19, 0x5a, 0x3e, 0x01, 0xb3, 0x13, 0xbe,
  0xf5, 0xff, 0x5a, 0x3e, 0xa3, 0x24, 0xc5, 0xbd, 0xf8, 0x9f, 0xfd, 0xbd,
  0x54, 0xec, 0x83, 0xbd, 0x81, 0xef, 0x92, 0x3e, 0x6b, 0xb9, 0x19, 0xbe,
  0x1b, 0x73, 0xaa, 0x3e, 0xbe, 0xde, 0x68, 0xbe, 0xe5, 0x70, 0x4f, 0x3e,
  0x5c, 0x99, 0x7c, 0xbd, 0xe3, 0x23, 0x3b, 0x3e, 0xb8, 0x4f, 0x28, 0x3c,
  0xee, 0x54, 0x9f, 0x3d, 0x2e, 0x38, 0x4e, 0x3e, 0x00, 0xde, 0x84, 0x3b,
  0x08, 0x1b, 0x04, 0x3e, 0x80, 0x7a, 0x73, 0x3e, 0x16, 0x21, 0x65, 0xbe,
  0x47, 0xed, 0x57, 0x3e, 0x49, 0xb1, 0x02, 0x3e, 0xf9, 0xde, 0x14, 0xbe,
  0xbc, 0xbd, 0x07, 0xbe, 0x21, 0xcc, 0x9e, 0xbd, 0xa8, 0x12, 0x71, 0x3d,
  0x27, 0xb0, 0x1e, 0x3d, 0xd8, 0x1c, 0x3e, 0xbd, 0xe7, 0x70, 0xae, 0x3d,
  0x57, 0x7c, 0xee, 0xbd, 0x56, 0x54, 0x09, 0x3e, 0x28, 0xf0, 0xbb, 0x3d,
  0xf3, 0xbf, 0x75, 0x3e, 0xc8, 0x6f, 0xe7, 0xbc, 0x8d, 0x81, 0xe7, 0x3c,
  0xef, 0x55, 0x34, 0xbe, 0xcb, 0x76, 0x9e, 0x3d, 0x40, 0xf0, 0xe2, 0x3e,
  0xd8, 0xb2, 0x05, 0x3e, 0x25, 0x5f, 0xd9, 0x3e, 0xb3, 0xae, 0xae, 0x3e,
  0x1e, 0x84, 0x89, 0x3e, 0x5d, 0x62, 0xf9, 0xba, 0xb2, 0xef, 0x1c, 0xbe,
  0xe5, 0xa1, 0x24, 0xbe, 0xac, 0x81, 0x5d, 0x3e, 0x23, 0x52, 0x1d, 0x3e,
  0x6d, 0x87, 0x5e, 0x3e, 0xa7, 0x9b, 0xe8, 0x3e, 0x91, 0x1a, 0x98, 0xbd,
  0x10, 0xed, 0x74, 0x3e, 0x60, 0x22, 0x15, 0xbe, 0x0b, 0x7d, 0x47, 0x3d,
  0xb2, 0xc4, 0xa5, 0xbc, 0xc2, 0xa2, 0xaa, 0x3e, 0x77, 0x8e, 0xe8, 0x3e,
  0x9e, 0x24, 0xd5, 0x3d, 0xd4, 0x00, 0x44, 0x3e, 0xfb, 0x21, 0x12, 0x3e,
  0x55, 0xae, 0x27, 0x3e, 0xf7, 0xb6, 0x16, 0xbe, 0x68, 0xe6, 0x9e, 0x3e,
  0x15, 0xf3, 0xb3, 0x3e, 0x18, 0xa6, 0x4f, 0x3e, 0xe9, 0x06, 0xfe, 0xbc,
  0x28, 0x8b, 0x23, 0x3d, 0x51, 0xfa, 0x2d, 0x3e, 0x13, 0x43, 0x9c, 0x3c,
  0x42, 0x39, 0x1b, 0xbe, 0x4b, 0x12, 0x18, 0xbe, 0x52, 0x3b, 0x5a, 0x3e,
  0xf5, 0x04, 0x25, 0xbe, 0x18, 0xf3, 0x19, 0xbd, 0x4c, 0x75, 0x27, 0x3e,
  0x2b, 0x5e, 0x3e, 0xbe, 0x7d, 0xf7, 0xc1, 0xbd, 0x67, 0x3f, 0x2e, 0x3d,
  0x49, 0x34, 0x4b, 0xbd, 0x4c, 0xb1, 0xac, 0x3b, 0x84, 0x89, 0x0a, 0xbd,
  0x08, 0x03, 0x89, 0x3e, 0x5b, 0x99, 0xca, 0x3d, 0x45, 0x06, 0x13, 0x3c,
  0xa3, 0x51, 0xd5, 0xbd, 0xc1, 0x49, 0x96, 0xbd, 0xf6, 0xc9, 0xc7, 0x3e,
  0xb0, 0xaf, 0x41, 0x3e, 0x13, 0x5a, 0x5b, 0xbc, 0xae, 0x93, 0x42, 0xbe,
  0x71, 0x47, 0x8f, 0x3e, 0x97, 0x6f, 0xa8, 0xbe, 0x7d, 0xeb, 0x0d, 0x3e,
  0xa6, 0x6c, 0x53, 0xbe, 0xa2, 0xee, 0xff, 0xff, 0x04, 0x00, 0x00, 0x00,
  0x00, 0x0a, 0x00, 0x00, 0x94, 0x6a, 0xd0, 0x3d, 0x46, 0xbc, 0x9f, 0x3e,
  0x8d, 0xe8, 0x90, 0xbc, 0x5e, 0x7f, 0x8a, 0x3e, 0x39, 0x15, 0x8e, 0x3e,
  0xc5, 0x00, 0xb8, 0x3e, 0x55, 0xa1, 0x0c, 0x3f, 0x42, 0x3e, 0xb4, 0x3e,
  0xe5, 0x48, 0x3b, 0x3e, 0x38, 0x9c, 0x70, 0xbc, 0x04, 0x5a, 0x0d, 0x3e,
  0xe9, 0x2c, 0x28, 0xbd, 0xb8, 0x59, 0x15, 0x3e, 0xcf, 0x26, 0x8e, 0x3c,
  0xe9, 0xd6, 0x14, 0x3d, 0x05, 0xe9, 0xa6, 0x3e, 0x12, 0x11, 0x77, 0x3d,
  0xba, 0x49, 0xca, 0xbd, 0x05, 0x36, 0x59, 0xbc, 0xe2, 0xdc, 0xae, 0xbe,
  0xfc, 0xc2, 0x3d, 0xbe, 0xf0, 0xf4, 0x7c, 0xbe, 0x4e, 0xb6, 0x1d, 0x3e,
  0xc9, 0x7c, 0x02, 0x3e, 0x35, 0x13, 0xd7, 0x3c, 0xf3, 0x96, 0x9b, 0xbd,
  0xbc, 0xd6, 0x88, 0x3c, 0x3d, 0xac, 0x71, 0xbe, 0x93, 0x15, 0x0a, 0x3e,
  0x08, 0x52, 0x90, 0xbe, 0x61, 0x3c, 0x10, 0xbe, 0x46, 0x51, 0x04, 0x3e,
  0x53, 0x64, 0xa1, 0xbe, 0x69, 0xd2, 0x36, 0x3d, 0x2f, 0x27, 0x9e, 0xbd,
  0x73, 0x63, 0x9c, 0xbd, 0x4d, 0x2e, 0xa7, 0x3d, 0xbc, 0xc1, 0xca, 0xbd,
  0x91, 0x05, 0x1e, 0xbd, 0xf0, 0x1b, 0x05, 0x3e, 0x0e, 0x79, 0x6f, 0xbe,
  0x0d, 0x67, 0xe1, 0x3d, 0xc9, 0x26, 0x22, 0xbc, 0xee, 0xdd, 0x15, 0xbe,
  0xfc, 0x79, 0xd9, 0x3d, 0xd3, 0x8d, 0x7b, 0xbe, 0x99, 0x66, 0xd1, 0xbc,
  0x31, 0x13, 0x88, 0x3e, 0x65, 0x26, 0x9e, 0x3d, 0x75, 0xa5, 0x2d, 0x3e,
  0x7f, 0x3e, 0x34, 0x3e, 0xbf, 0x9f, 0x97, 0xbb, 0x19, 0xf2, 0xa6, 0x3d,
  0xed, 0x92, 0x81, 0x3e, 0x8f, 0x1a, 0x4f, 0xbd, 0x25, 0x36, 0xcb, 0x3d,
  0xd6, 0x7b, 0x35, 0x3e, 0xf2, 0x82, 0x7e, 0x3c, 0xaf, 0x2c, 0x5c, 0xbe,
  0x32, 0x91, 0x8c, 0x3c, 0xe7, 0x9e, 0x0a, 0xbe, 0x8e, 0x57, 0x41, 0xbe,
  0x13, 0x63, 0x4e, 0x3e, 0xb4, 0x44, 0x9f, 0x3d, 0xe1, 0xab, 0x53, 0x3e,
  0xd8, 0xee, 0xcc, 0xbd, 0x61, 0x8c, 0xaa, 0x3c, 0x93, 0x5b, 0xa6, 0x3e,
  0x68, 0x2c, 0x69, 0x3c, 0xa8, 0xc4, 0x08, 0xbd, 0x6e, 0xd9, 0xfe, 0xbd,
  0xd6, 0xdf, 0x1d, 0x3d, 0x40, 0x45, 0xbf, 0x3e, 0xd3, 0xe5, 0x42, 0xbd,
  0x53, 0x31, 0x9d, 0x3d, 0xea, 0x02, 0x19, 0x3d, 0x9b, 0xee, 0xa8, 0x3d,
  0x6a, 0x8f, 0x3c, 0xbc, 0x3c, 0x25, 0x6d, 0xbe, 0x9b, 0x01, 0x2f, 0xbb,
  0x55, 0xfb, 0x58, 0xbe, 0x76, 0x05, 0xf6, 0x3c, 0x97, 0x9c, 0x3b, 0x3d,
  0xf7, 0x2e, 0xa1, 0xbd, 0x93, 0xda, 0x1b, 0xbd, 0x14, 0x78, 0xcd, 0xbd,
  0xb2, 0xe3, 0x29, 0xbe, 0x32, 0x70, 0xfa, 0x3d, 0xe7, 0xdb, 0x6c, 0xbe,
  0xcd, 0x54, 0x2f, 0x3e, 0x59, 0x9d, 0xbf, 0xbe, 0x56, 0xed, 0x7e, 0x3b,
  0x1b, 0x6f, 0x75, 0x3c, 0xda, 0x3d, 0x21, 0x3d, 0xf7, 0x61, 0xe8, 0x3c,
  0x7e, 0x14, 0x8a, 0x3e, 0xfe, 0xc6, 0x5c, 0xbe, 0x4e, 0xd3, 0x4e, 0x3e,
  0xdb, 0xf6, 0xa3, 0xbd, 0xd0, 0x95, 0x36, 0xbe, 0x13, 0xd6, 0x81, 0xbd,
  0xa1, 0x20, 0x47, 0xbe, 0xf6, 0x49, 0x9d, 0xbc, 0xef, 0x5d, 0x4e, 0x3c,
  0xf1, 0x5f, 0xda, 0xbd, 0x08, 0x0f, 0x11, 0xbe, 0x59, 0xa8, 0xfe, 0x3c,
  0xfb, 0xb6, 0x42, 0x3d, 0xfb, 0xa7, 0xc9, 0x3d, 0x81, 0xfd, 0xa3, 0xbd,
  0x45, 0x95, 0xd9, 0xbc, 0x0b, 0x28, 0x81, 0x3e, 0xbb, 0x60, 0xae, 0x3c,
  0x24, 0x11, 0x3a, 0xbe, 0x8c, 0xde, 0x4f, 0xbb, 0x51, 0xc3, 0x00, 0xbd,
  0x0c, 0xc4, 0x72, 0xbe, 0xc8, 0x07, 0xc8, 0xbd, 0x70, 0xdd, 0xa8, 0x3e,
  0xb6, 0x3f, 0xe2, 0xbd, 0x96, 0x35, 0x19, 0x3e, 0x67, 0x02, 0xfc, 0xbb,
  0x3b, 0x72, 0x01, 0xbe, 0x60, 0x8b, 0x13, 0xbe, 0xe1, 0x4c, 0x62, 0xbe,
  0x4b, 0x1d, 0xe7, 0x3e, 0x40, 0x19, 0x0b, 0xbc, 0x30, 0x4a, 0xdf, 0x3d,
  0xdd, 0xfd, 0xc7, 0x3e, 0xe9, 0x1b, 0xaf, 0x3e, 0x9c, 0x5c, 0xd2, 0x3e,
  0xcd, 0xdb, 0x98, 0x3e, 0x1c, 0x7b, 0xfa, 0x3c, 0xf5, 0x9c, 0xaa, 0x3d,
  0xf4, 0x6f, 0xe1, 0x3e, 0x83, 0x42, 0x31, 0x3c, 0x03, 0x2c, 0xcb, 0xbd,
  0x82, 0xed, 0x9d, 0x3e, 0xd4, 0xa5, 0x80, 0x3e, 0x01, 0xb3, 0x8f, 0x3c,
  0xe1, 0x0f, 0x2e, 0x3e, 0x43, 0x89, 0x63, 0x3e, 0xdc, 0x05, 0xb9, 0xbd,
  0x4d, 0x59, 0x08, 0x3c, 0xbe, 0x70, 0x55, 0x3e, 0x5f, 0xc9, 0x22, 0x3e,
  0xf0, 0x22, 0x5f, 0x3e, 0x0e, 0xf9, 0x98, 0x3e, 0x3f, 0x51, 0x40, 0xbc,
  0xd0, 0x25, 0xb2, 0x3e, 0x90, 0xbc, 0x5c, 0x3e, 0x03, 0xee, 0xa1, 0x3e,
  0xf8, 0x09, 0xbe, 0x3d, 0x9e, 0x3c, 0x5d, 0x3e, 0x6a, 0x64, 0x8f, 0x3c,
  0xfb, 0x81, 0x00, 0x3e, 0x2c, 0xce, 0x87, 0x3e, 0x53, 0x4e, 0xbb, 0x3d,
  0xc4, 0xcf, 0x59, 0xbd, 0xf9, 0x4e, 0xbf, 0x3d, 0x0c, 0x40, 0x4c, 0xbd,
  0x17, 0x90, 0x22, 0xbe, 0x4a, 0x0e, 0x30, 0x3e, 0x42, 0x33, 0x22, 0x3d,
  0x07, 0xbb, 0x9c, 0x3e, 0x4c, 0xa1, 0x33, 0x3e, 0x4d, 0x4b, 0x87, 0x3d,
  0x6b, 0x71, 0xa3, 0x3e, 0x83, 0x20, 0x85, 0xbb, 0xce, 0xb2, 0x98, 0x3d,
  0x2b, 0x01, 0x6a, 0xbd, 0x8f, 0x19, 0xd5, 0xbd, 0x6f, 0x49, 0x1f, 0x3e,
  0x4e, 0x9b, 0xcf, 0x3e, 0x3b, 0x24, 0x28, 0x3e, 0xd3, 0x55, 0x5d, 0x3e,
  0xe3, 0x23, 0xf4, 0x3b, 0x3e, 0xb1, 0x1c, 0xbe, 0x10, 0x84, 0x99, 0xbd,
  0xeb, 0x43, 0xc7, 0xbd, 0x97, 0x89, 0x91, 0xbd, 0xfe, 0x68, 0x72, 0x3e,
  0xbb, 0xd9, 0x1e, 0x3e, 0x60, 0x63, 0x81, 0x3e, 0x8b, 0xa4, 0x21, 0x3d,
  0xf2, 0x99, 0xd0, 0xbd, 0x7a, 0x03, 0x92, 0x3e, 0xf0, 0x13, 0x98, 0x3e,
  0x29, 0x26, 0x26, 0x3e, 0x0f, 0xd1, 0x76, 0x3d, 0xca, 0xd3, 0x1d, 0x3c,
  0x38, 0x6e, 0x94, 0x3e, 0xf5, 0x10, 0x73, 0x3e, 0xb8, 0x19, 0x77, 0xbe,
  0x58, 0xde, 0x48, 0xbd, 0xe4, 0x02, 0x9d, 0xbd, 0x47, 0x12, 0x85, 0xbd,
  0x0a, 0xd3, 0x81, 0xbd, 0xa7, 0x15, 0x48, 0xbe, 0x84, 0x8a, 0x1a, 0xbe,
  0x45, 0x68, 0x0a, 0x3e, 0x33, 0xec, 0x5c, 0x3d, 0x7f, 0x24, 0x1c, 0x3b,
  0x8f, 0xce, 0x03, 0xbe, 0x3d, 0x07, 0x74, 0x3c, 0x16, 0x81, 0xbc, 0xbd,
  0xda, 0xae, 0x0a, 0x3e, 0x16, 0xdd, 0x1e, 0x3e, 0x7e, 0xca, 0x3d, 0x3d,
  0x48, 0x62, 0x77, 0xbe, 0x90, 0x77, 0xa2, 0xbe, 0x78, 0xce, 0x07, 0xbe,
  0x5e, 0x0a, 0x28, 0xbe, 0xfb, 0xbc, 0xb3, 0xbd, 0x37, 0x7e, 0x25, 0xbe,
  0x3f, 0xce, 0x9e, 0xbe, 0x7e, 0xf5, 0xab, 0xbd, 0x7d, 0xe5, 0x21, 0x3e,
  0x5a, 0xb8, 0x02, 0xbe, 0x62, 0x5a, 0x8f, 0xbe, 0xdd, 0x2e, 0x21, 0xbe,
  0xa4, 0x7a, 0x48, 0xbe, 0x8d, 0x9f, 0xe1, 0x3c, 0xea, 0x45, 0xe8, 0x3d,
  0x57, 0xf1, 0x17, 0xbe, 0x45, 0x67, 0xd9, 0x3d, 0x33, 0x37, 0x32, 0xbe,
  0x0e, 0x4c, 0x37, 0x3d, 0x4a, 0x44, 0x92, 0xbe, 0xa8, 0x1d, 0xbd, 0xbe,
  0x90, 0xc1, 0x90, 0x3d, 0xaf, 0x8f, 0x76, 0x3d, 0xb1, 0x23, 0x31, 0x3d,
  0xf9, 0xe4, 0xbd, 0x3d, 0x45, 0x4c, 0x1c, 0x3e, 0xbd, 0x0d, 0x05, 0xbe,
  0x7e, 0x91, 0x51, 0xbd, 0xd5, 0x76, 0x3a, 0xbe, 0x7f, 0x66, 0xd7, 0x3b,
  0x33, 0x85, 0xa9, 0x3d, 0x4f, 0x6a, 0xfc, 0x3d, 0xa2, 0xdd, 0xff, 0x3d,
  0x8a, 0x00, 0x56, 0xbd, 0x04, 0x23, 0x04, 0xbe, 0x86, 0x27, 0x4a, 0x3e,
  0xba, 0x12, 0x62, 0x3c, 0x4f, 0x56, 0xcf, 0x3d, 0x2d, 0x1b, 0x36, 0x3e,
  0x88, 0x11, 0x89, 0x3e, 0x11, 0x06, 0x1f, 0xbe, 0x61, 0x1c, 0xb1, 0xbd,
  0xa0, 0x14, 0xab, 0xba, 0xe4, 0x55, 0x4d, 0x3e, 0x4f, 0xf1, 0x60, 0x3e,
  0x62, 0x22, 0xbb, 0xbd, 0x13, 0x47, 0xe2, 0x3e, 0x92, 0xbb, 0x0a, 0x3e,
  0x6a, 0x8e, 0x9f, 0x3c, 0xf3, 0x91, 0xde, 0xbd, 0x1f, 0x49, 0xad, 0x3d,
  0xa5, 0x3e, 0x06, 0x3e, 0xdb, 0x2b, 0x91, 0x3e, 0xa6, 0x79, 0x8c, 0x3e,
  0x37, 0x60, 0x8e, 0x3e, 0x7a, 0x2e, 0x64, 0xbd, 0x6d, 0xbd, 0x87, 0x3e,
  0xb9, 0x28, 0x2b, 0x3e, 0x59, 0x7f, 0xb6, 0x3e, 0xb5, 0xe3, 0xc7, 0x3d,
  0xeb, 0x5c, 0x98, 0x3d, 0x09, 0x10, 0x8a, 0x3d, 0x4d, 0xeb, 0x6c, 0xbc,
  0xba, 0x4a, 0x9c, 0x3e, 0x7c, 0x5f, 0x83, 0x3e, 0x4f, 0xdb, 0x01, 0x3d,
  0xba, 0xb4, 0xd8, 0xbb, 0x1f, 0x71, 0x93, 0x3d, 0xb4, 0xaa, 0x20, 0x3e,
  0xe7, 0x90, 0x1a, 0x3d, 0x19, 0xb8, 0xe3, 0x3d, 0x50, 0xd4, 0x18, 0x3e,
  0x96, 0x2c, 0xb2, 0x3e, 0x5b, 0x54, 0xe6, 0x3d, 0x76, 0x12, 0x10, 0x3e,
  0x4d, 0x31, 0xa2, 0x3e, 0x3e, 0x0f, 0x72, 0xbc, 0xc1, 0x33, 0xd2, 0xbd,
  0x33, 0xb9, 0x1c, 0xbe, 0x80, 0xff, 0xf5, 0x3d, 0xcf, 0xd4, 0x06, 0x3f,
  0x8d, 0xef, 0x8b, 0x3e, 0x25, 0x11, 0x17, 0x3e, 0x8e, 0x73, 0xb1, 0x3b,
  0x51, 0x2d, 0x9e, 0xbe, 0x0b, 0xbb, 0xc0, 0x3d, 0x2d, 0x27, 0x10, 0xbe,
  0xbf, 0xe6, 0x47, 0x3e, 0x69, 0x7b, 0xc7, 0x3e, 0xa4, 0x72, 0xae, 0x3d,
  0x9d, 0xa6, 0xdb, 0x3d, 0x2c, 0xdd, 0x97, 0xbe, 0xa5, 0x86, 0x83, 0xbe,
  0x8f, 0x95, 0x64, 0xbe, 0xae, 0x2d, 0x69, 0xbe, 0xbe, 0x06, 0xb5, 0xbc,
  0x1a, 0x2c, 0xa0, 0x3e, 0x75, 0x36, 0xab, 0xbc, 0x4e, 0xb3, 0xe5, 0x3e,
  0xc3, 0xfc, 0xbb, 0xbd, 0xae, 0xea, 0x88, 0xbe, 0xf9, 0xa2, 0xee, 0xbd,
  0x0c, 0x17, 0x86, 0x3d, 0x60, 0x54, 0x89, 0x3e, 0x17, 0x72, 0xe4, 0x3d,
  0x54, 0x93, 0x4c, 0x3e, 0xfd, 0xca, 0x96, 0x3d, 0x7a, 0x45, 0xed, 0xbc,
  0x7c, 0x47, 0xf7, 0x3c, 0x22, 0xf4, 0xb9, 0xbd, 0x03, 0xa1, 0x6f, 0x3e,
  0x40, 0x3d, 0xcb, 0x3d, 0x5b, 0x7f, 0xc7, 0x3c, 0xe1, 0x1b, 0x47, 0x3e,
  0xe6, 0x0f, 0x61, 0xbd, 0xf5, 0x1b, 0x27, 0x3e, 0xd0, 0xe0, 0x97, 0x3d,
  0x97, 0x5a, 0x2f, 0xbe, 0x17, 0xc7, 0x27, 0xbe, 0x8f, 0xc2, 0x6b, 0x3e,
  0xfb, 0xd3, 0x79, 0x3e, 0x98, 0x8f, 0x5d, 0xbd, 0x69, 0x73, 0x00, 0x3d,
  0x7e, 0x94, 0x47, 0xbe, 0x3c, 0xdd, 0xba, 0xbe, 0xc4, 0x99, 0x93, 0xbe,
  0x46, 0x6a, 0x57, 0xbe, 0xe0, 0x0e, 0x99, 0x3e, 0x0e, 0x0e, 0xa2, 0x3c,
  0x9e, 0xcf, 0xe8, 0xbd, 0x31, 0x23, 0x1b, 0xbd, 0xc4, 0xf4, 0x88, 0xbe,
  0xae, 0x1a, 0xe8, 0xbc, 0x58, 0xd3, 0xfd, 0xbd, 0x5f, 0x4c, 0xc6, 0xbe,
  0x05, 0x8a, 0xa7, 0xbb, 0xb9, 0x47, 0x13, 0x3b, 0x75, 0x03, 0x6e, 0x3e,
  0x54, 0x98, 0x2e, 0xbd, 0x96, 0xa2, 0xf7, 0xbd, 0x99, 0x03, 0xb9, 0xbd,
  0x2d, 0x82, 0x57, 0xbe, 0x94, 0xab, 0xac, 0xbe, 0xbd, 0x9a, 0xcb, 0xbd,
  0x19, 0xc2, 0x7a, 0xbd, 0xad, 0x2d, 0x95, 0x3e, 0x45, 0x6d, 0xcd, 0x3d,
  0x36, 0xf8, 0x0b, 0x3e, 0x86, 0x2d, 0x99, 0xbe, 0xf2, 0x96, 0x38, 0x3a,
  0x9c, 0xed, 0x45, 0x3d, 0x6d, 0xda, 0xa6, 0x3e, 0x1a, 0x6f, 0x7b, 0x3d,
  0xe6, 0x65, 0xaf, 0xbd, 0x13, 0xaf, 0x13, 0x3c, 0x44, 0x8a, 0x8f, 0x3e,
  0x20, 0x7c, 0xee, 0xbd, 0x57, 0x9e, 0x9a, 0xbc, 0x78, 0x7c, 0xe1, 0xbd,
  0x67, 0x5d, 0x85, 0x3b, 0xaf, 0x5e, 0xfa, 0xbd, 0x4d, 0x3b, 0x1e, 0xbe,
  0x6d, 0x93, 0x50, 0x3e, 0x91, 0x9d, 0x5a, 0xbe, 0x78, 0x5a, 0x63, 0xbc,
  0xda, 0xa5, 0xf3, 0xbd, 0xf2, 0x7b, 0x02, 0x3e, 0x9c, 0xc0, 0x2a, 0x3e,
  0x50, 0x56, 0x37, 0xbe, 0x84, 0xe7, 0x30, 0x3e, 0x0c, 0x72, 0x66, 0x3d,
  0x06, 0xed, 0x46, 0xbd, 0x7f, 0x8e, 0x00, 0xbd, 0xda, 0xf0, 0x86, 0xbd,
  0xfc, 0x16, 0xbf, 0xbc, 0xd7, 0xe7, 0x1b, 0x3e, 0xa8, 0xae, 0x1b, 0x3e,
  0xc7, 0xba, 0xab, 0x3d, 0xd7, 0xa9, 0x57, 0xbd, 0x35, 0x24, 0x90, 0x3e,
  0x36, 0x90, 0x41, 0xbc, 0xee, 0xcc, 0xa6, 0x3e, 0x9e, 0x53, 0x36, 0x3e,
  0xe7, 0x1c, 0x4e, 0xbd, 0x00, 0xe9, 0x7f, 0xbd, 0x8d, 0xa1, 0x6d, 0xbd,
  0x4a, 0x8c, 0x32, 0x3d, 0x8a, 0xde, 0xa0, 0x3e, 0xf0, 0x92, 0xfa, 0x3c,
  0xb6, 0x78, 0xe6, 0xbd, 0x72, 0x73, 0xff, 0x3d, 0xc1, 0x6d, 0x1a, 0x3e,
  0xc5, 0x52, 0xb8, 0x3e, 0x5a, 0x33, 0x80, 0xbc, 0x53, 0xd8, 0xbd, 0x39,
  0x4f, 0x9e, 0x1a, 0xbe, 0x3f, 0x18, 0x59, 0xbe, 0xac, 0xe3, 0x83, 0x3e,
  0x55, 0xd0, 0x99, 0x3e, 0x5e, 0x73, 0x1e, 0xbd, 0xee, 0x6b, 0x9f, 0x3e,
  0x92, 0x7f, 0x85, 0x3e, 0x11, 0x6e, 0x43, 0xbe, 0xa2, 0xd5, 0x9b, 0xbc,
  0x91, 0xa2, 0x5b, 0xbe, 0xa8, 0x92, 0x20, 0x3e, 0x35, 0xf6, 0x49, 0x3e,
  0xc6, 0x37, 0x6e, 0x3e, 0xac, 0x17, 0x1d, 0x3e, 0x45, 0x26, 0x74, 0x3e,
  0x1a, 0xad, 0x40, 0x3e, 0x4e, 0xb4, 0x16, 0x3e, 0x41, 0x81, 0x2d, 0xbd,
  0x9e, 0x17, 0x02, 0x3c, 0x84, 0xf0, 0x23, 0x3e, 0x65, 0xe4, 0x04, 0x3e,
  0x1b, 0x65, 0x2c, 0x3e, 0xf5, 0x86, 0x24, 0x3e, 0xdc, 0x39, 0xd3, 0xbd,
  0x93, 0x5f, 0x9f, 0xbc, 0xaa, 0x3b, 0x84, 0xbc, 0xb9, 0xcb, 0x81, 0x3d,
  0xbe, 0xd4, 0x48, 0x3e, 0x4c, 0x97, 0xa4, 0x3e, 0xda, 0x20, 0x3c, 0x3e,
  0x69, 0xb5, 0x0f, 0x3e, 0xe0, 0x40, 0x75, 0x3d, 0xc0, 0x2b, 0x5d, 0xbd,
  0x33, 0x60, 0xab, 0x3c, 0x48, 0x65, 0xa0, 0xbe, 0x43, 0x24, 0xa1, 0x3e,
  0x6e, 0x21, 0x45, 0x3e, 0x92, 0x1f, 0xbf, 0x3c, 0x78, 0x5d, 0x95, 0x3e,
  0xd2, 0x36, 0x53, 0x3e, 0xc0, 0xef, 0x88, 0x3e, 0xaf, 0x87, 0xc0, 0xbe,
  0xa4, 0x32, 0xa0, 0x3e, 0x08, 0xe7, 0x2b, 0x3e, 0x64, 0xcf, 0xc2, 0xbc,
  0x3a, 0xc1, 0x90, 0xbe, 0xd2, 0x67, 0x78, 0xbe, 0xca, 0x3d, 0xb7, 0xbc,
  0xd9, 0x5b, 0x6e, 0xbe, 0x24, 0x51, 0x6e, 0xbe, 0xa8, 0x49, 0x90, 0x3c,
  0x2c, 0x86, 0xe1, 0x3d, 0xeb, 0x56, 0x50, 0x3d, 0x20, 0xce, 0x62, 0xbb,
  0x33, 0x63, 0x0e, 0x3e, 0x73, 0x61, 0x3f, 0x3d, 0x57, 0x24, 0xc7, 0xbe,
  0xaa, 0x99, 0x92, 0x3d, 0xa3, 0x5c, 0x99, 0xbe, 0x13, 0x66, 0xc4, 0xbc,
  0xb6, 0x0e, 0x1b, 0xbd, 0x69, 0x59, 0x65, 0xbe, 0xd1, 0x7a, 0x0b, 0xbe,
  0x99, 0x19, 0xf1, 0xbd, 0xb0, 0x69, 0x77, 0x3e, 0x15, 0x15, 0x4e, 0xbe,
  0x86, 0x6e, 0xc1, 0x3d, 0x1b, 0x74, 0xcd, 0x3d, 0x01, 0x64, 0x0b, 0x3e,
  0x75, 0x9b, 0xf7, 0x3d, 0x66, 0xba, 0x78, 0xbe, 0x38, 0xdc, 0x42, 0xbe,
  0xe7, 0x7d, 0xb9, 0xbc, 0x8b, 0x06, 0x28, 0xbd, 0x8d, 0x94, 0xce, 0xbd,
  0xfe, 0x52, 0x6a, 0xbe, 0xf2, 0x01, 0xc6, 0xbe, 0x4e, 0x03, 0x16, 0xbe,
  0x18, 0x39, 0x8a, 0xbe, 0xc9, 0xce, 0xce, 0xbe, 0x6f, 0xe9, 0xc4, 0x3d,
  0xaf, 0x84, 0x8f, 0xbd, 0x0f, 0x93, 0x45, 0x3e, 0x6b, 0x65, 0x96, 0xbc,
  0x49, 0x28, 0x4d, 0x3e, 0xf8, 0x4f, 0xe4, 0x3d, 0x1c, 0x79, 0x29, 0x3e,
  0x08, 0x9f, 0xfe, 0xbd, 0x4d, 0x11, 0xf1, 0x3d, 0xbf, 0x0d, 0x04, 0x3e,
  0xb2, 0xeb, 0x7c, 0x3e, 0xfb, 0xe0, 0x5c, 0x3e, 0x59, 0x6c, 0x97, 0xbd,
  0x98, 0x9c, 0x89, 0xbe, 0xb6, 0xfc, 0x96, 0xbe, 0x18, 0x84, 0xf7, 0xbd,
  0x40, 0xf2, 0x50, 0x3e, 0x8c, 0xfb, 0x29, 0xbd, 0xd1, 0x6c, 0x9b, 0x3d,
  0xb6, 0xd3, 0xa8, 0x3d, 0xe8, 0xa9, 0x7f, 0x3c, 0x6c, 0x59, 0x2b, 0xbe,
  0xf3, 0x11, 0x50, 0xbe, 0x73, 0xed, 0x13, 0xbe, 0x71, 0x3b, 0xc3, 0x3c,
  0x74, 0xd3, 0x60, 0x3e, 0x07, 0x22, 0xf1, 0x3e, 0x33, 0x41, 0xb6, 0x3e,
  0xd2, 0xaa, 0x27, 0x3e, 0x14, 0x19, 0x76, 0x3e, 0xf7, 0x5d, 0x8d, 0xbe,
  0x97, 0x23, 0x4c, 0xbe, 0xb1, 0x3b, 0x19, 0x3c, 0xdb, 0x68, 0x34, 0x3c,
  0x4f, 0x12, 0x9c, 0xbc, 0x45, 0x0e, 0xe3, 0x3d, 0xab, 0x25, 0xd8, 0x3e,
  0x12, 0xdd, 0x21, 0xbe, 0xf4, 0xbf, 0x3e, 0xbe, 0xc7, 0x6d, 0xb6, 0xbe,
  0x23, 0x53, 0x27, 0xbe, 0x34, 0x80, 0x4f, 0xbe, 0xb4, 0x3b, 0x48, 0x3d,
  0xdf, 0x81, 0xe0, 0x3d, 0xa1, 0xc5, 0x8a, 0xbd, 0x14, 0xc7, 0x69, 0x3e,
  0x05, 0xaf, 0xe7, 0xbd, 0x17, 0xfc, 0x59, 0xba, 0x6a, 0xd9, 0x65, 0xbe,
  0xd8, 0x09, 0x29, 0x3a, 0xc5, 0x9d, 0x7a, 0xbe, 0x6f, 0xc4, 0xf3, 0x3d,
  0x9f, 0x1b, 0x90, 0x3d, 0xc1, 0x35, 0x51, 0xbe, 0x8f, 0xf5, 0xfb, 0x3b,
  0xca, 0xe1, 0xb6, 0xbe, 0x74, 0x0e, 0xa1, 0xbe, 0xfd, 0x7e, 0x81, 0xbe,
  0x2b, 0x0c, 0x90, 0xbe, 0x61, 0x76, 0x37, 0xbe, 0x4a, 0xa0, 0x41, 0xbe,
  0xad, 0x61, 0x31, 0xbe, 0x4c, 0x64, 0x7c, 0x3d, 0x7f, 0xae, 0x5e, 0x3e,
  0x32, 0xd8, 0xaf, 0x3c, 0x93, 0x77, 0x3e, 0x3e, 0x80, 0xc2, 0x64, 0xbd,
  0x5e, 0x98, 0x79, 0xbe, 0x7f, 0xa1, 0x0b, 0x3e, 0x43, 0x1c, 0x98, 0x3d,
  0x71, 0xb6, 0x19, 0xbe, 0x73, 0x2d, 0x0e, 0xbd, 0x3e, 0xbb, 0xf8, 0x3d,
  0x2a, 0x89, 0x4f, 0xbd, 0x92, 0x40, 0x47, 0xbc, 0xe0, 0x09, 0x68, 0x3d,
  0xc7, 0xbd, 0xa9, 0x3e, 0xb8, 0x0f, 0x55, 0x3e, 0x3f, 0x41, 0x65, 0x3e,
  0x88, 0x33, 0x39, 0x3e, 0x5c, 0xf1, 0x90, 0xbd, 0x76, 0x81, 0x46, 0x3e,
  0x1b, 0xee, 0x5b, 0xbe, 0x11, 0x45, 0x94, 0x3e, 0x1e, 0x96, 0x22, 0x3d,
  0xba, 0xc0, 0x0b, 0x3e, 0xb0, 0xfd, 0x8d, 0x3e, 0x4b, 0x20, 0x15, 0x3e,
  0x88, 0x55, 0xec, 0xbc, 0x71, 0x2a, 0x80, 0xbe, 0xe3, 0x4c, 0xf4, 0xbd,
  0x24, 0xf8, 0x04, 0xbe, 0x74, 0x58, 0xa7, 0xbd, 0x7e, 0xff, 0x5e, 0x3e,
  0xdd, 0xf5, 0x70, 0xbd, 0x91, 0x75, 0x8a, 0x3d, 0xf1, 0xe2, 0x0e, 0x3d,
  0xaa, 0xe3, 0x14, 0x3e, 0x57, 0x46, 0x2c, 0x3e, 0x34, 0xdb, 0x8d, 0x3e,
  0x06, 0x39, 0xe7, 0x3d, 0xcd, 0xae, 0x31, 0xbe, 0xc2, 0x50, 0x2c, 0x3e,
  0x48, 0x0d, 0xed, 0x3d, 0x95, 0xbd, 0x11, 0x3c, 0xf1, 0xec, 0xb3, 0xbe,
  0x9f, 0x1a, 0x23, 0xbe, 0x6e, 0xef, 0x1e, 0x3e, 0x03, 0xeb, 0xe2, 0xbc,
  0x5f, 0xee, 0xb8, 0xbe, 0x63, 0x0f, 0xc1, 0xbe, 0x7c, 0x96, 0x75, 0x3b,
  0x5f, 0x46, 0xc1, 0xbe, 0xf2, 0x3d, 0x1d, 0xbd, 0x1e, 0xee, 0xdd, 0xbe,
  0x5a, 0x60, 0x87, 0xbd, 0x8f, 0x09, 0x01, 0xbe, 0xf1, 0x6e, 0xf0, 0xbd,
  0x1f, 0xb0, 0x9e, 0xbe, 0xb5, 0x97, 0x00, 0xbf, 0x0b, 0x05, 0x23, 0xbe,
  0xe1, 0x23, 0xf5, 0xbe, 0xa2, 0x1b, 0xd4, 0xbd, 0x5f, 0xd3, 0x64, 0xbe,
  0x81, 0x94, 0x16, 0xbe, 0xec, 0xc9, 0xb5, 0xbd, 0xde, 0x11, 0xe6, 0xbe,
  0xda, 0x67, 0x84, 0xbd, 0xbf, 0x41, 0xf7, 0xbd, 0x50, 0xa5, 0x47, 0xbe,
  0x58, 0x46, 0xd4, 0xbe, 0xea, 0xe6, 0x37, 0xbe, 0xa1, 0xd1, 0xe4, 0xbd,
  0x50, 0xbe, 0x71, 0xbd, 0xe9, 0xe0, 0xd0, 0xbe, 0xc2, 0xa8, 0x92, 0xbd,
  0x94, 0xaf, 0xb7, 0x3b, 0x6b, 0x72, 0x24, 0x3d, 0x4d, 0x06, 0x5a, 0xbd,
  0x91, 0x31, 0x59, 0x3e, 0x00, 0x33, 0x18, 0xbe, 0x40, 0x73, 0xcb, 0xbe,
  0xa2, 0xe2, 0x85, 0xbe, 0xba, 0x27, 0x47, 0xbe, 0x3a, 0x10, 0x0e, 0xbe,
  0xb9, 0x61, 0xd5, 0x3d, 0xf8, 0xaf, 0xd4, 0xbd, 0xb7, 0xf3, 0x29, 0xbe,
  0x54, 0x5a, 0x44, 0xbe, 0x8d, 0xd2, 0xb1, 0xbe, 0x29, 0xec, 0xe8, 0xbe,
  0x73, 0xd3, 0xbf, 0xbe, 0xa1, 0x08, 0x68, 0xbc, 0x2e, 0x66, 0x12, 0x3e,
  0x87, 0x82, 0x1f, 0xbe, 0xcc, 0xed, 0xdb, 0x3e, 0xae, 0xf8, 0xff, 0xff,
  0x04, 0x00, 0x00, 0x00, 0x28, 0x00, 0x00, 0x00, 0xe2, 0x1f, 0x08, 0x3f,
  0xea, 0x9e, 0xbf, 0x3e, 0x8c, 0xa7, 0x07, 0x3f, 0x94, 0x59, 0x3a, 0x3e,
  0x05, 0x17, 0x01, 0x3f, 0xa8, 0xbc, 0x13, 0x3f, 0xa7, 0x5d, 0xa0, 0x3e,
  0x34, 0xee, 0xff, 0x3e, 0x42, 0xf8, 0x8d, 0x3e, 0xc1, 0x9d, 0xdf, 0x3e,
  0xe2, 0xf8, 0xff, 0xff, 0x04, 0x00, 0x00, 0x00, 0x28, 0x00, 0x00, 0x00,
  0x89, 0xb5, 0x0f, 0xbe, 0x60, 0x72, 0x2e, 0xbe, 0xb0, 0xa7, 0x9f, 0xbd,
  0xda, 0x03, 0x19, 0xbe, 0x42, 0x4c, 0x7c, 0x3d, 0x84, 0xef, 0xd6, 0xbc,
  0x82, 0x9d, 0x3e, 0x3d, 0xdd, 0x9c, 0x1e, 0x3e, 0xe6, 0x49, 0x75, 0xbd,
  0x93, 0x1b, 0x44, 0x3e, 0x16, 0xf9, 0xff, 0xff, 0x04, 0x00, 0x00, 0x00,
  0x28, 0x00, 0x00, 0x00, 0x1d, 0x23, 0x8c, 0x3f, 0xc0, 0x15, 0x91, 0x3f,
  0x3f, 0x2e, 0x99, 0x3f, 0x90, 0x52, 0x91, 0x3f, 0xe5, 0x19, 0x81, 0x3f,
  0xa2, 0x87, 0x65, 0x3f, 0x68, 0x29, 0x8e, 0x3f, 0x36, 0xfb, 0xa1, 0x3f,
  0xb6, 0x8f, 0x74, 0x3f, 0xf5, 0x62, 0x93, 0x3f, 0x4a, 0xf9, 0xff, 0xff,
  0x04, 0x00, 0x00, 0x00, 0x28, 0x00, 0x00, 0x00, 0x32, 0xdc, 0xb8, 0x3e,
  0xd3, 0x07, 0x8f, 0x3e, 0x87, 0xe2, 0xc1, 0x3e, 0x51, 0x20, 0xfd, 0x3d,
  0x32, 0x83, 0xd9, 0x3e, 0xb8, 0x9c, 0xbb, 0x3e, 0xeb, 0x69, 0x70, 0x3e,
  0x23, 0x7d, 0xa8, 0x3e, 0xa6, 0x12, 0x14, 0x3e, 0x52, 0x21, 0x89, 0x3e,
  0x7e, 0xf9, 0xff, 0xff, 0x04, 0x00, 0x00, 0x00, 0x90, 0x01, 0x00, 0x00,
  0x22, 0x88, 0x25, 0xbe, 0xb4, 0x21, 0x28, 0xbf, 0x65, 0x77, 0xbd, 0xbc,
  0x9a, 0x92, 0x4b, 0xbe, 0x35, 0x1a, 0x5f, 0x3e, 0xf4, 0x8f, 0x72, 0xbc,
  0x06, 0x02, 0x9f, 0xbd, 0xb1, 0x54, 0x7c, 0x3e, 0x3e, 0x16, 0x06, 0xbe,
  0x8b, 0x0e, 0x91, 0x3e, 0x31, 0x70, 0x0a, 0x3f, 0xa7, 0x0e, 0x05, 0xbe,
  0x6f, 0xac, 0x8d, 0xbe, 0xac, 0x6c, 0x11, 0xbf, 0xe6, 0x9a, 0x88, 0xbb,
  0x37, 0xb1, 0xa8, 0xbe, 0xd4, 0x90, 0xab, 0xbe, 0xce, 0xa0, 0x14, 0x3e,
  0xa0, 0x8c, 0x69, 0xbe, 0x9b, 0x4c, 0x9d, 0x3d, 0x6b, 0xc3, 0xda, 0x3e,
  0xde, 0x69, 0xc2, 0xbc, 0xdf, 0x53, 0x86, 0x3e, 0xa5, 0xba, 0x08, 0xbf,
  0x0f, 0xca, 0x76, 0x3e, 0x22, 0xe2, 0x9a, 0xbe, 0x72, 0xde, 0x6d, 0xbf,
  0x2c, 0xa7, 0xf2, 0xbd, 0x12, 0x7e, 0xac, 0xbe, 0xcd, 0x02, 0x84, 0x3e,
  0x80, 0x7f, 0xc3, 0x3e, 0xcc, 0x8b, 0x0c, 0x3d, 0x4b, 0xc4, 0xa2, 0xbd,
  0x3f, 0x81, 0x39, 0xbe, 0x8b, 0x27, 0x56, 0xbc, 0xcc, 0x8d, 0x27, 0xbe,
  0x0b, 0x37, 0x20, 0x3d, 0x28, 0xbd, 0x3d, 0xbc, 0x1c, 0x62, 0x41, 0xbe,
  0x2a, 0x6c, 0xc6, 0x3d, 0xb8, 0x80, 0x07, 0x3d, 0x77, 0xca, 0xb2, 0x3e,
  0xa9, 0xbe, 0x56, 0xbe, 0xd0, 0xe4, 0x2d, 0xbf, 0xe2, 0xda, 0x2c, 0xbd,
  0xcc, 0xfd, 0xf7, 0x3e, 0x69, 0x48, 0xd8, 0xbd, 0x6a, 0x4f, 0x69, 0x3e,
  0x18, 0x9c, 0xed, 0xbd, 0x4e, 0x4d, 0x5d, 0xbe, 0xb1, 0x23, 0x43, 0x3e,
  0x24, 0xfd, 0x03, 0x3e, 0x36, 0x5d, 0xbb, 0x3e, 0xf8, 0xa5, 0x2b, 0xbf,
  0x66, 0xfd, 0x98, 0x3e, 0xa6, 0xdf, 0xba, 0x3d, 0x27, 0xf0, 0x1b, 0xbf,
  0xe0, 0x18, 0x99, 0x3d, 0xaf, 0x13, 0x47, 0xbf, 0x89, 0xf6, 0xfe, 0x3e,
  0x0c, 0x4d, 0xac, 0x3e, 0xa1, 0x61, 0xa5, 0x3d, 0x43, 0x67, 0x0e, 0x3f,
  0x78, 0xf0, 0xe7, 0xbe, 0xb1, 0xfe, 0xc6, 0xbd, 0x27, 0x6e, 0xaf, 0x3d,
  0xfe, 0xf7, 0x55, 0xbe, 0xf1, 0x13, 0x02, 0xbf, 0xb2, 0x7b, 0x5b, 0xbe,
  0xb7, 0x06, 0x46, 0xbc, 0x56, 0x59, 0x07, 0x3f, 0x33, 0xfd, 0xf9, 0xbd,
  0x1b, 0x54, 0xa5, 0x3e, 0xfc, 0xaf, 0x57, 0xbf, 0xe8, 0x00, 0x97, 0x3e,
  0x4d, 0x7b, 0xed, 0xbd, 0xaa, 0x45, 0x85, 0xbe, 0x8a, 0x34, 0x40, 0xbe,
  0x75, 0x94, 0xad, 0xbe, 0xe6, 0x72, 0x39, 0x3f, 0xbc, 0x9e, 0x56, 0x3e,
  0x8b, 0xac, 0x9a, 0xbe, 0xa9, 0x3a, 0xc9, 0xbe, 0x0a, 0x34, 0xf2, 0xbe,
  0xac, 0x77, 0x2c, 0xbe, 0xa1, 0x0d, 0xbc, 0xbe, 0x22, 0x8f, 0x9b, 0xbb,
  0xd5, 0x06, 0x4a, 0xbd, 0x9c, 0x66, 0xa7, 0xbd, 0xbb, 0x86, 0xe2, 0x3e,
  0xa6, 0x70, 0x89, 0x3e, 0x2a, 0xcb, 0xa8, 0xbe, 0x41, 0x6d, 0xeb, 0xbd,
  0xf1, 0x60, 0x25, 0xbf, 0x24, 0x89, 0xc0, 0x3d, 0x8e, 0x55, 0x17, 0xbe,
  0xc7, 0x1f, 0x98, 0xbe, 0x37, 0x69, 0x32, 0x3d, 0xf9, 0x70, 0x02, 0xbf,
  0x69, 0x05, 0x00, 0x3f, 0x1a, 0xfb, 0xff, 0xff, 0x04, 0x00, 0x00, 0x00,
  0x90, 0x01, 0x00, 0x00, 0x93, 0x86, 0x13, 0x3e, 0x6a, 0xe2, 0x9a, 0xbe,
  0xd7, 0xcb, 0xc1, 0xbe, 0x8f, 0x96, 0xaf, 0xbd, 0x70, 0xe2, 0x88, 0xbe,
  0x76, 0x2c, 0x75, 0xbe, 0xb5, 0x41, 0xdd, 0x3d, 0x4d, 0x53, 0x91, 0x3d,
  0x19, 0x92, 0x1d, 0xbe, 0xda, 0x50, 0xbe, 0x3e, 0x66, 0x8f, 0x5b, 0x3e,
  0x0e, 0x7d, 0xb4, 0x3e, 0xa9, 0x36, 0x36, 0x3e, 0xba, 0x79, 0x40, 0x3e,
  0xd0, 0x22, 0x17, 0xbe, 0xfe, 0xfd, 0x8c, 0xbd, 0x5f, 0x04, 0xb5, 0xbe,
  0xc8, 0xd4, 0xbc, 0xbe, 0x55, 0x79, 0xb1, 0xbe, 0x0c, 0x65, 0xa2, 0xbe,
  0xe7, 0x75, 0x89, 0x3d, 0xd7, 0x67, 0x8b, 0x3e, 0xcf, 0xb6, 0x61, 0x3d,
  0x7a, 0x1f, 0x53, 0x3e, 0xf1, 0x4c, 0xcc, 0xbd, 0xa2, 0x33, 0x34, 0xbd,
  0xe1, 0xf2, 0x6a, 0xbe, 0x69, 0x75, 0x28, 0xbf, 0xe2, 0x77, 0xb1, 0xbd,
  0x42, 0x40, 0xa6, 0xbd, 0x16, 0x59, 0xf7, 0x3d, 0xf1, 0xfa, 0x6f, 0xbd,
  0xb9, 0x2a, 0x09, 0xbd, 0x6b, 0x01, 0xdb, 0x3d, 0xb6, 0xa3, 0x07, 0xbe,
  0x52, 0x10, 0x0a, 0xbe, 0x8d, 0x52, 0x0a, 0x3e, 0x26, 0xda, 0x23, 0xbc,
  0xe3, 0x9b, 0x6e, 0x3e, 0x98, 0x19, 0x1d, 0xbe, 0x30, 0xfc, 0x7d, 0x3e,
  0xf3, 0xbe, 0xb8, 0x3d, 0x8b, 0xa7, 0x15, 0x3e, 0x02, 0xf5, 0xea, 0xbc,
  0xf1, 0xcb, 0x46, 0x3e, 0x75, 0xc5, 0xdb, 0x3c, 0x59, 0xca, 0x5b, 0xbe,
  0xd1, 0x45, 0x07, 0xbf, 0x0d, 0x1b, 0xc1, 0x3d, 0x27, 0x92, 0x9b, 0xbe,
  0x58, 0x58, 0xd4, 0xbd, 0x94, 0x0b, 0x22, 0x3f, 0x8b, 0x54, 0xcb, 0x3e,
  0x5c, 0x33, 0x3c, 0xbe, 0x06, 0x9f, 0x57, 0xb9, 0x41, 0xca, 0x40, 0xbd,
  0x1b, 0xd7, 0x9b, 0xbe, 0x09, 0x03, 0xe6, 0xbe, 0xf4, 0x3a, 0x96, 0x3d,
  0xb7, 0xba, 0x85, 0xbe, 0x7f, 0xd6, 0x86, 0x3e, 0xcf, 0xd2, 0xed, 0xbd,
  0x45, 0x63, 0xd7, 0x3d, 0x88, 0x8f, 0xa3, 0xbe, 0xa2, 0x9f, 0xb5, 0x3d,
  0x9e, 0x65, 0x14, 0x3e, 0x6d, 0x4a, 0x32, 0x3e, 0x27, 0x69, 0x3b, 0x3e,
  0x7c, 0x81, 0x7e, 0x3e, 0xd4, 0xaa, 0xf5, 0x3d, 0x71, 0x46, 0x84, 0xbe,
  0x52, 0xb5, 0x54, 0xbe, 0x7d, 0x67, 0xe8, 0xbc, 0xfd, 0xc7, 0xaa, 0xbe,
  0x89, 0xfb, 0x3b, 0x3e, 0x7f, 0xa6, 0x85, 0xbd, 0xa2, 0x4c, 0xc5, 0x3e,
  0xc5, 0x68, 0x6b, 0x3e, 0x3a, 0xd7, 0xd4, 0xbd, 0x37, 0xf3, 0x74, 0xbd,
  0x3e, 0x36, 0x1a, 0x3e, 0x69, 0xd0, 0x33, 0xbc, 0x6e, 0x64, 0xf0, 0x3d,
  0xa5, 0x64, 0x6e, 0x3e, 0x44, 0xbf, 0x1b, 0x3e, 0xc4, 0xf7, 0x23, 0x3e,
  0x48, 0x1c, 0xaa, 0xbe, 0x4c, 0x3b, 0xb9, 0xbe, 0xdb, 0x63, 0x9d, 0x3b,
  0xde, 0x4b, 0x90, 0xbe, 0x1e, 0x3c, 0xc3, 0xbe, 0xc2, 0xe6, 0x09, 0xbf,
  0x0c, 0x6c, 0x51, 0xbe, 0x6b, 0x31, 0x64, 0xbe, 0xcc, 0xcd, 0x42, 0x3e,
  0x5e, 0xc1, 0x47, 0x3b, 0x7b, 0xba, 0x75, 0x3e, 0xc3, 0xc7, 0xd3, 0x3e,
  0xc2, 0x28, 0xf6, 0xbc, 0x7f, 0xf3, 0x08, 0x3d, 0xb6, 0xfc, 0xff, 0xff,
  0x04, 0x00, 0x00, 0x00, 0x90, 0x01, 0x00, 0x00, 0xeb, 0x95, 0xdd, 0xba,
  0xcc, 0x5f, 0xa6, 0xbd, 0x93, 0x27, 0xce, 0xbe, 0x79, 0x95, 0x36, 0x3d,
  0xc8, 0xd1, 0xca, 0x3d, 0xf3, 0xf8, 0x88, 0xbe, 0xf2, 0x93, 0xe0, 0x3d,
  0x8d, 0x5c, 0x30, 0xbc, 0xdb, 0x33, 0x35, 0xbe, 0xe8, 0xab, 0xf4, 0x3d,
  0xbc, 0x8f, 0xd3, 0x3d, 0xb9, 0xae, 0x91, 0xbe, 0xce, 0x88, 0xc8, 0x3e,
  0x74, 0x8b, 0x9e, 0xbe, 0x5a, 0x50, 0x2d, 0x3e, 0xd9, 0xb2, 0x72, 0xbc,
  0x18, 0x94, 0xeb, 0xbd, 0xd3, 0x90, 0x1d, 0x3d, 0xfa, 0xc0, 0xa7, 0x3d,
  0x02, 0x0a, 0xb2, 0x3c, 0x7e, 0x7a, 0x45, 0x3d, 0xc5, 0x84, 0x75, 0xba,
  0x35, 0x33, 0xf6, 0x3e, 0xa1, 0xaf, 0xb6, 0xbd, 0xf9, 0x63, 0x87, 0x3e,
  0x24, 0x29, 0xa3, 0xbe, 0x03, 0x9b, 0x8b, 0xbe, 0x6e, 0xa3, 0x7a, 0xbe,
  0xb6, 0xbf, 0x2f, 0x3e, 0x9f, 0x28, 0x2d, 0xbe, 0xe2, 0x24, 0xd2, 0x3e,
  0xaa, 0x83, 0x8a, 0x3d, 0x3b, 0x46, 0x8c, 0x3e, 0xf8, 0x21, 0x8c, 0xbe,
  0x6a, 0xc7, 0xc2, 0x3d, 0x18, 0x8f, 0x82, 0xbd, 0xae, 0xa8, 0x84, 0x3d,
  0xe3, 0xb6, 0x72, 0xbe, 0xf3, 0xa3, 0x58, 0xbe, 0x66, 0xd7, 0x86, 0xbd,
  0xb8, 0x43, 0x87, 0x3e, 0xcc, 0xe5, 0x2d, 0x3d, 0xb3, 0xba, 0xbd, 0xbd,
  0xe3, 0x96, 0x3a, 0x3e, 0x79, 0x08, 0x8a, 0x3e, 0x56, 0xdf, 0xd7, 0x3e,
  0x04, 0x94, 0xea, 0xbc, 0x3e, 0x7e, 0xba, 0xbd, 0x41, 0x14, 0x8a, 0x3e,
  0xc9, 0xbd, 0xef, 0xbc, 0x6b, 0xfc, 0x63, 0xbd, 0xc9, 0x7c, 0x8d, 0xbe,
  0x33, 0x50, 0xa9, 0x3d, 0xb2, 0x11, 0x7b, 0x3d, 0x39, 0x0b, 0x82, 0x3e,
  0x23, 0x45, 0x74, 0x3d, 0xae, 0x58, 0x9e, 0x3e, 0x1e, 0x1f, 0x70, 0x3d,
  0x2b, 0x4d, 0x80, 0xbc, 0x3c, 0xcd, 0x32, 0x3d, 0x51, 0x36, 0x44, 0xbd,
  0x25, 0x2c, 0xe2, 0xbc, 0x76, 0xbb, 0xfd, 0xbc, 0xa4, 0xba, 0x15, 0xbd,
  0x68, 0xbf, 0x7b, 0x3c, 0x37, 0x0d, 0x51, 0x3e, 0xb7, 0xee, 0xa5, 0xbe,
  0xf5, 0x92, 0xef, 0xbe, 0x73, 0x96, 0xad, 0xbd, 0x17, 0x28, 0x90, 0x3d,
  0x92, 0xfe, 0x7d, 0x3e, 0xff, 0x04, 0x9d, 0x3e, 0x09, 0xfe, 0x7f, 0x3e,
  0x06, 0xb2, 0xd7, 0xbd, 0x85, 0x4a, 0xa5, 0x3e, 0xb0, 0x1f, 0x0d, 0xbd,
  0xa4, 0x8a, 0x4f, 0x3d, 0xab, 0x21, 0x1d, 0x3e, 0x44, 0x1d, 0x99, 0xbd,
  0x19, 0x6d, 0x05, 0x3e, 0xae, 0x72, 0xb5, 0xbc, 0x47, 0x33, 0xd5, 0xbe,
  0x48, 0xb9, 0x5e, 0xbd, 0xc4, 0x22, 0x6d, 0x3e, 0xab, 0x01, 0xd7, 0xbe,
  0xef, 0x8b, 0x93, 0xbd, 0xd2, 0x08, 0x03, 0x3e, 0x3f, 0x15, 0x14, 0x3d,
  0xcc, 0x77, 0x4f, 0xbe, 0xba, 0x9b, 0x93, 0x3e, 0x65, 0xd7, 0x9e, 0xbe,
  0x4b, 0x69, 0x00, 0xbe, 0xef, 0x49, 0xab, 0x3c, 0x36, 0x1d, 0xd3, 0xbc,
  0xff, 0x38, 0x11, 0x3d, 0x5e, 0x0e, 0xb4, 0x3d, 0x9d, 0x7e, 0xd8, 0x3d,
  0xe1, 0xac, 0x8e, 0x3e, 0x37, 0xe4, 0x86, 0x3e, 0x39, 0xa9, 0xa4, 0x3e,
  0x52, 0xfe, 0xff, 0xff, 0x04, 0x00, 0x00, 0x00, 0x90, 0x01, 0x00, 0x00,
  0x7e, 0x5b, 0x0c, 0x3d, 0xbd, 0x1b, 0x3e, 0xbd, 0xf9, 0x4a, 0xe3, 0x3e,
  0x97, 0x62, 0xcb, 0xbe, 0xe2, 0xe3, 0x62, 0x3e, 0x8e, 0xda, 0x54, 0x3e,
  0xe6, 0x08, 0xac, 0xbe, 0x41, 0x09, 0x03, 0xbe, 0xbf, 0x0c, 0x79, 0xbd,
  0x9a, 0x91, 0x4c, 0x3e, 0x61, 0xd8, 0x66, 0x3e, 0xff, 0x1d, 0x24, 0xbe,
  0x3a, 0xb5, 0x9c, 0x3e, 0xb5, 0xbf, 0x3c, 0xbf, 0xe1, 0x69, 0x34, 0xbe,
  0x22, 0x9e, 0x99, 0xbe, 0x28, 0xfe, 0x84, 0xbd, 0x28, 0xde, 0x0b, 0xbe,
  0x43, 0xde, 0xca, 0xbd, 0x85, 0xc6, 0x36, 0x3e, 0x9a, 0x03, 0x64, 0x3e,
  0xdb, 0xd2, 0x82, 0xbe, 0x3e, 0x26, 0x58, 0x3e, 0x75, 0x6d, 0x00, 0xbf,
  0x8c, 0x6c, 0xbe, 0x3e, 0x52, 0x02, 0xe8, 0xbe, 0x0a, 0x36, 0x2f, 0xbe,
  0x06, 0x1a, 0x8b, 0xbe, 0x3c, 0x2f, 0xf3, 0xbe, 0x96, 0xe1, 0x27, 0x3f,
  0x6d, 0x0a, 0xcc, 0x3e, 0xf2, 0x15, 0x7b, 0xbe, 0x44, 0x68, 0x9d, 0xbd,
  0x3a, 0x71, 0x5e, 0xbe, 0xd3, 0x14, 0x80, 0x3e, 0xf9, 0xcd, 0x91, 0xbd,
  0x5b, 0x3a, 0xb6, 0x3e, 0x42, 0x57, 0xa0, 0x3e, 0x49, 0xb2, 0xa1, 0xbe,
  0x5e, 0x20, 0xf1, 0xbd, 0x5d, 0x0a, 0x6e, 0x3d, 0x76, 0x00, 0xe7, 0x3c,
  0x4c, 0x0f, 0x86, 0x3e, 0x64, 0xeb, 0xd2, 0xbe, 0x3d, 0xe4, 0x36, 0x3d,
  0x8e, 0xc6, 0x5a, 0xbd, 0xa5, 0xd2, 0xb5, 0xbe, 0xb8, 0xea, 0x3e, 0xbd,
  0xb7, 0x42, 0xe0, 0xbe, 0x8a, 0x2a, 0xc6, 0x3e, 0xe0, 0x9c, 0x41, 0xbe,
  0x61, 0x49, 0xf7, 0x3d, 0x2c, 0x14, 0x9d, 0x3e, 0xa6, 0xaf, 0x70, 0xbf,
  0xfc, 0x39, 0xdd, 0x3e, 0xf2, 0xc6, 0xda, 0xbd, 0x5d, 0x4a, 0x2c, 0xbf,
  0x9e, 0xe4, 0x8c, 0xbe, 0x0a, 0x45, 0x29, 0xbe, 0x66, 0xb0, 0xe4, 0x3d,
  0xf3, 0xee, 0x32, 0x3e, 0x17, 0xb4, 0x5d, 0xbe, 0x2e, 0x00, 0x08, 0x3e,
  0xf5, 0x1f, 0xe4, 0xbe, 0x49, 0x52, 0x3d, 0x3d, 0x71, 0xd4, 0xc0, 0xbd,
  0x03, 0x7c, 0xeb, 0xbe, 0x92, 0x77, 0xf1, 0x3e, 0x15, 0x9c, 0xcc, 0xbe,
  0xf5, 0x4b, 0xa2, 0x3e, 0xb8, 0xf8, 0x9e, 0x3e, 0x8a, 0x99, 0x49, 0xbe,
  0x9b, 0xca, 0x49, 0x3e, 0xb9, 0x53, 0xee, 0xbe, 0xac, 0x93, 0xf9, 0xbd,
  0x94, 0xea, 0x36, 0xbe, 0xab, 0x5b, 0x9e, 0xbe, 0xdf, 0x2c, 0xcf, 0x3b,
  0x2c, 0x74, 0x9e, 0xbe, 0x3d, 0x80, 0x5e, 0x3e, 0x3f, 0x89, 0x12, 0x3e,
  0x73, 0xfb, 0x0a, 0x3e, 0x53, 0x3d, 0x6b, 0x3e, 0x0a, 0xd2, 0x2e, 0xbe,
  0xc7, 0x2b, 0xf2, 0x3d, 0x30, 0x54, 0x27, 0xbe, 0x4d, 0xd4, 0x5c, 0xbd,
  0x95, 0x27, 0x5d, 0x3c, 0x49, 0xee, 0xaa, 0x3d, 0x7d, 0xd8, 0xce, 0x3e,
  0x20, 0xec, 0xc7, 0x3e, 0x31, 0x25, 0x87, 0xbe, 0x2b, 0x71, 0x7f, 0x3e,
  0xc8, 0xc0, 0xbb, 0xbe, 0x67, 0x97, 0x8f, 0x3e, 0x70, 0x57, 0xcb, 0xbd,
  0xc4, 0x92, 0x7f, 0xbe, 0x70, 0x6f, 0x9a, 0xbe, 0xa9, 0xd6, 0xd1, 0xbe,
  0x3f, 0xb1, 0x64, 0x3e, 0xee, 0xff, 0xff, 0xff, 0x04, 0x00, 0x00, 0x00,
  0x04, 0x00, 0x00, 0x00, 0xc1, 0x6d, 0x4d, 0x3d, 0x00, 0x00, 0x06, 0x00,
  0x08, 0x00, 0x04, 0x00, 0x06, 0x00, 0x00, 0x00, 0x04, 0x00, 0x00, 0x00,
  0x28, 0x00, 0x00, 0x00, 0x00, 0x00, 0x00, 0x00, 0x00, 0x00, 0x00, 0x00,
  0x00, 0x00, 0x00, 0x00, 0x00, 0x00, 0x00, 0x00, 0x00, 0x00, 0x00, 0x00,
  0x00, 0x00, 0x00, 0x00, 0x00, 0x00, 0x00, 0x00, 0x00, 0x00, 0x00, 0x00,
  0x00, 0x00, 0x00, 0x00, 0x00, 0x00, 0x00, 0x00, 0x70, 0xf7, 0xff, 0xff,
  0x74, 0xf7, 0xff, 0xff, 0x0f, 0x00, 0x00, 0x00, 0x4d, 0x4c, 0x49, 0x52,
  0x20, 0x43, 0x6f, 0x6e, 0x76, 0x65, 0x72, 0x74, 0x65, 0x64, 0x2e, 0x00,
  0x01, 0x00, 0x00, 0x00, 0x14, 0x00, 0x00, 0x00, 0x00, 0x00, 0x0e, 0x00,
  0x18, 0x00, 0x14, 0x00, 0x10, 0x00, 0x0c, 0x00, 0x08, 0x00, 0x04, 0x00,
  0x0e, 0x00, 0x00, 0x00, 0x14, 0x00, 0x00, 0x00, 0x1c, 0x00, 0x00, 0x00,
  0xa4, 0x01, 0x00, 0x00, 0xa8, 0x01, 0x00, 0x00, 0xac, 0x01, 0x00, 0x00,
  0x04, 0x00, 0x00, 0x00, 0x6d, 0x61, 0x69, 0x6e, 0x00, 0x00, 0x00, 0x00,
  0x04, 0x00, 0x00, 0x00, 0xec, 0x00, 0x00, 0x00, 0x7c, 0x00, 0x00, 0x00,
  0x34, 0x00, 0x00, 0x00, 0x10, 0x00, 0x00, 0x00, 0x00, 0x00, 0x0a, 0x00,
  0x10, 0x00, 0x0c, 0x00, 0x08, 0x00, 0x04, 0x00, 0x0a, 0x00, 0x00, 0x00,
  0x0c, 0x00, 0x00, 0x00, 0x10, 0x00, 0x00, 0x00, 0x03, 0x00, 0x00, 0x00,
  0x01, 0x00, 0x00, 0x00, 0x17, 0x00, 0x00, 0x00, 0x01, 0x00, 0x00, 0x00,
  0x16, 0x00, 0x00, 0x00, 0xca, 0xff, 0xff, 0xff, 0x14, 0x00, 0x00, 0x00,
  0x00, 0x00, 0x00, 0x08, 0x10, 0x00, 0x00, 0x00, 0x14, 0x00, 0x00, 0x00,
  0x02, 0x00, 0x00, 0x00, 0x20, 0xf8, 0xff, 0xff, 0x01, 0x00, 0x00, 0x00,
  0x16, 0x00, 0x00, 0x00, 0x03, 0x00, 0x00, 0x00, 0x15, 0x00, 0x00, 0x00,
  0x0f, 0x00, 0x00, 0x00, 0x02, 0x00, 0x00, 0x00, 0x00, 0x00, 0x0e, 0x00,
  0x1a, 0x00, 0x14, 0x00, 0x10, 0x00, 0x0c, 0x00, 0x0b, 0x00, 0x04, 0x00,
  0x0e, 0x00, 0x00, 0x00, 0x24, 0x00, 0x00, 0x00, 0x00, 0x00, 0x00, 0x20,
  0x2c, 0x00, 0x00, 0x00, 0x30, 0x00, 0x00, 0x00, 0x01, 0x00, 0x00, 0x00,
  0x00, 0x00, 0x0e, 0x00, 0x10, 0x00, 0x0c, 0x00, 0x08, 0x00, 0x00, 0x00,
  0x00, 0x00, 0x04, 0x00, 0x0e, 0x00, 0x00, 0x00, 0x02, 0x00, 0x00, 0x00,
  0x05, 0x00, 0x00, 0x00, 0x05, 0x00, 0x00, 0x00, 0x01, 0x00, 0x00, 0x00,
  0x15, 0x00, 0x00, 0x00, 0x04, 0x00, 0x00, 0x00, 0x14, 0x00, 0x00, 0x00,
  0x10, 0x00, 0x00, 0x00, 0x11, 0x00, 0x00, 0x00, 0x12, 0x00, 0x00, 0x00,
  0x00, 0x00, 0x16, 0x00, 0x18, 0x00, 0x00, 0x00, 0x14, 0x00, 0x10, 0x00,
  0x0f, 0x00, 0x08, 0x00, 0x00, 0x00, 0x00, 0x00, 0x00, 0x00, 0x04, 0x00,
  0x16, 0x00, 0x00, 0x00, 0x14, 0x00, 0x00, 0x00, 0x1c, 0x00, 0x00, 0x00,
  0x00, 0x00, 0x00, 0x47, 0x20, 0x00, 0x00, 0x00, 0x24, 0x00, 0x00, 0x00,
  0x00, 0x00, 0x00, 0x00, 0x08, 0x00, 0x0c, 0x00, 0x0b, 0x00, 0x04, 0x00,
  0x08, 0x00, 0x00, 0x00, 0x00, 0x00, 0x20, 0x41, 0x00, 0x00, 0x00, 0x04,
  0x01, 0x00, 0x00, 0x00, 0x14, 0x00, 0x00, 0x00, 0x18, 0x00, 0x00, 0x00,
  0x00, 0x00, 0x00, 0x00, 0x0b, 0x00, 0x00, 0x00, 0x0c, 0x00, 0x00, 0x00,
  0x0d, 0x00, 0x00, 0x00, 0x0e, 0x00, 0x00, 0x00, 0x03, 0x00, 0x00, 0x00,
  0x04, 0x00, 0x00, 0x00, 0x05, 0x00, 0x00, 0x00, 0x06, 0x00, 0x00, 0x00,
  0xff, 0xff, 0xff, 0xff, 0xff, 0xff, 0xff, 0xff, 0xff, 0xff, 0xff, 0xff,
  0x07, 0x00, 0x00, 0x00, 0x08, 0x00, 0x00, 0x00, 0x09, 0x00, 0x00, 0x00,
  0x0a, 0x00, 0x00, 0x00, 0xff, 0xff, 0xff, 0xff, 0xff, 0xff, 0xff, 0xff,
  0x01, 0x00, 0x00, 0x00, 0x13, 0x00, 0x00, 0x00, 0xff, 0xff, 0xff, 0xff,
  0xff, 0xff, 0xff, 0xff, 0xff, 0xff, 0xff, 0xff, 0xff, 0xff, 0xff, 0xff,
  0x01, 0x00, 0x00, 0x00, 0x17, 0x00, 0x00, 0x00, 0x01, 0x00, 0x00, 0x00,
  0x00, 0x00, 0x00, 0x00, 0x18, 0x00, 0x00, 0x00, 0x80, 0x06, 0x00, 0x00,
  0x24, 0x06, 0x00, 0x00, 0xb8, 0x05, 0x00, 0x00, 0x78, 0x05, 0x00, 0x00,
  0x38, 0x05, 0x00, 0x00, 0xf8, 0x04, 0x00, 0x00, 0xb8, 0x04, 0x00, 0x00,
  0x7c, 0x04, 0x00, 0x00, 0x40, 0x04, 0x00, 0x00, 0x04, 0x04, 0x00, 0x00,
  0xc8, 0x03, 0x00, 0x00, 0x88, 0x03, 0x00, 0x00, 0x48, 0x03, 0x00, 0x00,
  0x04, 0x03, 0x00, 0x00, 0xc0, 0x02, 0x00, 0x00, 0x78, 0x02, 0x00, 0x00,
  0x34, 0x02, 0x00, 0x00, 0xd8, 0x01, 0x00, 0x00, 0x94, 0x01, 0x00, 0x00,
  0x50, 0x01, 0x00, 0x00, 0xf8, 0x00, 0x00, 0x00, 0xb4, 0x00, 0x00, 0x00,
  0x50, 0x00, 0x00, 0x00, 0x04, 0x00, 0x00, 0x00, 0xf6, 0xf9, 0xff, 0xff,
  0x00, 0x00, 0x00, 0x01, 0x10, 0x00, 0x00, 0x00, 0x10, 0x00, 0x00, 0x00,
  0x18, 0x00, 0x00, 0x00, 0x28, 0x00, 0x00, 0x00, 0xe0, 0xf9, 0xff, 0xff,
  0x19, 0x00, 0x00, 0x00, 0x53, 0x74, 0x61, 0x74, 0x65, 0x66, 0x75, 0x6c,
  0x50, 0x61, 0x72, 0x74, 0x69, 0x74, 0x69, 0x6f, 0x6e, 0x65, 0x64, 0x43,
  0x61, 0x6c, 0x6c, 0x3a, 0x30, 0x00, 0x00, 0x00, 0x02, 0x00, 0x00, 0x00,
  0x01, 0x00, 0x00, 0x00, 0x01, 0x00, 0x00, 0x00, 0x3e, 0xfa, 0xff, 0xff,
  0x00, 0x00, 0x00, 0x01, 0x10, 0x00, 0x00, 0x00, 0x10, 0x00, 0x00, 0x00,
  0x17, 0x00, 0x00, 0x00, 0x40, 0x00, 0x00, 0x00, 0x28, 0xfa, 0xff, 0xff,
  0x30, 0x00, 0x00, 0x00, 0x73, 0x65, 0x71, 0x75, 0x65, 0x6e, 0x74, 0x69,
  0x61, 0x6c, 0x2f, 0x64, 0x65, 0x6e, 0x73, 0x65, 0x2f, 0x4d, 0x61, 0x74,
  0x4d, 0x75, 0x6c, 0x3b, 0x73, 0x65, 0x71, 0x75, 0x65, 0x6e, 0x74, 0x69,
  0x61, 0x6c, 0x2f, 0x64, 0x65, 0x6e, 0x73, 0x65, 0x2f, 0x42, 0x69, 0x61,
  0x73, 0x41, 0x64, 0x64, 0x00, 0x00, 0x00, 0x00, 0x02, 0x00, 0x00, 0x00,
  0x01, 0x00, 0x00, 0x00, 0x01, 0x00, 0x00, 0x00, 0x9e, 0xfa, 0xff, 0xff,
  0x00, 0x00, 0x00, 0x01, 0x10, 0x00, 0x00, 0x00, 0x10, 0x00, 0x00, 0x00,
  0x16, 0x00, 0x00, 0x00, 0x20, 0x00, 0x00, 0x00, 0x88, 0xfa, 0xff, 0xff,
  0x11, 0x00, 0x00, 0x00, 0x74, 0x66, 0x6c, 0x2e, 0x73, 0x74, 0x72, 0x69,
  0x64, 0x65, 0x64, 0x5f, 0x73, 0x6c, 0x69, 0x63, 0x65, 0x00, 0x00, 0x00,
  0x02, 0x00, 0x00, 0x00, 0x01, 0x00, 0x00, 0x00, 0x0a, 0x00, 0x00, 0x00,
  0xde, 0xfa, 0xff, 0xff, 0x00, 0x00, 0x00, 0x01, 0x10, 0x00, 0x00, 0x00,
  0x10, 0x00, 0x00, 0x00, 0x15, 0x00, 0x00, 0x00, 0x30, 0x00, 0x00, 0x00,
  0xc8, 0xfa, 0xff, 0xff, 0x20, 0x00, 0x00, 0x00, 0x74, 0x66, 0x6c, 0x2e,
  0x75, 0x6e, 0x69, 0x64, 0x69, 0x72, 0x65, 0x63, 0x74, 0x69, 0x6f, 0x6e,
  0x61, 0x6c, 0x5f, 0x73, 0x65, 0x71, 0x75, 0x65, 0x6e, 0x63, 0x65, 0x5f,
  0x6c, 0x73, 0x74, 0x6d, 0x00, 0x00, 0x00, 0x00, 0x03, 0x00, 0x00, 0x00,
  0x01, 0x00, 0x00, 0x00, 0x14, 0x00, 0x00, 0x00, 0x0a, 0x00, 0x00, 0x00,
  0x8a, 0xfb, 0xff, 0xff, 0x00, 0x00, 0x01, 0x01, 0x0c, 0x00, 0x00, 0x00,
  0x0c, 0x00, 0x00, 0x00, 0x24, 0x00, 0x00, 0x00, 0x18, 0xfb, 0xff, 0xff,
  0x16, 0x00, 0x00, 0x00, 0x73, 0x65, 0x71, 0x75, 0x65, 0x6e, 0x74, 0x69,
  0x61, 0x6c, 0x2f, 0x6c, 0x73, 0x74, 0x6d, 0x2f, 0x7a, 0x65, 0x72, 0x6f,
  0x73, 0x31, 0x00, 0x00, 0x02, 0x00, 0x00, 0x00, 0x01, 0x00, 0x00, 0x00,
  0x0a, 0x00, 0x00, 0x00, 0x7e, 0xff, 0xff, 0xff, 0x00, 0x00, 0x00, 0x01,
  0x14, 0x00, 0x00, 0x00, 0x14, 0x00, 0x00, 0x00, 0x13, 0x00, 0x00, 0x00,
  0x00, 0x00, 0x00, 0x02, 0x20, 0x00, 0x00, 0x00, 0x60, 0xfb, 0xff, 0xff,
  0x10, 0x00, 0x00, 0x00, 0x61, 0x72, 0x69, 0x74, 0x68, 0x2e, 0x63, 0x6f,
  0x6e, 0x73, 0x74, 0x61, 0x6e, 0x74, 0x31, 0x34, 0x00, 0x00, 0x00, 0x00,
  0x01, 0x00, 0x00, 0x00, 0x03, 0x00, 0x00, 0x00, 0xbe, 0xff, 0xff, 0xff,
  0x00, 0x00, 0x00, 0x01, 0x14, 0x00, 0x00, 0x00, 0x14, 0x00, 0x00, 0x00,
  0x12, 0x00, 0x00, 0x00, 0x00, 0x00, 0x00, 0x02, 0x20, 0x00, 0x00, 0x00,
  0xa0, 0xfb, 0xff, 0xff, 0x10, 0x00, 0x00, 0x00, 0x61, 0x72, 0x69, 0x74,
  0x68, 0x2e, 0x63, 0x6f, 0x6e, 0x73, 0x74, 0x61, 0x6e, 0x74, 0x31, 0x33,
  0x00, 0x00, 0x00, 0x00, 0x01, 0x00, 0x00, 0x00, 0x03, 0x00, 0x00, 0x00,
  0x00, 0x00, 0x16, 0x00, 0x1c, 0x00, 0x18, 0x00, 0x17, 0x00, 0x10, 0x00,
  0x0c, 0x00, 0x08, 0x00, 0x00, 0x00, 0x00, 0x00, 0x00, 0x00, 0x07, 0x00,
  0x16, 0x00, 0x00, 0x00, 0x00, 0x00, 0x00, 0x01, 0x14, 0x00, 0x00, 0x00,
  0x14, 0x00, 0x00, 0x00, 0x11, 0x00, 0x00, 0x00, 0x00, 0x00, 0x00, 0x02,
  0x20, 0x00, 0x00, 0x00, 0xf8, 0xfb, 0xff, 0xff, 0x10, 0x00, 0x00, 0x00,
  0x61, 0x72, 0x69, 0x74, 0x68, 0x2e, 0x63, 0x6f, 0x6e, 0x73, 0x74, 0x61,
  0x6e, 0x74, 0x31, 0x32, 0x00, 0x00, 0x00, 0x00, 0x01, 0x00, 0x00, 0x00,
  0x03, 0x00, 0x00, 0x00, 0x4a, 0xfc, 0xff, 0xff, 0x00, 0x00, 0x00, 0x01,
  0x10, 0x00, 0x00, 0x00, 0x10, 0x00, 0x00, 0x00, 0x10, 0x00, 0x00, 0x00,
  0x24, 0x00, 0x00, 0x00, 0x34, 0xfc, 0xff, 0xff, 0x17, 0x00, 0x00, 0x00,
  0x73, 0x65, 0x71, 0x75, 0x65, 0x6e, 0x74, 0x69, 0x61, 0x6c, 0x2f, 0x64,
  0x65, 0x6e, 0x73, 0x65, 0x2f, 0x4d, 0x61, 0x74, 0x4d, 0x75, 0x6c, 0x00,
  0x02, 0x00, 0x00, 0x00, 0x01, 0x00, 0x00, 0x00, 0x0a, 0x00, 0x00, 0x00,
  0x8e, 0xfc, 0xff, 0xff, 0x00, 0x00, 0x00, 0x01, 0x10, 0x00, 0x00, 0x00,
  0x10, 0x00, 0x00, 0x00, 0x0f, 0x00, 0x00, 0x00, 0x20, 0x00, 0x00, 0x00,
  0x78, 0xfc, 0xff, 0xff, 0x10, 0x00, 0x00, 0x00, 0x61, 0x72, 0x69, 0x74,
  0x68, 0x2e, 0x63, 0x6f, 0x6e, 0x73, 0x74, 0x61, 0x6e, 0x74, 0x31, 0x31,
  0x00, 0x00, 0x00, 0x00, 0x02, 0x00, 0x00, 0x00, 0x0a, 0x00, 0x00, 0x00,
  0x40, 0x00, 0x00, 0x00, 0xce, 0xfc, 0xff, 0xff, 0x00, 0x00, 0x00, 0x01,
  0x10, 0x00, 0x00, 0x00, 0x10, 0x00, 0x00, 0x00, 0x0e, 0x00, 0x00, 0x00,
  0x20, 0x00, 0x00, 0x00, 0xb8, 0xfc, 0xff, 0xff, 0x10, 0x00, 0x00, 0x00,
  0x61, 0x72, 0x69, 0x74, 0x68, 0x2e, 0x63, 0x6f, 0x6e, 0x73, 0x74, 0x61,
  0x6e, 0x74, 0x31, 0x30, 0x00, 0x00, 0x00, 0x00, 0x02, 0x00, 0x00, 0x00,
  0x0a, 0x00, 0x00, 0x00, 0x40, 0x00, 0x00, 0x00, 0x0e, 0xfd, 0xff, 0xff,
  0x00, 0x00, 0x00, 0x01, 0x10, 0x00, 0x00, 0x00, 0x10, 0x00, 0x00, 0x00,
  0x0d, 0x00, 0x00, 0x00, 0x1c, 0x00, 0x00, 0x00, 0xf8, 0xfc, 0xff, 0xff,
  0x0f, 0x00, 0x00, 0x00, 0x61, 0x72, 0x69, 0x74, 0x68, 0x2e, 0x63, 0x6f,
  0x6e, 0x73, 0x74, 0x61, 0x6e, 0x74, 0x39, 0x00, 0x02, 0x00, 0x00, 0x00,
  0x0a, 0x00, 0x00, 0x00, 0x40, 0x00, 0x00, 0x00, 0x4a, 0xfd, 0xff, 0xff,
  0x00, 0x00, 0x00, 0x01, 0x10, 0x00, 0x00, 0x00, 0x10, 0x00, 0x00, 0x00,
  0x0c, 0x00, 0x00, 0x00, 0x1c, 0x00, 0x00, 0x00, 0x34, 0xfd, 0xff, 0xff,
  0x0f, 0x00, 0x00, 0x00, 0x61, 0x72, 0x69, 0x74, 0x68, 0x2e, 0x63, 0x6f,
  0x6e, 0x73, 0x74, 0x61, 0x6e, 0x74, 0x38, 0x00, 0x02, 0x00, 0x00, 0x00,
  0x0a, 0x00, 0x00, 0x00, 0x40, 0x00, 0x00, 0x00, 0x86, 0xfd, 0xff, 0xff,
  0x00, 0x00, 0x00, 0x01, 0x10, 0x00, 0x00, 0x00, 0x10, 0x00, 0x00, 0x00,
  0x0b, 0x00, 0x00, 0x00, 0x1c, 0x00, 0x00, 0x00, 0x70, 0xfd, 0xff, 0xff,
  0x0f, 0x00, 0x00, 0x00, 0x61, 0x72, 0x69, 0x74, 0x68, 0x2e, 0x63, 0x6f,
  0x6e, 0x73, 0x74, 0x61, 0x6e, 0x74, 0x37, 0x00, 0x01, 0x00, 0x00, 0x00,
  0x0a, 0x00, 0x00, 0x00, 0xbe, 0xfd, 0xff, 0xff, 0x00, 0x00, 0x00, 0x01,
  0x10, 0x00, 0x00, 0x00, 0x10, 0x00, 0x00, 0x00, 0x0a, 0x00, 0x00, 0x00,
  0x1c, 0x00, 0x00, 0x00, 0xa8, 0xfd, 0xff, 0xff, 0x0f, 0x00, 0x00, 0x00,
  0x61, 0x72, 0x69, 0x74, 0x68, 0x2e, 0x63, 0x6f, 0x6e, 0x73, 0x74, 0x61,
  0x6e, 0x74, 0x36, 0x00, 0x01, 0x00, 0x00, 0x00, 0x0a, 0x00, 0x00, 0x00,
  0xf6, 0xfd, 0xff, 0xff, 0x00, 0x00, 0x00, 0x01, 0x10, 0x00, 0x00, 0x00,
  0x10, 0x00, 0x00, 0x00, 0x09, 0x00, 0x00, 0x00, 0x1c, 0x00, 0x00, 0x00,
  0xe0, 0xfd, 0xff, 0xff, 0x0f, 0x00, 0x00, 0x00, 0x61, 0x72, 0x69, 0x74,
  0x68, 0x2e, 0x63, 0x6f, 0x6e, 0x73, 0x74, 0x61, 0x6e, 0x74, 0x35, 0x00,
  0x01, 0x00, 0x00, 0x00, 0x0a, 0x00, 0x00, 0x00, 0x2e, 0xfe, 0xff, 0xff,
  0x00, 0x00, 0x00, 0x01, 0x10, 0x00, 0x00, 0x00, 0x10, 0x00, 0x00, 0x00,
  0x08, 0x00, 0x00, 0x00, 0x1c, 0x00, 0x00, 0x00, 0x18, 0xfe, 0xff, 0xff,
  0x0f, 0x00, 0x00, 0x00, 0x61, 0x72, 0x69, 0x74, 0x68, 0x2e, 0x63, 0x6f,
  0x6e, 0x73, 0x74, 0x61, 0x6e, 0x74, 0x34, 0x00, 0x01, 0x00, 0x00, 0x00,
  0x0a, 0x00, 0x00, 0x00, 0x66, 0xfe, 0xff, 0xff, 0x00, 0x00, 0x00, 0x01,
  0x10, 0x00, 0x00, 0x00, 0x10, 0x00, 0x00, 0x00, 0x07, 0x00, 0x00, 0x00,
  0x1c, 0x00, 0x00, 0x00, 0x50, 0xfe, 0xff, 0xff, 0x0f, 0x00, 0x00, 0x00,
  0x61, 0x72, 0x69, 0x74, 0x68, 0x2e, 0x63, 0x6f, 0x6e, 0x73, 0x74, 0x61,
  0x6e, 0x74, 0x33, 0x00, 0x02, 0x00, 0x00, 0x00, 0x0a, 0x00, 0x00, 0x00,
  0x0a, 0x00, 0x00, 0x00, 0xa2, 0xfe, 0xff, 0xff, 0x00, 0x00, 0x00, 0x01,
  0x10, 0x00, 0x00, 0x00, 0x10, 0x00, 0x00, 0x00, 0x06, 0x00, 0x00, 0x00,
  0x1c, 0x00, 0x00, 0x00, 0x8c, 0xfe, 0xff, 0xff, 0x0f, 0x00, 0x00, 0x00,
  0x61, 0x72, 0x69, 0x74, 0x68, 0x2e, 0x63, 0x6f, 0x6e, 0x73, 0x74, 0x61,
  0x6e, 0x74, 0x32, 0x00, 0x02, 0x00, 0x00, 0x00, 0x0a, 0x00, 0x00, 0x00,
  0x0a, 0x00, 0x00, 0x00, 0xde, 0xfe, 0xff, 0xff, 0x00, 0x00, 0x00, 0x01,
  0x10, 0x00, 0x00, 0x00, 0x10, 0x00, 0x00, 0x00, 0x05, 0x00, 0x00, 0x00,
  0x1c, 0x00, 0x00, 0x00, 0xc8, 0xfe, 0xff, 0xff, 0x0f, 0x00, 0x00, 0x00,
  0x61, 0x72, 0x69, 0x74, 0x68, 0x2e, 0x63, 0x6f, 0x6e, 0x73, 0x74, 0x61,
  0x6e, 0x74, 0x31, 0x00, 0x02, 0x00, 0x00, 0x00, 0x0a, 0x00, 0x00, 0x00,
  0x0a, 0x00, 0x00, 0x00, 0x1a, 0xff, 0xff, 0xff, 0x00, 0x00, 0x00, 0x01,
  0x10, 0x00, 0x00, 0x00, 0x10, 0x00, 0x00, 0x00, 0x04, 0x00, 0x00, 0x00,
  0x1c, 0x00, 0x00, 0x00, 0x04, 0xff, 0xff, 0xff, 0x0e, 0x00, 0x00, 0x00,
  0x61, 0x72, 0x69, 0x74, 0x68, 0x2e, 0x63, 0x6f, 0x6e, 0x73, 0x74, 0x61,
  0x6e, 0x74, 0x00, 0x00, 0x02, 0x00, 0x00, 0x00, 0x0a, 0x00, 0x00, 0x00,
  0x0a, 0x00, 0x00, 0x00, 0x56, 0xff, 0xff, 0xff, 0x00, 0x00, 0x00, 0x01,
  0x10, 0x00, 0x00, 0x00, 0x10, 0x00, 0x00, 0x00, 0x03, 0x00, 0x00, 0x00,
  0x34, 0x00, 0x00, 0x00, 0x40, 0xff, 0xff, 0xff, 0x27, 0x00, 0x00, 0x00,
  0x73, 0x65, 0x71, 0x75, 0x65, 0x6e, 0x74, 0x69, 0x61, 0x6c, 0x2f, 0x64,
  0x65, 0x6e, 0x73, 0x65, 0x2f, 0x42, 0x69, 0x61, 0x73, 0x41, 0x64, 0x64,
  0x2f, 0x52, 0x65, 0x61, 0x64, 0x56, 0x61, 0x72, 0x69, 0x61, 0x62, 0x6c,
  0x65, 0x4f, 0x70, 0x00, 0x01, 0x00, 0x00, 0x00, 0x01, 0x00, 0x00, 0x00,
  0x00, 0x00, 0x16, 0x00, 0x14, 0x00, 0x10, 0x00, 0x00, 0x00, 0x00, 0x00,
  0x0c, 0x00, 0x08, 0x00, 0x07, 0x00, 0x00, 0x00, 0x00, 0x00, 0x06, 0x00,
  0x16, 0x00, 0x00, 0x00, 0x00, 0x00, 0x01, 0x01, 0x0c, 0x00, 0x00, 0x00,
  0x0c, 0x00, 0x00, 0x00, 0x24, 0x00, 0x00, 0x00, 0xa4, 0xff, 0xff, 0xff,
  0x15, 0x00, 0x00, 0x00, 0x73, 0x65, 0x71, 0x75, 0x65, 0x6e, 0x74, 0x69,
  0x61, 0x6c, 0x2f, 0x6c, 0x73, 0x74, 0x6d, 0x2f, 0x7a, 0x65, 0x72, 0x6f,
  0x73, 0x00, 0x00, 0x00, 0x02, 0x00, 0x00, 0x00, 0x01, 0x00, 0x00, 0x00,
  0x0a, 0x00, 0x00, 0x00, 0x00, 0x00, 0x16, 0x00, 0x18, 0x00, 0x14, 0x00,
  0x00, 0x00, 0x10, 0x00, 0x0c, 0x00, 0x08, 0x00, 0x00, 0x00, 0x00, 0x00,
  0x00, 0x00, 0x07, 0x00, 0x16, 0x00, 0x00, 0x00, 0x00, 0x00, 0x00, 0x01,
  0x14, 0x00, 0x00, 0x00, 0x14, 0x00, 0x00, 0x00, 0x01, 0x00, 0x00, 0x00,
  0x30, 0x00, 0x00, 0x00, 0x04, 0x00, 0x04, 0x00, 0x04, 0x00, 0x00, 0x00,
  0x1c, 0x00, 0x00, 0x00, 0x73, 0x65, 0x72, 0x76, 0x69, 0x6e, 0x67, 0x5f,
  0x64, 0x65, 0x66, 0x61, 0x75, 0x6c, 0x74, 0x5f, 0x6c, 0x73, 0x74, 0x6d,
  0x5f, 0x69, 0x6e, 0x70, 0x75, 0x74, 0x3a, 0x30, 0x00, 0x00, 0x00, 0x00,
  0x03, 0x00, 0x00, 0x00, 0x01, 0x00, 0x00, 0x00, 0x14, 0x00, 0x00, 0x00,
  0x40, 0x00, 0x00, 0x00, 0x04, 0x00, 0x00, 0x00, 0x40, 0x00, 0x00, 0x00,
  0x24, 0x00, 0x00, 0x00, 0x14, 0x00, 0x00, 0x00, 0x04, 0x00, 0x00, 0x00,
  0xdc, 0xff, 0xff, 0xff, 0x0e, 0x00, 0x00, 0x00, 0x00, 0x00, 0x00, 0x0e,
  0xe8, 0xff, 0xff, 0xff, 0x09, 0x00, 0x00, 0x00, 0x00, 0x00, 0x00, 0x09,
  0xf4, 0xff, 0xff, 0xff, 0x2d, 0x00, 0x00, 0x00, 0x00, 0x00, 0x00, 0x2d,
  0x0c, 0x00, 0x0c, 0x00, 0x0b, 0x00, 0x00, 0x00, 0x00, 0x00, 0x04, 0x00,
  0x0c, 0x00, 0x00, 0x00, 0x2c, 0x00, 0x00, 0x00, 0x00, 0x00, 0x00, 0x2c};
unsigned int model_tflite_len = 15240;

unsigned char* get_model_data() {
  return (unsigned char*)g_tof_detector_model_data;
}
