/* Copyright 2019 The TensorFlow Authors. All Rights Reserved.

Licensed under the Apache License, Version 2.0 (the "License");
you may not use this file except in compliance with the License.
You may obtain a copy of the License at

    http://www.apache.org/licenses/LICENSE-2.0

Unless required by applicable law or agreed to in writing, software
distributed under the License is distributed on an "AS IS" BASIS,
WITHOUT WARRANTIES OR CONDITIONS OF ANY KIND, either express or implied.
See the License for the specific language governing permissions and
limitations under the License.
==============================================================================*/

// Automatically created from a TensorFlow Lite flatbuffer using the command:
// xxd -i magic_wand_model.tflite > magic_wand_model_data.cc
// See the README for a full description of the creation process.

// We need to keep the data array aligned on some architectures.
#ifdef __has_attribute
#define HAVE_ATTRIBUTE(x) __has_attribute(x)
#else
#define HAVE_ATTRIBUTE(x) 0
#endif
#if HAVE_ATTRIBUTE(aligned) || (defined(__GNUC__) && !defined(__clang__))
#define DATA_ALIGN_ATTRIBUTE __attribute__((aligned(4)))
#else
#define DATA_ALIGN_ATTRIBUTE
#endif

const unsigned char g_tof_detector_model_data[] DATA_ALIGN_ATTRIBUTE = {
  0x1c, 0x00, 0x00, 0x00, 0x54, 0x46, 0x4c, 0x33, 0x14, 0x00, 0x20, 0x00,
  0x1c, 0x00, 0x18, 0x00, 0x14, 0x00, 0x10, 0x00, 0x0c, 0x00, 0x00, 0x00,
  0x08, 0x00, 0x04, 0x00, 0x14, 0x00, 0x00, 0x00, 0x1c, 0x00, 0x00, 0x00,
  0x84, 0x00, 0x00, 0x00, 0xdc, 0x00, 0x00, 0x00, 0x48, 0x32, 0x00, 0x00,
  0x58, 0x32, 0x00, 0x00, 0x04, 0x3b, 0x00, 0x00, 0x03, 0x00, 0x00, 0x00,
  0x01, 0x00, 0x00, 0x00, 0x04, 0x00, 0x00, 0x00, 0x6a, 0xcd, 0xff, 0xff,
  0x0c, 0x00, 0x00, 0x00, 0x1c, 0x00, 0x00, 0x00, 0x38, 0x00, 0x00, 0x00,
  0x0f, 0x00, 0x00, 0x00, 0x73, 0x65, 0x72, 0x76, 0x69, 0x6e, 0x67, 0x5f,
  0x64, 0x65, 0x66, 0x61, 0x75, 0x6c, 0x74, 0x00, 0x01, 0x00, 0x00, 0x00,
  0x04, 0x00, 0x00, 0x00, 0x98, 0xff, 0xff, 0xff, 0x17, 0x00, 0x00, 0x00,
  0x04, 0x00, 0x00, 0x00, 0x05, 0x00, 0x00, 0x00, 0x64, 0x65, 0x6e, 0x73,
  0x65, 0x00, 0x00, 0x00, 0x01, 0x00, 0x00, 0x00, 0x04, 0x00, 0x00, 0x00,
  0x5e, 0xce, 0xff, 0xff, 0x04, 0x00, 0x00, 0x00, 0x0a, 0x00, 0x00, 0x00,
  0x6c, 0x73, 0x74, 0x6d, 0x5f, 0x69, 0x6e, 0x70, 0x75, 0x74, 0x00, 0x00,
  0x02, 0x00, 0x00, 0x00, 0x34, 0x00, 0x00, 0x00, 0x04, 0x00, 0x00, 0x00,
  0xdc, 0xff, 0xff, 0xff, 0x1a, 0x00, 0x00, 0x00, 0x04, 0x00, 0x00, 0x00,
  0x13, 0x00, 0x00, 0x00, 0x43, 0x4f, 0x4e, 0x56, 0x45, 0x52, 0x53, 0x49,
  0x4f, 0x4e, 0x5f, 0x4d, 0x45, 0x54, 0x41, 0x44, 0x41, 0x54, 0x41, 0x00,
  0x08, 0x00, 0x0c, 0x00, 0x08, 0x00, 0x04, 0x00, 0x08, 0x00, 0x00, 0x00,
  0x19, 0x00, 0x00, 0x00, 0x04, 0x00, 0x00, 0x00, 0x13, 0x00, 0x00, 0x00,
  0x6d, 0x69, 0x6e, 0x5f, 0x72, 0x75, 0x6e, 0x74, 0x69, 0x6d, 0x65, 0x5f,
  0x76, 0x65, 0x72, 0x73, 0x69, 0x6f, 0x6e, 0x00, 0x1b, 0x00, 0x00, 0x00,
  0x68, 0x31, 0x00, 0x00, 0x60, 0x31, 0x00, 0x00, 0x28, 0x31, 0x00, 0x00,
  0x0c, 0x31, 0x00, 0x00, 0x6c, 0x2f, 0x00, 0x00, 0xcc, 0x2d, 0x00, 0x00,
  0x2c, 0x2c, 0x00, 0x00, 0x8c, 0x2a, 0x00, 0x00, 0x54, 0x2a, 0x00, 0x00,
  0x1c, 0x2a, 0x00, 0x00, 0xe4, 0x29, 0x00, 0x00, 0xac, 0x29, 0x00, 0x00,
  0x9c, 0x1f, 0x00, 0x00, 0x8c, 0x15, 0x00, 0x00, 0x7c, 0x0b, 0x00, 0x00,
  0x6c, 0x01, 0x00, 0x00, 0x34, 0x01, 0x00, 0x00, 0x18, 0x01, 0x00, 0x00,
  0xfc, 0x00, 0x00, 0x00, 0xe0, 0x00, 0x00, 0x00, 0xa8, 0x00, 0x00, 0x00,
  0xa0, 0x00, 0x00, 0x00, 0x98, 0x00, 0x00, 0x00, 0x90, 0x00, 0x00, 0x00,
  0x88, 0x00, 0x00, 0x00, 0x68, 0x00, 0x00, 0x00, 0x04, 0x00, 0x00, 0x00,
  0x42, 0xcf, 0xff, 0xff, 0x04, 0x00, 0x00, 0x00, 0x54, 0x00, 0x00, 0x00,
  0x0c, 0x00, 0x00, 0x00, 0x08, 0x00, 0x0e, 0x00, 0x08, 0x00, 0x04, 0x00,
  0x08, 0x00, 0x00, 0x00, 0x10, 0x00, 0x00, 0x00, 0x24, 0x00, 0x00, 0x00,
  0x00, 0x00, 0x06, 0x00, 0x08, 0x00, 0x04, 0x00, 0x06, 0x00, 0x00, 0x00,
  0x04, 0x00, 0x00, 0x00, 0x00, 0x00, 0x00, 0x00, 0x00, 0x00, 0x0a, 0x00,
  0x10, 0x00, 0x0c, 0x00, 0x08, 0x00, 0x04, 0x00, 0x0a, 0x00, 0x00, 0x00,
  0x02, 0x00, 0x00, 0x00, 0x02, 0x00, 0x00, 0x00, 0x04, 0x00, 0x00, 0x00,
  0x06, 0x00, 0x00, 0x00, 0x32, 0x2e, 0x31, 0x35, 0x2e, 0x30, 0x00, 0x00,
  0xa2, 0xcf, 0xff, 0xff, 0x04, 0x00, 0x00, 0x00, 0x10, 0x00, 0x00, 0x00,
  0x31, 0x2e, 0x31, 0x34, 0x2e, 0x30, 0x00, 0x00, 0x00, 0x00, 0x00, 0x00,
  0x00, 0x00, 0x00, 0x00, 0xf4, 0xc6, 0xff, 0xff, 0xf8, 0xc6, 0xff, 0xff,
  0xfc, 0xc6, 0xff, 0xff, 0x00, 0xc7, 0xff, 0xff, 0xce, 0xcf, 0xff, 0xff,
  0x04, 0x00, 0x00, 0x00, 0x28, 0x00, 0x00, 0x00, 0x00, 0x00, 0x00, 0x00,
  0x00, 0x00, 0x00, 0x00, 0x00, 0x00, 0x00, 0x00, 0x00, 0x00, 0x00, 0x00,
  0x00, 0x00, 0x00, 0x00, 0x00, 0x00, 0x00, 0x00, 0x00, 0x00, 0x00, 0x00,
  0x00, 0x00, 0x00, 0x00, 0x00, 0x00, 0x00, 0x00, 0x00, 0x00, 0x00, 0x00,
  0x02, 0xd0, 0xff, 0xff, 0x04, 0x00, 0x00, 0x00, 0x0c, 0x00, 0x00, 0x00,
  0x01, 0x00, 0x00, 0x00, 0x01, 0x00, 0x00, 0x00, 0x01, 0x00, 0x00, 0x00,
  0x1a, 0xd0, 0xff, 0xff, 0x04, 0x00, 0x00, 0x00, 0x0c, 0x00, 0x00, 0x00,
  0x00, 0x00, 0x00, 0x00, 0x00, 0x00, 0x00, 0x00, 0x00, 0x00, 0x00, 0x00,
  0x32, 0xd0, 0xff, 0xff, 0x04, 0x00, 0x00, 0x00, 0x0c, 0x00, 0x00, 0x00,
  0x00, 0x00, 0x00, 0x00, 0xff, 0xff, 0xff, 0xff, 0x00, 0x00, 0x00, 0x00,
  0x4a, 0xd0, 0xff, 0xff, 0x04, 0x00, 0x00, 0x00, 0x28, 0x00, 0x00, 0x00,
  0xa2, 0x8c, 0x37, 0x3f, 0x92, 0x86, 0xa9, 0x3f, 0x3e, 0x68, 0x1b, 0xbf,
  0x95, 0x52, 0x85, 0xbf, 0x48, 0xfc, 0x80, 0x3f, 0xfc, 0x67, 0x25, 0x3f,
  0xd9, 0x0f, 0xe3, 0xbe, 0x3c, 0x67, 0xa9, 0xbf, 0xfc, 0x47, 0x8d, 0xbf,
  0x4b, 0x65, 0x74, 0xbf, 0x7e, 0xd0, 0xff, 0xff, 0x04, 0x00, 0x00, 0x00,
  0x00, 0x0a, 0x00, 0x00, 0x2b, 0xdc, 0x47, 0x3e, 0x2b, 0x12, 0x09, 0x3e,
  0xac, 0xb5, 0xe5, 0x3d, 0x33, 0xee, 0x2c, 0xbd, 0x79, 0x1d, 0x4d, 0xbd,
  0x7f, 0x58, 0xdb, 0x3d, 0xf3, 0xa6, 0xa6, 0x3d, 0x24, 0xcb, 0x41, 0x3e,
  0xff, 0x7e, 0xec, 0xbd, 0x6c, 0xef, 0x97, 0xbe, 0xd9, 0x83, 0xc1, 0xbe,
  0x49, 0x5d, 0xe4, 0xbd, 0xe4, 0x53, 0x13, 0xbd, 0x23, 0xa3, 0xcd, 0xbd,
  0xfa, 0xd9, 0xc0, 0xbd, 0x2e, 0x77, 0xaa, 0x3d, 0xf4, 0x89, 0x9b, 0xbd,
  0x17, 0x4a, 0x93, 0xbe, 0xc1, 0xf0, 0xa8, 0x3d, 0x19, 0xfc, 0x06, 0xbe,
  0x9e, 0xfe, 0xbe, 0x3a, 0xd4, 0x65, 0x2e, 0xbc, 0xbd, 0x8a, 0x0a, 0xbe,
  0xa5, 0x30, 0x99, 0xbc, 0xc7, 0xa2, 0x8c, 0xbe, 0xef, 0xc9, 0x97, 0xbe,
  0x1f, 0xcd, 0xf1, 0xbb, 0x30, 0xee, 0x4e, 0x3e, 0x61, 0xa6, 0x25, 0xbd,
  0x7d, 0x66, 0x77, 0x3e, 0xa6, 0x8f, 0x73, 0xbd, 0xb4, 0x27, 0xa6, 0x3e,
  0xc7, 0xa1, 0x52, 0xbe, 0x1d, 0x87, 0x5b, 0xbd, 0xc9, 0x2b, 0xb0, 0xbd,
  0x05, 0x2d, 0xb3, 0xbd, 0x0f, 0x8c, 0x88, 0x3d, 0x2f, 0xd8, 0x0f, 0x3e,
  0x0e, 0x09, 0x89, 0x3e, 0x4b, 0xa2, 0x7c, 0xbc, 0xf5, 0x0f, 0x88, 0x3d,
  0x95, 0x42, 0x1f, 0x3e, 0x75, 0xd1, 0x6f, 0xbd, 0x4a, 0xe5, 0x7b, 0x3b,
  0xce, 0x45, 0xf4, 0x3d, 0x67, 0xd7, 0x10, 0x3e, 0x7d, 0x1b, 0xc2, 0x3b,
  0x7c, 0xea, 0x75, 0x3e, 0x7a, 0x10, 0x5a, 0xbe, 0x94, 0x82, 0x8c, 0xbe,
  0xc9, 0xfa, 0x87, 0xbe, 0x01, 0xf1, 0x97, 0xbe, 0x6b, 0x10, 0x59, 0xbe,
  0xa8, 0x02, 0x03, 0x3e, 0xd4, 0x54, 0x8a, 0xbd, 0x36, 0x63, 0xe1, 0x3d,
  0xe9, 0xc8, 0x9e, 0x3d, 0xc9, 0x9f, 0x19, 0xbe, 0x8c, 0xda, 0x98, 0xbb,
  0xd1, 0x75, 0xa2, 0xbd, 0x33, 0xa8, 0x40, 0xbe, 0x10, 0x17, 0x27, 0xbe,
  0x71, 0xe9, 0xc2, 0xbe, 0x78, 0x1c, 0x43, 0x3e, 0xe9, 0xdb, 0x72, 0x3e,
  0x75, 0x60, 0xfb, 0x3d, 0xc4, 0x30, 0xce, 0x3e, 0xf1, 0x10, 0xd7, 0x3e,
  0x77, 0xdc, 0x15, 0x3e, 0x8d, 0xde, 0xdc, 0xb9, 0x70, 0xd2, 0x98, 0x3e,
  0xfd, 0x95, 0x1e, 0x3b, 0x58, 0xdc, 0xc6, 0x3e, 0x11, 0xe4, 0x43, 0x3e,
  0xe7, 0xc7, 0x81, 0x3d, 0x9e, 0x53, 0x3b, 0x3e, 0x08, 0xfb, 0xca, 0x3e,
  0x22, 0x49, 0x0e, 0x3d, 0x5d, 0xbd, 0x49, 0x3e, 0x17, 0xb2, 0xc6, 0x3e,
  0x8d, 0xe2, 0x6d, 0x3d, 0x78, 0x3e, 0xa5, 0x3e, 0x16, 0xd2, 0xba, 0x3d,
  0x7b, 0xe9, 0x9b, 0xbd, 0xfb, 0xd7, 0x7a, 0x3e, 0xef, 0x46, 0xae, 0x3e,
  0x55, 0x17, 0x0d, 0x3e, 0x90, 0xeb, 0xeb, 0x3e, 0x6b, 0x17, 0xf2, 0x3e,
  0xa8, 0xeb, 0xa1, 0xbd, 0x5f, 0x37, 0x99, 0x3e, 0xd9, 0x67, 0xaa, 0x3e,
  0x9f, 0x12, 0xa1, 0x3a, 0x7e, 0xb0, 0xa4, 0x3e, 0x1c, 0x9a, 0x9a, 0x3e,
  0x9e, 0x36, 0x6d, 0x3e, 0xcc, 0x8a, 0xce, 0x3d, 0x70, 0x56, 0xe8, 0x3d,
  0x3d, 0x1b, 0xf5, 0x3d, 0xd1, 0x52, 0xf1, 0x3d, 0x37, 0xaf, 0x1d, 0x3e,
  0x6a, 0xb5, 0x41, 0x3d, 0xcd, 0x11, 0xd0, 0x3c, 0x84, 0x7f, 0x7c, 0x3d,
  0x06, 0x65, 0x83, 0x3e, 0xe1, 0xce, 0x20, 0x3b, 0x17, 0x56, 0x4a, 0x3e,
  0x3e, 0xf9, 0xe2, 0xbd, 0x11, 0x75, 0x46, 0x3e, 0xb1, 0x76, 0x74, 0x3d,
  0xc8, 0xf2, 0x94, 0x3e, 0x5f, 0x62, 0x77, 0x3d, 0x8d, 0xa7, 0x32, 0x3e,
  0x7c, 0x01, 0x17, 0x3e, 0x5a, 0x1b, 0x90, 0x3e, 0x3e, 0xad, 0x3d, 0xbe,
  0x14, 0x79, 0x07, 0x3d, 0x5c, 0xa8, 0xce, 0x3d, 0x7c, 0xde, 0xd5, 0x3e,
  0xbb, 0x45, 0xbb, 0x3e, 0xf0, 0x98, 0x5f, 0x3e, 0x68, 0xbc, 0xd8, 0x3b,
  0x1f, 0xd2, 0x05, 0x3e, 0x4b, 0x18, 0x73, 0xbd, 0xda, 0xcd, 0x22, 0x3d,
  0x79, 0x89, 0x1e, 0x3e, 0x6e, 0x7d, 0x0e, 0x3d, 0xa3, 0x66, 0xaa, 0x3e,
  0x89, 0xe4, 0x8a, 0xbd, 0x0b, 0x9d, 0x8f, 0x3e, 0x0b, 0x8a, 0x2a, 0x3e,
  0x0a, 0xfe, 0x39, 0x3e, 0xaa, 0x8b, 0x37, 0x3d, 0xcb, 0xc9, 0xb2, 0xbe,
  0x6f, 0x91, 0x5e, 0xbd, 0xb7, 0x22, 0x24, 0xbd, 0xe0, 0xe3, 0xbe, 0xbd,
  0x06, 0xa7, 0x50, 0xbe, 0xda, 0x6d, 0x68, 0x3e, 0x91, 0xc2, 0x12, 0x3e,
  0xfb, 0x7b, 0xf9, 0x3d, 0xa2, 0x23, 0x70, 0x3e, 0x7c, 0x2a, 0x24, 0xbe,
  0xff, 0x3d, 0x24, 0x3e, 0x97, 0x99, 0x40, 0xbe, 0xf5, 0xd6, 0x76, 0xbe,
  0xb6, 0xb6, 0x51, 0x3d, 0x83, 0xeb, 0x8e, 0x3d, 0x3b, 0x55, 0x62, 0x3d,
  0xc5, 0xaf, 0x9c, 0x3e, 0x2a, 0x52, 0x74, 0x3e, 0x2a, 0x00, 0x0b, 0x3f,
  0x20, 0x94, 0x5f, 0xbd, 0x77, 0x61, 0xde, 0xbd, 0x03, 0x2e, 0x2d, 0x3d,
  0xb9, 0x12, 0x99, 0xbd, 0x6a, 0x78, 0xf0, 0x3d, 0xc3, 0xef, 0x0b, 0x3e,
  0xde, 0x4e, 0x6f, 0x3e, 0x2e, 0x5d, 0x88, 0xbc, 0xb8, 0x18, 0xcf, 0xbd,
  0xc4, 0x3c, 0xbd, 0xbd, 0x25, 0xf5, 0x9e, 0x3b, 0x33, 0x0f, 0x15, 0x3e,
  0x65, 0xc7, 0x44, 0x3e, 0xb3, 0xdc, 0xd7, 0xbd, 0x7b, 0xe0, 0x19, 0xbc,
  0x2e, 0x07, 0x0c, 0x3e, 0xef, 0x0f, 0x9a, 0x3e, 0xc9, 0xe4, 0xfe, 0xbd,
  0x39, 0xac, 0x29, 0xbe, 0xae, 0x77, 0x39, 0xbe, 0x44, 0xbd, 0x1c, 0xbe,
  0xef, 0xae, 0x89, 0xbe, 0x20, 0xfb, 0x92, 0xbd, 0x46, 0xe4, 0x42, 0x3e,
  0xd6, 0x44, 0xd3, 0xba, 0xcf, 0x04, 0x82, 0xbe, 0xb6, 0x38, 0x08, 0xbd,
  0xcb, 0x26, 0x03, 0x3e, 0x64, 0xf4, 0x08, 0x3e, 0xa0, 0xe0, 0x24, 0xbc,
  0xa4, 0xc6, 0x62, 0xbd, 0x07, 0xdd, 0x70, 0x3e, 0x5c, 0x32, 0x79, 0x3e,
  0x38, 0x8c, 0x89, 0xbe, 0xe6, 0x44, 0x46, 0xbd, 0x7d, 0xed, 0xfc, 0x3d,
  0xaf, 0xf6, 0x9e, 0x3e, 0x72, 0xc1, 0x75, 0x3e, 0xe8, 0x96, 0x0e, 0xbd,
  0x9a, 0x8c, 0xfe, 0x3c, 0x84, 0xa2, 0x23, 0x3e, 0xc3, 0x5a, 0x9e, 0x3d,
  0x94, 0x69, 0x5b, 0x3e, 0x05, 0x3e, 0xd9, 0x3e, 0x5d, 0x61, 0x24, 0x3e,
  0xfa, 0x62, 0x19, 0x3f, 0x53, 0xd6, 0xa5, 0x3e, 0x80, 0x60, 0xa3, 0x3e,
  0xd3, 0x30, 0x12, 0x3e, 0xd7, 0x8c, 0x86, 0x3e, 0xd4, 0x40, 0xbc, 0x3a,
  0xd6, 0xea, 0x8e, 0x3e, 0x80, 0x45, 0x99, 0x3e, 0xa5, 0x84, 0x2f, 0xbe,
  0x41, 0x6c, 0x87, 0x3c, 0xc5, 0xf0, 0x3d, 0xbd, 0xb5, 0xc3, 0x46, 0xbc,
  0x4c, 0x4c, 0xca, 0x3d, 0xd4, 0x30, 0xdb, 0xbd, 0x7f, 0x5c, 0x7d, 0x3e,
  0x1b, 0x0b, 0xae, 0xbd, 0x4d, 0x49, 0x0c, 0x3e, 0x97, 0x0c, 0x8e, 0xbe,
  0x2b, 0xc3, 0xc0, 0x3d, 0x9e, 0x7b, 0xc2, 0x3d, 0xd9, 0x89, 0x2c, 0x3e,
  0x04, 0x8c, 0xab, 0x3e, 0xee, 0x93, 0xfc, 0x3d, 0xa9, 0x42, 0xa5, 0x3e,
  0xe1, 0x06, 0x40, 0xbe, 0x69, 0x32, 0x61, 0xbc, 0xd7, 0x66, 0xae, 0x3e,
  0xb3, 0x3f, 0xa9, 0x3e, 0xf1, 0xda, 0x92, 0x3e, 0x34, 0xde, 0x2a, 0x3d,
  0x1e, 0x9f, 0xff, 0x3c, 0x7e, 0x21, 0x32, 0xbd, 0x98, 0x63, 0x3c, 0xbd,
  0xdf, 0x24, 0xdf, 0xbd, 0x94, 0x33, 0x8e, 0x3e, 0x5c, 0xf6, 0x9b, 0x3c,
  0xac, 0x60, 0xde, 0x3d, 0x13, 0x0e, 0xbd, 0x3e, 0x88, 0x57, 0x77, 0x3c,
  0x22, 0x55, 0x40, 0x3e, 0xe8, 0x18, 0x1c, 0xbe, 0x0f, 0x52, 0x63, 0xbc,
  0x9e, 0x43, 0xe1, 0x3d, 0x66, 0x37, 0x43, 0xbc, 0xe0, 0xb9, 0x5e, 0x3d,
  0xbb, 0xc2, 0x99, 0x3e, 0x6b, 0x37, 0x0f, 0x3d, 0xbc, 0x87, 0x9d, 0xbc,
  0x04, 0xcd, 0xf7, 0x3d, 0x28, 0xc8, 0x26, 0x3e, 0x4d, 0x70, 0x37, 0x3e,
  0xba, 0x60, 0x94, 0x3e, 0xd8, 0x9d, 0xba, 0x3e, 0x1e, 0xf1, 0xff, 0x3c,
  0xae, 0xab, 0xf0, 0xbd, 0xcc, 0xa1, 0x07, 0x3e, 0xe9, 0x16, 0x07, 0x3e,
  0x1a, 0xc0, 0x26, 0x3e, 0xcc, 0xbf, 0x58, 0x3d, 0x58, 0xfa, 0x8e, 0x3e,
  0xf3, 0xc8, 0x5b, 0x3d, 0x15, 0xd0, 0x96, 0x3e, 0x6f, 0xc1, 0x81, 0x3e,
  0x3b, 0xd4, 0x85, 0x3e, 0x30, 0x18, 0x19, 0x3e, 0x1c, 0xfe, 0xb4, 0x3e,
  0xe9, 0xd0, 0xc5, 0x3d, 0x8c, 0xf8, 0xf0, 0xbd, 0xa0, 0x96, 0x47, 0x3e,
  0xe7, 0xaa, 0x72, 0x3e, 0x9f, 0xd0, 0x2c, 0x3e, 0x9d, 0x84, 0x98, 0x3e,
  0x7e, 0xde, 0xad, 0x3e, 0xb1, 0xa9, 0x58, 0x3e, 0x56, 0x63, 0x14, 0x3f,
  0xfd, 0x29, 0xc9, 0xbd, 0x48, 0x87, 0x59, 0x3d, 0x44, 0x8f, 0x8f, 0x3e,
  0xd4, 0x78, 0x86, 0x3e, 0xaf, 0xee, 0x08, 0x3d, 0xb1, 0x1c, 0x9e, 0x3e,
  0x2a, 0xa7, 0xa7, 0x3d, 0x74, 0xcd, 0xb8, 0x3d, 0x18, 0x9e, 0xf2, 0xbd,
  0x9f, 0x30, 0xcf, 0xbd, 0xf6, 0x5e, 0x22, 0xbd, 0xf0, 0x3e, 0x32, 0x3d,
  0x8d, 0xf3, 0x71, 0xbd, 0x40, 0x88, 0xbe, 0x3e, 0x97, 0xe7, 0x34, 0xbb,
  0x09, 0x77, 0xd2, 0x3e, 0xdd, 0xde, 0x5e, 0x3c, 0x0c, 0x8c, 0x9e, 0x3d,
  0xe5, 0xc6, 0x86, 0x3c, 0xde, 0xa8, 0x1e, 0x3e, 0x19, 0x1f, 0x51, 0xbe,
  0x39, 0x06, 0x39, 0xbe, 0xed, 0x73, 0x1b, 0x3b, 0x82, 0xbe, 0x85, 0x3e,
  0x4d, 0x79, 0x88, 0xbe, 0x0f, 0x4b, 0xab, 0x3d, 0x83, 0x52, 0x2d, 0xbe,
  0x62, 0x7f, 0x9c, 0xbc, 0xa7, 0x2f, 0x7c, 0xbe, 0x49, 0x36, 0x5d, 0xbd,
  0x9b, 0x1d, 0x74, 0xbd, 0x7a, 0x54, 0x66, 0x3d, 0x07, 0x08, 0x59, 0xbe,
  0x01, 0x63, 0x8b, 0xbe, 0xea, 0x1a, 0x4d, 0xbe, 0x0e, 0xce, 0x33, 0x3c,
  0xab, 0xe3, 0x2a, 0x3e, 0xf4, 0xf9, 0x82, 0xbd, 0x34, 0xa2, 0x29, 0x3e,
  0xb6, 0xb6, 0x72, 0x3e, 0xeb, 0xc1, 0x97, 0xbd, 0xa1, 0x0e, 0x4b, 0xbe,
  0x91, 0x06, 0x6b, 0xbd, 0xdb, 0x65, 0x7d, 0x3e, 0x88, 0xc7, 0x08, 0x3e,
  0xd5, 0x84, 0x19, 0x3e, 0xa2, 0xc2, 0xa6, 0xbd, 0x8e, 0x3e, 0x9a, 0x3c,
  0x77, 0x37, 0xc4, 0xbd, 0xa1, 0x24, 0x28, 0xbe, 0x20, 0xd5, 0x55, 0x3e,
  0x4e, 0x47, 0x16, 0x3c, 0x9d, 0x20, 0x75, 0x3d, 0x88, 0xad, 0x7d, 0x3e,
  0x42, 0x47, 0x47, 0x3e, 0x5d, 0x24, 0xbd, 0x3e, 0x66, 0x2c, 0x55, 0x3e,
  0x8a, 0xae, 0xf6, 0x3d, 0xd4, 0xb5, 0xc1, 0xbd, 0xff, 0x7e, 0x13, 0x3e,
  0x0f, 0x99, 0x8d, 0x3d, 0x36, 0xa2, 0x0f, 0x3e, 0x01, 0x45, 0x59, 0x3e,
  0x1a, 0x00, 0x8d, 0xbd, 0xe3, 0x1f, 0x2d, 0xbd, 0x5f, 0xde, 0x90, 0x3e,
  0x73, 0x81, 0xa7, 0x3e, 0xc8, 0xdc, 0x0a, 0x3e, 0x62, 0x43, 0xb6, 0x3e,
  0x72, 0x1c, 0x6e, 0x3e, 0xb0, 0x19, 0x32, 0x3e, 0xb9, 0xe0, 0x85, 0x3e,
  0x73, 0x6f, 0x66, 0x3e, 0x86, 0x27, 0x9f, 0x3e, 0x60, 0x0c, 0x44, 0xbb,
  0xe8, 0x19, 0xcb, 0x3c, 0xf1, 0x38, 0x4a, 0xbe, 0xee, 0xbf, 0xa0, 0xbd,
  0xce, 0x7a, 0x80, 0xb8, 0x52, 0xc9, 0xba, 0x3e, 0xf4, 0xfe, 0x26, 0xbd,
  0x02, 0x3f, 0xaa, 0xbd, 0x26, 0x8b, 0xfd, 0x3d, 0x1a, 0x85, 0xe2, 0xbd,
  0x3f, 0x3c, 0x2d, 0x3d, 0xad, 0x3b, 0x8c, 0xbe, 0xb4, 0x4b, 0x6f, 0xbd,
  0x18, 0x19, 0xdd, 0x3e, 0x02, 0xeb, 0x61, 0xbc, 0xb8, 0x78, 0xe1, 0x3e,
  0x03, 0xdf, 0x9a, 0x3d, 0x93, 0x61, 0xad, 0x3e, 0xbd, 0x0f, 0xa1, 0x3d,
  0x7b, 0xbb, 0x07, 0x3e, 0x6d, 0x62, 0x4b, 0x3e, 0x0f, 0x09, 0x04, 0x3f,
  0x4a, 0x9e, 0x8d, 0x3b, 0xdf, 0x8b, 0x42, 0x3e, 0x14, 0xf7, 0x84, 0x3d,
  0xd1, 0xd9, 0xd5, 0x3e, 0xae, 0x2c, 0xec, 0x3d, 0xa1, 0xa4, 0x83, 0x3e,
  0x6e, 0xa6, 0xb1, 0x3e, 0x70, 0x5f, 0xe9, 0x3e, 0x10, 0xc4, 0x3c, 0x3e,
  0x4c, 0xab, 0x2a, 0x3d, 0xdb, 0xc9, 0x95, 0x3e, 0xc1, 0xef, 0x6a, 0x3e,
  0x85, 0x35, 0xbc, 0x3e, 0x60, 0x3c, 0x35, 0x3e, 0x8b, 0x58, 0x21, 0x3e,
  0xca, 0x8c, 0xa6, 0x3e, 0x0d, 0xc2, 0x1f, 0x3c, 0x4a, 0xce, 0xa3, 0x3d,
  0x70, 0xac, 0xdb, 0xbd, 0x7e, 0xde, 0x25, 0x3e, 0xf8, 0x05, 0x1b, 0xbe,
  0xd1, 0xd9, 0x27, 0xbd, 0x9f, 0xb5, 0xf6, 0x3c, 0x2f, 0x87, 0xef, 0xbd,
  0xcd, 0xaa, 0x1c, 0xbc, 0x60, 0x37, 0x80, 0xbe, 0xfe, 0x08, 0x93, 0xbe,
  0x5b, 0xe9, 0xca, 0x3d, 0xb9, 0x87, 0x5a, 0x3d, 0xe3, 0x9d, 0xf5, 0x3d,
  0x77, 0x64, 0x26, 0x3e, 0xdf, 0xb9, 0xc4, 0xbd, 0xe8, 0xa8, 0x3b, 0xbe,
  0xb5, 0xac, 0xb6, 0xbb, 0xeb, 0x75, 0xb7, 0x3d, 0xa9, 0x73, 0x1d, 0xbe,
  0x46, 0xa1, 0xaf, 0xbe, 0xf0, 0x76, 0xd7, 0x3c, 0x3b, 0x45, 0x9f, 0x3d,
  0xfa, 0xb9, 0x17, 0x3e, 0xf7, 0xe3, 0x48, 0xbe, 0x85, 0xaa, 0x37, 0xbe,
  0x3b, 0xa1, 0x3b, 0xbe, 0x36, 0xa5, 0x1f, 0xbe, 0x87, 0x1b, 0xb7, 0x3c,
  0xd9, 0xdd, 0xc4, 0x3b, 0x29, 0xe3, 0x73, 0xbe, 0x64, 0xf1, 0x89, 0x3e,
  0x56, 0x1a, 0x33, 0xbe, 0xa5, 0xc2, 0x18, 0x3e, 0x64, 0xa6, 0xb7, 0xbe,
  0x6f, 0x01, 0x6b, 0xbe, 0x6a, 0xeb, 0x2f, 0x3d, 0x5f, 0x3e, 0x9a, 0xbe,
  0x4a, 0x2e, 0x0a, 0x3e, 0x58, 0x67, 0x58, 0x3d, 0xc1, 0x7e, 0x4b, 0x3e,
  0x22, 0x9f, 0x3b, 0xbe, 0xd0, 0x9f, 0xa6, 0x3d, 0xa5, 0x78, 0x14, 0x3d,
  0xda, 0xf3, 0x37, 0x3d, 0x15, 0x27, 0xa6, 0xbe, 0xa5, 0xe8, 0xa4, 0xbe,
  0x25, 0x09, 0x88, 0xbc, 0xc6, 0x0e, 0xf0, 0xbd, 0x62, 0x4c, 0xed, 0xbd,
  0x2b, 0x15, 0x3d, 0xbe, 0x70, 0x56, 0xd7, 0xbd, 0xee, 0x98, 0x51, 0x3d,
  0x87, 0xca, 0xea, 0x3d, 0x0a, 0x17, 0xab, 0x3c, 0x9a, 0xc1, 0x77, 0xbb,
  0x6d, 0x0e, 0x47, 0x3e, 0x14, 0x3b, 0x13, 0xbe, 0x45, 0x52, 0x9e, 0xbd,
  0x10, 0x79, 0x5f, 0xbe, 0x3e, 0xdc, 0xfe, 0xbc, 0x64, 0xbf, 0x8e, 0xbd,
  0x99, 0xb9, 0x55, 0xbc, 0x0a, 0x9e, 0xbd, 0x3c, 0xff, 0xdd, 0x7c, 0x3e,
  0x06, 0x72, 0xe8, 0x3c, 0x4b, 0x88, 0xf4, 0x3e, 0x09, 0x5f, 0x08, 0x3f,
  0x9b, 0x03, 0x06, 0x3f, 0xb5, 0xb9, 0xa7, 0x3e, 0x2e, 0x2c, 0x2c, 0x3e,
  0xd1, 0x20, 0xfb, 0x3d, 0xe1, 0xfb, 0x04, 0x3f, 0xca, 0xed, 0x46, 0x3e,
  0x9a, 0xfc, 0x51, 0x3e, 0xce, 0xcd, 0x64, 0x3e, 0x41, 0x0e, 0x05, 0x3e,
  0x81, 0x77, 0x03, 0xbe, 0xf6, 0xee, 0xa6, 0x3e, 0xb3, 0x8d, 0x77, 0x3d,
  0x6b, 0x7f, 0x8d, 0x3e, 0x3a, 0x66, 0xd5, 0x3d, 0x81, 0x78, 0xbc, 0x3d,
  0xdc, 0xc9, 0x65, 0x3d, 0x89, 0xb6, 0x8e, 0x3e, 0x54, 0x32, 0x2e, 0x3e,
  0xd3, 0xd1, 0x11, 0xbe, 0x79, 0x57, 0x40, 0xbe, 0xee, 0xfd, 0x82, 0x3e,
  0xb1, 0x6c, 0x6a, 0x3e, 0xa8, 0x5a, 0x83, 0x3e, 0xdf, 0xa0, 0xf1, 0x3d,
  0xcf, 0xe7, 0x43, 0x3e, 0x52, 0xfa, 0x54, 0x3e, 0xc4, 0xc9, 0x8e, 0x3e,
  0xa9, 0x89, 0x1c, 0xbe, 0x6d, 0xf7, 0xee, 0x3e, 0x4d, 0x54, 0x77, 0x3e,
  0xcd, 0x5d, 0x11, 0x3e, 0xfd, 0x7e, 0xef, 0x3d, 0xfc, 0xc6, 0x26, 0xbd,
  0xde, 0x6e, 0x0b, 0xbd, 0xcc, 0xfd, 0x8a, 0xbe, 0x8f, 0x61, 0x59, 0x3e,
  0x25, 0x1e, 0xa9, 0x3e, 0x52, 0xd0, 0x91, 0x3d, 0xca, 0x10, 0x6d, 0x3d,
  0x2a, 0x2e, 0x75, 0xbc, 0x76, 0x4e, 0xaf, 0xbd, 0xb5, 0x4d, 0x94, 0xbd,
  0x5d, 0x24, 0x6b, 0x3d, 0x5c, 0xb6, 0x91, 0x3e, 0xe2, 0x70, 0x9d, 0x3e,
  0x39, 0xe3, 0xa0, 0x3e, 0xa4, 0x6f, 0xb0, 0xbd, 0x64, 0xa2, 0x15, 0xbe,
  0x52, 0x9b, 0x0f, 0xbc, 0x26, 0xdd, 0x1a, 0x3e, 0x3b, 0x2f, 0xb8, 0xbd,
  0x50, 0x0c, 0x12, 0x3e, 0x4a, 0x59, 0xcf, 0x3e, 0x0a, 0xc6, 0x03, 0x3e,
  0xc6, 0xee, 0xe7, 0x3e, 0xb1, 0xa3, 0xd1, 0x3d, 0x2f, 0x0c, 0x26, 0x3d,
  0x6f, 0x54, 0xbc, 0x3e, 0x5c, 0x12, 0x7c, 0xbd, 0x2d, 0xfc, 0x83, 0x3e,
  0x00, 0xc7, 0x43, 0x3e, 0x94, 0x40, 0xbc, 0xbc, 0x87, 0x6c, 0x95, 0x3e,
  0x20, 0xd9, 0x3f, 0x3e, 0x04, 0x8d, 0x2a, 0x3e, 0x0d, 0x77, 0x74, 0x3e,
  0xcd, 0x0c, 0x06, 0x3f, 0x20, 0x68, 0x6d, 0x3e, 0xec, 0x36, 0x35, 0x3e,
  0xf1, 0x21, 0xbd, 0x3e, 0x46, 0xa4, 0x45, 0x3e, 0x57, 0xbd, 0xea, 0xbd,
  0x12, 0x77, 0xc2, 0x3e, 0xaa, 0x55, 0x4b, 0xbe, 0xe8, 0x4f, 0x24, 0x3e,
  0xa7, 0x63, 0x79, 0x3e, 0x40, 0x7e, 0xa6, 0x3e, 0x06, 0x50, 0xe1, 0x3e,
  0xe6, 0x54, 0x20, 0x3e, 0x46, 0x9c, 0x02, 0x3e, 0x3f, 0x22, 0xc2, 0xbd,
  0xe6, 0xab, 0x04, 0xbe, 0x8d, 0x7f, 0x39, 0x3e, 0xc2, 0x4f, 0x63, 0xbe,
  0x78, 0x5f, 0xc1, 0x3e, 0x40, 0xfc, 0x8d, 0x3e, 0x22, 0x49, 0xd4, 0x3d,
  0xb7, 0x3d, 0x3f, 0x3e, 0x75, 0xf1, 0x24, 0x3d, 0xa6, 0x0f, 0x79, 0xbe,
  0x5a, 0xf9, 0x53, 0xbe, 0x6b, 0xed, 0xbc, 0xbd, 0x28, 0xe3, 0x80, 0xbc,
  0xfc, 0x03, 0x33, 0x3e, 0x7f, 0x1b, 0xb8, 0x3e, 0x2f, 0xe1, 0x9c, 0x3e,
  0xb5, 0x06, 0xbb, 0x3d, 0x4a, 0x7a, 0x27, 0x3e, 0x86, 0x76, 0x97, 0x3d,
  0x21, 0x35, 0x11, 0x3e, 0x95, 0x80, 0x9f, 0x3d, 0x2a, 0x7e, 0x95, 0xbc,
  0xed, 0x34, 0x89, 0x3e, 0x15, 0x96, 0x47, 0xbd, 0xb1, 0x45, 0x17, 0x3e,
  0x7c, 0x1d, 0x2d, 0x3e, 0x93, 0xac, 0x99, 0x3e, 0xe2, 0x97, 0x21, 0x3e,
  0x2c, 0x11, 0x85, 0x3e, 0xa8, 0x3f, 0x88, 0x3d, 0xcf, 0xd8, 0xc5, 0xbd,
  0x26, 0xac, 0x8c, 0xbd, 0x89, 0x74, 0x0a, 0xbe, 0xb2, 0x45, 0x90, 0x3e,
  0xff, 0x2d, 0xa9, 0x3e, 0x3b, 0x6d, 0x24, 0x3e, 0x37, 0x7b, 0xef, 0xbb,
  0xb5, 0x94, 0x8a, 0x3e, 0x6c, 0xe2, 0x52, 0x3e, 0x34, 0xe3, 0x50, 0x3e,
  0x34, 0xb4, 0xf0, 0xbc, 0x98, 0x2c, 0x5f, 0x3e, 0x71, 0xf6, 0x2a, 0x3d,
  0xda, 0x28, 0x9a, 0xbe, 0x13, 0x3a, 0xea, 0x3e, 0x3b, 0x05, 0x74, 0x3e,
  0xe0, 0x69, 0xa1, 0x3e, 0x52, 0x99, 0xdf, 0x3e, 0xe2, 0x0d, 0x8d, 0x3e,
  0xdb, 0xc4, 0x10, 0x3f, 0x5c, 0xd4, 0xec, 0x3e, 0x8b, 0x39, 0xa5, 0x3e,
  0x85, 0xa6, 0xbf, 0x3e, 0x05, 0x3a, 0x6a, 0xbe, 0x9c, 0x2d, 0xce, 0xbc,
  0x6a, 0xde, 0x1a, 0x3e, 0x48, 0x88, 0x60, 0x3e, 0x47, 0x7a, 0x0b, 0x3e,
  0x6b, 0xbe, 0x4e, 0x3e, 0x5c, 0x99, 0x84, 0xbd, 0x43, 0xd6, 0x0c, 0x3e,
  0x67, 0x3d, 0x3f, 0xbe, 0x65, 0xd8, 0x7b, 0xbe, 0x88, 0x07, 0x26, 0xbe,
  0x65, 0x90, 0x28, 0xbd, 0x87, 0x45, 0x88, 0xbe, 0xce, 0x7f, 0x0c, 0xbd,
  0x7d, 0x4d, 0x15, 0x3c, 0xff, 0x36, 0xc6, 0x3e, 0xb3, 0x37, 0x2e, 0x3e,
  0x64, 0x1d, 0x93, 0xbc, 0xff, 0xf6, 0x36, 0xbe, 0x88, 0x43, 0x3e, 0x3e,
  0x02, 0x24, 0x12, 0xbc, 0xd3, 0x31, 0xea, 0x3d, 0xb6, 0x4f, 0x62, 0x3d,
  0x7e, 0x09, 0x95, 0x3e, 0xeb, 0x38, 0x12, 0x3e, 0x5d, 0x8d, 0x37, 0x3e,
  0x33, 0x51, 0xa7, 0xbe, 0x35, 0xb7, 0xdc, 0x3d, 0x4a, 0xb7, 0x54, 0x3d,
  0x4f, 0x70, 0x7f, 0x3d, 0xf1, 0x40, 0x77, 0x3e, 0x40, 0xde, 0x9d, 0x3d,
  0x36, 0x2b, 0x24, 0x3e, 0x90, 0x73, 0x6f, 0x3e, 0x26, 0x65, 0x8d, 0xbd,
  0x12, 0xfd, 0x16, 0x3e, 0xf0, 0x03, 0x0f, 0x3e, 0xdc, 0x0a, 0x48, 0x3e,
  0x6b, 0x6b, 0x73, 0xbe, 0xee, 0x90, 0x59, 0x3e, 0xee, 0x51, 0x3d, 0x3e,
  0xad, 0xd0, 0xf8, 0x3c, 0x56, 0x7c, 0x76, 0xbe, 0xe3, 0x28, 0x00, 0x3e,
  0xb1, 0xf5, 0x06, 0x3e, 0xae, 0x61, 0x7e, 0x3e, 0xa7, 0x84, 0x6e, 0xbd,
  0xad, 0xeb, 0x6e, 0x3e, 0xe5, 0xce, 0x23, 0x3c, 0xdc, 0xa3, 0xf5, 0x3d,
  0xd6, 0x28, 0x32, 0x3d, 0xb3, 0xa4, 0x9a, 0x3d, 0x17, 0xb5, 0xa7, 0x3e,
  0x0f, 0x01, 0x0a, 0xbe, 0x4b, 0x2d, 0x9b, 0xbe, 0x8a, 0xda, 0xff, 0xff,
  0x04, 0x00, 0x00, 0x00, 0x00, 0x0a, 0x00, 0x00, 0xff, 0xa9, 0x7d, 0xbd,
  0x3b, 0xca, 0x4b, 0x3e, 0x79, 0xc0, 0x60, 0x3d, 0x24, 0xc0, 0x0b, 0xbe,
  0x00, 0x73, 0xa0, 0xbd, 0x48, 0xc7, 0x07, 0xbd, 0xba, 0x98, 0x66, 0x3e,
  0x65, 0x73, 0xe3, 0x3c, 0x6f, 0x44, 0x54, 0xbe, 0x5c, 0xcd, 0x57, 0x3e,
  0x7d, 0x03, 0x88, 0x3e, 0xc4, 0xaa, 0x05, 0x3d, 0xf1, 0xd3, 0xc4, 0x3e,
  0xe0, 0x4d, 0x82, 0x3e, 0x70, 0x08, 0x56, 0x3e, 0xca, 0x73, 0xd4, 0xbd,
  0xec, 0xd6, 0x06, 0xbe, 0xea, 0x05, 0x83, 0x3e, 0x24, 0x42, 0xcc, 0x3d,
  0x3c, 0xb0, 0xb8, 0x3c, 0x49, 0x16, 0xd2, 0xbd, 0x67, 0xc7, 0x65, 0xbe,
  0x56, 0x61, 0x75, 0x3e, 0xa7, 0x2c, 0xe5, 0x3d, 0x0f, 0x24, 0xeb, 0x3d,
  0x22, 0xd5, 0x1c, 0xbe, 0xe7, 0x23, 0x8e, 0x3e, 0x50, 0x56, 0x48, 0x3b,
  0x93, 0xc0, 0x8b, 0x3d, 0x28, 0x6d, 0x6d, 0x3c, 0xa0, 0xf2, 0x91, 0xbd,
  0x1b, 0x40, 0x4d, 0xbe, 0x7f, 0x3a, 0x41, 0x3e, 0xd5, 0x0b, 0x8c, 0xbe,
  0xdf, 0x78, 0x84, 0x3e, 0x43, 0x0b, 0xdb, 0x3d, 0x1f, 0xbc, 0x3e, 0x3e,
  0xe3, 0x1d, 0x81, 0x3e, 0x8c, 0xf4, 0x47, 0x3e, 0xf5, 0x6e, 0x25, 0x3d,
  0x63, 0xa1, 0x02, 0x3d, 0x08, 0x5d, 0xae, 0x3d, 0xc5, 0x61, 0x5b, 0x3d,
  0x68, 0x9f, 0xf7, 0xbd, 0xc9, 0x91, 0x04, 0xbd, 0xd8, 0xa3, 0x4b, 0xbe,
  0xbd, 0xb0, 0xbd, 0xbd, 0x20, 0x5d, 0x0b, 0x3d, 0x5c, 0xe0, 0x9a, 0xbe,
  0xda, 0x58, 0x14, 0x3e, 0x6b, 0xa3, 0x7a, 0x3e, 0xc5, 0x67, 0x29, 0x3e,
  0x9f, 0x46, 0x89, 0xbe, 0x16, 0x1b, 0xba, 0x3d, 0xb2, 0x23, 0x5f, 0x3d,
  0x8f, 0x3a, 0x52, 0xbe, 0xaf, 0xd1, 0xdc, 0xbc, 0x85, 0xae, 0x26, 0x3c,
  0xe3, 0x17, 0xef, 0xbd, 0x2a, 0x0d, 0xe0, 0xbd, 0xdc, 0xf9, 0x46, 0x3e,
  0xa8, 0x84, 0xd2, 0xbd, 0xef, 0x88, 0x12, 0xbd, 0x58, 0x83, 0x0f, 0xbe,
  0xad, 0x97, 0x43, 0xbe, 0x03, 0x7f, 0x87, 0x3d, 0x3f, 0x65, 0x3e, 0xbe,
  0x5f, 0x26, 0x1e, 0xbe, 0x3d, 0x45, 0xad, 0x3d, 0x59, 0x16, 0xce, 0x3d,
  0x24, 0xbd, 0x81, 0x3e, 0xdf, 0xf1, 0xc7, 0xb9, 0x28, 0x02, 0x83, 0x3e,
  0xe8, 0x74, 0x69, 0xbe, 0xf0, 0x2a, 0x49, 0x3d, 0x15, 0xa9, 0x99, 0xbe,
  0xab, 0xcb, 0x31, 0xbe, 0x88, 0x67, 0xb7, 0xbd, 0x8e, 0x12, 0x3b, 0x3e,
  0x7a, 0x34, 0x2e, 0x3e, 0x57, 0xb1, 0x37, 0xbe, 0xec, 0xc7, 0x8c, 0xbd,
  0x5b, 0xe7, 0xa6, 0xbe, 0xa7, 0x89, 0x72, 0xbe, 0xde, 0x31, 0x12, 0x3e,
  0x39, 0x8f, 0x86, 0xbe, 0xa4, 0x4c, 0xce, 0xbc, 0xe8, 0xbe, 0xa8, 0xbd,
  0x8c, 0x78, 0xad, 0x3d, 0x9b, 0x7d, 0x01, 0x3e, 0x40, 0x18, 0x08, 0x3e,
  0xf0, 0xaf, 0xd3, 0xbb, 0x69, 0xc7, 0x04, 0xbe, 0x2a, 0xb3, 0x28, 0xbe,
  0xd7, 0x32, 0x96, 0xbe, 0x74, 0x8d, 0xa5, 0x3d, 0xf4, 0x90, 0xad, 0x3c,
  0xdf, 0x22, 0x81, 0xbe, 0xca, 0xbb, 0x16, 0x3e, 0x3c, 0xb4, 0x7d, 0xbe,
  0xc4, 0x86, 0x03, 0x3d, 0x32, 0x34, 0x2c, 0xbe, 0xa1, 0xec, 0x2f, 0xbe,
  0x33, 0x3c, 0x97, 0xbc, 0xfe, 0x8f, 0xac, 0xbd, 0xdf, 0xa8, 0x67, 0xbd,
  0x54, 0x75, 0x15, 0x3e, 0x86, 0xe2, 0x8d, 0xbd, 0x07, 0xeb, 0x09, 0x3d,
  0xf6, 0x95, 0x3f, 0xbd, 0x29, 0x19, 0xa6, 0x3e, 0xff, 0xac, 0x23, 0xbe,
  0xd4, 0x7d, 0x25, 0xbd, 0x9c, 0x96, 0x7a, 0x3e, 0x2d, 0x75, 0x3f, 0xbe,
  0x17, 0x85, 0x24, 0xbe, 0x67, 0xb3, 0x9a, 0xbe, 0x16, 0xb5, 0x55, 0x3c,
  0xd6, 0x64, 0x07, 0xbe, 0xdc, 0xc3, 0x0c, 0x3e, 0x61, 0x7e, 0xd9, 0x3d,
  0x05, 0x96, 0x8b, 0x3d, 0x20, 0xa6, 0xe5, 0xbc, 0x2d, 0xbf, 0x81, 0xbe,
  0x5a, 0x1d, 0xb3, 0x3c, 0x23, 0xf5, 0x6d, 0x3d, 0x2b, 0xc6, 0x82, 0xbd,
  0xa8, 0x3f, 0x6d, 0xbd, 0x02, 0x9a, 0xae, 0x3e, 0x37, 0xa5, 0x5b, 0xbe,
  0x50, 0x7d, 0x98, 0x3e, 0xf2, 0x0c, 0xab, 0x3c, 0xb5, 0xbf, 0xad, 0xbd,
  0x45, 0x41, 0xb3, 0x3d, 0xb0, 0x25, 0x34, 0x3e, 0xc4, 0xf0, 0xae, 0xbd,
  0xc8, 0x01, 0x39, 0x3e, 0x21, 0x14, 0x12, 0xbd, 0x65, 0x20, 0x36, 0x3e,
  0x76, 0x6a, 0x1c, 0x3e, 0x55, 0x06, 0x0d, 0x3e, 0xff, 0x39, 0x49, 0xbe,
  0x30, 0x6d, 0x4f, 0xbe, 0xf1, 0xed, 0x5f, 0x3e, 0x72, 0x60, 0xe2, 0x3d,
  0x73, 0x88, 0xdd, 0xbc, 0x4b, 0xf9, 0xa3, 0x3e, 0x9b, 0x03, 0xca, 0x3d,
  0x24, 0x6c, 0xc4, 0xbd, 0xa8, 0x04, 0x04, 0xbe, 0xc5, 0x98, 0x63, 0xbd,
  0x29, 0x80, 0x9f, 0x3e, 0x1c, 0x9f, 0x42, 0x3a, 0xc1, 0x9d, 0x41, 0x3c,
  0x44, 0xb2, 0xdd, 0x3d, 0xbe, 0x92, 0xcd, 0xbd, 0xff, 0xca, 0x1b, 0xbe,
  0x0e, 0x33, 0x8f, 0x3e, 0x1d, 0xed, 0xb7, 0x3d, 0xd9, 0xba, 0x01, 0xbf,
  0x27, 0x2d, 0xcb, 0x3d, 0xfc, 0xcd, 0x61, 0xbd, 0x72, 0x99, 0x10, 0x3e,
  0x22, 0x1d, 0xb8, 0xbc, 0xe4, 0x4e, 0x5f, 0xbd, 0x06, 0x1b, 0x99, 0x3e,
  0xcd, 0xdb, 0x0d, 0x3e, 0x83, 0x97, 0x15, 0xbd, 0xf3, 0xd8, 0xb8, 0x3e,
  0x48, 0xb9, 0xbb, 0x3d, 0x02, 0xf2, 0x4a, 0x3e, 0xe6, 0xdd, 0x0d, 0xbe,
  0x61, 0x1e, 0xad, 0x3d, 0x2c, 0x0a, 0x9b, 0xbd, 0x02, 0xee, 0x80, 0x3b,
  0x05, 0x71, 0x2f, 0x3e, 0xc6, 0xaf, 0x87, 0x3e, 0x07, 0x33, 0x9c, 0x3e,
  0x93, 0xa1, 0x18, 0x3e, 0x2e, 0x5c, 0xa0, 0xbd, 0xfb, 0xee, 0x82, 0x3e,
  0x9c, 0x89, 0xad, 0xbd, 0x7b, 0xee, 0xdc, 0x3b, 0xb6, 0xa4, 0x13, 0xbd,
  0xfc, 0xac, 0x74, 0x3e, 0x9c, 0x58, 0x1e, 0x3e, 0x0e, 0x68, 0x8f, 0x3e,
  0x53, 0x44, 0x89, 0x3e, 0x59, 0x25, 0x0e, 0x3e, 0x54, 0x5f, 0xd9, 0x3d,
  0x30, 0x7d, 0x97, 0x3d, 0xac, 0xb4, 0x12, 0xbc, 0x4d, 0x7c, 0x69, 0x3e,
  0xf0, 0x85, 0x92, 0x3e, 0xb6, 0xb3, 0x55, 0x3e, 0x7b, 0x3b, 0xad, 0x3d,
  0x9e, 0x51, 0x47, 0x3e, 0x60, 0x11, 0xb8, 0xbd, 0x06, 0x51, 0xd8, 0xbd,
  0xdb, 0xd5, 0x87, 0xbe, 0x92, 0xe8, 0xde, 0x3d, 0x4b, 0x6a, 0xd2, 0x3d,
  0x6e, 0x7f, 0x77, 0x3e, 0x25, 0x8a, 0xf8, 0xbd, 0xbc, 0xfb, 0x30, 0x3e,
  0xea, 0x1e, 0xfc, 0xbd, 0x67, 0x65, 0x02, 0xbd, 0x40, 0xb4, 0xcf, 0xb9,
  0x4b, 0x56, 0x51, 0xbd, 0x61, 0x17, 0x8a, 0x3e, 0xad, 0x3d, 0x2a, 0x3e,
  0x59, 0xaf, 0x8f, 0x3c, 0x72, 0x7b, 0x02, 0x3e, 0x72, 0x4d, 0xdd, 0xbd,
  0x13, 0xb9, 0xba, 0x3d, 0x54, 0x83, 0xc1, 0x3d, 0x0e, 0xc8, 0xcc, 0xbd,
  0x13, 0xa6, 0x0d, 0x3b, 0x93, 0xb7, 0x63, 0xbc, 0xea, 0xb4, 0xa0, 0x3c,
  0x5c, 0xf4, 0xb8, 0x3a, 0x2f, 0xf6, 0x04, 0x3e, 0xa7, 0xd5, 0x6f, 0xbe,
  0x79, 0xf8, 0x3b, 0x3e, 0x4c, 0x26, 0xa0, 0x3d, 0xd5, 0x1b, 0x80, 0x3e,
  0x49, 0x38, 0x5f, 0x3e, 0x9b, 0x04, 0xd8, 0x3d, 0xf4, 0x9e, 0xaf, 0x3d,
  0xef, 0x59, 0x4b, 0xbe, 0x62, 0xe8, 0x60, 0xbe, 0xa0, 0x67, 0xe4, 0xbd,
  0xa8, 0xef, 0xa1, 0x3d, 0x9b, 0x3a, 0x7f, 0xbd, 0xbe, 0x58, 0xc3, 0xbd,
  0x23, 0xed, 0x9e, 0x3d, 0x47, 0xce, 0x41, 0x3e, 0x46, 0xd5, 0x0d, 0xbe,
  0x0a, 0xac, 0xa0, 0xbc, 0xd5, 0xcd, 0x27, 0x3e, 0x64, 0xfe, 0x4d, 0x3e,
  0x4d, 0x33, 0x27, 0x3e, 0x72, 0xb1, 0x3e, 0x3e, 0x8d, 0xb8, 0xcc, 0xbb,
  0xe5, 0x0d, 0xa5, 0xbc, 0x94, 0x71, 0xfe, 0xbc, 0x4c, 0xd2, 0x2b, 0x3e,
  0x35, 0xdf, 0xe9, 0x3d, 0xf7, 0x11, 0x52, 0x3e, 0xae, 0xbb, 0x11, 0x3e,
  0x6d, 0x47, 0x3f, 0x3c, 0xf8, 0xc7, 0xa3, 0xbe, 0x2b, 0xed, 0x6a, 0x3d,
  0xdc, 0x5c, 0xae, 0xbd, 0x22, 0xe2, 0xad, 0xbc, 0x8f, 0xc0, 0x1a, 0xbe,
  0xb5, 0xaa, 0xa8, 0xbc, 0x59, 0xa7, 0x29, 0x3d, 0x0b, 0xee, 0x94, 0x3e,
  0x36, 0x6c, 0x8a, 0x3d, 0x32, 0x84, 0x88, 0x3d, 0xa6, 0xf9, 0xf6, 0x3d,
  0x4c, 0x7d, 0x31, 0xbd, 0xf4, 0xc8, 0x5d, 0x3e, 0xbc, 0x56, 0xc8, 0x3d,
  0x12, 0xb7, 0xd3, 0xbd, 0x7c, 0xcc, 0x78, 0xbe, 0x81, 0xd9, 0x9c, 0x3e,
  0xa0, 0xb4, 0x9d, 0x3c, 0xe0, 0x6b, 0xba, 0xbd, 0xd2, 0xf2, 0x07, 0x3e,
  0xf4, 0xec, 0x90, 0x3d, 0x68, 0xcb, 0xf4, 0xbd, 0x67, 0xd1, 0xc4, 0xbe,
  0x56, 0xed, 0xba, 0xbd, 0x72, 0x40, 0x07, 0xbe, 0xf5, 0x10, 0xd3, 0xbd,
  0xc7, 0x2b, 0xe7, 0x3d, 0x73, 0x1a, 0xb7, 0x3e, 0x0d, 0x14, 0xe1, 0x3c,
  0x93, 0x21, 0xa3, 0xbe, 0x41, 0xde, 0x8d, 0xbe, 0xfb, 0xb1, 0x90, 0xbe,
  0xdb, 0xaf, 0x3b, 0xbe, 0x42, 0xa0, 0xb5, 0xbe, 0x38, 0x42, 0x14, 0xbe,
  0xfb, 0xa6, 0x32, 0xbd, 0x85, 0x4a, 0x59, 0xbc, 0xd2, 0x84, 0x43, 0xbe,
  0xab, 0x4c, 0x41, 0xbd, 0xee, 0x2f, 0x94, 0x3d, 0xdf, 0x80, 0xeb, 0xbe,
  0x51, 0x4e, 0x84, 0xbe, 0x6c, 0x37, 0x90, 0xbd, 0x85, 0x92, 0x05, 0x3c,
  0xff, 0xaf, 0x18, 0x3e, 0x09, 0x63, 0x86, 0xbe, 0x1a, 0xcb, 0x3f, 0x3e,
  0x34, 0xc8, 0xd0, 0x3c, 0x02, 0xf9, 0xca, 0x3d, 0xe3, 0x2c, 0xca, 0xbc,
  0xe0, 0x06, 0x11, 0x3e, 0x69, 0xf2, 0x1b, 0xbd, 0x58, 0xc6, 0x70, 0xbd,
  0xc9, 0x9d, 0x44, 0xbe, 0x51, 0xc7, 0x40, 0xbe, 0x87, 0xf3, 0x09, 0xbd,
  0xd0, 0xd0, 0x3f, 0x3d, 0xe6, 0xc1, 0x31, 0x3e, 0x69, 0x17, 0x76, 0xbe,
  0x71, 0xfc, 0x15, 0xbe, 0xcb, 0x89, 0x22, 0xbe, 0x53, 0x1e, 0x37, 0xbe,
  0x94, 0xb0, 0x8c, 0xbe, 0xd2, 0x60, 0x83, 0x3c, 0x5d, 0xcd, 0x3a, 0xbd,
  0x29, 0x3b, 0x6c, 0xbe, 0x79, 0x2c, 0x36, 0xbe, 0x89, 0x73, 0xf5, 0xbd,
  0x50, 0xda, 0x45, 0x3e, 0xb4, 0xf2, 0x3f, 0xbe, 0x30, 0xfd, 0x2d, 0xbe,
  0x77, 0x61, 0xda, 0x3b, 0xd6, 0xba, 0x06, 0x3e, 0x63, 0x3a, 0xf9, 0x3d,
  0xe1, 0x5b, 0x31, 0x3e, 0x18, 0xea, 0xc3, 0x3d, 0x2d, 0x84, 0x1d, 0xbd,
  0x30, 0x67, 0x27, 0xbe, 0x03, 0x5b, 0xb0, 0x3c, 0xb9, 0x31, 0x85, 0x3e,
  0x64, 0x75, 0xc8, 0xbb, 0x94, 0x43, 0x39, 0x3e, 0x36, 0xee, 0x49, 0xbe,
  0xbc, 0xb8, 0xbb, 0xbd, 0xe5, 0x72, 0x50, 0x3c, 0x61, 0xd7, 0x19, 0xbe,
  0x2d, 0xa9, 0x3f, 0x3e, 0xc8, 0x5b, 0x26, 0xbe, 0xd2, 0xdb, 0x21, 0x3d,
  0x50, 0xf7, 0xb8, 0xba, 0x61, 0xad, 0x3b, 0x3e, 0x8f, 0x5b, 0x8d, 0x3c,
  0xe7, 0x32, 0x2d, 0x3c, 0xd8, 0xd8, 0x0c, 0x3e, 0x57, 0x2a, 0x3a, 0x3c,
  0x35, 0xff, 0x8c, 0x3c, 0xfd, 0x30, 0x55, 0x3e, 0xe5, 0xce, 0x5c, 0x3e,
  0x1e, 0x91, 0x6f, 0xbd, 0x78, 0x8f, 0xfd, 0xbd, 0x1e, 0xef, 0x90, 0x3c,
  0xd2, 0x28, 0x1e, 0xbe, 0x3c, 0x32, 0xae, 0xbc, 0xbc, 0x64, 0x50, 0xbe,
  0xf5, 0xcc, 0x63, 0xbc, 0x18, 0x00, 0x21, 0x3e, 0x0b, 0x10, 0x5f, 0x3e,
  0x87, 0x13, 0x2b, 0x3e, 0x12, 0x67, 0xe8, 0x3d, 0x34, 0x88, 0x22, 0xbe,
  0x04, 0x54, 0x94, 0xbe, 0xf7, 0xd2, 0x3f, 0x3e, 0xc3, 0x01, 0x55, 0xbd,
  0x59, 0x6c, 0x74, 0xbe, 0x65, 0xf8, 0x27, 0x3e, 0x83, 0xe6, 0x28, 0xbe,
  0x2f, 0x5b, 0x19, 0xbe, 0xfc, 0x87, 0xeb, 0x3c, 0xba, 0x0a, 0x64, 0x3d,
  0x81, 0xa0, 0xab, 0xbc, 0x37, 0xc2, 0x29, 0xbd, 0xd2, 0x11, 0xf2, 0xbd,
  0x89, 0xcc, 0x08, 0xbe, 0xdd, 0x48, 0x0b, 0xbe, 0x36, 0x60, 0x0b, 0xbe,
  0x4b, 0xdf, 0x02, 0xbe, 0x96, 0x82, 0x5c, 0x3d, 0xd6, 0x56, 0xf0, 0xbd,
  0x87, 0xb7, 0xa2, 0xbd, 0x3c, 0xbd, 0xd9, 0x3d, 0xbc, 0x78, 0xe5, 0x3d,
  0xde, 0x67, 0xeb, 0xbd, 0xa1, 0x6d, 0xa3, 0xbe, 0xb6, 0x33, 0x53, 0xbd,
  0x4e, 0x67, 0x0f, 0x3d, 0x06, 0x8d, 0xd4, 0xbd, 0x6c, 0xe8, 0x27, 0x3e,
  0x99, 0x41, 0x64, 0x3e, 0xbb, 0x8d, 0x3a, 0x3e, 0x6a, 0x7c, 0x54, 0x3c,
  0x40, 0xe8, 0xd5, 0xbd, 0xbd, 0x61, 0xd9, 0x3e, 0x25, 0x38, 0x84, 0x3d,
  0x83, 0x80, 0x92, 0x3e, 0x97, 0x75, 0xb5, 0x3d, 0xb7, 0xb7, 0xb7, 0xbe,
  0x45, 0x23, 0x3f, 0x3d, 0xa8, 0x3b, 0x17, 0xbe, 0x85, 0xbb, 0x68, 0x3e,
  0x5e, 0x0c, 0x9e, 0x3e, 0x14, 0xe4, 0x14, 0xbe, 0xb9, 0x25, 0xb0, 0x3e,
  0xc5, 0xa3, 0x1a, 0x3d, 0x24, 0x03, 0xdf, 0x3d, 0x99, 0x95, 0xeb, 0x3d,
  0x22, 0xde, 0xd9, 0xbd, 0xfc, 0x5f, 0x08, 0x3e, 0x5a, 0xd5, 0xb4, 0xbd,
  0x30, 0xd5, 0xc6, 0xbc, 0x85, 0xa6, 0x3c, 0x3d, 0x62, 0x19, 0x18, 0x3e,
  0x7b, 0xc4, 0x56, 0x3e, 0x10, 0x46, 0xd0, 0xbb, 0xae, 0x1f, 0xe5, 0xbd,
  0xff, 0xf7, 0x91, 0xbe, 0xb0, 0x39, 0x81, 0x3e, 0xac, 0x26, 0xef, 0x3d,
  0x3b, 0x2d, 0x9a, 0x3e, 0xfb, 0x69, 0x09, 0x3c, 0x88, 0x80, 0x4e, 0xbd,
  0x24, 0xc9, 0xc9, 0x3d, 0x48, 0x4b, 0x09, 0x3e, 0xf7, 0x10, 0xff, 0x3d,
  0x87, 0xe1, 0xb3, 0x3a, 0x35, 0x00, 0x44, 0xbd, 0x5e, 0x6d, 0x1d, 0x3e,
  0xa4, 0x24, 0x1b, 0x3e, 0x3e, 0xe4, 0xda, 0x3d, 0x61, 0x0a, 0xe6, 0x3d,
  0x7e, 0xf0, 0xa0, 0x3e, 0x97, 0xe2, 0x5e, 0x3e, 0xe1, 0x65, 0xa9, 0xbd,
  0xb0, 0xaa, 0x6d, 0x3d, 0xcc, 0xfe, 0xb3, 0x3e, 0x01, 0xaf, 0xec, 0xbb,
  0x55, 0xd2, 0xed, 0x3d, 0x7b, 0x96, 0x67, 0x3e, 0xb8, 0x8b, 0x9e, 0x3c,
  0x95, 0xa2, 0x7a, 0xbd, 0x8d, 0xc8, 0x78, 0x3e, 0xbc, 0x5a, 0xcb, 0x3e,
  0xef, 0x9c, 0x83, 0xbc, 0x29, 0x14, 0xe5, 0x3d, 0xc6, 0xf5, 0xe3, 0x3d,
  0x56, 0x79, 0x1d, 0xbd, 0x02, 0xce, 0xbb, 0x3d, 0xed, 0xdc, 0x3a, 0x3e,
  0x8a, 0x96, 0x87, 0x3d, 0x43, 0xce, 0x25, 0xbe, 0x48, 0x96, 0xa4, 0x3d,
  0xf4, 0xe5, 0x3a, 0x3e, 0x4f, 0x7e, 0x4e, 0x3e, 0x15, 0x30, 0x88, 0xbe,
  0x32, 0xc4, 0xec, 0xbd, 0x77, 0xe1, 0x5f, 0xbe, 0x76, 0xa2, 0x72, 0xbd,
  0x0e, 0x9d, 0xdc, 0x3c, 0x7e, 0x12, 0x2d, 0x3e, 0xb1, 0x11, 0x78, 0x3e,
  0xbe, 0xfa, 0xf5, 0xbd, 0x29, 0x25, 0x50, 0x3e, 0x5c, 0x19, 0xf6, 0xbd,
  0xf4, 0x58, 0x55, 0xbe, 0x70, 0x11, 0xd5, 0x3d, 0x42, 0xd8, 0xc3, 0xbd,
  0x9b, 0xac, 0x26, 0xbc, 0x76, 0xce, 0xd5, 0x3e, 0x6e, 0xc2, 0x16, 0x3e,
  0xde, 0x7f, 0x55, 0x3e, 0x6a, 0xf7, 0x92, 0x3d, 0x10, 0x75, 0x8d, 0x3d,
  0xbe, 0x7c, 0xa5, 0xbd, 0xe8, 0x10, 0x90, 0x3e, 0x77, 0x36, 0x60, 0x3e,
  0x27, 0x30, 0xb0, 0x3e, 0x56, 0xa1, 0x89, 0x3e, 0xdd, 0xb4, 0x94, 0x3b,
  0x99, 0xe2, 0x2a, 0x3d, 0x2c, 0x4b, 0xcd, 0x3d, 0xc4, 0xb0, 0x34, 0xbd,
  0xf7, 0x98, 0x9e, 0x3e, 0xeb, 0x76, 0x9f, 0x3d, 0x6f, 0x71, 0xac, 0x3c,
  0x32, 0xf0, 0xfc, 0xbd, 0x87, 0x6c, 0xc1, 0xba, 0x69, 0x4e, 0x41, 0x3e,
  0xad, 0xd6, 0x6b, 0x3e, 0x78, 0xc4, 0x6b, 0xbd, 0x6e, 0x70, 0x18, 0x3e,
  0x45, 0x7a, 0x3e, 0x3e, 0xa3, 0x3c, 0x83, 0x3d, 0xe0, 0xf8, 0xb4, 0x3c,
  0x66, 0x06, 0x2a, 0x3b, 0xd6, 0x61, 0xb9, 0xbd, 0x8c, 0x08, 0x11, 0xbe,
  0xb4, 0x94, 0x24, 0xbe, 0xcf, 0x48, 0x30, 0x3e, 0x29, 0x02, 0x95, 0x3e,
  0x3f, 0x23, 0x6d, 0x3d, 0xaa, 0xc2, 0xb0, 0x3d, 0xcf, 0x78, 0x97, 0xbc,
  0x47, 0x55, 0xb6, 0xbd, 0xe4, 0x04, 0x09, 0xbe, 0x25, 0x70, 0x15, 0xbd,
  0x64, 0xc6, 0xc7, 0xbd, 0xcf, 0x1f, 0x39, 0x3d, 0xbf, 0x73, 0x29, 0xbd,
  0xc3, 0x5c, 0x9b, 0xbd, 0x1a, 0xca, 0x02, 0xbd, 0xf4, 0x0d, 0x1e, 0xbd,
  0x92, 0x4d, 0x7e, 0xbd, 0xb1, 0x0d, 0xa7, 0xbd, 0xb7, 0xa6, 0x9f, 0xbd,
  0x8f, 0x7f, 0x3f, 0xbd, 0xf6, 0xf1, 0x80, 0x3e, 0x4d, 0xcd, 0xa0, 0x3d,
  0x05, 0x68, 0x11, 0xbe, 0xa2, 0x24, 0x8a, 0x3d, 0xcc, 0xb8, 0x80, 0xbd,
  0x88, 0x80, 0xa8, 0x3d, 0xf1, 0xaf, 0x77, 0x3d, 0x9f, 0x5a, 0x2a, 0xbd,
  0x71, 0x97, 0xc7, 0xbd, 0x8b, 0xe7, 0x62, 0xbc, 0x93, 0x02, 0xf3, 0x3d,
  0x28, 0x66, 0x7c, 0xba, 0x07, 0x53, 0x93, 0xbe, 0xf2, 0xe3, 0x2e, 0x3e,
  0xf5, 0x7c, 0x01, 0x3e, 0x91, 0xb7, 0x22, 0x3e, 0x98, 0x8b, 0x4b, 0x3d,
  0xd6, 0x23, 0x14, 0xbc, 0x8b, 0xc4, 0xa5, 0xbe, 0xc4, 0x3c, 0xed, 0xbd,
  0x19, 0x2c, 0xed, 0xbb, 0x53, 0xdd, 0x32, 0xbe, 0x3a, 0xb8, 0x70, 0x3d,
  0x97, 0x00, 0x3a, 0x3e, 0xc5, 0x78, 0x22, 0xbe, 0x6f, 0xe2, 0x0e, 0xbe,
  0xfb, 0x5f, 0x39, 0x3b, 0x54, 0x2b, 0xec, 0xbd, 0xb2, 0x46, 0x33, 0xbe,
  0x92, 0x25, 0x32, 0x3c, 0x76, 0x58, 0x03, 0x3d, 0xc8, 0x9b, 0xc6, 0x3d,
  0xfc, 0x72, 0x58, 0x3d, 0x74, 0x4d, 0xc6, 0xbc, 0x6c, 0x80, 0x86, 0xbe,
  0x57, 0x64, 0x79, 0x3d, 0xd1, 0xc7, 0x07, 0x3e, 0x75, 0x4e, 0xb3, 0x3d,
  0x0d, 0x14, 0x5f, 0xbd, 0x5f, 0x29, 0xdb, 0xbc, 0x75, 0x3c, 0xe2, 0x3c,
  0x44, 0x9a, 0x11, 0x3e, 0xba, 0x5a, 0x98, 0x3d, 0x37, 0x29, 0xc9, 0x3d,
  0x48, 0x7e, 0xca, 0x3c, 0x7e, 0xe5, 0x34, 0x3e, 0xe8, 0x79, 0x7d, 0xbd,
  0x9d, 0x90, 0x93, 0xbc, 0x9d, 0xc6, 0xec, 0xbd, 0xd8, 0x1d, 0xc2, 0xbd,
  0x24, 0x81, 0x99, 0x3e, 0xb5, 0x0b, 0x57, 0x3e, 0x50, 0x6f, 0x64, 0xbd,
  0xd9, 0x21, 0x31, 0x3e, 0x07, 0x21, 0x5b, 0x3e, 0x95, 0x07, 0x56, 0x3d,
  0x09, 0x5c, 0xab, 0xbd, 0x20, 0x84, 0x03, 0xbe, 0x42, 0x12, 0x07, 0xbe,
  0x73, 0xeb, 0xf5, 0x3c, 0x23, 0x8c, 0x61, 0xbe, 0xee, 0xca, 0x97, 0x3e,
  0x9c, 0x56, 0xb6, 0xbd, 0xd8, 0x34, 0xdc, 0x3d, 0x35, 0xe6, 0x62, 0xbd,
  0x14, 0xcb, 0x18, 0x3d, 0x7b, 0x8b, 0x48, 0xbe, 0xc2, 0x36, 0xaf, 0x3c,
  0xce, 0xe6, 0x09, 0x3c, 0xe6, 0x3d, 0xcc, 0x3e, 0x40, 0x6e, 0x34, 0x3e,
  0x1e, 0x51, 0x4f, 0x3d, 0x7b, 0x30, 0x9a, 0xbb, 0x1e, 0xb0, 0x7d, 0xbe,
  0x5e, 0x37, 0x80, 0xbd, 0x22, 0x14, 0x1a, 0xbe, 0x3d, 0xbb, 0xbc, 0xbe,
  0x21, 0x49, 0x19, 0xbd, 0x42, 0x3e, 0x26, 0x3e, 0xd5, 0x00, 0x84, 0xbe,
  0x90, 0xa7, 0x23, 0xbe, 0x4e, 0x7f, 0x59, 0xbe, 0x4e, 0xc5, 0xab, 0xbd,
  0xbf, 0x84, 0x58, 0xbe, 0x0c, 0xb8, 0x8c, 0xbe, 0x81, 0xa5, 0xcc, 0x3d,
  0x93, 0x8e, 0xc8, 0xbb, 0x39, 0x6d, 0x7e, 0xbd, 0x33, 0xff, 0x85, 0xbe,
  0xee, 0x72, 0x01, 0xbd, 0xc1, 0x1f, 0xd7, 0x3c, 0xc8, 0x42, 0x9a, 0x3d,
  0x0c, 0xc0, 0xa2, 0xbe, 0xe9, 0x1c, 0xe9, 0xbd, 0x4d, 0xba, 0x0d, 0x3e,
  0xa8, 0x3c, 0x37, 0x3e, 0x03, 0x97, 0x18, 0xbc, 0x1a, 0x24, 0x63, 0xbe,
  0x0f, 0x49, 0x29, 0xbc, 0xe2, 0x32, 0x97, 0xbe, 0x1f, 0xe5, 0x06, 0x3e,
  0xf6, 0x97, 0x7a, 0x3e, 0x62, 0x84, 0x9a, 0x3d, 0x24, 0xa3, 0xc4, 0x3e,
  0xf4, 0x30, 0x62, 0xbe, 0x9d, 0x6d, 0xe5, 0x3c, 0x3c, 0x2b, 0x91, 0xbd,
  0x34, 0x0d, 0x56, 0xbe, 0x1c, 0xa0, 0x87, 0xbe, 0x54, 0x25, 0x1e, 0x3d,
  0xc1, 0x00, 0x0c, 0x3d, 0x70, 0xa1, 0x06, 0x3e, 0x07, 0xdb, 0x76, 0x3d,
  0x57, 0x27, 0x41, 0xbe, 0x94, 0xd5, 0x0b, 0x3e, 0xa4, 0xd5, 0x26, 0xbe,
  0x36, 0x2b, 0xa5, 0xbd, 0x3b, 0x7f, 0x83, 0x3e, 0x05, 0x01, 0xac, 0xbd,
  0xa5, 0xce, 0x03, 0xbe, 0x08, 0xb8, 0x23, 0xbd, 0x2b, 0x37, 0x02, 0x3e,
  0x34, 0xa4, 0x0f, 0x3e, 0x5a, 0x64, 0x88, 0x3e, 0x59, 0x57, 0x4d, 0xbe,
  0x96, 0xe4, 0xff, 0xff, 0x04, 0x00, 0x00, 0x00, 0x00, 0x0a, 0x00, 0x00,
  0x61, 0xd9, 0x16, 0xbe, 0x90, 0xb5, 0x80, 0xbd, 0xc5, 0xea, 0x6c, 0xbc,
  0x32, 0xb7, 0x74, 0xbe, 0x79, 0xb9, 0xe7, 0xbd, 0x36, 0x9f, 0xfe, 0x3d,
  0x6e, 0x93, 0xb6, 0x3e, 0x71, 0x89, 0xc5, 0x3d, 0xfa, 0xc0, 0x02, 0xbf,
  0x4c, 0x0a, 0xb2, 0xbe, 0x4c, 0xd5, 0xd1, 0xbd, 0x02, 0x13, 0xbc, 0x3d,
  0xf0, 0xd5, 0xd9, 0x3d, 0xf0, 0x97, 0x48, 0x3d, 0x47, 0xae, 0x87, 0xbd,
  0xf0, 0x1b, 0x6d, 0x3e, 0x9f, 0x35, 0x0e, 0xbe, 0x75, 0x06, 0xdb, 0xbe,
  0x38, 0x7a, 0x8c, 0x3e, 0x86, 0x6b, 0x6f, 0x3e, 0xf4, 0xe4, 0x06, 0x3e,
  0x14, 0xf6, 0x87, 0x3e, 0xb1, 0x57, 0x8e, 0x3e, 0xf8, 0xd5, 0x9c, 0x3d,
  0xb7, 0x8d, 0xd9, 0xbe, 0xb4, 0xfe, 0x43, 0xbe, 0x98, 0xfb, 0xaf, 0xbe,
  0xd8, 0xc4, 0x9a, 0x3e, 0x30, 0x30, 0xa8, 0xbd, 0x54, 0x6b, 0x8d, 0x3d,
  0x3e, 0xbe, 0x93, 0xbe, 0xd6, 0x1f, 0x2e, 0x3e, 0x96, 0x89, 0x33, 0xbd,
  0xe7, 0x59, 0xee, 0x3c, 0x33, 0x94, 0xaa, 0xbe, 0xe7, 0x92, 0x9c, 0xbe,
  0x5e, 0xe9, 0xc5, 0xbd, 0x83, 0x06, 0x99, 0xbe, 0xc5, 0xc6, 0x66, 0x3e,
  0x7b, 0xf1, 0x77, 0x3d, 0x4b, 0x5a, 0x20, 0xbf, 0xa3, 0x22, 0x38, 0xbd,
  0x29, 0xf3, 0x25, 0xbe, 0x32, 0x06, 0x45, 0x3e, 0x43, 0x71, 0x14, 0xbe,
  0x88, 0x4a, 0x5a, 0x3d, 0xe6, 0x3c, 0x07, 0x3e, 0x38, 0x87, 0xb8, 0xbd,
  0xee, 0x24, 0xc6, 0xbe, 0x7a, 0xc5, 0xf6, 0xbd, 0x0d, 0x78, 0x44, 0xbe,
  0x71, 0xc4, 0x9d, 0xbe, 0x30, 0x49, 0x89, 0x3d, 0x1a, 0x30, 0xd8, 0xbd,
  0x9a, 0xef, 0x8b, 0xbe, 0x56, 0xe1, 0xb1, 0xbd, 0xc6, 0xc6, 0xa1, 0xbd,
  0xe5, 0x99, 0xec, 0x3d, 0x2d, 0x75, 0xc7, 0xbe, 0x2d, 0xd2, 0x05, 0xbe,
  0x76, 0xf4, 0xa4, 0x3c, 0x0b, 0x2f, 0x07, 0xbc, 0x1e, 0x53, 0x5f, 0xbe,
  0x81, 0xa4, 0xb5, 0xbd, 0x62, 0x33, 0x11, 0xbe, 0xc3, 0x55, 0xb2, 0x3e,
  0xbb, 0x52, 0xa7, 0x3c, 0xce, 0x90, 0x46, 0x3e, 0xdf, 0x20, 0x4b, 0xbe,
  0x15, 0x10, 0x07, 0xbe, 0x56, 0x00, 0x80, 0xbe, 0x52, 0x7a, 0x8b, 0xbe,
  0x40, 0x1e, 0x6a, 0x3e, 0x3d, 0x37, 0x1c, 0x3e, 0x30, 0x64, 0xbc, 0x3e,
  0xea, 0xc3, 0x09, 0x3f, 0xc8, 0xf4, 0xbe, 0x3e, 0xb5, 0x00, 0xf8, 0x3d,
  0xd2, 0xed, 0x85, 0xbe, 0x04, 0x77, 0xc5, 0x3c, 0xb9, 0x1f, 0x57, 0x3e,
  0x6e, 0xea, 0x6d, 0x3e, 0x65, 0x24, 0x16, 0x3c, 0x71, 0xb5, 0x3a, 0x3e,
  0x7a, 0xe6, 0x21, 0xbd, 0x48, 0xf6, 0x12, 0x3e, 0xbc, 0x05, 0x0b, 0xbc,
  0x13, 0x28, 0x54, 0xbe, 0x54, 0x5b, 0xda, 0x3d, 0x87, 0xa9, 0xab, 0xbc,
  0x83, 0xb6, 0xb4, 0x3e, 0x92, 0xfa, 0x03, 0xbe, 0x78, 0x89, 0x86, 0x3e,
  0x74, 0xe7, 0xad, 0x3d, 0xcc, 0x1a, 0xef, 0x3c, 0x55, 0x15, 0x62, 0xbe,
  0x98, 0x53, 0x16, 0x3e, 0x97, 0x6d, 0xc2, 0x3e, 0xc1, 0x9a, 0x37, 0x3d,
  0x21, 0xa7, 0x8b, 0x3e, 0x08, 0x23, 0x9c, 0xbd, 0xcc, 0x13, 0x13, 0xbd,
  0x30, 0x72, 0x89, 0xbe, 0x11, 0x69, 0xe7, 0x3d, 0x45, 0x8e, 0x81, 0x3e,
  0x4c, 0xbb, 0xb9, 0x3e, 0x7b, 0x45, 0x9c, 0x3e, 0x7e, 0x1c, 0x27, 0x3e,
  0x7e, 0xcc, 0x7a, 0x3e, 0x1f, 0x34, 0xe8, 0xbd, 0x00, 0x9f, 0x22, 0xbe,
  0x36, 0x85, 0x20, 0xbe, 0xe5, 0xaf, 0x8b, 0x3e, 0x2b, 0x54, 0xc4, 0x3e,
  0x73, 0xd8, 0xab, 0x3e, 0x7e, 0xfd, 0xce, 0x3d, 0x87, 0xc1, 0x8b, 0xbc,
  0x65, 0x04, 0x91, 0xbc, 0x5a, 0xad, 0x8c, 0xbe, 0x59, 0xf7, 0xbb, 0xbd,
  0xf7, 0xc2, 0x96, 0x3d, 0x27, 0xbe, 0xa2, 0x3d, 0x85, 0xe2, 0x48, 0x3e,
  0x88, 0x23, 0x02, 0xbd, 0x07, 0xef, 0x4c, 0x3d, 0xa7, 0x4c, 0x5b, 0xbe,
  0xbe, 0x1a, 0xd5, 0xbd, 0xfc, 0x38, 0x7c, 0xbe, 0xc8, 0xbc, 0x0f, 0x3e,
  0x20, 0x0b, 0x37, 0x3e, 0x3e, 0xb9, 0xdd, 0x3d, 0x8e, 0x46, 0x92, 0x3d,
  0x36, 0x23, 0x89, 0xbd, 0x23, 0x82, 0xa4, 0xbd, 0xb4, 0xdd, 0x2b, 0xbe,
  0xb9, 0x23, 0x2c, 0xbe, 0xe2, 0x6d, 0x1a, 0xbd, 0xd6, 0x11, 0xa6, 0x3e,
  0xbc, 0xe7, 0x20, 0xbd, 0xac, 0x38, 0xe0, 0x3e, 0xa4, 0x20, 0x0c, 0xbe,
  0xe3, 0xe0, 0x11, 0x3e, 0x07, 0xb3, 0x0a, 0x3e, 0xeb, 0x6a, 0xe5, 0x3c,
  0xb8, 0x19, 0x4f, 0x3d, 0x1c, 0x22, 0x99, 0xbd, 0x91, 0xc8, 0xbd, 0x3d,
  0x1c, 0xad, 0x95, 0x3e, 0x44, 0x73, 0xe9, 0x3d, 0x72, 0x3c, 0x24, 0xbd,
  0x7e, 0xe2, 0x3d, 0xbc, 0xe0, 0xc7, 0x25, 0xbd, 0xa4, 0x83, 0x2e, 0xbe,
  0x6f, 0xbc, 0x05, 0xbe, 0xb7, 0x6f, 0x60, 0x3e, 0x50, 0x61, 0xd9, 0xbc,
  0x82, 0xfa, 0x93, 0x3e, 0xed, 0x59, 0x94, 0xbc, 0x36, 0x93, 0xdc, 0xbd,
  0x38, 0xac, 0x12, 0x3e, 0xad, 0xdb, 0xc4, 0xbd, 0xb5, 0xc5, 0x8c, 0x3d,
  0x3d, 0x65, 0x9b, 0x3e, 0xf7, 0xa3, 0x07, 0x3d, 0xf8, 0x58, 0xda, 0xbd,
  0x4e, 0xb9, 0xc4, 0xbc, 0x72, 0x67, 0xdc, 0x3d, 0x95, 0xa5, 0x0c, 0xbe,
  0xb0, 0xc3, 0xd2, 0x3d, 0x62, 0xc0, 0x9c, 0xbc, 0x4a, 0x95, 0x1b, 0x3e,
  0x8b, 0x93, 0xd5, 0xbb, 0xb2, 0x5e, 0x68, 0x3e, 0x1f, 0x27, 0x22, 0x3e,
  0x71, 0xba, 0x64, 0x3e, 0x91, 0xfe, 0x35, 0x3b, 0x7b, 0x47, 0xea, 0x3d,
  0x05, 0x87, 0x5c, 0x3e, 0xa4, 0x5f, 0x92, 0x3e, 0xed, 0x0c, 0xf0, 0x3a,
  0x67, 0xeb, 0xd0, 0x3d, 0xdd, 0x37, 0x23, 0xbe, 0x11, 0x9f, 0x67, 0x3e,
  0x5a, 0xc1, 0x3b, 0x3d, 0x30, 0x85, 0x66, 0xbd, 0xac, 0x1e, 0x6d, 0x3d,
  0xff, 0x40, 0x2d, 0xbd, 0x79, 0xe6, 0x2a, 0x3e, 0xc5, 0x77, 0xcd, 0xbd,
  0x95, 0xcd, 0x51, 0x3e, 0x02, 0x60, 0x21, 0xbc, 0x6a, 0x66, 0x89, 0xbc,
  0x9e, 0x47, 0x54, 0x3e, 0xfc, 0x1d, 0xb0, 0xbc, 0x0d, 0x7f, 0x3b, 0x3e,
  0xd3, 0x02, 0xb3, 0x3e, 0x35, 0x92, 0x45, 0x3e, 0x45, 0x31, 0x45, 0xbd,
  0xa7, 0xb5, 0x82, 0xbe, 0x78, 0xf6, 0xa2, 0xbd, 0x26, 0x2f, 0xe3, 0x3e,
  0x00, 0xca, 0x92, 0x3e, 0x2e, 0x48, 0x94, 0x3d, 0x5f, 0x5d, 0xb4, 0x3e,
  0x75, 0xca, 0x93, 0x3e, 0x89, 0x73, 0x1a, 0x3b, 0x4c, 0x61, 0x05, 0x3e,
  0x2d, 0x71, 0x6f, 0xbd, 0xff, 0x15, 0x6e, 0x3d, 0x58, 0xdc, 0xa7, 0x3e,
  0x2e, 0x98, 0x85, 0xbd, 0xc7, 0x2d, 0x36, 0x3e, 0x85, 0x09, 0x6a, 0xbe,
  0x0f, 0x62, 0x10, 0x3e, 0x49, 0xf0, 0x07, 0xbd, 0xa9, 0x4b, 0x66, 0xbe,
  0x96, 0x07, 0xc1, 0x3e, 0x36, 0xa6, 0x16, 0xbc, 0x04, 0x52, 0x59, 0x3e,
  0xe5, 0xc9, 0x2a, 0xbe, 0x9b, 0xfb, 0x90, 0x3d, 0x6b, 0x25, 0x5a, 0x3e,
  0x5a, 0xbd, 0x0a, 0x3e, 0x52, 0xe2, 0x5c, 0xbe, 0x38, 0x50, 0x01, 0x3f,
  0xd3, 0xa5, 0x83, 0x3e, 0xb7, 0xfd, 0xc1, 0x3d, 0x75, 0x25, 0x7c, 0x3e,
  0x27, 0x74, 0x28, 0xbe, 0x70, 0x9c, 0xf9, 0xbb, 0x34, 0x26, 0xec, 0xba,
  0x82, 0x0e, 0xb3, 0x3d, 0xc9, 0x59, 0x88, 0x3e, 0xf8, 0xc7, 0x29, 0x3d,
  0x74, 0x80, 0x73, 0x3e, 0xd6, 0x9f, 0x43, 0xbe, 0xe0, 0xdb, 0x05, 0x3e,
  0xb0, 0x35, 0x0b, 0xbd, 0x18, 0x4e, 0xfe, 0x3d, 0xda, 0x51, 0xac, 0xbd,
  0x46, 0x3e, 0x4c, 0x3d, 0xa3, 0xf8, 0x24, 0x3e, 0x67, 0x6f, 0xaf, 0x3d,
  0x23, 0xdd, 0x24, 0x3e, 0x28, 0xa6, 0x86, 0xbd, 0xb7, 0x09, 0xb0, 0xbc,
  0xb2, 0x14, 0xf2, 0xbd, 0xfb, 0x9a, 0x1d, 0xbe, 0xee, 0xff, 0xa9, 0x3e,
  0xb1, 0x07, 0x07, 0xbc, 0xea, 0x82, 0xb6, 0x3d, 0x38, 0x41, 0xf8, 0x3a,
  0x27, 0x1f, 0x1c, 0x3e, 0x5f, 0x13, 0x6e, 0xbe, 0x0f, 0x63, 0x10, 0xbe,
  0xbc, 0x9b, 0x37, 0x3d, 0x32, 0x30, 0xfe, 0x3e, 0x19, 0x1e, 0x28, 0x3e,
  0x88, 0xd1, 0x38, 0x3e, 0xd6, 0x53, 0xa4, 0xbd, 0x9c, 0xf2, 0x75, 0xbe,
  0x62, 0xe4, 0xbb, 0xbe, 0x89, 0x6a, 0x65, 0xbe, 0x09, 0xde, 0x36, 0x3d,
  0x02, 0x6e, 0xc9, 0x3e, 0xa2, 0x82, 0x8f, 0x3e, 0xdc, 0xad, 0xb5, 0x3e,
  0x4e, 0xde, 0x97, 0x3e, 0x78, 0xe2, 0xae, 0x3c, 0x53, 0xb8, 0x4b, 0xbe,
  0xcb, 0x53, 0x13, 0xbe, 0xae, 0x2a, 0xaf, 0x3d, 0xee, 0x1b, 0x6b, 0x3e,
  0x61, 0x0a, 0x0c, 0x3f, 0xe2, 0x3c, 0xfd, 0x3e, 0xcf, 0xfc, 0xb3, 0x3e,
  0x61, 0xcb, 0x43, 0x3e, 0x95, 0x9f, 0x0d, 0xbe, 0x01, 0x58, 0x8c, 0xbd,
  0x23, 0x18, 0xf8, 0x3e, 0x2f, 0x0e, 0x44, 0x3e, 0x68, 0x10, 0x48, 0x3e,
  0xd0, 0xff, 0xc2, 0x3e, 0xd3, 0x35, 0x46, 0x3e, 0x8c, 0xcd, 0xb2, 0x3e,
  0x35, 0x47, 0x04, 0xbd, 0x39, 0x33, 0x90, 0xbe, 0x91, 0xa1, 0x30, 0xbe,
  0x5a, 0x41, 0x99, 0x3c, 0x3e, 0x46, 0x59, 0xb9, 0xbb, 0xf4, 0xa3, 0x3e,
  0x09, 0xfa, 0xa8, 0x3c, 0x56, 0x95, 0x2e, 0xbd, 0xf2, 0x63, 0x71, 0xbe,
  0x7b, 0xd9, 0x34, 0xbe, 0x8b, 0x41, 0x24, 0x3e, 0xb2, 0xca, 0x18, 0x3e,
  0x1e, 0x21, 0x52, 0xbe, 0xa3, 0xd6, 0xd6, 0x3d, 0x8f, 0x0f, 0x1c, 0x3e,
  0x45, 0x34, 0x38, 0x3e, 0x89, 0xdd, 0x83, 0x3d, 0x4a, 0x02, 0x1a, 0xbe,
  0xd3, 0xc8, 0x9f, 0x3e, 0x4f, 0x9b, 0x04, 0x3e, 0x25, 0xa4, 0xb1, 0xbd,
  0x66, 0xe2, 0x32, 0x3e, 0x9d, 0x92, 0x10, 0xbe, 0x63, 0xc9, 0x0c, 0xbe,
  0x54, 0xba, 0xae, 0xbd, 0x8a, 0x94, 0x0d, 0xbe, 0x1f, 0x64, 0x41, 0x3e,
  0x7a, 0x75, 0xb3, 0xba, 0x7b, 0x5f, 0x27, 0xbe, 0xc0, 0xcb, 0x19, 0xbc,
  0x86, 0x28, 0x5e, 0xbd, 0x75, 0x19, 0x9c, 0xbd, 0x4c, 0x33, 0x59, 0x3e,
  0xd3, 0x3a, 0x14, 0x3e, 0xca, 0xb1, 0xc4, 0xbd, 0xb6, 0x4f, 0x01, 0xbe,
  0x64, 0xe0, 0x9e, 0x3e, 0x14, 0x62, 0x56, 0x3e, 0x7f, 0xd9, 0x56, 0x3e,
  0xc7, 0x60, 0xce, 0x3e, 0x44, 0x83, 0x1f, 0x3d, 0xa0, 0x36, 0xe9, 0x3e,
  0x9f, 0xff, 0x2e, 0x3e, 0x82, 0x5e, 0x2d, 0x3e, 0x81, 0x22, 0xd1, 0x3d,
  0x57, 0xc6, 0x42, 0xbd, 0xc0, 0x67, 0x28, 0x3e, 0xdb, 0xfa, 0x9d, 0x3e,
  0x32, 0x01, 0xa1, 0x3e, 0x99, 0x4c, 0x9a, 0x3e, 0x3e, 0xf3, 0x42, 0x3e,
  0x37, 0xbc, 0x87, 0x3e, 0x3c, 0x69, 0xd1, 0xbc, 0xfc, 0xfd, 0x4d, 0x3e,
  0xa8, 0x18, 0x48, 0x3e, 0x8e, 0x1c, 0xeb, 0x3d, 0x00, 0xdc, 0xbd, 0x3e,
  0xcb, 0x2d, 0x2d, 0xbc, 0xac, 0xcf, 0x18, 0x3e, 0xa3, 0x62, 0x88, 0x3d,
  0x32, 0x56, 0x01, 0xbe, 0xf7, 0xc9, 0x89, 0x3b, 0x8b, 0xa0, 0x64, 0xbd,
  0x76, 0x35, 0x19, 0xbe, 0xf9, 0x2f, 0x95, 0x3e, 0x1a, 0xf6, 0x35, 0xbe,
  0x6c, 0xa2, 0x07, 0xbc, 0x09, 0xcf, 0x99, 0x3e, 0xde, 0x66, 0x3d, 0x3e,
  0xac, 0x84, 0xd2, 0x3d, 0x45, 0xad, 0x6b, 0x3d, 0x0b, 0xb9, 0xb1, 0x3e,
  0x68, 0x5f, 0x78, 0x3e, 0x05, 0xc9, 0x3d, 0x3d, 0x6e, 0x68, 0x84, 0x3e,
  0x3b, 0x00, 0x32, 0x3e, 0xd1, 0xca, 0x00, 0x3e, 0x7e, 0x63, 0xdb, 0x3d,
  0xca, 0x8d, 0x98, 0x3c, 0xd7, 0x7f, 0x7a, 0x3d, 0x14, 0x8a, 0xe6, 0x3d,
  0xf8, 0x9f, 0x1a, 0xbe, 0x1e, 0x8e, 0x3b, 0x3e, 0x57, 0x5d, 0xf7, 0x3d,
  0xd4, 0xc4, 0x19, 0xbb, 0x2c, 0xcf, 0x97, 0xbd, 0x9f, 0xe4, 0x49, 0xbc,
  0xe2, 0xb4, 0xec, 0x3c, 0x3d, 0xcc, 0x61, 0x3e, 0x82, 0xba, 0x11, 0xbb,
  0xc9, 0x95, 0x8c, 0x3e, 0x7f, 0xf6, 0x46, 0x3e, 0x66, 0xf4, 0xaa, 0x3e,
  0x49, 0x1e, 0x92, 0x3d, 0xe7, 0x5b, 0x56, 0x3e, 0xa8, 0x77, 0x23, 0x3e,
  0x60, 0x20, 0x40, 0x3e, 0xb9, 0xb5, 0x61, 0x3e, 0x8b, 0xc7, 0xc7, 0x3e,
  0x54, 0x29, 0x93, 0x3e, 0x5f, 0xbb, 0xcb, 0xbd, 0x10, 0xb6, 0x77, 0x3d,
  0x47, 0x9b, 0xb5, 0x3d, 0x72, 0x9b, 0x70, 0x3e, 0xff, 0x25, 0xee, 0xbd,
  0x16, 0x65, 0x4b, 0x3e, 0x39, 0xeb, 0xb4, 0xbd, 0x5b, 0x36, 0x42, 0x3e,
  0xff, 0xcf, 0xb6, 0x3c, 0x17, 0x60, 0x2e, 0xbe, 0x97, 0x53, 0x4e, 0x3e,
  0x7a, 0xc4, 0x58, 0xbe, 0xc9, 0xbd, 0x74, 0xbd, 0x08, 0x61, 0x9f, 0x3e,
  0x29, 0xc6, 0xe4, 0xbd, 0xf6, 0xd6, 0x3c, 0xbe, 0xee, 0xb0, 0xf2, 0xbd,
  0x13, 0x12, 0x98, 0xbd, 0x84, 0xd1, 0xf0, 0xbd, 0x0d, 0xbe, 0xa0, 0xbd,
  0x00, 0x7a, 0x3c, 0xbd, 0x02, 0x4f, 0xcc, 0x3d, 0x67, 0x5f, 0x4e, 0x3e,
  0x4a, 0x06, 0x25, 0x3d, 0x76, 0x5d, 0x8c, 0x3c, 0x68, 0x33, 0xd3, 0x3d,
  0x9b, 0x3d, 0x68, 0x3e, 0x6e, 0x7f, 0xce, 0x3c, 0x7e, 0xf6, 0x73, 0x3d,
  0x4d, 0x35, 0x08, 0x3b, 0xb9, 0x28, 0x56, 0x3c, 0xc6, 0xa4, 0x66, 0x3d,
  0x2e, 0xa2, 0x5b, 0xbe, 0x45, 0x83, 0x35, 0xbe, 0xf2, 0xce, 0x0a, 0x3e,
  0xfb, 0xfb, 0x1b, 0x3e, 0x13, 0xfa, 0x2b, 0x3e, 0xcd, 0x67, 0x31, 0xbe,
  0x80, 0xbc, 0x13, 0x3e, 0xa1, 0x6a, 0x8b, 0x3d, 0xc6, 0xf5, 0x58, 0xbe,
  0x89, 0x05, 0xf8, 0xbc, 0x0f, 0xe8, 0x17, 0x3e, 0xc0, 0x3a, 0xa0, 0x3d,
  0xdb, 0x98, 0x3b, 0x3e, 0x29, 0x83, 0xc7, 0x3d, 0x25, 0x78, 0x91, 0x3e,
  0x6c, 0x62, 0x2b, 0x3e, 0xa1, 0x03, 0x20, 0x3e, 0xb6, 0x36, 0x2a, 0x3e,
  0x36, 0x81, 0x63, 0x3d, 0x5a, 0x31, 0x78, 0xbd, 0xc0, 0x4d, 0x95, 0xbe,
  0x05, 0xe4, 0xf9, 0x3d, 0x0c, 0x93, 0x27, 0x3c, 0x61, 0x62, 0x10, 0x3a,
  0x5f, 0x57, 0x18, 0x3d, 0x19, 0xd9, 0xda, 0x3d, 0x09, 0xd0, 0xa5, 0xbd,
  0x32, 0x32, 0x81, 0x3e, 0x69, 0x62, 0x02, 0xbe, 0x29, 0xd9, 0x38, 0xbe,
  0x9b, 0x2f, 0xae, 0x3e, 0x63, 0x48, 0x7b, 0x3d, 0x8d, 0xac, 0x79, 0x3e,
  0x92, 0xb9, 0xe3, 0x3d, 0x5d, 0xd1, 0x9c, 0x3e, 0xd3, 0x3b, 0x1d, 0x3d,
  0xc6, 0xb0, 0x41, 0x3e, 0x57, 0xc9, 0x39, 0x3e, 0x08, 0x4f, 0x09, 0xbe,
  0x37, 0x45, 0xbd, 0x3e, 0xde, 0x65, 0x21, 0xbd, 0x3a, 0x9c, 0x0b, 0x3e,
  0xd5, 0x37, 0xc9, 0x3e, 0xc3, 0x4b, 0x78, 0x3e, 0x75, 0xa2, 0x36, 0xbc,
  0xd5, 0x1b, 0x31, 0xbd, 0xdb, 0xf2, 0x82, 0xbc, 0xbd, 0xbb, 0xa8, 0x3e,
  0xee, 0xab, 0x84, 0x3e, 0x53, 0x47, 0xd7, 0x3c, 0x9e, 0x8c, 0x20, 0x3c,
  0xd8, 0x6f, 0x6e, 0x3e, 0x8f, 0x28, 0x56, 0xbd, 0x4c, 0x4d, 0x1b, 0xbd,
  0x29, 0xb4, 0x31, 0xbd, 0x5a, 0xaf, 0x22, 0x3d, 0xa9, 0x28, 0xd2, 0x3d,
  0xff, 0xaf, 0x10, 0x3e, 0x7f, 0xa1, 0x34, 0xbe, 0xfe, 0xa3, 0x9d, 0x3e,
  0x24, 0x29, 0x10, 0x3e, 0xd4, 0xa9, 0x0f, 0x3e, 0xa8, 0x13, 0xa1, 0xbe,
  0x1d, 0x9c, 0xb5, 0x3e, 0x64, 0xbb, 0x84, 0x3e, 0xa6, 0x86, 0x3e, 0x3e,
  0x74, 0x5b, 0xc2, 0x3d, 0x0e, 0xf6, 0x81, 0x3d, 0x7d, 0x1c, 0x64, 0x3e,
  0xc6, 0x45, 0x30, 0x3c, 0x24, 0x2e, 0x65, 0xbe, 0xf2, 0x6e, 0xa0, 0xbc,
  0x51, 0xe9, 0xff, 0xbb, 0x05, 0x60, 0xf3, 0xba, 0x42, 0x6d, 0x38, 0x3e,
  0xb0, 0xc0, 0xa2, 0xbd, 0x6c, 0xa4, 0x5a, 0xbd, 0x1d, 0xbb, 0x41, 0xbe,
  0x82, 0xc5, 0x6d, 0xbe, 0xed, 0x23, 0xbe, 0x3c, 0x4a, 0x9f, 0xd1, 0xbd,
  0xf2, 0x58, 0x14, 0xbd, 0xf4, 0x95, 0x5b, 0x3e, 0x52, 0xca, 0x05, 0xbe,
  0x93, 0x37, 0x1c, 0xbe, 0xec, 0xd3, 0x73, 0xbe, 0x36, 0x40, 0x45, 0xbe,
  0x84, 0x07, 0xd3, 0x3d, 0x3d, 0x8d, 0xe7, 0x3d, 0x19, 0x91, 0x71, 0x3e,
  0x4c, 0x99, 0xa1, 0x3d, 0x2e, 0x22, 0x16, 0x3e, 0xf8, 0xd9, 0x0c, 0xbe,
  0x48, 0x8a, 0xe2, 0xbd, 0x14, 0xcf, 0x99, 0xbe, 0x71, 0xa4, 0xd1, 0x3e,
  0xaa, 0x56, 0x9a, 0x3e, 0x4a, 0xc5, 0x6a, 0xbc, 0x57, 0x1c, 0xc7, 0xbb,
  0x48, 0x65, 0x03, 0x3e, 0x3d, 0x3f, 0x7d, 0x3e, 0x52, 0xa1, 0xa2, 0x3e,
  0x80, 0x7e, 0x0b, 0xbe, 0x2a, 0xad, 0x9b, 0x3e, 0x91, 0x15, 0x28, 0x3e,
  0xd1, 0x4b, 0x3e, 0x3d, 0xc0, 0x84, 0x97, 0x3d, 0x18, 0xd5, 0x4a, 0x3e,
  0xe8, 0x1b, 0x01, 0xbe, 0xc1, 0x06, 0x58, 0x3e, 0xc6, 0x0f, 0x8a, 0xbe,
  0x98, 0xbb, 0xaa, 0x3e, 0xb3, 0xd3, 0xce, 0x3e, 0x51, 0x32, 0x32, 0x3d,
  0x53, 0x88, 0x4e, 0x3e, 0xd6, 0x42, 0x7e, 0xbd, 0x14, 0xdb, 0xd3, 0x3d,
  0x2b, 0x8e, 0x11, 0x3e, 0x2b, 0xf9, 0xe2, 0xbb, 0x9c, 0xe0, 0xac, 0x3e,
  0xea, 0xe5, 0xc0, 0xbd, 0x74, 0xa6, 0xdf, 0xbd, 0x7c, 0x22, 0x16, 0x3c,
  0xed, 0x7d, 0x4f, 0x3e, 0xbc, 0x34, 0xd7, 0xbb, 0xcb, 0xe2, 0xf4, 0x3d,
  0x80, 0x1d, 0x03, 0x3d, 0xf4, 0x30, 0xbb, 0xbd, 0x59, 0x53, 0xdf, 0x3c,
  0xd5, 0xe0, 0x8c, 0xbc, 0x4f, 0x0e, 0x9e, 0x3e, 0xc4, 0x8b, 0x65, 0x3e,
  0xb3, 0xf6, 0xc8, 0x3c, 0x0e, 0x1a, 0x1c, 0xbc, 0x27, 0x92, 0x81, 0xbe,
  0x01, 0xb5, 0xcf, 0x3e, 0x9a, 0x0b, 0x4d, 0x3e, 0xbc, 0x19, 0xad, 0x3e,
  0x05, 0x8d, 0xfa, 0xbd, 0x14, 0x01, 0x07, 0xbd, 0x6d, 0xe3, 0x8a, 0xbe,
  0x45, 0x45, 0x13, 0x3e, 0x67, 0x33, 0xe3, 0xbd, 0x05, 0xcb, 0xce, 0x3d,
  0x2f, 0x70, 0x33, 0x3d, 0x2f, 0xdf, 0x06, 0x3e, 0x55, 0x10, 0x84, 0x3d,
  0x82, 0xb7, 0xd1, 0x3d, 0x80, 0x39, 0x09, 0x3e, 0xc5, 0xdf, 0x46, 0xbc,
  0x53, 0xf8, 0x24, 0xbe, 0x9c, 0x88, 0xa0, 0xbb, 0xa7, 0x36, 0x6c, 0x3e,
  0x11, 0x04, 0x9b, 0x3e, 0x24, 0xf0, 0x2a, 0xbe, 0xea, 0xa4, 0x85, 0xbd,
  0x5e, 0xce, 0x19, 0xbe, 0xf9, 0x8e, 0x12, 0xbc, 0x43, 0x68, 0x45, 0xbe,
  0x89, 0x68, 0x57, 0xbe, 0x54, 0xfe, 0x0b, 0xbd, 0x45, 0xc7, 0x10, 0x3e,
  0xd7, 0x41, 0x16, 0x3c, 0x82, 0xcc, 0x0f, 0x3e, 0x3e, 0x8e, 0x52, 0xbc,
  0xe5, 0xdb, 0x58, 0x3e, 0xca, 0xe1, 0x85, 0x3d, 0x8f, 0xd9, 0xd3, 0x3d,
  0x2e, 0x77, 0x4e, 0xbe, 0x1b, 0x59, 0x97, 0xbe, 0xf9, 0xd7, 0xa1, 0xbe,
  0x22, 0x6f, 0x06, 0xbe, 0x43, 0x8c, 0x04, 0xbe, 0xbf, 0xd4, 0xa4, 0x3c,
  0xd4, 0x4c, 0x83, 0xbe, 0x3e, 0x7a, 0xa0, 0xbe, 0xc7, 0x71, 0xbc, 0xbd,
  0x13, 0x83, 0xb2, 0xbe, 0x28, 0xae, 0x8e, 0xbe, 0x5c, 0x8d, 0xe0, 0xbd,
  0x50, 0xea, 0x8e, 0xbd, 0x46, 0xb9, 0x26, 0x3e, 0xd9, 0x06, 0xf0, 0x3c,
  0xdc, 0xed, 0x9c, 0xbd, 0x24, 0xfc, 0xd3, 0xbd, 0x41, 0xf2, 0xb2, 0xbe,
  0xa8, 0x8c, 0x3d, 0xbd, 0xe4, 0x5b, 0x86, 0xbe, 0x2e, 0xfc, 0x88, 0x3d,
  0xae, 0x6d, 0xac, 0xbd, 0xbf, 0x4e, 0x4d, 0xbd, 0x13, 0x36, 0x67, 0x3e,
  0x81, 0x4c, 0xad, 0xbe, 0xc2, 0x7f, 0xa7, 0x3d, 0x9e, 0x75, 0xf5, 0xbd,
  0x53, 0x6a, 0xba, 0x3d, 0xf6, 0x2d, 0x53, 0xbe, 0x01, 0x56, 0xf8, 0xbd,
  0x02, 0x60, 0x5f, 0xbe, 0x81, 0xc3, 0x60, 0xbd, 0x0f, 0x6d, 0xa8, 0xbe,
  0x72, 0x3b, 0x3b, 0xbe, 0xb2, 0x36, 0xc3, 0xbd, 0xa8, 0xe4, 0x3f, 0xbd,
  0x39, 0x58, 0x98, 0x3d, 0x2c, 0xf3, 0x9a, 0xbe, 0x3a, 0x6f, 0x46, 0xbe,
  0xfa, 0x53, 0xa7, 0xbe, 0x25, 0xea, 0x8a, 0xbd, 0x67, 0x6d, 0xbd, 0xbe,
  0xb1, 0xdd, 0xb1, 0xbe, 0xf5, 0x01, 0x1f, 0xbe, 0xe4, 0x15, 0x56, 0xbd,
  0xbb, 0x50, 0x58, 0x3e, 0x28, 0xfe, 0xf1, 0xbd, 0xec, 0x4f, 0xb3, 0xbe,
  0xdf, 0x55, 0x26, 0xbe, 0xa8, 0x18, 0xe5, 0xbe, 0x1f, 0x00, 0x51, 0xbe,
  0xfc, 0x43, 0xbd, 0xbe, 0xa2, 0xd3, 0x00, 0xbb, 0x4f, 0xc7, 0x9e, 0xbc,
  0x9c, 0x05, 0xc1, 0xbe, 0xa2, 0xee, 0xff, 0xff, 0x04, 0x00, 0x00, 0x00,
  0x00, 0x0a, 0x00, 0x00, 0x82, 0xc3, 0xd6, 0x3b, 0x19, 0x00, 0x0d, 0x3d,
  0xac, 0xcf, 0x7a, 0x3e, 0x2b, 0xfb, 0xf6, 0x3d, 0x73, 0x63, 0xa7, 0x3e,
  0x89, 0xeb, 0x75, 0x3d, 0x1b, 0x95, 0xee, 0x3e, 0x09, 0x82, 0xe9, 0xbc,
  0xc1, 0x5e, 0xd9, 0x3e, 0xe0, 0x62, 0x88, 0x3d, 0xfe, 0xce, 0x62, 0xbd,
  0x09, 0x47, 0x9e, 0xbd, 0x66, 0x24, 0x98, 0x3c, 0x00, 0xab, 0xd9, 0x3d,
  0x16, 0x4e, 0x8c, 0xbc, 0x27, 0x32, 0xa8, 0xbc, 0x8b, 0x2d, 0x5b, 0x3d,
  0xc2, 0xd2, 0xf9, 0x3d, 0xa4, 0x54, 0x81, 0x3c, 0x72, 0x33, 0xf6, 0x3d,
  0x69, 0x5f, 0xb7, 0x3d, 0x3f, 0x6c, 0x4a, 0x3e, 0x91, 0x49, 0x2b, 0xbd,
  0x19, 0x5f, 0x88, 0xbb, 0xf6, 0x22, 0x1d, 0x3d, 0x2e, 0xf9, 0x35, 0x3e,
  0xfb, 0xd4, 0x63, 0x3e, 0x92, 0xf7, 0x7b, 0x3e, 0x68, 0x63, 0x50, 0xbe,
  0x7b, 0x35, 0x5a, 0x3e, 0x55, 0xa4, 0xfb, 0xbd, 0xda, 0x05, 0x04, 0x3e,
  0xde, 0x4c, 0xa5, 0x3e, 0x03, 0x09, 0xc6, 0xbd, 0x6a, 0x85, 0x40, 0x3e,
  0x25, 0xb5, 0x28, 0x3d, 0xe5, 0x71, 0x07, 0x3e, 0x49, 0x08, 0xb9, 0xbd,
  0xa0, 0xff, 0x34, 0x3e, 0xff, 0x0c, 0x87, 0x3d, 0x01, 0x61, 0x93, 0x3b,
  0xfb, 0x2b, 0x8e, 0xbd, 0x84, 0xcd, 0x68, 0x3d, 0x0a, 0x1e, 0x81, 0x3e,
  0x50, 0x38, 0x3e, 0x3e, 0x5a, 0xf0, 0x2e, 0x3d, 0x80, 0x42, 0xdf, 0x3d,
  0x8a, 0xfc, 0xf4, 0x3d, 0xa4, 0xe5, 0x45, 0x3e, 0x44, 0xb8, 0xba, 0x3e,
  0x98, 0x2c, 0xab, 0xbd, 0x1d, 0x1b, 0x76, 0x3e, 0x66, 0x86, 0x3d, 0x3d,
  0xa6, 0x59, 0x07, 0x3e, 0x34, 0xa6, 0x80, 0x3e, 0x87, 0xb2, 0x99, 0xbc,
  0xc2, 0xfb, 0x84, 0xbd, 0x73, 0x85, 0xb7, 0x3d, 0x10, 0x6a, 0x34, 0x3e,
  0xf2, 0xb2, 0x59, 0xbd, 0xe1, 0x53, 0x3e, 0x3e, 0xaa, 0x41, 0x4a, 0xbd,
  0x8b, 0x77, 0xa4, 0x3b, 0x53, 0x20, 0x09, 0x3c, 0x4b, 0xa6, 0xc8, 0x3c,
  0x01, 0x6c, 0x4a, 0x3e, 0xf0, 0x19, 0xa7, 0x3e, 0x9d, 0x70, 0xf5, 0x3d,
  0xe9, 0x83, 0xbd, 0x3e, 0xef, 0xf4, 0x42, 0x3e, 0xad, 0xc1, 0xaa, 0x3e,
  0x9b, 0xbf, 0x03, 0x3e, 0x31, 0x5a, 0x81, 0x3e, 0x39, 0x40, 0x16, 0x3d,
  0x48, 0x9c, 0x8b, 0x3e, 0x82, 0x34, 0x2a, 0x3d, 0x51, 0x98, 0xa4, 0xbc,
  0x75, 0xd6, 0xa7, 0x3d, 0x97, 0x43, 0x5b, 0x3e, 0x1d, 0xac, 0xa1, 0x3d,
  0x6f, 0x80, 0xeb, 0x3d, 0x34, 0xb8, 0x33, 0xbe, 0x84, 0xf5, 0x47, 0xbe,
  0xad, 0x05, 0x91, 0xbe, 0xdb, 0x42, 0xc7, 0xbc, 0xf3, 0x1b, 0xdd, 0xbd,
  0xce, 0x4e, 0x9c, 0x3d, 0x2b, 0x3e, 0xc1, 0x3d, 0xc1, 0x26, 0x38, 0x3e,
  0x13, 0x06, 0x71, 0x3e, 0xc2, 0x82, 0x28, 0xbe, 0x12, 0x76, 0xf3, 0xbd,
  0x88, 0xe1, 0x44, 0x3e, 0x97, 0xa8, 0x00, 0x3e, 0x75, 0x45, 0x0a, 0x3e,
  0x87, 0xbc, 0x35, 0x3e, 0xc8, 0x7d, 0x0d, 0x3e, 0xb9, 0xc8, 0xdb, 0x3d,
  0x3d, 0xb3, 0x0c, 0xbd, 0x71, 0x53, 0x90, 0xbd, 0x04, 0xf6, 0xd6, 0x3c,
  0xe3, 0x21, 0x20, 0x3e, 0xe1, 0xa3, 0x9b, 0xbe, 0x89, 0xae, 0x5f, 0x3e,
  0x0e, 0x8a, 0xaf, 0x3e, 0x02, 0x6b, 0x16, 0xbd, 0x05, 0xca, 0x8c, 0xbd,
  0x70, 0xec, 0x52, 0x3d, 0x36, 0x0f, 0x58, 0xbd, 0xd2, 0x1b, 0x8b, 0xbe,
  0x0d, 0x32, 0x6b, 0x3e, 0x4b, 0x31, 0x20, 0x3e, 0xf9, 0xa2, 0x28, 0x3e,
  0x53, 0x2d, 0xeb, 0x3d, 0xa2, 0x58, 0x6e, 0x3e, 0x32, 0x70, 0x62, 0xbd,
  0x11, 0x90, 0x1c, 0xbd, 0x00, 0x64, 0x07, 0xbe, 0x17, 0x4c, 0xfe, 0xbd,
  0x5d, 0x42, 0xf9, 0xbd, 0x8e, 0x3b, 0xb9, 0x3d, 0xb0, 0x6f, 0x67, 0x3e,
  0x07, 0x89, 0xfd, 0x3d, 0xae, 0x34, 0x11, 0xbe, 0x7b, 0xb8, 0x7d, 0xbd,
  0xea, 0x49, 0xc9, 0xbd, 0x81, 0xcb, 0x09, 0xbd, 0xab, 0xaa, 0xd4, 0x3e,
  0x11, 0xa8, 0xa9, 0xbd, 0x3e, 0x21, 0xe2, 0xbb, 0x55, 0x4a, 0x30, 0x3e,
  0x24, 0x12, 0x53, 0x3e, 0x36, 0xa1, 0x0d, 0xbc, 0x07, 0x46, 0x43, 0x3e,
  0x21, 0x79, 0x67, 0x3e, 0x86, 0xb0, 0x0c, 0xbd, 0x39, 0x6d, 0x1c, 0x3d,
  0xaf, 0x4f, 0xd8, 0x3d, 0xd7, 0x83, 0xe8, 0xbd, 0x51, 0x7f, 0x49, 0x3e,
  0xf4, 0x3d, 0xb0, 0xbe, 0x5b, 0x5e, 0xce, 0x3e, 0xe7, 0xd4, 0xd7, 0xbc,
  0xd1, 0x36, 0x82, 0x3e, 0x1d, 0x59, 0x24, 0x3e, 0x5f, 0x47, 0x46, 0xbe,
  0x79, 0x62, 0x86, 0x3e, 0x5e, 0x7b, 0x50, 0xbd, 0xaa, 0xa6, 0x36, 0xbd,
  0x38, 0x4d, 0x19, 0x3e, 0x5b, 0x57, 0x99, 0x3e, 0x8a, 0x15, 0x66, 0x3e,
  0xe9, 0x1b, 0x15, 0x3e, 0xe9, 0x1f, 0x7c, 0xbe, 0x6f, 0x50, 0x6e, 0x3e,
  0x2c, 0xd2, 0x9e, 0x3d, 0x16, 0xbf, 0xb9, 0x3e, 0x29, 0xee, 0x56, 0x3e,
  0xfd, 0x32, 0x01, 0x3b, 0xdb, 0x55, 0x2a, 0x3e, 0x38, 0x6f, 0x18, 0x3e,
  0xbe, 0x6c, 0xd5, 0x3d, 0xbe, 0x3a, 0x01, 0x3b, 0x60, 0x60, 0xd8, 0x3d,
  0x6c, 0x63, 0x92, 0x3e, 0x74, 0x3f, 0xe9, 0x3d, 0x56, 0x9f, 0xac, 0x3e,
  0xb4, 0x6e, 0x39, 0x3e, 0xe6, 0xa6, 0x87, 0xbd, 0xf7, 0x24, 0x44, 0x3e,
  0x4a, 0xfd, 0x8c, 0x3e, 0x73, 0x26, 0xd4, 0x3d, 0x76, 0x37, 0x1d, 0x3d,
  0xc0, 0x70, 0xf5, 0x3c, 0x1f, 0xc2, 0x62, 0xbc, 0x11, 0xdb, 0x18, 0x3e,
  0xb5, 0xc0, 0x52, 0xbe, 0xe0, 0xe8, 0x92, 0xbc, 0x99, 0x7d, 0x14, 0x3a,
  0xa7, 0x30, 0xdb, 0x3d, 0x2c, 0x70, 0x83, 0x3e, 0xaf, 0x6b, 0x12, 0x3e,
  0xd6, 0x7a, 0x67, 0x3d, 0xf1, 0x7a, 0x94, 0xbd, 0x87, 0xd5, 0xe0, 0xbd,
  0x5d, 0x20, 0x09, 0x3d, 0x85, 0xdf, 0x4b, 0x3e, 0x4b, 0x50, 0x0a, 0x3e,
  0xb9, 0xa6, 0x1d, 0xbe, 0x9b, 0x2f, 0x88, 0x3e, 0xd6, 0x55, 0x4c, 0x3d,
  0x58, 0xf4, 0x23, 0x3e, 0xa4, 0xff, 0x0c, 0xbe, 0x50, 0x48, 0xbc, 0x3d,
  0x6d, 0x60, 0x98, 0xbe, 0x9c, 0xf0, 0xb7, 0xbe, 0x80, 0xfe, 0x52, 0xbe,
  0xc8, 0x5c, 0xc8, 0xbd, 0xd8, 0xc3, 0xd4, 0xbc, 0x8f, 0xdf, 0x7f, 0xbd,
  0x03, 0x8f, 0x2e, 0xbe, 0x80, 0xfa, 0xa7, 0xbe, 0x22, 0x56, 0xac, 0xbe,
  0x26, 0xac, 0x3c, 0xbe, 0xaf, 0x6e, 0x15, 0xbe, 0xe5, 0xe5, 0x7b, 0xbd,
  0xdb, 0xd7, 0x17, 0xbe, 0xdf, 0x79, 0xa4, 0xbe, 0x71, 0x05, 0xd4, 0xbe,
  0xa3, 0x32, 0xed, 0xbe, 0x9f, 0xc5, 0x46, 0xbe, 0x9a, 0xc5, 0xd9, 0xbe,
  0x8d, 0xda, 0x35, 0x3d, 0xa9, 0x42, 0x93, 0xbe, 0xd8, 0x2a, 0x18, 0xbe,
  0xf0, 0x75, 0xda, 0xbc, 0x7c, 0x02, 0x80, 0xbc, 0x2c, 0xff, 0x1e, 0xbd,
  0xfa, 0x26, 0xa2, 0xbe, 0x54, 0x56, 0x97, 0xbd, 0x16, 0x90, 0xca, 0xbe,
  0x72, 0x4e, 0x91, 0xbe, 0x68, 0x23, 0xfc, 0xbd, 0x55, 0x85, 0x27, 0xbe,
  0xcb, 0x35, 0x8c, 0xbe, 0x52, 0xd2, 0xa3, 0xbe, 0xe1, 0xc0, 0x61, 0xbd,
  0x8f, 0x46, 0x82, 0x3c, 0x03, 0x51, 0x7b, 0xbe, 0x76, 0xdf, 0xa4, 0xbe,
  0xc0, 0x3e, 0x05, 0x3e, 0xd6, 0xb5, 0x12, 0xbe, 0x4f, 0x13, 0x17, 0xbe,
  0x10, 0x62, 0x8a, 0xbe, 0x1c, 0xc4, 0xc5, 0x3d, 0x39, 0x31, 0x13, 0xbe,
  0xb3, 0xcf, 0xa5, 0xbe, 0xce, 0x43, 0xa6, 0x3e, 0x36, 0xf1, 0xa1, 0x3e,
  0x12, 0x99, 0xb9, 0x3e, 0x46, 0x39, 0x83, 0xbe, 0x96, 0x18, 0x43, 0xbe,
  0x68, 0x3b, 0x83, 0xbe, 0x61, 0x22, 0x29, 0xbd, 0x45, 0x26, 0x44, 0x3d,
  0x3f, 0x2e, 0x92, 0x3e, 0x8f, 0x4e, 0x82, 0x3e, 0xc8, 0xcb, 0x79, 0x3e,
  0x30, 0xee, 0x91, 0x3d, 0xca, 0x49, 0xe2, 0x3d, 0xba, 0xf2, 0x38, 0xbe,
  0x6e, 0x72, 0xb0, 0x3e, 0x93, 0xce, 0x68, 0x3d, 0x2c, 0x9e, 0x04, 0x3f,
  0x8a, 0xda, 0xf2, 0x3d, 0xca, 0x2e, 0xb4, 0x3e, 0xf6, 0xc5, 0xcb, 0x3d,
  0x46, 0x7b, 0x91, 0x3e, 0xc9, 0x28, 0x46, 0xbc, 0x5d, 0x82, 0xbb, 0xbd,
  0xdb, 0xd2, 0xe2, 0x3d, 0xf8, 0x28, 0xcb, 0x3e, 0x3f, 0x17, 0x98, 0x3d,
  0x59, 0xce, 0xa9, 0x3d, 0x1f, 0x08, 0xb1, 0xbc, 0xf8, 0xf3, 0xab, 0xbd,
  0xfb, 0x4a, 0xd6, 0x3d, 0x0e, 0xac, 0x37, 0x3d, 0xfe, 0xbe, 0x74, 0x3e,
  0x95, 0x24, 0xf6, 0x3c, 0x30, 0x83, 0x9a, 0x3e, 0xb5, 0x98, 0x29, 0x3e,
  0x09, 0x28, 0xea, 0xbd, 0x7d, 0x55, 0x60, 0x3e, 0xe0, 0x45, 0x55, 0xbe,
  0xb4, 0x0b, 0x01, 0x3d, 0x7d, 0x9c, 0xeb, 0xbd, 0x5a, 0xc5, 0x5e, 0x3c,
  0xca, 0xfa, 0xd3, 0xbd, 0x28, 0x54, 0x0c, 0x3e, 0x28, 0xc0, 0xa6, 0x3e,
  0x7f, 0x80, 0x55, 0x3e, 0x58, 0x2a, 0xb1, 0xbc, 0x91, 0xb9, 0xb3, 0xbd,
  0x54, 0x82, 0xa3, 0xbd, 0xac, 0xdd, 0xff, 0x3d, 0xac, 0x77, 0x69, 0x3e,
  0xec, 0x44, 0x98, 0x3e, 0xd1, 0x98, 0x18, 0x3d, 0x2d, 0x65, 0x0e, 0xbe,
  0xad, 0x46, 0x16, 0xbe, 0x8c, 0x93, 0x86, 0x3e, 0x16, 0xb2, 0xb1, 0xbe,
  0x48, 0xac, 0xde, 0x3c, 0x55, 0xec, 0xb9, 0xbd, 0x6d, 0xb5, 0xe1, 0xbd,
  0xd7, 0xf4, 0x07, 0xbe, 0x29, 0x53, 0x14, 0x3e, 0x80, 0x4a, 0xfd, 0x3d,
  0x00, 0x43, 0x82, 0x3e, 0x94, 0x9e, 0xce, 0xbd, 0x69, 0x7f, 0x36, 0x3d,
  0x96, 0xbb, 0x57, 0xbe, 0xde, 0x56, 0x83, 0x3e, 0xe3, 0x79, 0x34, 0xbe,
  0x79, 0x39, 0xaf, 0xbd, 0x33, 0x94, 0x82, 0xbb, 0x86, 0x85, 0xae, 0x3e,
  0x0b, 0xae, 0x1b, 0xbd, 0x93, 0xac, 0x82, 0x3e, 0x24, 0x73, 0x3a, 0x3e,
  0x95, 0x46, 0x8f, 0x3d, 0x60, 0xb2, 0x5f, 0x3e, 0xdd, 0xc3, 0xbc, 0x3d,
  0x40, 0xd4, 0x19, 0x3e, 0x1c, 0x52, 0x97, 0xbd, 0xac, 0x58, 0xbb, 0x3e,
  0xb0, 0xa6, 0xcb, 0x3d, 0xfc, 0x07, 0x12, 0x3e, 0xdb, 0x62, 0xbd, 0xbd,
  0x96, 0x60, 0x13, 0x3e, 0x67, 0xfc, 0x3e, 0xbd, 0x13, 0xd2, 0xc4, 0xbe,
  0x21, 0xe8, 0xa8, 0xbd, 0xe3, 0x41, 0x25, 0xbe, 0x8d, 0x00, 0x01, 0xbd,
  0x75, 0x53, 0x08, 0xbd, 0xd2, 0x45, 0x4b, 0x3e, 0xfc, 0xf0, 0xe2, 0x3c,
  0xa2, 0x23, 0x37, 0xbd, 0x34, 0xc3, 0x91, 0xbe, 0x13, 0x78, 0xa6, 0xbe,
  0xa0, 0x51, 0xa6, 0xbe, 0x58, 0x45, 0x26, 0xbe, 0xda, 0x7d, 0x15, 0xbe,
  0x04, 0x88, 0x80, 0x3e, 0x7e, 0xfc, 0x93, 0x3e, 0x0a, 0x77, 0x50, 0x3e,
  0xc5, 0xb7, 0x47, 0x3d, 0x4e, 0x9c, 0xd5, 0xbd, 0xd3, 0x3e, 0x6c, 0xbe,
  0x6a, 0x89, 0xbb, 0xbd, 0x05, 0x91, 0x87, 0x3d, 0xb2, 0xfd, 0xb9, 0x3e,
  0x3b, 0x6c, 0x8e, 0x3d, 0x61, 0x2f, 0xaa, 0xbd, 0x92, 0x15, 0x56, 0xbe,
  0xd0, 0x8c, 0x2a, 0xbe, 0xd5, 0xe4, 0x78, 0xbe, 0x9e, 0xa1, 0x6d, 0xbe,
  0x2e, 0xf4, 0xca, 0xbe, 0x71, 0xa7, 0x63, 0xbd, 0xe9, 0x90, 0x7a, 0xbe,
  0x0b, 0x32, 0x22, 0x3d, 0x71, 0x2a, 0x1f, 0x3c, 0x11, 0x56, 0x44, 0x3e,
  0x78, 0x30, 0xcc, 0xbd, 0x1c, 0x6e, 0x30, 0xbe, 0x4f, 0x4d, 0x46, 0xbe,
  0x5a, 0xad, 0xb0, 0x3e, 0xcb, 0x46, 0xbf, 0xbe, 0x22, 0xe9, 0x9b, 0x3d,
  0xca, 0x82, 0x00, 0xbe, 0xae, 0x69, 0x54, 0x3e, 0xbc, 0x68, 0xd2, 0xbc,
  0xb9, 0x86, 0x23, 0x3e, 0x07, 0x1d, 0x9f, 0xbd, 0x5c, 0xf5, 0xcd, 0x3e,
  0x4e, 0x66, 0x8c, 0x3c, 0x8c, 0x33, 0xf3, 0xbd, 0xf1, 0xd0, 0x6a, 0xbb,
  0xae, 0x77, 0x81, 0xbd, 0x4a, 0xf0, 0xf3, 0x3e, 0x50, 0x96, 0x62, 0x3d,
  0x64, 0xa6, 0xa6, 0x3e, 0x68, 0xf0, 0xc3, 0x3e, 0xeb, 0x33, 0x3a, 0x3d,
  0x64, 0x7c, 0x3d, 0xbe, 0x3d, 0xc1, 0x13, 0xbe, 0xcf, 0x82, 0xd4, 0x3e,
  0x38, 0xbd, 0x9a, 0x3e, 0x76, 0x78, 0xe5, 0x3d, 0xe8, 0x9a, 0x43, 0x3d,
  0x30, 0x44, 0x48, 0x3e, 0xc6, 0x3a, 0x83, 0x3e, 0x23, 0x45, 0x83, 0xbe,
  0xca, 0xb7, 0x81, 0x3e, 0x04, 0xd2, 0x39, 0x3e, 0x01, 0x33, 0x80, 0xbe,
  0xcb, 0xf1, 0x43, 0xbe, 0x28, 0xb1, 0x0c, 0x3e, 0x6a, 0x34, 0x11, 0xbe,
  0xdb, 0xa3, 0xb0, 0x3d, 0x11, 0xa1, 0x1d, 0x3e, 0xc4, 0xb4, 0xca, 0xbc,
  0x69, 0x53, 0x23, 0xbe, 0xba, 0x2d, 0x2d, 0x3e, 0x04, 0x6a, 0x62, 0xbd,
  0x03, 0xb2, 0xd0, 0xbd, 0x4a, 0xd9, 0x43, 0x3e, 0x62, 0x99, 0x8e, 0x3e,
  0xcd, 0x5c, 0xee, 0xbd, 0xcd, 0x32, 0xad, 0xbc, 0x5e, 0xdf, 0x51, 0x3d,
  0x89, 0x6d, 0x5e, 0xbd, 0xb4, 0x2e, 0x81, 0x3e, 0x94, 0x3a, 0xa6, 0xbc,
  0x2a, 0x38, 0xa8, 0xbd, 0x33, 0xdc, 0x12, 0x3e, 0x2e, 0x3a, 0x62, 0xbc,
  0xc0, 0x5f, 0xfd, 0x3d, 0x7d, 0x07, 0x1e, 0xbe, 0x59, 0x6e, 0x86, 0xbd,
  0xec, 0x24, 0x82, 0x3e, 0x8e, 0xd6, 0x0f, 0xbe, 0x3e, 0xb1, 0xd7, 0xba,
  0xce, 0x82, 0x3b, 0xbe, 0x88, 0x94, 0xb3, 0x3c, 0xfc, 0x09, 0x72, 0xbe,
  0x3c, 0x17, 0x80, 0xbe, 0x44, 0x93, 0x42, 0x3e, 0x9b, 0x5b, 0x67, 0xbe,
  0x4d, 0x69, 0xb9, 0x3d, 0xdc, 0x17, 0x26, 0xbd, 0x9a, 0x9e, 0xdf, 0x3d,
  0x04, 0x09, 0xb4, 0x3d, 0x52, 0x45, 0xdb, 0xbc, 0xbd, 0x1e, 0xaf, 0xbd,
  0x64, 0x10, 0x3d, 0xbe, 0x97, 0x76, 0x50, 0x3c, 0x9f, 0x3f, 0xbc, 0x3d,
  0xda, 0x77, 0xfb, 0x3d, 0x4d, 0x10, 0xbe, 0x3d, 0xea, 0x1a, 0x0a, 0x3e,
  0x2a, 0x9c, 0xd1, 0x3c, 0xfc, 0xe7, 0x8b, 0xbe, 0x4e, 0x42, 0x22, 0x3e,
  0x66, 0x48, 0x2b, 0xbe, 0x28, 0x96, 0x47, 0xbd, 0x35, 0xf7, 0x37, 0xbb,
  0xd1, 0x31, 0x03, 0x3e, 0xc6, 0x55, 0x0d, 0x3e, 0x1e, 0xb4, 0x54, 0x3e,
  0x69, 0x43, 0x7c, 0x3e, 0xf0, 0xb5, 0x52, 0xbe, 0x3d, 0x34, 0x6d, 0xbd,
  0xbd, 0x09, 0x92, 0x3e, 0x36, 0xbd, 0xe9, 0x3e, 0x82, 0x9b, 0xa3, 0x3e,
  0x05, 0xcf, 0x84, 0x3d, 0x30, 0x2b, 0xe1, 0xbd, 0x00, 0xb1, 0x7c, 0xbd,
  0x65, 0xa6, 0x01, 0x3e, 0x0d, 0xdf, 0xaa, 0x3d, 0x00, 0x01, 0x6d, 0x3d,
  0x62, 0xed, 0x33, 0xbe, 0xbb, 0x74, 0x7b, 0xbd, 0xd6, 0xfb, 0x20, 0x3d,
  0x96, 0xbe, 0x43, 0x3e, 0x46, 0x0d, 0x8b, 0xbe, 0x3b, 0xfc, 0x07, 0x3e,
  0x8c, 0xe1, 0xfe, 0xbd, 0x16, 0x6d, 0x5b, 0xbe, 0x05, 0x6c, 0x28, 0x3e,
  0x13, 0xbe, 0x45, 0xbe, 0xfc, 0xae, 0x00, 0x3e, 0xed, 0x5d, 0x3d, 0xbd,
  0xa1, 0x09, 0x8e, 0xbe, 0x8d, 0x46, 0xb9, 0xbd, 0x27, 0xa8, 0xbc, 0x3c,
  0x77, 0x7e, 0x62, 0xbe, 0x02, 0x21, 0x99, 0xbe, 0xb0, 0xe9, 0x73, 0xbd,
  0x48, 0x19, 0xa3, 0x3d, 0x27, 0x1f, 0x87, 0xbe, 0x33, 0xe5, 0x8b, 0xbe,
  0xd3, 0x8c, 0x47, 0xbe, 0x49, 0x15, 0xbb, 0xbe, 0xd6, 0x6a, 0x82, 0xbe,
  0x81, 0x31, 0xdb, 0xbd, 0xca, 0x00, 0x86, 0x3e, 0xcc, 0x04, 0xa8, 0x3d,
  0xe6, 0xc8, 0xb7, 0xbd, 0x0e, 0xf5, 0x5e, 0xbe, 0xc0, 0x24, 0x81, 0xbd,
  0xca, 0xad, 0x9c, 0xbe, 0xbd, 0x36, 0x98, 0xbe, 0xac, 0x56, 0xf7, 0xbd,
  0x4f, 0x00, 0xe9, 0x3d, 0xc4, 0xa7, 0x8b, 0xbe, 0xd4, 0xfd, 0xb3, 0xbe,
  0xeb, 0x70, 0xc1, 0xbe, 0x42, 0xe7, 0xb8, 0xbc, 0x59, 0x21, 0xe9, 0xbe,
  0x2c, 0x71, 0x96, 0xbe, 0xbf, 0x8f, 0x13, 0xbe, 0xbd, 0xec, 0x33, 0xbe,
  0xf3, 0x7c, 0x93, 0xbe, 0xdb, 0x14, 0x21, 0xbe, 0xbe, 0xab, 0xa6, 0xbd,
  0xe9, 0x8d, 0xd8, 0xbd, 0x67, 0x5e, 0xc6, 0xbd, 0x60, 0x6b, 0x50, 0x3d,
  0x6c, 0x0c, 0xd9, 0xbc, 0xbc, 0xee, 0x47, 0x3e, 0x34, 0x4a, 0x3e, 0xbe,
  0xa3, 0x5c, 0x26, 0xbe, 0x62, 0x73, 0xca, 0xbc, 0x5b, 0x76, 0xb6, 0x3d,
  0xa9, 0x98, 0x93, 0xbe, 0x6d, 0xc8, 0x58, 0xbd, 0x5e, 0x07, 0xae, 0xbc,
  0x4b, 0x77, 0xcf, 0x3d, 0x5d, 0x67, 0x5e, 0xbe, 0x61, 0x7b, 0xc6, 0x3d,
  0x1c, 0xe7, 0x90, 0xbd, 0x05, 0x25, 0x68, 0xbe, 0xd1, 0xf8, 0x6e, 0xbd,
  0x40, 0xfe, 0xb7, 0xbd, 0x89, 0x76, 0x18, 0x3e, 0x5f, 0xe7, 0xef, 0x3d,
  0xf6, 0xe4, 0xab, 0xbe, 0xa4, 0x2a, 0x9f, 0x3d, 0x15, 0x95, 0x88, 0xbe,
  0x84, 0xe4, 0x6c, 0xbd, 0x74, 0xb3, 0x4a, 0xbe, 0x56, 0xe3, 0xb4, 0xbc,
  0x50, 0x13, 0x3f, 0xbe, 0x43, 0xae, 0x19, 0x3e, 0x8e, 0x44, 0x32, 0x3e,
  0x97, 0x74, 0x85, 0xbe, 0x7f, 0x96, 0xf0, 0x3c, 0x9e, 0xce, 0xe8, 0x3c,
  0x6e, 0xf2, 0xdb, 0x3c, 0x60, 0x33, 0x89, 0xbd, 0x06, 0x51, 0xa1, 0xbe,
  0xd1, 0x2d, 0x5e, 0x3d, 0xcf, 0x9f, 0x99, 0x3d, 0x06, 0x52, 0x2c, 0xbd,
  0x24, 0xcf, 0x0b, 0x3e, 0x71, 0xe6, 0xac, 0xbc, 0x5c, 0x43, 0x50, 0x3e,
  0xe3, 0x7f, 0x73, 0xbe, 0x35, 0x58, 0x32, 0x3d, 0x62, 0x29, 0x9f, 0x3e,
  0x3c, 0x58, 0x79, 0x3d, 0xf7, 0xe1, 0x99, 0x3e, 0x7c, 0x3f, 0xc2, 0xbd,
  0x33, 0xfa, 0x6f, 0xbe, 0x0b, 0x57, 0x76, 0xbe, 0xa4, 0x44, 0xe1, 0x3d,
  0x30, 0x72, 0x4e, 0x3c, 0x35, 0x98, 0xb9, 0x3e, 0x58, 0xb6, 0x22, 0xbd,
  0x8b, 0xd6, 0x2a, 0x3c, 0xc4, 0xdf, 0x88, 0xbe, 0x09, 0x93, 0x56, 0x3c,
  0xa4, 0x50, 0xec, 0x3d, 0x72, 0x89, 0x8a, 0xbe, 0xf8, 0x41, 0xbe, 0xbe,
  0xc5, 0x67, 0x79, 0x3d, 0x1a, 0xda, 0x9b, 0x3e, 0x54, 0x99, 0xa6, 0xbc,
  0xb8, 0x16, 0x9b, 0x3d, 0xdc, 0xb2, 0xa6, 0xbe, 0x9e, 0x71, 0x39, 0x3e,
  0xe4, 0x0f, 0x2e, 0x3e, 0x8e, 0x1a, 0x5c, 0xbd, 0xd8, 0x0f, 0xcb, 0x3a,
  0x1c, 0x8e, 0x0a, 0x3e, 0xf4, 0x2a, 0xe6, 0x3d, 0x54, 0x0e, 0x9b, 0xbe,
  0x1c, 0x58, 0x22, 0x3e, 0xf9, 0x22, 0x3e, 0xbe, 0xc2, 0x90, 0xdb, 0xbd,
  0xa1, 0x24, 0xb0, 0xbe, 0x3e, 0x1a, 0x1c, 0x3d, 0x01, 0xc8, 0xd4, 0x3e,
  0x40, 0x00, 0xce, 0xbb, 0x05, 0xa6, 0xb9, 0x3e, 0xc5, 0xbb, 0x59, 0xbd,
  0xf0, 0xe7, 0x54, 0x3b, 0x70, 0x23, 0xd5, 0x3e, 0x8c, 0x37, 0xd7, 0x3e,
  0x96, 0xb1, 0x63, 0x3e, 0x8b, 0xe8, 0xd3, 0x3d, 0x8a, 0xfc, 0x6c, 0x3e,
  0xe0, 0x7b, 0x87, 0x3e, 0x14, 0xbc, 0x38, 0xbd, 0x91, 0x20, 0x99, 0x3e,
  0x4e, 0x1e, 0x0b, 0x3e, 0x01, 0xe8, 0x70, 0x3e, 0x63, 0x81, 0x60, 0x3e,
  0x1c, 0x76, 0x13, 0x3c, 0x38, 0xb3, 0xe2, 0xbd, 0x05, 0x1b, 0x74, 0xbd,
  0x6b, 0xb5, 0x73, 0x3e, 0x8b, 0xb9, 0x8e, 0xbd, 0x26, 0x59, 0xc8, 0x3e,
  0xf5, 0x90, 0x49, 0x3c, 0x59, 0xc2, 0xcb, 0x3d, 0x06, 0xb1, 0x69, 0x3e,
  0x77, 0x4c, 0x85, 0x3e, 0x25, 0xa0, 0xdf, 0x3d, 0x9c, 0xd6, 0x46, 0x3e,
  0x1a, 0x4e, 0xf9, 0x3d, 0xc1, 0x16, 0x1d, 0xbe, 0x37, 0xe4, 0xcb, 0xbd,
  0x73, 0x52, 0xb8, 0x3e, 0xf7, 0x9b, 0x79, 0xbe, 0x6b, 0x38, 0xa1, 0x3e,
  0x74, 0x80, 0xf9, 0xbd, 0x43, 0x46, 0x84, 0x3d, 0xf0, 0xab, 0x11, 0xbd,
  0xd7, 0xb3, 0xa9, 0xbc, 0xa6, 0xb1, 0x0d, 0xbc, 0xdd, 0xdd, 0xa6, 0x3e,
  0x81, 0x19, 0x16, 0xba, 0x6c, 0x77, 0xdf, 0x3d, 0x54, 0xd2, 0x98, 0x3e,
  0xec, 0x39, 0xea, 0x3e, 0x57, 0x7e, 0x4c, 0x3e, 0xd9, 0xbe, 0x28, 0xbe,
  0xd4, 0x57, 0x88, 0x3e, 0xb2, 0x71, 0xb3, 0x3e, 0x89, 0xb7, 0xd3, 0xbd,
  0x9c, 0xb6, 0x00, 0xbe, 0xf9, 0xc9, 0x84, 0xbc, 0x05, 0x0e, 0x87, 0x3e,
  0xb6, 0xc7, 0x56, 0x3e, 0x8c, 0x01, 0x2f, 0x3e, 0x2c, 0xd7, 0x6c, 0x3e,
  0x0f, 0x0c, 0x2f, 0x3e, 0x9b, 0x18, 0xa7, 0x3d, 0xc9, 0x41, 0x2c, 0xbe,
  0x27, 0xfa, 0x50, 0xbe, 0x10, 0xd5, 0x1a, 0xbc, 0xbc, 0xbf, 0xad, 0x3e,
  0xc4, 0x2c, 0xa6, 0xbd, 0x4c, 0x1b, 0x94, 0xbd, 0xae, 0xf8, 0xff, 0xff,
  0x04, 0x00, 0x00, 0x00, 0x28, 0x00, 0x00, 0x00, 0x4f, 0x1f, 0x98, 0x3e,
  0xe5, 0x53, 0xeb, 0x3e, 0x85, 0x22, 0x3e, 0x3e, 0x37, 0x1e, 0x01, 0x3f,
  0xc8, 0x14, 0xb4, 0x3e, 0xf0, 0xde, 0x8e, 0x3e, 0xe7, 0x16, 0x38, 0x3e,
  0x94, 0x0e, 0xf4, 0x3e, 0x35, 0x5b, 0xee, 0x3e, 0x6e, 0xea, 0xf7, 0x3e,
  0xe2, 0xf8, 0xff, 0xff, 0x04, 0x00, 0x00, 0x00, 0x28, 0x00, 0x00, 0x00,
  0x40, 0x3e, 0x02, 0xbe, 0x6d, 0xaf, 0x9f, 0x3d, 0x0a, 0xdc, 0xf3, 0x3d,
  0x3f, 0x2f, 0x9a, 0x3e, 0x07, 0x2a, 0xb9, 0xbc, 0xf4, 0x7f, 0x13, 0xbd,
  0x56, 0xc0, 0xc6, 0x3d, 0xe4, 0x9a, 0x40, 0xbd, 0x7e, 0xed, 0x32, 0x3e,
  0x40, 0x5d, 0x03, 0x3e, 0x16, 0xf9, 0xff, 0xff, 0x04, 0x00, 0x00, 0x00,
  0x28, 0x00, 0x00, 0x00, 0x9c, 0x84, 0x84, 0x3f, 0xca, 0x40, 0x7e, 0x3f,
  0x6c, 0xda, 0x9c, 0x3f, 0xb1, 0x99, 0x96, 0x3f, 0x63, 0x9b, 0x92, 0x3f,
  0xdf, 0xe6, 0x9a, 0x3f, 0x77, 0x49, 0x9a, 0x3f, 0xc8, 0xf0, 0x82, 0x3f,
  0xf9, 0x67, 0x8a, 0x3f, 0x8f, 0x65, 0x95, 0x3f, 0x4a, 0xf9, 0xff, 0xff,
  0x04, 0x00, 0x00, 0x00, 0x28, 0x00, 0x00, 0x00, 0x38, 0x98, 0x91, 0x3e,
  0x70, 0xf9, 0xb5, 0x3e, 0x8b, 0xe8, 0xfd, 0x3d, 0xe4, 0x9f, 0xaa, 0x3e,
  0xe5, 0x92, 0xc4, 0x3e, 0x0b, 0xf2, 0xae, 0x3d, 0x1b, 0x02, 0xbf, 0x3d,
  0xef, 0xdc, 0x42, 0x3e, 0xa8, 0xa9, 0xa6, 0x3e, 0x06, 0x93, 0xda, 0x3e,
  0x7e, 0xf9, 0xff, 0xff, 0x04, 0x00, 0x00, 0x00, 0x90, 0x01, 0x00, 0x00,
  0x3a, 0x3b, 0xa5, 0x3e, 0xac, 0x6a, 0x7b, 0x3d, 0x92, 0xe6, 0xa7, 0x3e,
  0x8c, 0x92, 0x6a, 0xbe, 0x50, 0xc8, 0x98, 0xbe, 0xef, 0x2e, 0x35, 0x3e,
  0x3a, 0xe4, 0x0e, 0x3f, 0xc0, 0x8e, 0x04, 0x3e, 0x6e, 0xfe, 0x00, 0x3e,
  0xb2, 0x51, 0xeb, 0xbe, 0xcf, 0xd9, 0x51, 0x3e, 0x7f, 0x96, 0x12, 0xbe,
  0x11, 0xb9, 0xe1, 0x3e, 0xed, 0x1a, 0x89, 0x3e, 0x98, 0x68, 0x98, 0xbe,
  0x87, 0xb5, 0x02, 0x3f, 0x14, 0x98, 0x06, 0x3f, 0x2f, 0x4d, 0x61, 0xbc,
  0xbe, 0xdc, 0x60, 0xbd, 0xf4, 0xb4, 0x6b, 0xbd, 0x13, 0x6b, 0xfb, 0xbe,
  0xe6, 0x83, 0xac, 0xbe, 0x5f, 0x53, 0xf8, 0x3e, 0x3d, 0x39, 0xb0, 0x3e,
  0x22, 0xd4, 0xa8, 0xbe, 0xcb, 0x56, 0xfa, 0xbe, 0x9c, 0x98, 0x7c, 0x3e,
  0x6f, 0x20, 0xa1, 0x3e, 0x36, 0x99, 0x85, 0x3e, 0x7e, 0x29, 0x41, 0x3e,
  0x12, 0xd3, 0xb3, 0x3e, 0xc0, 0xba, 0x2d, 0xbd, 0x90, 0xc3, 0xa9, 0x3e,
  0xbe, 0xdc, 0x7e, 0x3e, 0x5b, 0xbc, 0x1d, 0xbe, 0xb0, 0xfb, 0xc2, 0x3d,
  0x56, 0xf4, 0x2e, 0x3f, 0x1c, 0x8a, 0x50, 0x3a, 0x5f, 0x58, 0xa3, 0x3d,
  0x12, 0xda, 0x10, 0xbf, 0x12, 0x37, 0x4d, 0x3e, 0xa6, 0xa6, 0x09, 0x3e,
  0x1f, 0x29, 0x80, 0x3e, 0x85, 0xee, 0x8b, 0x3d, 0x24, 0x63, 0x73, 0xbe,
  0x41, 0x7d, 0xac, 0x3d, 0x6e, 0x9a, 0x0e, 0x3f, 0xc6, 0x99, 0xae, 0x3d,
  0x38, 0x93, 0x74, 0xbd, 0xbf, 0xed, 0x4c, 0xba, 0x94, 0xf0, 0xeb, 0x3e,
  0x50, 0x28, 0x87, 0xbc, 0x4b, 0xde, 0xa3, 0x3e, 0x4c, 0xc4, 0x4b, 0x3e,
  0x24, 0xb2, 0x72, 0x3e, 0x96, 0x22, 0xa4, 0x3e, 0x41, 0x9c, 0xf7, 0x3e,
  0xaf, 0x46, 0x04, 0xbf, 0xe5, 0xf4, 0xac, 0xbe, 0x0f, 0xa3, 0x12, 0xbf,
  0xf3, 0xe9, 0xdd, 0xbe, 0xb8, 0xbb, 0x13, 0xbe, 0x0a, 0x13, 0xe5, 0x3e,
  0x99, 0x99, 0xe1, 0x3e, 0xf0, 0x28, 0xcc, 0xbd, 0x38, 0xb1, 0xa4, 0xbe,
  0x1e, 0x64, 0x0a, 0x3d, 0x5a, 0xdd, 0x76, 0x3e, 0x1b, 0x36, 0xfa, 0xbc,
  0x1d, 0xd4, 0x71, 0xbd, 0x2c, 0xeb, 0xdb, 0x3e, 0xa0, 0xae, 0x5e, 0xbd,
  0x4d, 0x7f, 0x2e, 0x3f, 0x8f, 0x87, 0x14, 0xbd, 0xb3, 0xa2, 0x6d, 0xbe,
  0x2f, 0x10, 0x41, 0x3f, 0xe0, 0x1b, 0x69, 0x3f, 0xeb, 0x12, 0x94, 0xb9,
  0x90, 0x62, 0x4f, 0x3e, 0xa5, 0xda, 0x96, 0xbe, 0x23, 0x9d, 0xf1, 0x3d,
  0x06, 0x61, 0x87, 0x3d, 0x4a, 0x1a, 0xc6, 0x3e, 0x67, 0xca, 0xa6, 0xbe,
  0x2d, 0x3a, 0xb1, 0xbe, 0xb5, 0x69, 0xef, 0x3e, 0x5e, 0x5e, 0x1e, 0x3f,
  0x64, 0xb9, 0x09, 0xbf, 0xd9, 0x09, 0xc7, 0x3d, 0x15, 0x6a, 0x44, 0xbe,
  0x48, 0xd0, 0x08, 0x3f, 0xf3, 0x95, 0xde, 0xbe, 0x63, 0x4d, 0x78, 0x3e,
  0xe1, 0x34, 0x95, 0xbc, 0x86, 0xc6, 0xad, 0xbe, 0x24, 0x32, 0x31, 0x3f,
  0xa4, 0xc8, 0xf8, 0x3e, 0x78, 0x53, 0xf9, 0x3d, 0x43, 0xb8, 0x8a, 0xbe,
  0xf3, 0x5b, 0xa5, 0xbe, 0x1a, 0xfb, 0xff, 0xff, 0x04, 0x00, 0x00, 0x00,
  0x90, 0x01, 0x00, 0x00, 0x75, 0x56, 0x14, 0x3d, 0xa7, 0x20, 0x2f, 0xbd,
  0x2e, 0xd9, 0x62, 0xbe, 0x02, 0x1e, 0xf7, 0x3b, 0x41, 0x1b, 0xa4, 0xbe,
  0x58, 0xcb, 0x0d, 0x3f, 0x7e, 0xa6, 0xb2, 0xbe, 0x35, 0xdb, 0xf6, 0xbc,
  0x48, 0xd1, 0x7a, 0xbd, 0x8a, 0xf6, 0x58, 0xbe, 0xa0, 0x89, 0xc9, 0x3e,
  0x21, 0x34, 0xef, 0xbc, 0xce, 0xa5, 0xa8, 0xbb, 0xf7, 0x5a, 0x82, 0xbe,
  0xe6, 0x89, 0x31, 0x3d, 0x44, 0xe2, 0xa2, 0x3d, 0xc9, 0xd3, 0x1e, 0xbe,
  0x15, 0x60, 0xc9, 0xbe, 0xba, 0x8b, 0x8e, 0xbe, 0xa2, 0x63, 0x90, 0xbe,
  0xc6, 0x79, 0xc0, 0xbd, 0x52, 0x5e, 0xbd, 0x3c, 0x38, 0xe2, 0xa3, 0x3d,
  0x7c, 0xd6, 0x23, 0x3e, 0x95, 0x2d, 0x45, 0x3e, 0x9b, 0x81, 0xd6, 0x3d,
  0x9b, 0xa5, 0xe0, 0x3e, 0x5a, 0x86, 0x82, 0x3c, 0x19, 0x9e, 0xfd, 0x3b,
  0xcc, 0xa1, 0x0b, 0xbe, 0xa6, 0x97, 0x7f, 0xbe, 0x31, 0x87, 0x10, 0xbd,
  0x7c, 0x70, 0xb4, 0x3d, 0xc0, 0x91, 0x35, 0x3e, 0xa1, 0x4c, 0xde, 0x3d,
  0xab, 0x70, 0x10, 0xbf, 0x7f, 0x18, 0x1e, 0x3d, 0xa5, 0x5c, 0x11, 0xbe,
  0x81, 0x2f, 0x32, 0xbe, 0xe9, 0xd5, 0xc5, 0x3e, 0xa4, 0xc6, 0x14, 0x3f,
  0x72, 0x91, 0x1c, 0x3e, 0xcd, 0x00, 0x17, 0xbe, 0x95, 0x5e, 0x63, 0xbe,
  0xd7, 0x7a, 0x2c, 0x3e, 0x2f, 0x56, 0xfb, 0xbb, 0xb9, 0x74, 0xee, 0xbb,
  0x0b, 0x32, 0xa7, 0xbd, 0xa2, 0x9a, 0xc2, 0xbc, 0xb8, 0x52, 0x5c, 0xbe,
  0xf0, 0xee, 0xa9, 0x3e, 0x0f, 0xd9, 0xda, 0x3d, 0x44, 0x2c, 0xc7, 0xbd,
  0xb2, 0x0b, 0x47, 0x3e, 0x67, 0x36, 0x40, 0xbe, 0x09, 0x4e, 0x81, 0x3e,
  0x00, 0x14, 0xde, 0xbd, 0xd0, 0xda, 0x15, 0xbe, 0x5c, 0x4d, 0xe6, 0x3e,
  0x58, 0x1d, 0x4c, 0x3e, 0x90, 0x7a, 0x89, 0xbd, 0xed, 0x69, 0x53, 0xbd,
  0x3b, 0x91, 0xd7, 0x3e, 0xd6, 0xbe, 0x1d, 0xbe, 0xdc, 0x07, 0x24, 0x3d,
  0x7b, 0x58, 0x1e, 0x3e, 0xc6, 0x34, 0x8b, 0x3e, 0xcd, 0xb8, 0xde, 0xbd,
  0x0f, 0x09, 0x80, 0xbe, 0xdf, 0x2b, 0x14, 0x3e, 0xe5, 0x12, 0x78, 0xbe,
  0xa4, 0xf7, 0xcf, 0xbd, 0xed, 0xdd, 0xdc, 0x3d, 0x70, 0x5c, 0x57, 0x3e,
  0x62, 0x64, 0xca, 0x3d, 0xc9, 0x76, 0x0c, 0xbe, 0x27, 0x4e, 0xd6, 0x3a,
  0x7d, 0xdf, 0xbd, 0xbc, 0xec, 0xc3, 0xe3, 0x3e, 0x6a, 0xfe, 0xf0, 0x3e,
  0xdd, 0xa1, 0x1f, 0xbe, 0xca, 0xbd, 0x99, 0x3e, 0x22, 0x10, 0xa0, 0x3d,
  0xa7, 0x77, 0x73, 0x3e, 0x63, 0xb1, 0x0f, 0xbd, 0x71, 0x65, 0xbb, 0xbe,
  0xdb, 0xbc, 0xd8, 0x3d, 0x46, 0xd4, 0x14, 0xbe, 0x0d, 0x48, 0x30, 0x3e,
  0xa7, 0x4a, 0x8f, 0x3e, 0x61, 0x93, 0xcb, 0xbe, 0xf9, 0x64, 0x26, 0xbe,
  0x39, 0x03, 0x2f, 0x3e, 0x48, 0x01, 0x6a, 0x3e, 0xfb, 0x82, 0xd6, 0x3e,
  0xb5, 0xf5, 0x47, 0xbd, 0x02, 0x77, 0x8e, 0x3e, 0x0e, 0x2a, 0x5e, 0x3b,
  0x13, 0x5c, 0xfe, 0x3c, 0xbd, 0x19, 0xa7, 0x3d, 0xb6, 0xfc, 0xff, 0xff,
  0x04, 0x00, 0x00, 0x00, 0x90, 0x01, 0x00, 0x00, 0xb0, 0x4c, 0x17, 0x3e,
  0x54, 0x79, 0x06, 0x39, 0x18, 0x48, 0x94, 0x3e, 0xa6, 0xb8, 0x6e, 0x3e,
  0x72, 0x58, 0xa2, 0xbd, 0x35, 0x17, 0x8e, 0x3e, 0xd9, 0x73, 0x04, 0xbe,
  0x4b, 0xce, 0x32, 0x3e, 0xf8, 0xef, 0x91, 0x3e, 0x8f, 0xa3, 0xdc, 0xbd,
  0xca, 0x68, 0x92, 0xbe, 0x0d, 0x98, 0xc2, 0x3d, 0x22, 0x31, 0x8c, 0xbe,
  0x4e, 0x59, 0x07, 0x3e, 0x15, 0x0c, 0x21, 0xbd, 0x2d, 0x9c, 0x0d, 0xbd,
  0x12, 0xf3, 0xa1, 0x3d, 0xd1, 0x6f, 0x3d, 0x3d, 0x54, 0xa2, 0xe6, 0xbe,
  0xfe, 0xce, 0xdf, 0x3e, 0x90, 0x7b, 0xda, 0xbc, 0x99, 0x4a, 0xaa, 0xbe,
  0xda, 0x60, 0xe8, 0x3d, 0xb1, 0x11, 0x01, 0x3e, 0x36, 0x73, 0x4a, 0xbd,
  0x4a, 0x91, 0x38, 0xbd, 0x76, 0x10, 0x07, 0x3f, 0xab, 0xfd, 0xfc, 0xbd,
  0x37, 0x4d, 0xc4, 0x3d, 0xaa, 0xf5, 0x0c, 0x3e, 0x2d, 0x3f, 0x5e, 0x3c,
  0xdf, 0xe3, 0x9a, 0xbe, 0x86, 0xb5, 0xa4, 0x3d, 0x94, 0xd4, 0x83, 0x3c,
  0x01, 0xed, 0x07, 0xbe, 0x99, 0x8d, 0xbf, 0xbd, 0x3d, 0xb8, 0x9b, 0x3e,
  0x16, 0x8e, 0x11, 0xbe, 0xc3, 0xd8, 0x62, 0xbe, 0x20, 0x06, 0x54, 0xbe,
  0x2f, 0x0b, 0x67, 0xbe, 0xa0, 0x9f, 0xbe, 0xbd, 0x35, 0x3a, 0x27, 0xbd,
  0x49, 0x22, 0xe2, 0xbc, 0xbd, 0x9b, 0x42, 0x3e, 0x73, 0xf1, 0xbf, 0x3d,
  0xdc, 0x1e, 0x45, 0xbd, 0xfb, 0x66, 0x33, 0xbe, 0x21, 0x7a, 0x18, 0x3e,
  0x25, 0xf1, 0x5f, 0xbd, 0x9f, 0x47, 0x0d, 0x3f, 0x1f, 0xde, 0xa9, 0xbe,
  0xa6, 0x10, 0xdd, 0x3e, 0x1d, 0xac, 0xe2, 0xbd, 0xcc, 0xf7, 0x22, 0xbe,
  0x4e, 0x85, 0x0d, 0x3e, 0x29, 0xad, 0x82, 0x3e, 0x09, 0x59, 0x25, 0x3e,
  0x67, 0x10, 0x61, 0xbd, 0xa6, 0xc2, 0x94, 0xbe, 0xf8, 0x4a, 0x14, 0x3d,
  0xc6, 0xab, 0xd2, 0x3d, 0x9a, 0x52, 0x99, 0x3e, 0xb5, 0xd8, 0x61, 0xbd,
  0xe6, 0x13, 0x5b, 0x3e, 0x85, 0x7d, 0x05, 0xbc, 0xc0, 0xcc, 0xfb, 0x3d,
  0xd9, 0x2c, 0x92, 0x3e, 0x40, 0x8c, 0xfe, 0xbd, 0x50, 0xb7, 0xb8, 0x3a,
  0xbf, 0x52, 0x84, 0xbe, 0x05, 0x11, 0x16, 0x3d, 0x79, 0xcc, 0x9b, 0xbe,
  0x09, 0x55, 0x83, 0xbe, 0x93, 0x15, 0x9b, 0xbd, 0x47, 0x4e, 0x12, 0x3e,
  0xd9, 0x10, 0x54, 0x3e, 0x4b, 0x6b, 0xa0, 0x3e, 0x96, 0x8f, 0xac, 0xbd,
  0xb7, 0x57, 0x7e, 0x3e, 0x80, 0xe3, 0x03, 0x3c, 0x19, 0x30, 0x57, 0x3c,
  0xdb, 0x53, 0x9c, 0x3d, 0xea, 0xd8, 0x0e, 0xbe, 0x79, 0x62, 0x57, 0x3e,
  0xac, 0xf1, 0xf7, 0xbd, 0x68, 0x86, 0xcc, 0x3d, 0x9d, 0x61, 0xb0, 0x3d,
  0x2c, 0x57, 0x92, 0x3c, 0x0f, 0xed, 0xad, 0x3d, 0xf6, 0x28, 0xb2, 0x3e,
  0x8b, 0x03, 0x09, 0xbe, 0x54, 0xd7, 0xd8, 0x3c, 0xb4, 0x9a, 0x07, 0xbf,
  0x66, 0x20, 0x06, 0x3e, 0x68, 0xda, 0x72, 0x3e, 0xc6, 0x57, 0x71, 0x3e,
  0x72, 0x9e, 0x6f, 0xbc, 0x58, 0xfc, 0x0d, 0x3e, 0xe1, 0x3c, 0x19, 0xbe,
  0x52, 0xfe, 0xff, 0xff, 0x04, 0x00, 0x00, 0x00, 0x90, 0x01, 0x00, 0x00,
  0x4b, 0xd3, 0x69, 0x3d, 0x63, 0x3c, 0x32, 0xbe, 0xce, 0xba, 0x16, 0x3f,
  0xad, 0x4d, 0x3d, 0xbe, 0x95, 0xbe, 0x27, 0xbe, 0x08, 0xac, 0x80, 0x3e,
  0xef, 0x73, 0xad, 0x3e, 0xd6, 0x82, 0xbb, 0x3d, 0x07, 0xf9, 0x5d, 0x3e,
  0x6b, 0x3f, 0xd6, 0xbd, 0x87, 0x6e, 0x97, 0x3e, 0x4e, 0x30, 0x76, 0xbd,
  0xfe, 0x84, 0x12, 0x3f, 0xb5, 0xe1, 0x85, 0x3d, 0xcd, 0x85, 0x32, 0xbe,
  0x10, 0x72, 0xb4, 0x3e, 0xda, 0x36, 0xd8, 0x3e, 0x00, 0x30, 0x64, 0x3e,
  0x9c, 0x9a, 0x30, 0xbe, 0xda, 0x6c, 0x6a, 0x3d, 0xc9, 0xb3, 0x66, 0xbe,
  0x60, 0x65, 0xa2, 0xbe, 0xd5, 0x1a, 0xfa, 0x3d, 0x2a, 0x57, 0x9a, 0x3d,
  0x3d, 0x40, 0x11, 0x3d, 0x27, 0xbf, 0x59, 0xbe, 0xbe, 0x6c, 0xab, 0x3d,
  0x41, 0xf5, 0x43, 0x3e, 0xfc, 0x96, 0x0a, 0x3e, 0x1f, 0x3e, 0x54, 0x3e,
  0xe0, 0xb0, 0x45, 0xbd, 0x6a, 0x6b, 0xaf, 0x3e, 0xf5, 0xd5, 0x32, 0x3e,
  0xda, 0xfd, 0x7b, 0x3d, 0xb8, 0xc2, 0xa8, 0xbd, 0x77, 0xa0, 0x1a, 0x3d,
  0x67, 0x23, 0xbf, 0x3e, 0x97, 0xd1, 0x81, 0xbe, 0x1c, 0xc1, 0x35, 0xbc,
  0x1c, 0x24, 0x4c, 0xbe, 0xd4, 0x0f, 0xc8, 0x3e, 0xc9, 0x3f, 0x32, 0xbd,
  0x4e, 0xee, 0xe4, 0x3e, 0x3a, 0xd7, 0x37, 0xbd, 0xe3, 0xe8, 0x36, 0xbd,
  0x23, 0x85, 0x06, 0x3f, 0x1b, 0xd1, 0xbb, 0x3e, 0x58, 0xc0, 0xf5, 0x3d,
  0x7f, 0x16, 0x16, 0xb9, 0xac, 0xdc, 0xda, 0xbd, 0xe7, 0x7e, 0x12, 0x3d,
  0xc8, 0x0d, 0x42, 0xbe, 0x5f, 0xe2, 0x2f, 0xbe, 0xa7, 0x08, 0x4c, 0x3e,
  0xcb, 0x25, 0x51, 0xbe, 0xdb, 0x1f, 0x06, 0x3e, 0x53, 0x08, 0x14, 0xbd,
  0xd2, 0x5b, 0xa9, 0x3b, 0xf3, 0x50, 0xa1, 0x3e, 0xf9, 0x3a, 0x71, 0x3d,
  0xcc, 0xe6, 0x8b, 0x3d, 0xea, 0x14, 0xce, 0xbd, 0x2b, 0xf5, 0xc3, 0x3e,
  0x08, 0xaa, 0x03, 0xb8, 0x18, 0x80, 0x40, 0xbe, 0x88, 0x86, 0x5b, 0xbd,
  0xf7, 0x3a, 0xc6, 0x3e, 0xef, 0x7c, 0x55, 0x3d, 0xbb, 0xec, 0x84, 0xbc,
  0xdc, 0xc1, 0xc5, 0x3d, 0x2d, 0xde, 0xad, 0x3e, 0x6f, 0xab, 0xde, 0xbd,
  0x2f, 0xac, 0x92, 0x3d, 0x4f, 0x58, 0xb6, 0xbe, 0xd2, 0x28, 0x69, 0xbe,
  0x75, 0xe2, 0xe1, 0x3d, 0xa5, 0x00, 0xc5, 0x3d, 0xb3, 0x61, 0x33, 0xbe,
  0x1e, 0xc8, 0xc5, 0xbd, 0x13, 0xf1, 0xe1, 0xbe, 0x42, 0x24, 0xd5, 0x3e,
  0x11, 0x5f, 0x5c, 0x3e, 0x82, 0x69, 0xa6, 0x3e, 0xa1, 0x63, 0xcc, 0x3a,
  0x16, 0x01, 0x8d, 0xbe, 0xb1, 0x09, 0xf1, 0x3e, 0xb5, 0xad, 0xd9, 0x3e,
  0x83, 0x27, 0x55, 0xbe, 0xc4, 0x39, 0x66, 0x3e, 0xb4, 0x45, 0x5b, 0xbd,
  0x78, 0x1c, 0xa9, 0x3b, 0x28, 0xdd, 0xbf, 0xbe, 0xb7, 0x29, 0x04, 0x3f,
  0x2f, 0xd5, 0x1b, 0x3d, 0x2e, 0x08, 0x47, 0xbe, 0x10, 0xe0, 0x06, 0x3f,
  0xf8, 0xf4, 0xdb, 0x3e, 0xa9, 0x34, 0xbd, 0x3e, 0xe8, 0x5d, 0xa2, 0x3e,
  0x5c, 0x63, 0x82, 0xbe, 0xee, 0xff, 0xff, 0xff, 0x04, 0x00, 0x00, 0x00,
  0x04, 0x00, 0x00, 0x00, 0x7a, 0x31, 0xcf, 0x3c, 0x00, 0x00, 0x06, 0x00,
  0x08, 0x00, 0x04, 0x00, 0x06, 0x00, 0x00, 0x00, 0x04, 0x00, 0x00, 0x00,
  0x28, 0x00, 0x00, 0x00, 0x00, 0x00, 0x00, 0x00, 0x00, 0x00, 0x00, 0x00,
  0x00, 0x00, 0x00, 0x00, 0x00, 0x00, 0x00, 0x00, 0x00, 0x00, 0x00, 0x00,
  0x00, 0x00, 0x00, 0x00, 0x00, 0x00, 0x00, 0x00, 0x00, 0x00, 0x00, 0x00,
  0x00, 0x00, 0x00, 0x00, 0x00, 0x00, 0x00, 0x00, 0x70, 0xf7, 0xff, 0xff,
  0x74, 0xf7, 0xff, 0xff, 0x0f, 0x00, 0x00, 0x00, 0x4d, 0x4c, 0x49, 0x52,
  0x20, 0x43, 0x6f, 0x6e, 0x76, 0x65, 0x72, 0x74, 0x65, 0x64, 0x2e, 0x00,
  0x01, 0x00, 0x00, 0x00, 0x14, 0x00, 0x00, 0x00, 0x00, 0x00, 0x0e, 0x00,
  0x18, 0x00, 0x14, 0x00, 0x10, 0x00, 0x0c, 0x00, 0x08, 0x00, 0x04, 0x00,
  0x0e, 0x00, 0x00, 0x00, 0x14, 0x00, 0x00, 0x00, 0x1c, 0x00, 0x00, 0x00,
  0xa4, 0x01, 0x00, 0x00, 0xa8, 0x01, 0x00, 0x00, 0xac, 0x01, 0x00, 0x00,
  0x04, 0x00, 0x00, 0x00, 0x6d, 0x61, 0x69, 0x6e, 0x00, 0x00, 0x00, 0x00,
  0x04, 0x00, 0x00, 0x00, 0xec, 0x00, 0x00, 0x00, 0x7c, 0x00, 0x00, 0x00,
  0x34, 0x00, 0x00, 0x00, 0x10, 0x00, 0x00, 0x00, 0x00, 0x00, 0x0a, 0x00,
  0x10, 0x00, 0x0c, 0x00, 0x08, 0x00, 0x04, 0x00, 0x0a, 0x00, 0x00, 0x00,
  0x0c, 0x00, 0x00, 0x00, 0x10, 0x00, 0x00, 0x00, 0x03, 0x00, 0x00, 0x00,
  0x01, 0x00, 0x00, 0x00, 0x17, 0x00, 0x00, 0x00, 0x01, 0x00, 0x00, 0x00,
  0x16, 0x00, 0x00, 0x00, 0xca, 0xff, 0xff, 0xff, 0x14, 0x00, 0x00, 0x00,
  0x00, 0x00, 0x00, 0x08, 0x10, 0x00, 0x00, 0x00, 0x14, 0x00, 0x00, 0x00,
  0x02, 0x00, 0x00, 0x00, 0x20, 0xf8, 0xff, 0xff, 0x01, 0x00, 0x00, 0x00,
  0x16, 0x00, 0x00, 0x00, 0x03, 0x00, 0x00, 0x00, 0x15, 0x00, 0x00, 0x00,
  0x0f, 0x00, 0x00, 0x00, 0x02, 0x00, 0x00, 0x00, 0x00, 0x00, 0x0e, 0x00,
  0x1a, 0x00, 0x14, 0x00, 0x10, 0x00, 0x0c, 0x00, 0x0b, 0x00, 0x04, 0x00,
  0x0e, 0x00, 0x00, 0x00, 0x24, 0x00, 0x00, 0x00, 0x00, 0x00, 0x00, 0x20,
  0x2c, 0x00, 0x00, 0x00, 0x30, 0x00, 0x00, 0x00, 0x01, 0x00, 0x00, 0x00,
  0x00, 0x00, 0x0e, 0x00, 0x10, 0x00, 0x0c, 0x00, 0x08, 0x00, 0x00, 0x00,
  0x00, 0x00, 0x04, 0x00, 0x0e, 0x00, 0x00, 0x00, 0x02, 0x00, 0x00, 0x00,
  0x05, 0x00, 0x00, 0x00, 0x05, 0x00, 0x00, 0x00, 0x01, 0x00, 0x00, 0x00,
  0x15, 0x00, 0x00, 0x00, 0x04, 0x00, 0x00, 0x00, 0x14, 0x00, 0x00, 0x00,
  0x10, 0x00, 0x00, 0x00, 0x11, 0x00, 0x00, 0x00, 0x12, 0x00, 0x00, 0x00,
  0x00, 0x00, 0x16, 0x00, 0x18, 0x00, 0x00, 0x00, 0x14, 0x00, 0x10, 0x00,
  0x0f, 0x00, 0x08, 0x00, 0x00, 0x00, 0x00, 0x00, 0x00, 0x00, 0x04, 0x00,
  0x16, 0x00, 0x00, 0x00, 0x14, 0x00, 0x00, 0x00, 0x1c, 0x00, 0x00, 0x00,
  0x00, 0x00, 0x00, 0x47, 0x20, 0x00, 0x00, 0x00, 0x24, 0x00, 0x00, 0x00,
  0x00, 0x00, 0x00, 0x00, 0x08, 0x00, 0x0c, 0x00, 0x0b, 0x00, 0x04, 0x00,
  0x08, 0x00, 0x00, 0x00, 0x00, 0x00, 0x20, 0x41, 0x00, 0x00, 0x00, 0x04,
  0x01, 0x00, 0x00, 0x00, 0x14, 0x00, 0x00, 0x00, 0x18, 0x00, 0x00, 0x00,
  0x00, 0x00, 0x00, 0x00, 0x0b, 0x00, 0x00, 0x00, 0x0c, 0x00, 0x00, 0x00,
  0x0d, 0x00, 0x00, 0x00, 0x0e, 0x00, 0x00, 0x00, 0x03, 0x00, 0x00, 0x00,
  0x04, 0x00, 0x00, 0x00, 0x05, 0x00, 0x00, 0x00, 0x06, 0x00, 0x00, 0x00,
  0xff, 0xff, 0xff, 0xff, 0xff, 0xff, 0xff, 0xff, 0xff, 0xff, 0xff, 0xff,
  0x07, 0x00, 0x00, 0x00, 0x08, 0x00, 0x00, 0x00, 0x09, 0x00, 0x00, 0x00,
  0x0a, 0x00, 0x00, 0x00, 0xff, 0xff, 0xff, 0xff, 0xff, 0xff, 0xff, 0xff,
  0x01, 0x00, 0x00, 0x00, 0x13, 0x00, 0x00, 0x00, 0xff, 0xff, 0xff, 0xff,
  0xff, 0xff, 0xff, 0xff, 0xff, 0xff, 0xff, 0xff, 0xff, 0xff, 0xff, 0xff,
  0x01, 0x00, 0x00, 0x00, 0x17, 0x00, 0x00, 0x00, 0x01, 0x00, 0x00, 0x00,
  0x00, 0x00, 0x00, 0x00, 0x18, 0x00, 0x00, 0x00, 0x80, 0x06, 0x00, 0x00,
  0x24, 0x06, 0x00, 0x00, 0xb8, 0x05, 0x00, 0x00, 0x78, 0x05, 0x00, 0x00,
  0x38, 0x05, 0x00, 0x00, 0xf8, 0x04, 0x00, 0x00, 0xb8, 0x04, 0x00, 0x00,
  0x7c, 0x04, 0x00, 0x00, 0x40, 0x04, 0x00, 0x00, 0x04, 0x04, 0x00, 0x00,
  0xc8, 0x03, 0x00, 0x00, 0x88, 0x03, 0x00, 0x00, 0x48, 0x03, 0x00, 0x00,
  0x04, 0x03, 0x00, 0x00, 0xc0, 0x02, 0x00, 0x00, 0x78, 0x02, 0x00, 0x00,
  0x34, 0x02, 0x00, 0x00, 0xd8, 0x01, 0x00, 0x00, 0x94, 0x01, 0x00, 0x00,
  0x50, 0x01, 0x00, 0x00, 0xf8, 0x00, 0x00, 0x00, 0xb4, 0x00, 0x00, 0x00,
  0x50, 0x00, 0x00, 0x00, 0x04, 0x00, 0x00, 0x00, 0xf6, 0xf9, 0xff, 0xff,
  0x00, 0x00, 0x00, 0x01, 0x10, 0x00, 0x00, 0x00, 0x10, 0x00, 0x00, 0x00,
  0x18, 0x00, 0x00, 0x00, 0x28, 0x00, 0x00, 0x00, 0xe0, 0xf9, 0xff, 0xff,
  0x19, 0x00, 0x00, 0x00, 0x53, 0x74, 0x61, 0x74, 0x65, 0x66, 0x75, 0x6c,
  0x50, 0x61, 0x72, 0x74, 0x69, 0x74, 0x69, 0x6f, 0x6e, 0x65, 0x64, 0x43,
  0x61, 0x6c, 0x6c, 0x3a, 0x30, 0x00, 0x00, 0x00, 0x02, 0x00, 0x00, 0x00,
  0x01, 0x00, 0x00, 0x00, 0x01, 0x00, 0x00, 0x00, 0x3e, 0xfa, 0xff, 0xff,
  0x00, 0x00, 0x00, 0x01, 0x10, 0x00, 0x00, 0x00, 0x10, 0x00, 0x00, 0x00,
  0x17, 0x00, 0x00, 0x00, 0x40, 0x00, 0x00, 0x00, 0x28, 0xfa, 0xff, 0xff,
  0x30, 0x00, 0x00, 0x00, 0x73, 0x65, 0x71, 0x75, 0x65, 0x6e, 0x74, 0x69,
  0x61, 0x6c, 0x2f, 0x64, 0x65, 0x6e, 0x73, 0x65, 0x2f, 0x4d, 0x61, 0x74,
  0x4d, 0x75, 0x6c, 0x3b, 0x73, 0x65, 0x71, 0x75, 0x65, 0x6e, 0x74, 0x69,
  0x61, 0x6c, 0x2f, 0x64, 0x65, 0x6e, 0x73, 0x65, 0x2f, 0x42, 0x69, 0x61,
  0x73, 0x41, 0x64, 0x64, 0x00, 0x00, 0x00, 0x00, 0x02, 0x00, 0x00, 0x00,
  0x01, 0x00, 0x00, 0x00, 0x01, 0x00, 0x00, 0x00, 0x9e, 0xfa, 0xff, 0xff,
  0x00, 0x00, 0x00, 0x01, 0x10, 0x00, 0x00, 0x00, 0x10, 0x00, 0x00, 0x00,
  0x16, 0x00, 0x00, 0x00, 0x20, 0x00, 0x00, 0x00, 0x88, 0xfa, 0xff, 0xff,
  0x11, 0x00, 0x00, 0x00, 0x74, 0x66, 0x6c, 0x2e, 0x73, 0x74, 0x72, 0x69,
  0x64, 0x65, 0x64, 0x5f, 0x73, 0x6c, 0x69, 0x63, 0x65, 0x00, 0x00, 0x00,
  0x02, 0x00, 0x00, 0x00, 0x01, 0x00, 0x00, 0x00, 0x0a, 0x00, 0x00, 0x00,
  0xde, 0xfa, 0xff, 0xff, 0x00, 0x00, 0x00, 0x01, 0x10, 0x00, 0x00, 0x00,
  0x10, 0x00, 0x00, 0x00, 0x15, 0x00, 0x00, 0x00, 0x30, 0x00, 0x00, 0x00,
  0xc8, 0xfa, 0xff, 0xff, 0x20, 0x00, 0x00, 0x00, 0x74, 0x66, 0x6c, 0x2e,
  0x75, 0x6e, 0x69, 0x64, 0x69, 0x72, 0x65, 0x63, 0x74, 0x69, 0x6f, 0x6e,
  0x61, 0x6c, 0x5f, 0x73, 0x65, 0x71, 0x75, 0x65, 0x6e, 0x63, 0x65, 0x5f,
  0x6c, 0x73, 0x74, 0x6d, 0x00, 0x00, 0x00, 0x00, 0x03, 0x00, 0x00, 0x00,
  0x01, 0x00, 0x00, 0x00, 0x14, 0x00, 0x00, 0x00, 0x0a, 0x00, 0x00, 0x00,
  0x8a, 0xfb, 0xff, 0xff, 0x00, 0x00, 0x01, 0x01, 0x0c, 0x00, 0x00, 0x00,
  0x0c, 0x00, 0x00, 0x00, 0x24, 0x00, 0x00, 0x00, 0x18, 0xfb, 0xff, 0xff,
  0x16, 0x00, 0x00, 0x00, 0x73, 0x65, 0x71, 0x75, 0x65, 0x6e, 0x74, 0x69,
  0x61, 0x6c, 0x2f, 0x6c, 0x73, 0x74, 0x6d, 0x2f, 0x7a, 0x65, 0x72, 0x6f,
  0x73, 0x31, 0x00, 0x00, 0x02, 0x00, 0x00, 0x00, 0x01, 0x00, 0x00, 0x00,
  0x0a, 0x00, 0x00, 0x00, 0x7e, 0xff, 0xff, 0xff, 0x00, 0x00, 0x00, 0x01,
  0x14, 0x00, 0x00, 0x00, 0x14, 0x00, 0x00, 0x00, 0x13, 0x00, 0x00, 0x00,
  0x00, 0x00, 0x00, 0x02, 0x20, 0x00, 0x00, 0x00, 0x60, 0xfb, 0xff, 0xff,
  0x10, 0x00, 0x00, 0x00, 0x61, 0x72, 0x69, 0x74, 0x68, 0x2e, 0x63, 0x6f,
  0x6e, 0x73, 0x74, 0x61, 0x6e, 0x74, 0x31, 0x34, 0x00, 0x00, 0x00, 0x00,
  0x01, 0x00, 0x00, 0x00, 0x03, 0x00, 0x00, 0x00, 0xbe, 0xff, 0xff, 0xff,
  0x00, 0x00, 0x00, 0x01, 0x14, 0x00, 0x00, 0x00, 0x14, 0x00, 0x00, 0x00,
  0x12, 0x00, 0x00, 0x00, 0x00, 0x00, 0x00, 0x02, 0x20, 0x00, 0x00, 0x00,
  0xa0, 0xfb, 0xff, 0xff, 0x10, 0x00, 0x00, 0x00, 0x61, 0x72, 0x69, 0x74,
  0x68, 0x2e, 0x63, 0x6f, 0x6e, 0x73, 0x74, 0x61, 0x6e, 0x74, 0x31, 0x33,
  0x00, 0x00, 0x00, 0x00, 0x01, 0x00, 0x00, 0x00, 0x03, 0x00, 0x00, 0x00,
  0x00, 0x00, 0x16, 0x00, 0x1c, 0x00, 0x18, 0x00, 0x17, 0x00, 0x10, 0x00,
  0x0c, 0x00, 0x08, 0x00, 0x00, 0x00, 0x00, 0x00, 0x00, 0x00, 0x07, 0x00,
  0x16, 0x00, 0x00, 0x00, 0x00, 0x00, 0x00, 0x01, 0x14, 0x00, 0x00, 0x00,
  0x14, 0x00, 0x00, 0x00, 0x11, 0x00, 0x00, 0x00, 0x00, 0x00, 0x00, 0x02,
  0x20, 0x00, 0x00, 0x00, 0xf8, 0xfb, 0xff, 0xff, 0x10, 0x00, 0x00, 0x00,
  0x61, 0x72, 0x69, 0x74, 0x68, 0x2e, 0x63, 0x6f, 0x6e, 0x73, 0x74, 0x61,
  0x6e, 0x74, 0x31, 0x32, 0x00, 0x00, 0x00, 0x00, 0x01, 0x00, 0x00, 0x00,
  0x03, 0x00, 0x00, 0x00, 0x4a, 0xfc, 0xff, 0xff, 0x00, 0x00, 0x00, 0x01,
  0x10, 0x00, 0x00, 0x00, 0x10, 0x00, 0x00, 0x00, 0x10, 0x00, 0x00, 0x00,
  0x24, 0x00, 0x00, 0x00, 0x34, 0xfc, 0xff, 0xff, 0x17, 0x00, 0x00, 0x00,
  0x73, 0x65, 0x71, 0x75, 0x65, 0x6e, 0x74, 0x69, 0x61, 0x6c, 0x2f, 0x64,
  0x65, 0x6e, 0x73, 0x65, 0x2f, 0x4d, 0x61, 0x74, 0x4d, 0x75, 0x6c, 0x00,
  0x02, 0x00, 0x00, 0x00, 0x01, 0x00, 0x00, 0x00, 0x0a, 0x00, 0x00, 0x00,
  0x8e, 0xfc, 0xff, 0xff, 0x00, 0x00, 0x00, 0x01, 0x10, 0x00, 0x00, 0x00,
  0x10, 0x00, 0x00, 0x00, 0x0f, 0x00, 0x00, 0x00, 0x20, 0x00, 0x00, 0x00,
  0x78, 0xfc, 0xff, 0xff, 0x10, 0x00, 0x00, 0x00, 0x61, 0x72, 0x69, 0x74,
  0x68, 0x2e, 0x63, 0x6f, 0x6e, 0x73, 0x74, 0x61, 0x6e, 0x74, 0x31, 0x31,
  0x00, 0x00, 0x00, 0x00, 0x02, 0x00, 0x00, 0x00, 0x0a, 0x00, 0x00, 0x00,
  0x40, 0x00, 0x00, 0x00, 0xce, 0xfc, 0xff, 0xff, 0x00, 0x00, 0x00, 0x01,
  0x10, 0x00, 0x00, 0x00, 0x10, 0x00, 0x00, 0x00, 0x0e, 0x00, 0x00, 0x00,
  0x20, 0x00, 0x00, 0x00, 0xb8, 0xfc, 0xff, 0xff, 0x10, 0x00, 0x00, 0x00,
  0x61, 0x72, 0x69, 0x74, 0x68, 0x2e, 0x63, 0x6f, 0x6e, 0x73, 0x74, 0x61,
  0x6e, 0x74, 0x31, 0x30, 0x00, 0x00, 0x00, 0x00, 0x02, 0x00, 0x00, 0x00,
  0x0a, 0x00, 0x00, 0x00, 0x40, 0x00, 0x00, 0x00, 0x0e, 0xfd, 0xff, 0xff,
  0x00, 0x00, 0x00, 0x01, 0x10, 0x00, 0x00, 0x00, 0x10, 0x00, 0x00, 0x00,
  0x0d, 0x00, 0x00, 0x00, 0x1c, 0x00, 0x00, 0x00, 0xf8, 0xfc, 0xff, 0xff,
  0x0f, 0x00, 0x00, 0x00, 0x61, 0x72, 0x69, 0x74, 0x68, 0x2e, 0x63, 0x6f,
  0x6e, 0x73, 0x74, 0x61, 0x6e, 0x74, 0x39, 0x00, 0x02, 0x00, 0x00, 0x00,
  0x0a, 0x00, 0x00, 0x00, 0x40, 0x00, 0x00, 0x00, 0x4a, 0xfd, 0xff, 0xff,
  0x00, 0x00, 0x00, 0x01, 0x10, 0x00, 0x00, 0x00, 0x10, 0x00, 0x00, 0x00,
  0x0c, 0x00, 0x00, 0x00, 0x1c, 0x00, 0x00, 0x00, 0x34, 0xfd, 0xff, 0xff,
  0x0f, 0x00, 0x00, 0x00, 0x61, 0x72, 0x69, 0x74, 0x68, 0x2e, 0x63, 0x6f,
  0x6e, 0x73, 0x74, 0x61, 0x6e, 0x74, 0x38, 0x00, 0x02, 0x00, 0x00, 0x00,
  0x0a, 0x00, 0x00, 0x00, 0x40, 0x00, 0x00, 0x00, 0x86, 0xfd, 0xff, 0xff,
  0x00, 0x00, 0x00, 0x01, 0x10, 0x00, 0x00, 0x00, 0x10, 0x00, 0x00, 0x00,
  0x0b, 0x00, 0x00, 0x00, 0x1c, 0x00, 0x00, 0x00, 0x70, 0xfd, 0xff, 0xff,
  0x0f, 0x00, 0x00, 0x00, 0x61, 0x72, 0x69, 0x74, 0x68, 0x2e, 0x63, 0x6f,
  0x6e, 0x73, 0x74, 0x61, 0x6e, 0x74, 0x37, 0x00, 0x01, 0x00, 0x00, 0x00,
  0x0a, 0x00, 0x00, 0x00, 0xbe, 0xfd, 0xff, 0xff, 0x00, 0x00, 0x00, 0x01,
  0x10, 0x00, 0x00, 0x00, 0x10, 0x00, 0x00, 0x00, 0x0a, 0x00, 0x00, 0x00,
  0x1c, 0x00, 0x00, 0x00, 0xa8, 0xfd, 0xff, 0xff, 0x0f, 0x00, 0x00, 0x00,
  0x61, 0x72, 0x69, 0x74, 0x68, 0x2e, 0x63, 0x6f, 0x6e, 0x73, 0x74, 0x61,
  0x6e, 0x74, 0x36, 0x00, 0x01, 0x00, 0x00, 0x00, 0x0a, 0x00, 0x00, 0x00,
  0xf6, 0xfd, 0xff, 0xff, 0x00, 0x00, 0x00, 0x01, 0x10, 0x00, 0x00, 0x00,
  0x10, 0x00, 0x00, 0x00, 0x09, 0x00, 0x00, 0x00, 0x1c, 0x00, 0x00, 0x00,
  0xe0, 0xfd, 0xff, 0xff, 0x0f, 0x00, 0x00, 0x00, 0x61, 0x72, 0x69, 0x74,
  0x68, 0x2e, 0x63, 0x6f, 0x6e, 0x73, 0x74, 0x61, 0x6e, 0x74, 0x35, 0x00,
  0x01, 0x00, 0x00, 0x00, 0x0a, 0x00, 0x00, 0x00, 0x2e, 0xfe, 0xff, 0xff,
  0x00, 0x00, 0x00, 0x01, 0x10, 0x00, 0x00, 0x00, 0x10, 0x00, 0x00, 0x00,
  0x08, 0x00, 0x00, 0x00, 0x1c, 0x00, 0x00, 0x00, 0x18, 0xfe, 0xff, 0xff,
  0x0f, 0x00, 0x00, 0x00, 0x61, 0x72, 0x69, 0x74, 0x68, 0x2e, 0x63, 0x6f,
  0x6e, 0x73, 0x74, 0x61, 0x6e, 0x74, 0x34, 0x00, 0x01, 0x00, 0x00, 0x00,
  0x0a, 0x00, 0x00, 0x00, 0x66, 0xfe, 0xff, 0xff, 0x00, 0x00, 0x00, 0x01,
  0x10, 0x00, 0x00, 0x00, 0x10, 0x00, 0x00, 0x00, 0x07, 0x00, 0x00, 0x00,
  0x1c, 0x00, 0x00, 0x00, 0x50, 0xfe, 0xff, 0xff, 0x0f, 0x00, 0x00, 0x00,
  0x61, 0x72, 0x69, 0x74, 0x68, 0x2e, 0x63, 0x6f, 0x6e, 0x73, 0x74, 0x61,
  0x6e, 0x74, 0x33, 0x00, 0x02, 0x00, 0x00, 0x00, 0x0a, 0x00, 0x00, 0x00,
  0x0a, 0x00, 0x00, 0x00, 0xa2, 0xfe, 0xff, 0xff, 0x00, 0x00, 0x00, 0x01,
  0x10, 0x00, 0x00, 0x00, 0x10, 0x00, 0x00, 0x00, 0x06, 0x00, 0x00, 0x00,
  0x1c, 0x00, 0x00, 0x00, 0x8c, 0xfe, 0xff, 0xff, 0x0f, 0x00, 0x00, 0x00,
  0x61, 0x72, 0x69, 0x74, 0x68, 0x2e, 0x63, 0x6f, 0x6e, 0x73, 0x74, 0x61,
  0x6e, 0x74, 0x32, 0x00, 0x02, 0x00, 0x00, 0x00, 0x0a, 0x00, 0x00, 0x00,
  0x0a, 0x00, 0x00, 0x00, 0xde, 0xfe, 0xff, 0xff, 0x00, 0x00, 0x00, 0x01,
  0x10, 0x00, 0x00, 0x00, 0x10, 0x00, 0x00, 0x00, 0x05, 0x00, 0x00, 0x00,
  0x1c, 0x00, 0x00, 0x00, 0xc8, 0xfe, 0xff, 0xff, 0x0f, 0x00, 0x00, 0x00,
  0x61, 0x72, 0x69, 0x74, 0x68, 0x2e, 0x63, 0x6f, 0x6e, 0x73, 0x74, 0x61,
  0x6e, 0x74, 0x31, 0x00, 0x02, 0x00, 0x00, 0x00, 0x0a, 0x00, 0x00, 0x00,
  0x0a, 0x00, 0x00, 0x00, 0x1a, 0xff, 0xff, 0xff, 0x00, 0x00, 0x00, 0x01,
  0x10, 0x00, 0x00, 0x00, 0x10, 0x00, 0x00, 0x00, 0x04, 0x00, 0x00, 0x00,
  0x1c, 0x00, 0x00, 0x00, 0x04, 0xff, 0xff, 0xff, 0x0e, 0x00, 0x00, 0x00,
  0x61, 0x72, 0x69, 0x74, 0x68, 0x2e, 0x63, 0x6f, 0x6e, 0x73, 0x74, 0x61,
  0x6e, 0x74, 0x00, 0x00, 0x02, 0x00, 0x00, 0x00, 0x0a, 0x00, 0x00, 0x00,
  0x0a, 0x00, 0x00, 0x00, 0x56, 0xff, 0xff, 0xff, 0x00, 0x00, 0x00, 0x01,
  0x10, 0x00, 0x00, 0x00, 0x10, 0x00, 0x00, 0x00, 0x03, 0x00, 0x00, 0x00,
  0x34, 0x00, 0x00, 0x00, 0x40, 0xff, 0xff, 0xff, 0x27, 0x00, 0x00, 0x00,
  0x73, 0x65, 0x71, 0x75, 0x65, 0x6e, 0x74, 0x69, 0x61, 0x6c, 0x2f, 0x64,
  0x65, 0x6e, 0x73, 0x65, 0x2f, 0x42, 0x69, 0x61, 0x73, 0x41, 0x64, 0x64,
  0x2f, 0x52, 0x65, 0x61, 0x64, 0x56, 0x61, 0x72, 0x69, 0x61, 0x62, 0x6c,
  0x65, 0x4f, 0x70, 0x00, 0x01, 0x00, 0x00, 0x00, 0x01, 0x00, 0x00, 0x00,
  0x00, 0x00, 0x16, 0x00, 0x14, 0x00, 0x10, 0x00, 0x00, 0x00, 0x00, 0x00,
  0x0c, 0x00, 0x08, 0x00, 0x07, 0x00, 0x00, 0x00, 0x00, 0x00, 0x06, 0x00,
  0x16, 0x00, 0x00, 0x00, 0x00, 0x00, 0x01, 0x01, 0x0c, 0x00, 0x00, 0x00,
  0x0c, 0x00, 0x00, 0x00, 0x24, 0x00, 0x00, 0x00, 0xa4, 0xff, 0xff, 0xff,
  0x15, 0x00, 0x00, 0x00, 0x73, 0x65, 0x71, 0x75, 0x65, 0x6e, 0x74, 0x69,
  0x61, 0x6c, 0x2f, 0x6c, 0x73, 0x74, 0x6d, 0x2f, 0x7a, 0x65, 0x72, 0x6f,
  0x73, 0x00, 0x00, 0x00, 0x02, 0x00, 0x00, 0x00, 0x01, 0x00, 0x00, 0x00,
  0x0a, 0x00, 0x00, 0x00, 0x00, 0x00, 0x16, 0x00, 0x18, 0x00, 0x14, 0x00,
  0x00, 0x00, 0x10, 0x00, 0x0c, 0x00, 0x08, 0x00, 0x00, 0x00, 0x00, 0x00,
  0x00, 0x00, 0x07, 0x00, 0x16, 0x00, 0x00, 0x00, 0x00, 0x00, 0x00, 0x01,
  0x14, 0x00, 0x00, 0x00, 0x14, 0x00, 0x00, 0x00, 0x01, 0x00, 0x00, 0x00,
  0x30, 0x00, 0x00, 0x00, 0x04, 0x00, 0x04, 0x00, 0x04, 0x00, 0x00, 0x00,
  0x1c, 0x00, 0x00, 0x00, 0x73, 0x65, 0x72, 0x76, 0x69, 0x6e, 0x67, 0x5f,
  0x64, 0x65, 0x66, 0x61, 0x75, 0x6c, 0x74, 0x5f, 0x6c, 0x73, 0x74, 0x6d,
  0x5f, 0x69, 0x6e, 0x70, 0x75, 0x74, 0x3a, 0x30, 0x00, 0x00, 0x00, 0x00,
  0x03, 0x00, 0x00, 0x00, 0x01, 0x00, 0x00, 0x00, 0x14, 0x00, 0x00, 0x00,
  0x40, 0x00, 0x00, 0x00, 0x04, 0x00, 0x00, 0x00, 0x40, 0x00, 0x00, 0x00,
  0x24, 0x00, 0x00, 0x00, 0x14, 0x00, 0x00, 0x00, 0x04, 0x00, 0x00, 0x00,
  0xdc, 0xff, 0xff, 0xff, 0x0e, 0x00, 0x00, 0x00, 0x00, 0x00, 0x00, 0x0e,
  0xe8, 0xff, 0xff, 0xff, 0x09, 0x00, 0x00, 0x00, 0x00, 0x00, 0x00, 0x09,
  0xf4, 0xff, 0xff, 0xff, 0x2d, 0x00, 0x00, 0x00, 0x00, 0x00, 0x00, 0x2d,
  0x0c, 0x00, 0x0c, 0x00, 0x0b, 0x00, 0x00, 0x00, 0x00, 0x00, 0x04, 0x00,
  0x0c, 0x00, 0x00, 0x00, 0x2c, 0x00, 0x00, 0x00, 0x00, 0x00, 0x00, 0x2c};
unsigned int model_tflite_len = 15240;

unsigned char* get_model_data() {
  return (unsigned char*)g_tof_detector_model_data;
}
