/* Copyright 2019 The TensorFlow Authors. All Rights Reserved.

Licensed under the Apache License, Version 2.0 (the "License");
you may not use this file except in compliance with the License.
You may obtain a copy of the License at

    http://www.apache.org/licenses/LICENSE-2.0

Unless required by applicable law or agreed to in writing, software
distributed under the License is distributed on an "AS IS" BASIS,
WITHOUT WARRANTIES OR CONDITIONS OF ANY KIND, either express or implied.
See the License for the specific language governing permissions and
limitations under the License.
==============================================================================*/

// Automatically created from a TensorFlow Lite flatbuffer using the command:
// xxd -i magic_wand_model.tflite > magic_wand_model_data.cc
// See the README for a full description of the creation process.

// We need to keep the data array aligned on some architectures.
#ifdef __has_attribute
#define HAVE_ATTRIBUTE(x) __has_attribute(x)
#else
#define HAVE_ATTRIBUTE(x) 0
#endif
#if HAVE_ATTRIBUTE(aligned) || (defined(__GNUC__) && !defined(__clang__))
#define DATA_ALIGN_ATTRIBUTE __attribute__((aligned(4)))
#else
#define DATA_ALIGN_ATTRIBUTE
#endif

const unsigned char g_tof_detector_model_data[] DATA_ALIGN_ATTRIBUTE = {
  0x1c, 0x00, 0x00, 0x00, 0x54, 0x46, 0x4c, 0x33, 0x14, 0x00, 0x20, 0x00,
  0x1c, 0x00, 0x18, 0x00, 0x14, 0x00, 0x10, 0x00, 0x0c, 0x00, 0x00, 0x00,
  0x08, 0x00, 0x04, 0x00, 0x14, 0x00, 0x00, 0x00, 0x1c, 0x00, 0x00, 0x00,
  0x84, 0x00, 0x00, 0x00, 0xdc, 0x00, 0x00, 0x00, 0x48, 0x32, 0x00, 0x00,
  0x58, 0x32, 0x00, 0x00, 0x04, 0x3b, 0x00, 0x00, 0x03, 0x00, 0x00, 0x00,
  0x01, 0x00, 0x00, 0x00, 0x04, 0x00, 0x00, 0x00, 0x6a, 0xcd, 0xff, 0xff,
  0x0c, 0x00, 0x00, 0x00, 0x1c, 0x00, 0x00, 0x00, 0x38, 0x00, 0x00, 0x00,
  0x0f, 0x00, 0x00, 0x00, 0x73, 0x65, 0x72, 0x76, 0x69, 0x6e, 0x67, 0x5f,
  0x64, 0x65, 0x66, 0x61, 0x75, 0x6c, 0x74, 0x00, 0x01, 0x00, 0x00, 0x00,
  0x04, 0x00, 0x00, 0x00, 0x98, 0xff, 0xff, 0xff, 0x17, 0x00, 0x00, 0x00,
  0x04, 0x00, 0x00, 0x00, 0x05, 0x00, 0x00, 0x00, 0x64, 0x65, 0x6e, 0x73,
  0x65, 0x00, 0x00, 0x00, 0x01, 0x00, 0x00, 0x00, 0x04, 0x00, 0x00, 0x00,
  0x5e, 0xce, 0xff, 0xff, 0x04, 0x00, 0x00, 0x00, 0x0a, 0x00, 0x00, 0x00,
  0x6c, 0x73, 0x74, 0x6d, 0x5f, 0x69, 0x6e, 0x70, 0x75, 0x74, 0x00, 0x00,
  0x02, 0x00, 0x00, 0x00, 0x34, 0x00, 0x00, 0x00, 0x04, 0x00, 0x00, 0x00,
  0xdc, 0xff, 0xff, 0xff, 0x1a, 0x00, 0x00, 0x00, 0x04, 0x00, 0x00, 0x00,
  0x13, 0x00, 0x00, 0x00, 0x43, 0x4f, 0x4e, 0x56, 0x45, 0x52, 0x53, 0x49,
  0x4f, 0x4e, 0x5f, 0x4d, 0x45, 0x54, 0x41, 0x44, 0x41, 0x54, 0x41, 0x00,
  0x08, 0x00, 0x0c, 0x00, 0x08, 0x00, 0x04, 0x00, 0x08, 0x00, 0x00, 0x00,
  0x19, 0x00, 0x00, 0x00, 0x04, 0x00, 0x00, 0x00, 0x13, 0x00, 0x00, 0x00,
  0x6d, 0x69, 0x6e, 0x5f, 0x72, 0x75, 0x6e, 0x74, 0x69, 0x6d, 0x65, 0x5f,
  0x76, 0x65, 0x72, 0x73, 0x69, 0x6f, 0x6e, 0x00, 0x1b, 0x00, 0x00, 0x00,
  0x68, 0x31, 0x00, 0x00, 0x60, 0x31, 0x00, 0x00, 0x28, 0x31, 0x00, 0x00,
  0x0c, 0x31, 0x00, 0x00, 0x6c, 0x2f, 0x00, 0x00, 0xcc, 0x2d, 0x00, 0x00,
  0x2c, 0x2c, 0x00, 0x00, 0x8c, 0x2a, 0x00, 0x00, 0x54, 0x2a, 0x00, 0x00,
  0x1c, 0x2a, 0x00, 0x00, 0xe4, 0x29, 0x00, 0x00, 0xac, 0x29, 0x00, 0x00,
  0x9c, 0x1f, 0x00, 0x00, 0x8c, 0x15, 0x00, 0x00, 0x7c, 0x0b, 0x00, 0x00,
  0x6c, 0x01, 0x00, 0x00, 0x34, 0x01, 0x00, 0x00, 0x18, 0x01, 0x00, 0x00,
  0xfc, 0x00, 0x00, 0x00, 0xe0, 0x00, 0x00, 0x00, 0xa8, 0x00, 0x00, 0x00,
  0xa0, 0x00, 0x00, 0x00, 0x98, 0x00, 0x00, 0x00, 0x90, 0x00, 0x00, 0x00,
  0x88, 0x00, 0x00, 0x00, 0x68, 0x00, 0x00, 0x00, 0x04, 0x00, 0x00, 0x00,
  0x42, 0xcf, 0xff, 0xff, 0x04, 0x00, 0x00, 0x00, 0x54, 0x00, 0x00, 0x00,
  0x0c, 0x00, 0x00, 0x00, 0x08, 0x00, 0x0e, 0x00, 0x08, 0x00, 0x04, 0x00,
  0x08, 0x00, 0x00, 0x00, 0x10, 0x00, 0x00, 0x00, 0x24, 0x00, 0x00, 0x00,
  0x00, 0x00, 0x06, 0x00, 0x08, 0x00, 0x04, 0x00, 0x06, 0x00, 0x00, 0x00,
  0x04, 0x00, 0x00, 0x00, 0x00, 0x00, 0x00, 0x00, 0x00, 0x00, 0x0a, 0x00,
  0x10, 0x00, 0x0c, 0x00, 0x08, 0x00, 0x04, 0x00, 0x0a, 0x00, 0x00, 0x00,
  0x02, 0x00, 0x00, 0x00, 0x02, 0x00, 0x00, 0x00, 0x04, 0x00, 0x00, 0x00,
  0x06, 0x00, 0x00, 0x00, 0x32, 0x2e, 0x31, 0x35, 0x2e, 0x30, 0x00, 0x00,
  0xa2, 0xcf, 0xff, 0xff, 0x04, 0x00, 0x00, 0x00, 0x10, 0x00, 0x00, 0x00,
  0x31, 0x2e, 0x31, 0x34, 0x2e, 0x30, 0x00, 0x00, 0x00, 0x00, 0x00, 0x00,
  0x00, 0x00, 0x00, 0x00, 0xf4, 0xc6, 0xff, 0xff, 0xf8, 0xc6, 0xff, 0xff,
  0xfc, 0xc6, 0xff, 0xff, 0x00, 0xc7, 0xff, 0xff, 0xce, 0xcf, 0xff, 0xff,
  0x04, 0x00, 0x00, 0x00, 0x28, 0x00, 0x00, 0x00, 0x00, 0x00, 0x00, 0x00,
  0x00, 0x00, 0x00, 0x00, 0x00, 0x00, 0x00, 0x00, 0x00, 0x00, 0x00, 0x00,
  0x00, 0x00, 0x00, 0x00, 0x00, 0x00, 0x00, 0x00, 0x00, 0x00, 0x00, 0x00,
  0x00, 0x00, 0x00, 0x00, 0x00, 0x00, 0x00, 0x00, 0x00, 0x00, 0x00, 0x00,
  0x02, 0xd0, 0xff, 0xff, 0x04, 0x00, 0x00, 0x00, 0x0c, 0x00, 0x00, 0x00,
  0x01, 0x00, 0x00, 0x00, 0x01, 0x00, 0x00, 0x00, 0x01, 0x00, 0x00, 0x00,
  0x1a, 0xd0, 0xff, 0xff, 0x04, 0x00, 0x00, 0x00, 0x0c, 0x00, 0x00, 0x00,
  0x00, 0x00, 0x00, 0x00, 0x00, 0x00, 0x00, 0x00, 0x00, 0x00, 0x00, 0x00,
  0x32, 0xd0, 0xff, 0xff, 0x04, 0x00, 0x00, 0x00, 0x0c, 0x00, 0x00, 0x00,
  0x00, 0x00, 0x00, 0x00, 0xff, 0xff, 0xff, 0xff, 0x00, 0x00, 0x00, 0x00,
  0x4a, 0xd0, 0xff, 0xff, 0x04, 0x00, 0x00, 0x00, 0x28, 0x00, 0x00, 0x00,
  0xb0, 0x6e, 0xa4, 0x3f, 0x66, 0xcb, 0xae, 0x3f, 0x1d, 0xec, 0xbe, 0x3f,
  0x7e, 0xf0, 0x9e, 0x3f, 0x2e, 0xb3, 0x01, 0x3d, 0xe0, 0xc4, 0xdb, 0x3e,
  0xf8, 0xab, 0x96, 0x3f, 0xb3, 0xf0, 0x98, 0x3f, 0x37, 0x87, 0x9a, 0xbf,
  0x8e, 0x64, 0x58, 0xbf, 0x7e, 0xd0, 0xff, 0xff, 0x04, 0x00, 0x00, 0x00,
  0x00, 0x0a, 0x00, 0x00, 0x97, 0x08, 0xd1, 0x3e, 0xd3, 0x66, 0xdf, 0x3e,
  0x01, 0x34, 0xe2, 0x3e, 0x87, 0xdf, 0xb8, 0x3e, 0x5f, 0xc9, 0xc2, 0x3c,
  0xb1, 0xe7, 0x97, 0x3e, 0x54, 0x0b, 0x93, 0x3e, 0x61, 0xea, 0xbb, 0x3e,
  0x45, 0xdb, 0x56, 0x3e, 0xfb, 0x4a, 0x8c, 0x3e, 0xa8, 0xd9, 0x3b, 0x3e,
  0x40, 0x4c, 0xe7, 0xbd, 0x4c, 0x8c, 0x39, 0x3e, 0x49, 0x59, 0xea, 0xbd,
  0xc7, 0x61, 0xb8, 0x3e, 0x58, 0xc4, 0xa7, 0x3d, 0x9e, 0xeb, 0xc5, 0x3e,
  0x71, 0x90, 0xd1, 0x3d, 0x85, 0xf0, 0xa5, 0xbd, 0x50, 0xbc, 0xfc, 0xbe,
  0x90, 0x7c, 0x3b, 0xbe, 0x5e, 0x0b, 0x40, 0xbd, 0x90, 0x2b, 0xdf, 0xbd,
  0x40, 0x8b, 0x3a, 0xbe, 0x0e, 0xb5, 0x98, 0x3e, 0xbc, 0x4c, 0x93, 0x3d,
  0x09, 0xd0, 0x92, 0xbe, 0x54, 0x30, 0x08, 0xbf, 0x64, 0x5e, 0xcc, 0xbe,
  0xaa, 0xbf, 0xc4, 0xbe, 0xac, 0x1e, 0x3f, 0xbe, 0xca, 0x00, 0x8a, 0x3d,
  0x4e, 0xef, 0xa5, 0x3e, 0xb9, 0xe8, 0xf9, 0x3d, 0x33, 0x95, 0x7f, 0xbe,
  0xab, 0x5d, 0x83, 0xbe, 0x73, 0x58, 0xb6, 0xbe, 0x9c, 0x3f, 0xae, 0xbd,
  0x32, 0x65, 0xa5, 0xbe, 0x19, 0xe5, 0x52, 0x3e, 0xd9, 0x5b, 0x11, 0x3e,
  0x9e, 0x11, 0xa0, 0xbd, 0xb3, 0xa0, 0x91, 0x3e, 0x12, 0x3a, 0xa2, 0x3c,
  0x10, 0x88, 0x15, 0xbe, 0xd5, 0x5c, 0xcc, 0xbe, 0xea, 0xaa, 0x69, 0x3e,
  0xd7, 0x32, 0x4a, 0x3e, 0x27, 0xa2, 0xb2, 0x3e, 0x27, 0xbb, 0xa5, 0x3e,
  0x40, 0xb7, 0x7c, 0x3e, 0xb7, 0xaf, 0xa8, 0x3e, 0x00, 0x70, 0x9a, 0x3e,
  0xe3, 0xbd, 0x82, 0x3e, 0x00, 0xf0, 0x39, 0xbe, 0x7e, 0x18, 0xd8, 0xbd,
  0xf6, 0xfc, 0xfc, 0x3e, 0x89, 0x4e, 0x30, 0x3e, 0x94, 0x3e, 0x8c, 0x3e,
  0xc4, 0x0d, 0xbe, 0x3e, 0xdc, 0xbb, 0xb9, 0x3c, 0x3d, 0xc7, 0x17, 0x3e,
  0x87, 0xfd, 0x06, 0xbe, 0x05, 0xf8, 0xfb, 0xbd, 0xed, 0x09, 0xe4, 0x3e,
  0x5d, 0xe8, 0x48, 0x3e, 0xa7, 0xb1, 0x02, 0x3f, 0xe2, 0xa0, 0x9b, 0x3d,
  0xfb, 0x1b, 0x9a, 0x3e, 0xd5, 0xa1, 0x0d, 0x3e, 0xa1, 0xb7, 0x96, 0x3e,
  0x74, 0x01, 0x65, 0x3e, 0x55, 0x23, 0xef, 0x3e, 0x82, 0xb1, 0x38, 0xbd,
  0x8e, 0xd4, 0x3a, 0xbe, 0x12, 0xbe, 0x00, 0xbe, 0x82, 0xbd, 0x82, 0xbe,
  0xdb, 0x4c, 0xc2, 0xbc, 0x66, 0x5c, 0x16, 0x3d, 0xb1, 0xde, 0x4a, 0xbc,
  0xce, 0x79, 0x51, 0x3e, 0x22, 0x84, 0x20, 0xbe, 0x4c, 0x1d, 0x29, 0x3d,
  0xe8, 0x42, 0x4c, 0xbe, 0x3f, 0xb6, 0xc2, 0xbd, 0x0b, 0x66, 0xe5, 0x3a,
  0x02, 0xc2, 0xe5, 0xbd, 0x8c, 0x14, 0xf1, 0xbe, 0xf7, 0x91, 0x98, 0x3e,
  0x70, 0xe6, 0x6d, 0x3d, 0xbf, 0x98, 0xa1, 0xbd, 0x00, 0xc2, 0xf3, 0xbe,
  0x2e, 0x68, 0x9a, 0x3b, 0x97, 0x9a, 0xd6, 0xbe, 0x88, 0x5b, 0xa9, 0xbe,
  0xd5, 0x95, 0xf2, 0xbe, 0x6f, 0xef, 0x1d, 0xbe, 0xfb, 0x29, 0x99, 0xbc,
  0xca, 0xdb, 0xce, 0xbe, 0xe5, 0xed, 0xb5, 0xbe, 0x90, 0x02, 0xeb, 0xbe,
  0x86, 0x63, 0xd9, 0xbe, 0x4b, 0x16, 0xf1, 0xbe, 0x63, 0xb1, 0x28, 0xbe,
  0xca, 0x2e, 0x95, 0x3e, 0x07, 0x17, 0x0c, 0x3d, 0x6a, 0x4d, 0x95, 0xbe,
  0x31, 0xca, 0x7a, 0xbd, 0x8c, 0xc7, 0xf1, 0xbd, 0x61, 0x07, 0xa4, 0xbc,
  0xf4, 0x21, 0xec, 0xbd, 0x78, 0x1f, 0xa3, 0x3e, 0x12, 0x6f, 0x2a, 0xbe,
  0xe9, 0xae, 0xac, 0xbe, 0x23, 0xbf, 0x6b, 0xbe, 0x71, 0x53, 0x8f, 0xbe,
  0xb0, 0x39, 0x5b, 0xbe, 0x8e, 0x79, 0x15, 0x3e, 0x24, 0xab, 0x01, 0x3e,
  0x83, 0x34, 0xb0, 0xbc, 0xc1, 0x55, 0x32, 0x3e, 0xe6, 0x0b, 0x4f, 0x3c,
  0x17, 0x5d, 0xa0, 0x3d, 0xb0, 0x62, 0x4f, 0xbe, 0xa6, 0x11, 0xaa, 0x3d,
  0x43, 0xbd, 0xa5, 0x3e, 0xd7, 0x87, 0x15, 0x3d, 0x52, 0xd4, 0x58, 0x3c,
  0xb8, 0x58, 0x0a, 0x3f, 0x87, 0x62, 0x76, 0x3d, 0x03, 0x03, 0x58, 0x3e,
  0x18, 0x64, 0xb0, 0x3e, 0x79, 0xdc, 0xf8, 0xbd, 0x5b, 0x1b, 0x70, 0x3e,
  0x16, 0xf6, 0x85, 0x3e, 0xaf, 0x13, 0x04, 0x3f, 0x15, 0x5e, 0xf4, 0x3d,
  0x95, 0x7a, 0x19, 0x3e, 0xff, 0x4b, 0xa9, 0x3d, 0xa4, 0xdf, 0x83, 0xbe,
  0xf9, 0x6f, 0x1d, 0x3d, 0x6c, 0x44, 0x79, 0xbd, 0xd9, 0x0e, 0xba, 0xbd,
  0xcf, 0x41, 0x91, 0x3e, 0x46, 0x76, 0x00, 0x3f, 0xf0, 0x1d, 0x82, 0x3e,
  0xd6, 0x17, 0xe0, 0xbd, 0xd4, 0xee, 0xe6, 0xbe, 0x48, 0xbe, 0xeb, 0xbe,
  0x38, 0x57, 0xc2, 0xbe, 0x3f, 0xfa, 0x80, 0xbe, 0x22, 0xd2, 0x86, 0xbe,
  0x09, 0x76, 0x99, 0x3e, 0x12, 0x6e, 0x0e, 0x3e, 0x8d, 0xef, 0x6b, 0xbe,
  0xe9, 0x71, 0x09, 0xbf, 0xab, 0x78, 0x2c, 0xbe, 0x06, 0x70, 0xde, 0xbe,
  0x8b, 0x11, 0xd3, 0xbd, 0x99, 0x4c, 0x78, 0x3d, 0xdc, 0x53, 0x94, 0x3e,
  0x6a, 0x43, 0x99, 0x3e, 0x44, 0x6a, 0xac, 0xbc, 0xbf, 0x0f, 0x20, 0x3b,
  0xb0, 0x13, 0xdb, 0xbd, 0x9f, 0x60, 0xdc, 0xbe, 0x41, 0xf2, 0x77, 0xbe,
  0x17, 0x1f, 0x27, 0xbe, 0xa3, 0x13, 0xe9, 0x3e, 0x3f, 0x66, 0x12, 0xbd,
  0xb4, 0x10, 0x6b, 0x3e, 0xc0, 0x59, 0xef, 0x3d, 0x3c, 0x5e, 0xdc, 0xbd,
  0xe9, 0xe0, 0x8f, 0xbe, 0xcf, 0x33, 0x8b, 0xbd, 0xf4, 0x38, 0x2c, 0xbe,
  0x82, 0xc5, 0x7b, 0x3e, 0xc3, 0x48, 0x23, 0x3f, 0x0a, 0x4e, 0x1d, 0x3e,
  0xfb, 0x2f, 0xaa, 0x3e, 0x86, 0xec, 0x64, 0x3e, 0x2d, 0x86, 0xa1, 0x3c,
  0xe4, 0xe8, 0x63, 0xbe, 0x7f, 0x35, 0x30, 0x3e, 0xd9, 0x1c, 0x76, 0x3e,
  0x96, 0x9f, 0x69, 0x3d, 0x72, 0x33, 0x20, 0x3e, 0x01, 0x08, 0xc0, 0x3e,
  0x1b, 0xfe, 0x94, 0x3e, 0xda, 0x96, 0xf0, 0x3d, 0xa6, 0x5e, 0xda, 0xbd,
  0xb4, 0x0c, 0x4e, 0xbd, 0x1c, 0x4c, 0x54, 0x3e, 0xee, 0x8e, 0x38, 0x3d,
  0x70, 0xbb, 0xf8, 0x3c, 0xca, 0xaa, 0x6f, 0x3c, 0xe3, 0x57, 0x63, 0x3e,
  0xf8, 0xa0, 0x12, 0xbe, 0x8e, 0xa5, 0x9c, 0x3e, 0x31, 0x59, 0xa7, 0xbd,
  0x43, 0xc7, 0xee, 0x3e, 0xc2, 0x98, 0xfc, 0x3d, 0x40, 0x66, 0xfe, 0xbc,
  0x68, 0xe0, 0x83, 0x3d, 0x09, 0x86, 0x22, 0x3e, 0xde, 0x67, 0x87, 0x3e,
  0x31, 0x66, 0x7e, 0x3d, 0xf2, 0x73, 0x87, 0x3e, 0x5f, 0x45, 0x79, 0xbc,
  0x88, 0xd8, 0x0b, 0xbe, 0x8d, 0x8f, 0x26, 0x3e, 0x70, 0x0d, 0xa1, 0xbc,
  0x88, 0x54, 0xe3, 0xbd, 0x6b, 0xe6, 0x9c, 0x3e, 0xb7, 0x68, 0x2c, 0x3e,
  0x31, 0x30, 0x84, 0x3e, 0x9b, 0xb4, 0x01, 0x3e, 0x87, 0xff, 0x97, 0x3c,
  0x46, 0xbc, 0x5a, 0x3e, 0x9c, 0xfa, 0x29, 0xbd, 0xd2, 0xcf, 0x82, 0x3d,
  0x9f, 0xac, 0xdb, 0xbd, 0x4a, 0x22, 0xb1, 0x3d, 0xab, 0xb4, 0xb7, 0x3d,
  0x96, 0x31, 0xd2, 0xbd, 0xba, 0x32, 0xfd, 0x3d, 0x21, 0xee, 0xf6, 0x3d,
  0x28, 0x0b, 0xba, 0x3d, 0x07, 0xa5, 0x41, 0xbd, 0x82, 0x1b, 0x94, 0x3d,
  0x4b, 0xf6, 0xb1, 0x3c, 0xd7, 0xdf, 0xc6, 0x3e, 0xde, 0x2c, 0x18, 0x3d,
  0x7c, 0xea, 0x60, 0x3e, 0x7d, 0x02, 0x0a, 0x3e, 0xa0, 0x27, 0x58, 0x3e,
  0x2f, 0x00, 0x3b, 0x3e, 0x22, 0xb2, 0xd2, 0xbb, 0x93, 0x44, 0x5c, 0x3d,
  0x67, 0x68, 0xba, 0x3d, 0x19, 0xf6, 0x67, 0x3e, 0x49, 0x6c, 0x02, 0xbd,
  0x53, 0xd2, 0x02, 0x3e, 0xdd, 0x14, 0xd4, 0x3d, 0x4d, 0xad, 0x26, 0xbd,
  0x93, 0x71, 0x28, 0x3e, 0x4f, 0x99, 0xd9, 0x3e, 0xe6, 0x51, 0xaa, 0x3d,
  0x73, 0x84, 0x06, 0xbc, 0xdc, 0xac, 0x87, 0xbd, 0x30, 0x26, 0xaf, 0x3e,
  0x03, 0x49, 0x13, 0xbe, 0x6b, 0x03, 0x2a, 0x3e, 0xa6, 0x99, 0x61, 0x3d,
  0xf9, 0xe5, 0xc4, 0x3e, 0xa7, 0x44, 0x00, 0x3f, 0x0d, 0x00, 0x40, 0xbe,
  0xd4, 0xd4, 0x0d, 0x3e, 0x46, 0x83, 0x99, 0x3e, 0x49, 0xb7, 0x40, 0xbd,
  0x17, 0x5d, 0x84, 0x3e, 0x4e, 0x3c, 0xf0, 0x3d, 0x11, 0xeb, 0x1f, 0x3e,
  0xc4, 0x2c, 0x21, 0x3e, 0x92, 0x09, 0x86, 0x3d, 0xe1, 0xe1, 0xb5, 0x3c,
  0xa6, 0xfb, 0x92, 0xbd, 0xb5, 0xaa, 0x41, 0xbd, 0xf9, 0x1d, 0x51, 0x3d,
  0x0a, 0x5f, 0x18, 0xbd, 0xe6, 0x4e, 0xa1, 0x3e, 0x2b, 0x60, 0x8f, 0x3e,
  0x4b, 0xa5, 0xb3, 0xbe, 0xfc, 0x48, 0x15, 0x3e, 0x0a, 0x07, 0xba, 0xbd,
  0x41, 0xfa, 0xf9, 0xbb, 0x5f, 0xc9, 0x10, 0xbd, 0x6f, 0xca, 0x44, 0xbe,
  0x6b, 0x6a, 0x88, 0x3e, 0x32, 0x2a, 0x1e, 0xbd, 0xb0, 0xb1, 0x04, 0x3d,
  0xf4, 0xb7, 0x8a, 0xbd, 0xef, 0xf9, 0xf8, 0xbc, 0x6c, 0x89, 0x98, 0x3a,
  0x0c, 0x8e, 0xda, 0x3d, 0xd7, 0x5b, 0x05, 0x3e, 0xae, 0x57, 0xa4, 0xbe,
  0xc4, 0xc7, 0x34, 0xbe, 0x53, 0x29, 0x87, 0xbe, 0x44, 0x4f, 0xf8, 0xbe,
  0x5c, 0x5c, 0xfa, 0xbd, 0x3c, 0xcd, 0x4e, 0xbd, 0xb4, 0x38, 0x20, 0xbd,
  0xf4, 0x6f, 0x0a, 0xbe, 0x9e, 0x7a, 0x8a, 0xbd, 0xfb, 0xa8, 0x00, 0x3e,
  0x94, 0xd0, 0xa0, 0xbe, 0x53, 0xd2, 0x55, 0xbe, 0xef, 0xb6, 0xeb, 0xbd,
  0xda, 0x93, 0xbf, 0x3d, 0x98, 0x7b, 0xd4, 0xbd, 0xc2, 0x99, 0x0c, 0x3e,
  0x72, 0xd1, 0x38, 0x3e, 0xf7, 0xd0, 0x86, 0x3e, 0x53, 0x29, 0x27, 0x3e,
  0x6b, 0xa8, 0xc9, 0xbd, 0x4e, 0x94, 0x83, 0x3d, 0x80, 0x56, 0x36, 0x3e,
  0xaf, 0x37, 0x86, 0x3e, 0xf2, 0xee, 0xd6, 0x3e, 0x93, 0xac, 0xc4, 0x3e,
  0xd3, 0x94, 0x26, 0x3e, 0x71, 0x00, 0xcc, 0xbd, 0xab, 0xe8, 0x7c, 0xbd,
  0x30, 0xe6, 0x96, 0xbd, 0x4f, 0x96, 0xd3, 0x3e, 0xab, 0x46, 0x25, 0x3e,
  0x72, 0xcd, 0xa8, 0x3e, 0x5c, 0x6d, 0xb4, 0xbd, 0xff, 0x63, 0xe8, 0x3e,
  0x92, 0xc2, 0xa2, 0x3e, 0x3c, 0x75, 0x37, 0x3e, 0xae, 0x88, 0x42, 0x3e,
  0x04, 0x5c, 0xad, 0x3e, 0xb3, 0x23, 0x7f, 0x3e, 0x09, 0xd8, 0x1b, 0x3f,
  0x53, 0x1b, 0x38, 0x3f, 0xf5, 0x69, 0x23, 0x3f, 0xa4, 0xe3, 0x8f, 0xbe,
  0x1e, 0x86, 0xa7, 0x3e, 0x6a, 0x6a, 0xdc, 0xbd, 0x9d, 0x7c, 0x77, 0x3e,
  0xd3, 0x96, 0x07, 0x3f, 0xa7, 0xb6, 0x8f, 0x3d, 0x53, 0xbe, 0xf4, 0x3e,
  0xa8, 0xde, 0xbe, 0x3e, 0x53, 0x75, 0x94, 0xbe, 0x5b, 0x6b, 0xf2, 0xbc,
  0xca, 0x50, 0x60, 0xbe, 0xce, 0x32, 0x07, 0xbe, 0x39, 0x73, 0x45, 0x3d,
  0xbc, 0x05, 0x60, 0x3d, 0xd5, 0xb8, 0xe2, 0x3e, 0x2a, 0x2f, 0x40, 0x3e,
  0x74, 0xd0, 0xbc, 0xbe, 0x7d, 0x33, 0x0e, 0xbe, 0xe2, 0xa3, 0x27, 0x3e,
  0xe6, 0xaa, 0xaf, 0xbd, 0x55, 0x5b, 0xf8, 0x3d, 0x92, 0xcc, 0x3b, 0x3e,
  0x08, 0x57, 0x2a, 0xbe, 0xe2, 0x24, 0x71, 0x3e, 0x6a, 0xc1, 0x8e, 0xbe,
  0xd6, 0xc1, 0x25, 0xbd, 0x96, 0xc3, 0xcc, 0xbd, 0x73, 0xd9, 0xad, 0xbd,
  0x99, 0xb9, 0x2b, 0xbe, 0x46, 0xd7, 0x44, 0x3e, 0xc6, 0x23, 0x11, 0x3d,
  0xd8, 0x68, 0x33, 0x3e, 0x5d, 0x79, 0xbe, 0xbe, 0x2a, 0x74, 0x9a, 0xbe,
  0x5b, 0xd6, 0x97, 0x3d, 0x8d, 0x46, 0xa6, 0x3d, 0x3e, 0x9f, 0x17, 0x3c,
  0x29, 0xe3, 0xf0, 0xbd, 0xb7, 0x45, 0x4e, 0x3d, 0xb0, 0x99, 0x51, 0x3e,
  0xc2, 0x8b, 0xbb, 0x3c, 0xe2, 0x46, 0x2c, 0xbc, 0x3e, 0x2e, 0x9f, 0x3e,
  0xc6, 0x6d, 0x12, 0xbc, 0xc9, 0xcd, 0xe5, 0x3d, 0xe8, 0x2c, 0xcd, 0x3e,
  0x0c, 0x57, 0x0d, 0x3e, 0x8d, 0xd4, 0x0a, 0xbd, 0x6c, 0x03, 0xa7, 0xbe,
  0xcb, 0x6d, 0x73, 0x3d, 0x98, 0xca, 0x20, 0xbc, 0xbe, 0x20, 0xd1, 0x3e,
  0x73, 0x6a, 0xbb, 0x3d, 0x9c, 0x5c, 0x81, 0x3e, 0x47, 0x12, 0xee, 0x3d,
  0x16, 0x6f, 0x5c, 0x3e, 0x5c, 0xac, 0x8b, 0x3e, 0xfc, 0xb0, 0xef, 0x3d,
  0x2f, 0x6e, 0xfd, 0x3e, 0xa9, 0x13, 0xc9, 0x3e, 0x6d, 0x80, 0x39, 0x3e,
  0x2c, 0xbf, 0xb8, 0x3e, 0xf2, 0xde, 0xaa, 0x3e, 0x48, 0x82, 0xc1, 0x3e,
  0xed, 0xdc, 0x9f, 0x3e, 0x49, 0x6a, 0x22, 0x3d, 0xc8, 0x52, 0xa1, 0x3e,
  0x04, 0x30, 0xbb, 0x3e, 0x4a, 0x52, 0x54, 0x3e, 0x66, 0x43, 0xeb, 0x3e,
  0x4d, 0x25, 0x80, 0x3e, 0xbd, 0x22, 0xc7, 0x3e, 0x71, 0x19, 0xd0, 0x3e,
  0xd5, 0x98, 0xb7, 0x3d, 0x27, 0x9a, 0x04, 0x3e, 0xb0, 0x33, 0xcb, 0x3d,
  0x99, 0x3b, 0x43, 0xbe, 0x5d, 0x19, 0x85, 0xbd, 0xed, 0x98, 0x23, 0x3f,
  0x5b, 0xa4, 0x56, 0x3e, 0xc7, 0x08, 0xd7, 0x3e, 0xf0, 0x55, 0xbc, 0xbc,
  0x10, 0x86, 0xfb, 0x3d, 0xc4, 0x1c, 0x04, 0xbe, 0xaa, 0x3b, 0x2c, 0xbc,
  0xf8, 0x0d, 0x06, 0xbd, 0x8d, 0x4d, 0x82, 0x3e, 0x4d, 0x59, 0x0e, 0x3c,
  0x59, 0xed, 0x78, 0x3e, 0xcc, 0xc3, 0x82, 0x3d, 0x82, 0x8f, 0x21, 0x3e,
  0x5b, 0xc9, 0x51, 0xbe, 0x56, 0x93, 0x31, 0xbc, 0x0f, 0xa5, 0xa0, 0x3e,
  0x24, 0x68, 0xe8, 0x3e, 0xba, 0x0d, 0x22, 0x3f, 0x38, 0xb9, 0x36, 0x3e,
  0x28, 0xc2, 0xcd, 0x3d, 0x4d, 0x5a, 0x98, 0x3e, 0x01, 0x62, 0x6d, 0x3e,
  0x5b, 0x92, 0x20, 0x3d, 0x33, 0x8a, 0x9b, 0x3d, 0x5e, 0xbc, 0x7d, 0x3e,
  0x01, 0xdf, 0x48, 0x3e, 0x3e, 0x0c, 0xca, 0x3e, 0xd2, 0xa1, 0xcd, 0x3e,
  0xd5, 0x7e, 0xce, 0x3e, 0x7c, 0x7b, 0x8b, 0x3d, 0x3e, 0x75, 0x9b, 0x3e,
  0x11, 0x41, 0x3d, 0x3e, 0x3b, 0xc4, 0x91, 0x3e, 0xab, 0x77, 0x71, 0x3e,
  0x46, 0x4f, 0xbd, 0x3d, 0x72, 0x86, 0xde, 0x3e, 0x83, 0x5c, 0xc2, 0x3e,
  0xf3, 0x9e, 0x24, 0x3e, 0x12, 0xb6, 0x7f, 0xbc, 0x0d, 0x40, 0xb1, 0x3e,
  0x55, 0x9f, 0x13, 0x3d, 0xe8, 0x1b, 0x91, 0x3c, 0xf4, 0x67, 0xb2, 0x3e,
  0x8c, 0xc0, 0x56, 0x3e, 0x68, 0x2a, 0x9d, 0x3e, 0x79, 0x88, 0x3d, 0x3e,
  0x24, 0xc2, 0xbb, 0x3e, 0xf2, 0x06, 0x32, 0x3d, 0xe1, 0x3d, 0x43, 0xbe,
  0x8f, 0x5e, 0xc3, 0x3e, 0x32, 0xa7, 0xf1, 0x3e, 0x9e, 0xed, 0x9a, 0xbe,
  0x0e, 0x55, 0xea, 0xbc, 0x80, 0xc8, 0xd2, 0xbd, 0x97, 0x78, 0x9d, 0xbe,
  0x3d, 0x83, 0x89, 0xbe, 0xc8, 0x33, 0xaf, 0xbe, 0x5f, 0x86, 0x79, 0xbc,
  0xca, 0x18, 0x30, 0x3e, 0xde, 0xbe, 0x59, 0xbe, 0x02, 0xb7, 0x6d, 0xbe,
  0x68, 0x0e, 0xdb, 0xbe, 0x44, 0x52, 0x14, 0xbf, 0x73, 0xee, 0xaa, 0xbe,
  0xcd, 0x8e, 0xa4, 0xbd, 0x13, 0x43, 0x50, 0xbe, 0xaa, 0xd4, 0x20, 0x3e,
  0xd0, 0x1a, 0x53, 0xbe, 0xed, 0x64, 0x20, 0xbe, 0x2f, 0x08, 0x97, 0xbd,
  0xb0, 0xf6, 0xc0, 0xbe, 0x8f, 0xf2, 0x96, 0xbe, 0xca, 0x6e, 0xad, 0xbe,
  0x9e, 0x78, 0xbe, 0xbe, 0x74, 0x3f, 0x9b, 0x3d, 0xc3, 0x75, 0xd5, 0xbc,
  0xa2, 0x2c, 0xed, 0xbc, 0x9b, 0x6e, 0xa9, 0xbd, 0xf5, 0x74, 0x16, 0xbf,
  0x3d, 0x81, 0xf3, 0x3c, 0xdb, 0x47, 0x33, 0xbe, 0x1b, 0xfd, 0xf8, 0x3c,
  0x6d, 0xb1, 0x10, 0x3f, 0x5d, 0x3b, 0xa9, 0xbb, 0xae, 0x03, 0xae, 0x3d,
  0xd5, 0x2e, 0xf9, 0xbe, 0xdb, 0x85, 0x11, 0xbd, 0x81, 0xf3, 0x4e, 0xbe,
  0xdd, 0xc9, 0xc6, 0xbd, 0xa7, 0x01, 0x9a, 0xbd, 0x34, 0xb6, 0xba, 0xbd,
  0x73, 0x5b, 0xb6, 0x3d, 0x1a, 0x1d, 0x8f, 0x3d, 0xe2, 0x05, 0xfd, 0xbd,
  0x62, 0x50, 0xb9, 0xbe, 0x8f, 0x00, 0xa8, 0xbd, 0xaa, 0x5e, 0x40, 0x3e,
  0x48, 0x0a, 0x9c, 0x3d, 0xc2, 0xbf, 0xe7, 0x3e, 0x8d, 0x10, 0x7b, 0x3d,
  0xa3, 0x5e, 0x95, 0x3d, 0x85, 0xab, 0xf2, 0xbd, 0x10, 0x64, 0x44, 0xbe,
  0x1f, 0x4c, 0x32, 0xbd, 0x88, 0x3e, 0xf5, 0xbb, 0x30, 0xa6, 0x06, 0x3e,
  0x20, 0xb8, 0x25, 0xbe, 0x49, 0xb3, 0x84, 0x3d, 0x98, 0x7f, 0x7e, 0x3e,
  0xfd, 0x87, 0xc5, 0x3d, 0x32, 0xa9, 0x33, 0xbc, 0xb4, 0xb9, 0x12, 0x3f,
  0x1f, 0xd4, 0xb7, 0x3e, 0xfe, 0x6d, 0xaf, 0x3e, 0x2f, 0x3d, 0x07, 0xbe,
  0x9f, 0x96, 0x9f, 0x3e, 0x65, 0x15, 0x81, 0x3e, 0xf6, 0x89, 0x84, 0xbe,
  0xfb, 0x4e, 0x45, 0x3d, 0xa3, 0x3f, 0x09, 0x3e, 0x48, 0x0a, 0xfd, 0x3e,
  0xe7, 0x4e, 0x1f, 0x3d, 0x84, 0xaa, 0xbf, 0x3e, 0x91, 0x2e, 0x5b, 0x3d,
  0x16, 0x7a, 0x5b, 0x3e, 0x99, 0x93, 0x0e, 0x3e, 0x65, 0x96, 0x55, 0xbd,
  0x34, 0x76, 0x2b, 0x3f, 0x0a, 0x86, 0x45, 0x3e, 0x56, 0xb9, 0x0b, 0x3f,
  0x72, 0x11, 0xb2, 0x3e, 0x1f, 0xdb, 0x09, 0x3d, 0xd3, 0x98, 0x73, 0xbd,
  0xb2, 0x32, 0x99, 0x3d, 0x24, 0xa3, 0x6a, 0x3b, 0x0a, 0x1b, 0x02, 0x3f,
  0xd8, 0x74, 0x00, 0x3f, 0x47, 0x43, 0x06, 0x3f, 0x05, 0xd8, 0xbf, 0x3e,
  0xdd, 0xdc, 0xe7, 0xbd, 0x87, 0x3f, 0x8b, 0x3e, 0x21, 0x0e, 0x8a, 0x3c,
  0x2d, 0x70, 0x3e, 0x3e, 0x89, 0x66, 0x88, 0x3e, 0x81, 0xa8, 0x23, 0x3e,
  0x1a, 0x1d, 0x36, 0x3d, 0x1b, 0xc0, 0x56, 0xbd, 0x23, 0xc3, 0x70, 0xbe,
  0x2b, 0x8d, 0xbb, 0x3e, 0xd6, 0x40, 0x16, 0x3e, 0xa0, 0xf0, 0x04, 0x3e,
  0x3c, 0x60, 0x5f, 0xbd, 0x02, 0x58, 0x89, 0x3d, 0x31, 0x67, 0xc2, 0x3e,
  0x04, 0x38, 0xc5, 0x3e, 0x92, 0x7c, 0xd3, 0x3e, 0xc7, 0x6f, 0xd3, 0x3e,
  0xda, 0xc9, 0xc2, 0x3e, 0x71, 0x0c, 0x5e, 0x3e, 0xe5, 0x8c, 0x42, 0x3e,
  0x28, 0xf1, 0xd7, 0x3d, 0x27, 0x68, 0x8b, 0x3e, 0xeb, 0xae, 0xd9, 0x3d,
  0x24, 0x24, 0x15, 0xbe, 0x7d, 0x78, 0x7a, 0x3e, 0x70, 0x26, 0xbf, 0x3d,
  0x20, 0x80, 0xa5, 0x3d, 0x32, 0x37, 0xe3, 0x3e, 0x90, 0xca, 0x99, 0x3e,
  0x39, 0xa6, 0xb9, 0x3e, 0x9b, 0x1c, 0x68, 0x3e, 0xd6, 0x75, 0x20, 0x3f,
  0xc4, 0x5a, 0xe1, 0x3e, 0x56, 0xff, 0x9c, 0x3e, 0x1a, 0x1b, 0x09, 0x3f,
  0xd0, 0x93, 0xf9, 0x3d, 0xa3, 0x65, 0x1a, 0x3e, 0x87, 0xa9, 0xda, 0x3e,
  0xcc, 0xb5, 0x21, 0x3f, 0xad, 0x1e, 0xa1, 0x3e, 0x9c, 0x58, 0x13, 0x3e,
  0xc0, 0x8e, 0xd9, 0x3e, 0x56, 0x4e, 0x6c, 0x3e, 0xff, 0x83, 0x66, 0x3e,
  0xa8, 0x66, 0x95, 0x3e, 0xfd, 0x50, 0xa4, 0x3d, 0x68, 0xbc, 0xd4, 0x3e,
  0x86, 0x54, 0xa6, 0x3e, 0x97, 0xfb, 0x16, 0x3d, 0x8f, 0x91, 0xbd, 0xbd,
  0x53, 0xec, 0x2c, 0x3e, 0x01, 0x84, 0xe6, 0x3e, 0x78, 0xf1, 0x72, 0x3e,
  0x7d, 0xb8, 0xd7, 0x3e, 0x60, 0xcd, 0x8c, 0x3e, 0xc4, 0xef, 0xfe, 0x3e,
  0xfc, 0x1b, 0xde, 0x3e, 0x9f, 0xaa, 0x13, 0x3d, 0xb4, 0xe2, 0xc5, 0x3e,
  0x41, 0x4b, 0x19, 0x3f, 0xec, 0x03, 0xce, 0x3e, 0x35, 0xec, 0xbd, 0x3e,
  0x2e, 0xf0, 0xdf, 0x3e, 0x54, 0x82, 0x71, 0x3e, 0x87, 0xd2, 0x3c, 0x3e,
  0x78, 0xd5, 0xe0, 0x3e, 0x9b, 0x31, 0xb3, 0x3d, 0x6e, 0x21, 0xf9, 0x3e,
  0x7a, 0xf0, 0x13, 0x3f, 0x11, 0xd1, 0xcf, 0x3e, 0xbe, 0x6f, 0xa5, 0x3e,
  0x79, 0xad, 0x2d, 0x3e, 0x3c, 0x84, 0xed, 0x3e, 0x87, 0xcf, 0x30, 0x3e,
  0x4a, 0x01, 0xab, 0x3e, 0xf1, 0xf7, 0xac, 0xbc, 0x96, 0xb8, 0x6b, 0x3d,
  0x69, 0xb9, 0x7e, 0x3e, 0xb3, 0x88, 0xc1, 0x3e, 0xfd, 0x96, 0x26, 0x3e,
  0xd5, 0x89, 0x3a, 0xbe, 0x92, 0x11, 0x9b, 0x3d, 0x44, 0x3a, 0xe9, 0x3e,
  0x2c, 0x11, 0x78, 0x3e, 0xbe, 0x94, 0x3c, 0x3e, 0x04, 0x3c, 0xce, 0x3e,
  0xd7, 0xfb, 0xdc, 0x3e, 0x66, 0x2b, 0xa3, 0x3e, 0x5b, 0x12, 0xc6, 0x3e,
  0xa4, 0x22, 0x17, 0x3e, 0x70, 0xca, 0x38, 0x3e, 0x49, 0xdd, 0x0f, 0xbe,
  0xf8, 0x05, 0xd2, 0x3d, 0x6c, 0xdd, 0x7c, 0x3e, 0x8a, 0xda, 0xff, 0xff,
  0x04, 0x00, 0x00, 0x00, 0x00, 0x0a, 0x00, 0x00, 0x90, 0xc7, 0x97, 0xbe,
  0xb7, 0xae, 0xce, 0xbc, 0xf6, 0x26, 0x11, 0xbe, 0x6f, 0x9d, 0xfd, 0xbd,
  0x8e, 0x02, 0x4b, 0xbd, 0xb3, 0xb1, 0x8f, 0x3e, 0x88, 0xdf, 0xb2, 0x3e,
  0x2e, 0xac, 0x16, 0xbe, 0x70, 0x11, 0x29, 0xbe, 0x74, 0x24, 0x9f, 0xbb,
  0x1f, 0x14, 0x09, 0xbe, 0x57, 0x7f, 0x33, 0xbc, 0x1c, 0x00, 0x61, 0x3d,
  0x2c, 0xe8, 0x0b, 0x3d, 0x9c, 0x4a, 0x3d, 0x3e, 0x2c, 0x77, 0xdf, 0x3d,
  0x31, 0x86, 0x15, 0x3d, 0xee, 0xf1, 0xa0, 0x3c, 0x33, 0xcf, 0x17, 0xbe,
  0xe0, 0x9a, 0x2a, 0x3d, 0x40, 0x10, 0xf4, 0x3d, 0x84, 0xa5, 0x10, 0xbe,
  0xa2, 0x5a, 0x85, 0xbd, 0x22, 0x55, 0x82, 0x3e, 0x22, 0xc5, 0x05, 0xbd,
  0x15, 0xaa, 0x8e, 0xbc, 0xe5, 0xed, 0xc2, 0x3d, 0x95, 0xf7, 0x0e, 0x3e,
  0x45, 0x71, 0xfb, 0xbd, 0xc8, 0xff, 0x2a, 0x3e, 0xd0, 0xcb, 0x7e, 0xbd,
  0x9d, 0xc7, 0x99, 0xbe, 0x54, 0xca, 0x26, 0xbe, 0x78, 0x53, 0x23, 0xbc,
  0x19, 0x11, 0x28, 0x3e, 0x3a, 0x4f, 0x6a, 0x3e, 0xf2, 0x92, 0x85, 0x3e,
  0x52, 0xca, 0xef, 0xbc, 0x14, 0x95, 0x64, 0x3e, 0xf4, 0x6e, 0x15, 0xbe,
  0x02, 0xee, 0xd4, 0xbd, 0x18, 0xc7, 0x4f, 0xbe, 0xce, 0x5c, 0xb1, 0x3d,
  0x10, 0x29, 0xc7, 0xbd, 0xfe, 0x52, 0x58, 0xbe, 0x36, 0x49, 0xab, 0x3e,
  0x0d, 0x75, 0xcc, 0x3d, 0xce, 0xae, 0x31, 0xbe, 0x5f, 0xc1, 0x88, 0x3e,
  0xf7, 0x80, 0xab, 0x3d, 0x8c, 0x9c, 0x16, 0xbb, 0x31, 0x39, 0x06, 0xbe,
  0x28, 0x1d, 0xa7, 0xbd, 0xf7, 0xf6, 0xfb, 0xbd, 0xf6, 0x52, 0x4b, 0xbe,
  0x8f, 0xaa, 0x4f, 0xbe, 0xa3, 0xc7, 0x84, 0xbe, 0xd9, 0x4c, 0x20, 0xbe,
  0x09, 0x05, 0x33, 0x3e, 0x04, 0xea, 0x13, 0xbe, 0xc7, 0x31, 0xcf, 0xbd,
  0xad, 0x95, 0x02, 0x3d, 0x96, 0x72, 0x81, 0xbe, 0xdc, 0x99, 0x98, 0xbd,
  0xa4, 0x5a, 0x86, 0xbe, 0x6b, 0xec, 0x75, 0xbb, 0x73, 0x8f, 0x62, 0xbe,
  0x10, 0x37, 0x52, 0xbe, 0x50, 0x75, 0x05, 0xbe, 0x26, 0x35, 0xd3, 0x3c,
  0x52, 0x3f, 0x28, 0x3e, 0x7a, 0x1a, 0xab, 0xbd, 0xf2, 0x21, 0x99, 0xbe,
  0xa7, 0xd6, 0x54, 0x3e, 0x70, 0xf8, 0x0c, 0xbd, 0xc7, 0x9b, 0x2c, 0xbd,
  0x34, 0xb3, 0x8f, 0xbc, 0x3f, 0xdc, 0xb6, 0xbd, 0x53, 0x13, 0x2c, 0x3e,
  0x95, 0x9d, 0x94, 0xbc, 0x31, 0xd0, 0x5f, 0xbe, 0x6f, 0x62, 0xc4, 0xbd,
  0x62, 0x57, 0xf1, 0xbd, 0x32, 0x15, 0x94, 0xbe, 0x4e, 0xd3, 0xfc, 0x3c,
  0x07, 0xa6, 0x1c, 0xbb, 0x43, 0x56, 0x28, 0x3e, 0x09, 0x14, 0x1c, 0xbe,
  0x7a, 0x47, 0x1b, 0xbe, 0x65, 0x0f, 0x1b, 0x3e, 0xfa, 0x43, 0x78, 0x3d,
  0x20, 0x3d, 0x4b, 0x3e, 0x53, 0x56, 0x95, 0x3d, 0x98, 0x3a, 0x42, 0x3e,
  0x4b, 0x5f, 0xf0, 0x3d, 0x62, 0x57, 0x57, 0x3e, 0xbb, 0xab, 0xdd, 0xbd,
  0x3a, 0x06, 0xb6, 0xbe, 0xbd, 0x7a, 0x12, 0xbd, 0x20, 0x6f, 0x3e, 0x3e,
  0x28, 0xd8, 0xb3, 0xbd, 0x05, 0x24, 0xb6, 0x3b, 0x9f, 0xed, 0x40, 0x3d,
  0x02, 0x28, 0xca, 0x3d, 0x47, 0xa0, 0xc0, 0xbe, 0x6f, 0x39, 0x0e, 0x3e,
  0xf4, 0xeb, 0xe5, 0xbd, 0x4d, 0xec, 0x08, 0xbd, 0x5a, 0x27, 0xff, 0x3d,
  0xd7, 0xc1, 0x26, 0xbe, 0xcb, 0x47, 0x38, 0xbe, 0xa1, 0xdb, 0x16, 0x3e,
  0x04, 0x4f, 0x98, 0xbc, 0xc9, 0x9f, 0x1e, 0x3c, 0x77, 0x7f, 0x71, 0xba,
  0xae, 0x05, 0x89, 0x3e, 0x48, 0xcb, 0x24, 0xbe, 0x7c, 0xb0, 0xab, 0xbd,
  0x09, 0x4c, 0x37, 0x3e, 0x44, 0x38, 0x87, 0xbe, 0x15, 0x10, 0x31, 0xbe,
  0x99, 0xf6, 0x21, 0xbe, 0x6d, 0x3e, 0x05, 0x3d, 0x84, 0xdf, 0x91, 0x3e,
  0x3c, 0xe6, 0x85, 0xbe, 0xa7, 0x2c, 0x28, 0xbd, 0x36, 0x5a, 0x18, 0xbe,
  0xea, 0x51, 0x08, 0xbd, 0x7f, 0xc3, 0x2f, 0xbe, 0xbc, 0xd5, 0xeb, 0xbb,
  0x07, 0x61, 0x58, 0xbe, 0x70, 0x9b, 0x02, 0xbe, 0xb0, 0x5a, 0xd2, 0xbd,
  0xb1, 0x9b, 0xd3, 0x3d, 0xad, 0x8d, 0x8f, 0x3e, 0x49, 0xa2, 0xd5, 0x3d,
  0x60, 0x7d, 0xfb, 0xbc, 0x7b, 0x56, 0x5a, 0xbe, 0x80, 0xa6, 0x8f, 0xbe,
  0x88, 0xb7, 0x99, 0x3d, 0xd3, 0xcf, 0xe6, 0x3d, 0x0c, 0xf3, 0x58, 0xbd,
  0xca, 0xa1, 0x56, 0x3e, 0x05, 0x44, 0xc0, 0x3d, 0x93, 0xa8, 0x1c, 0xbe,
  0x47, 0x92, 0xaf, 0xbd, 0xdf, 0x55, 0xb6, 0xbd, 0x56, 0x57, 0x60, 0xbc,
  0x70, 0xa0, 0x15, 0x3e, 0xa9, 0x67, 0x44, 0xbd, 0xe9, 0x34, 0x21, 0x3e,
  0x8a, 0x23, 0x43, 0x3e, 0x72, 0xa9, 0xbd, 0x3b, 0xe5, 0x75, 0x67, 0x3d,
  0xfe, 0x23, 0x9a, 0xbd, 0x08, 0x29, 0x44, 0x3e, 0xe8, 0xac, 0xcd, 0x3d,
  0xbd, 0x0b, 0x0a, 0x3e, 0x94, 0x08, 0x3c, 0x3d, 0xe5, 0xee, 0x99, 0xbe,
  0x67, 0xe7, 0xf9, 0x3c, 0x3f, 0xea, 0x2c, 0xbe, 0xc7, 0x82, 0x7b, 0xbd,
  0x9e, 0xaa, 0x4c, 0xbe, 0xf8, 0xf9, 0x45, 0x3e, 0x8c, 0xdb, 0x35, 0x3e,
  0x5d, 0x44, 0xb6, 0x3c, 0xd1, 0x56, 0x9f, 0xbd, 0x2a, 0x22, 0xd6, 0xbc,
  0xfc, 0x24, 0x80, 0x3e, 0xc7, 0x43, 0x2a, 0x3d, 0xde, 0xcf, 0xab, 0x3e,
  0xe9, 0x7b, 0x3f, 0xbe, 0x55, 0xa3, 0x84, 0x3e, 0x4f, 0x37, 0x05, 0x3e,
  0xa1, 0x3b, 0x3e, 0xbd, 0x7d, 0x4c, 0x92, 0xbd, 0x21, 0xfe, 0x40, 0xbe,
  0x18, 0x25, 0x44, 0x3e, 0xa8, 0x76, 0x52, 0x3d, 0x42, 0x0b, 0xe1, 0xbd,
  0xbe, 0x99, 0x9c, 0x3e, 0xc8, 0xbc, 0xfc, 0x3c, 0x29, 0x1f, 0x0a, 0x3e,
  0x42, 0xb1, 0x7a, 0xbd, 0x5e, 0x87, 0xdd, 0x3d, 0x4e, 0xe1, 0x28, 0xbd,
  0x16, 0x42, 0xbb, 0xbc, 0x31, 0x39, 0x21, 0xbe, 0x1f, 0x63, 0x8f, 0xbd,
  0x6b, 0xe1, 0x94, 0xbe, 0xc3, 0x3e, 0x17, 0x3e, 0xf4, 0x76, 0xe5, 0x3a,
  0x80, 0xf1, 0x1e, 0xbb, 0xae, 0x6d, 0xac, 0x3c, 0x5c, 0xc9, 0x9b, 0x3c,
  0x7b, 0x55, 0x08, 0xbe, 0xd1, 0x01, 0x55, 0xbd, 0x58, 0xca, 0x15, 0x3e,
  0xca, 0xf6, 0xbe, 0xbd, 0x58, 0x35, 0x04, 0xbe, 0xd3, 0x51, 0x76, 0xbd,
  0x2f, 0x09, 0x52, 0x3d, 0xd6, 0x60, 0xbd, 0xbe, 0x15, 0xfd, 0xe5, 0xbd,
  0x06, 0x70, 0xd9, 0xbc, 0x18, 0x9c, 0x3c, 0xbe, 0xe1, 0x85, 0x80, 0x3c,
  0xe8, 0xdc, 0x94, 0xbd, 0xa5, 0x67, 0xa8, 0x3e, 0x8c, 0x2a, 0xb6, 0xbe,
  0x6c, 0x43, 0x31, 0x3e, 0x0b, 0x23, 0x96, 0x3c, 0xc2, 0x6b, 0x81, 0xbe,
  0xce, 0xc1, 0xbb, 0x3d, 0x62, 0x7c, 0x78, 0x3e, 0xa9, 0x2a, 0xe6, 0xbd,
  0x24, 0x4c, 0x00, 0x3e, 0x76, 0x76, 0x48, 0xbe, 0x50, 0x34, 0x30, 0x3e,
  0x3a, 0xce, 0x99, 0xbc, 0xc5, 0xcb, 0x10, 0xbe, 0xd0, 0x43, 0xbc, 0xbe,
  0x41, 0x79, 0xb2, 0xbc, 0x25, 0x92, 0x97, 0xbd, 0x50, 0xfc, 0x42, 0xbd,
  0x18, 0x82, 0x1d, 0xbe, 0x20, 0x72, 0xb6, 0x3e, 0x41, 0x37, 0x64, 0xbe,
  0x0c, 0xf1, 0x0a, 0xbe, 0x91, 0xc7, 0xa0, 0x3d, 0x7a, 0x32, 0x75, 0xbc,
  0xd0, 0x22, 0x8e, 0xbe, 0x99, 0x4f, 0x6d, 0x3e, 0x2f, 0xdc, 0x19, 0xbe,
  0xbe, 0xba, 0xe5, 0xbc, 0x7c, 0x2b, 0x0a, 0xbe, 0x0c, 0x9d, 0xcc, 0xbd,
  0xad, 0x75, 0x26, 0x3d, 0x58, 0x1c, 0x98, 0xbe, 0xe0, 0x43, 0xf7, 0xbd,
  0xf3, 0xd4, 0xef, 0x3d, 0xd0, 0xb8, 0x7f, 0x3e, 0xc4, 0x59, 0x8a, 0xbc,
  0xb5, 0x10, 0xac, 0x3d, 0x54, 0x71, 0x86, 0x3d, 0xc5, 0x01, 0xa1, 0xbd,
  0x1a, 0x77, 0x42, 0xbe, 0x19, 0x1e, 0x71, 0xbe, 0x36, 0x38, 0x5a, 0xbe,
  0x8a, 0x5c, 0x87, 0x3b, 0x13, 0x37, 0x31, 0xbb, 0xf0, 0xd5, 0x8d, 0xbe,
  0xba, 0xfb, 0x36, 0xbe, 0x0c, 0x02, 0x55, 0xbe, 0x61, 0x0f, 0x85, 0xbd,
  0x44, 0xa5, 0x81, 0x3e, 0x28, 0xfd, 0xe2, 0xbc, 0xeb, 0x92, 0x11, 0x3e,
  0x26, 0xb8, 0x01, 0xbd, 0xc0, 0xd7, 0x23, 0x3d, 0xc6, 0xf1, 0x47, 0x3c,
  0x04, 0x9c, 0x29, 0x3d, 0xff, 0x4d, 0x1b, 0xbe, 0x22, 0xb8, 0x0c, 0xbe,
  0x42, 0x5f, 0xd1, 0x3e, 0xda, 0x69, 0x91, 0x3e, 0x32, 0xcc, 0xae, 0x3d,
  0x4a, 0xde, 0xd0, 0x3e, 0x90, 0x77, 0x76, 0xbd, 0xee, 0xd4, 0x34, 0x3e,
  0x54, 0x21, 0x50, 0x3d, 0x14, 0xce, 0x39, 0xbc, 0xab, 0x4e, 0x3b, 0x3e,
  0x3e, 0xd1, 0xbc, 0xbd, 0x15, 0x45, 0x48, 0x3e, 0xf7, 0x10, 0x67, 0xbd,
  0xda, 0x7a, 0x83, 0x3e, 0x78, 0x2f, 0x19, 0x3e, 0x21, 0x37, 0x3e, 0x3d,
  0xe3, 0xbb, 0x7f, 0x3e, 0x28, 0x47, 0x7a, 0x3d, 0x2d, 0x85, 0x21, 0x3e,
  0x01, 0x7c, 0xa3, 0xbd, 0xdb, 0xfc, 0x69, 0x3e, 0xb3, 0x04, 0xef, 0x3d,
  0xeb, 0x43, 0xc5, 0x3d, 0x7c, 0x9a, 0x2e, 0x3e, 0x7b, 0xff, 0x19, 0x3e,
  0x58, 0xf7, 0xfd, 0x3d, 0x59, 0x45, 0x58, 0xbe, 0x40, 0x4c, 0x81, 0x3d,
  0x6d, 0x50, 0x00, 0x3d, 0x1b, 0x34, 0x37, 0xbc, 0x18, 0xd3, 0xca, 0xbd,
  0x16, 0xc6, 0x16, 0x3d, 0x40, 0xed, 0x9e, 0xbe, 0xd5, 0x31, 0xd2, 0xbe,
  0x03, 0xc2, 0xd0, 0x3d, 0x85, 0x6c, 0x07, 0xbd, 0x74, 0x53, 0x89, 0xbd,
  0x28, 0xcf, 0x98, 0x3e, 0x93, 0x06, 0xf0, 0x3c, 0x89, 0x02, 0xf4, 0xbd,
  0x4b, 0xce, 0xea, 0x3b, 0x76, 0x14, 0x52, 0x3e, 0x70, 0xd7, 0x67, 0xbd,
  0xa3, 0x1c, 0x2a, 0x3e, 0x3e, 0x85, 0x19, 0xbe, 0x55, 0x7c, 0x08, 0xbe,
  0xc7, 0x7b, 0xff, 0xbd, 0xed, 0xe7, 0x97, 0xbe, 0xd8, 0x0b, 0x89, 0xbe,
  0x91, 0x2a, 0xcd, 0x3d, 0xd7, 0xf5, 0xa4, 0xbb, 0x14, 0x9c, 0xad, 0x3d,
  0xe4, 0x42, 0x27, 0x3e, 0x6a, 0x8e, 0x27, 0x3e, 0x68, 0x4c, 0x08, 0xbe,
  0x62, 0xb2, 0x94, 0x3d, 0xeb, 0xa5, 0x4c, 0xbd, 0x0b, 0x1e, 0x3d, 0xbe,
  0x32, 0x9b, 0xbf, 0xbd, 0xa7, 0x59, 0x51, 0x3c, 0x0e, 0xa4, 0xf2, 0x3d,
  0xce, 0x0b, 0x72, 0xbc, 0xc5, 0x58, 0x14, 0x3e, 0x6d, 0xe8, 0x83, 0xbd,
  0xd0, 0x5a, 0x54, 0xbd, 0xd6, 0xaa, 0x76, 0x3e, 0x96, 0x55, 0x36, 0xbd,
  0x7f, 0xf4, 0xc8, 0xbe, 0x1d, 0x65, 0x9b, 0xbb, 0xf4, 0x87, 0x3c, 0x3e,
  0x48, 0x09, 0x27, 0xbe, 0xd1, 0x3d, 0x17, 0xbe, 0xca, 0x36, 0xa4, 0x3e,
  0x31, 0x1f, 0xb5, 0x3e, 0x8b, 0x6e, 0xf2, 0x3b, 0x08, 0x32, 0x82, 0x3e,
  0x1d, 0x22, 0x36, 0x3e, 0x15, 0xc9, 0x86, 0xbd, 0x77, 0x96, 0x21, 0x3e,
  0xaf, 0x87, 0x0f, 0xbe, 0xc0, 0x6e, 0x02, 0x3d, 0xbe, 0x80, 0xfe, 0x3d,
  0x16, 0x10, 0xa3, 0x3e, 0x8d, 0xfb, 0xd6, 0xbd, 0x55, 0xe8, 0x70, 0x3e,
  0xc3, 0x56, 0xd6, 0x3c, 0x95, 0x65, 0x77, 0xbe, 0x30, 0xa4, 0x46, 0xbe,
  0x73, 0x42, 0x92, 0x3e, 0x76, 0x62, 0x4f, 0x3e, 0x9e, 0x0c, 0x0c, 0x3e,
  0x34, 0x8c, 0xd6, 0x3d, 0x5f, 0x66, 0x29, 0x3d, 0x3f, 0x45, 0x9c, 0x3e,
  0xe0, 0x35, 0x59, 0xbe, 0x52, 0xa6, 0x6b, 0xbe, 0xde, 0x39, 0x7a, 0x3e,
  0x4a, 0x58, 0x89, 0x3b, 0x4d, 0xd7, 0x06, 0xbd, 0x63, 0x60, 0x27, 0xbe,
  0x18, 0xe9, 0x3c, 0x3e, 0x1d, 0xb7, 0x64, 0x3e, 0x0f, 0xcd, 0x05, 0xbe,
  0x26, 0x66, 0xbb, 0xbe, 0x51, 0x22, 0x86, 0x3e, 0x67, 0x26, 0xa6, 0x3e,
  0xb5, 0xb4, 0x01, 0xbd, 0x41, 0x43, 0xa3, 0xbd, 0xb5, 0x35, 0xbe, 0xbe,
  0x76, 0xe6, 0xed, 0x3d, 0xbc, 0xcc, 0x9c, 0xbc, 0x05, 0x58, 0x3d, 0xbe,
  0x95, 0xe0, 0xfc, 0x3d, 0x6e, 0x60, 0x08, 0x3e, 0x42, 0x38, 0x42, 0xbd,
  0x3b, 0x4b, 0x8c, 0xbd, 0x7c, 0x88, 0x05, 0x3d, 0x99, 0xc6, 0x13, 0x3c,
  0xf6, 0x52, 0xfe, 0xbc, 0x9c, 0xb0, 0xf2, 0xbe, 0x36, 0x0d, 0xd5, 0x3c,
  0x22, 0xb1, 0x76, 0x3e, 0x80, 0x75, 0xc7, 0xbd, 0x65, 0x29, 0xe6, 0x3d,
  0x67, 0xcc, 0x8f, 0xbd, 0xc5, 0x36, 0xac, 0x3d, 0x6a, 0x6e, 0x06, 0xbe,
  0x97, 0xaf, 0xa8, 0x3e, 0x19, 0x23, 0x3d, 0xbe, 0x6b, 0x86, 0xf4, 0xbd,
  0x1a, 0xa7, 0x83, 0xbd, 0x1c, 0xf6, 0xd0, 0xbc, 0x62, 0x28, 0x8b, 0xbd,
  0x14, 0xd5, 0x05, 0xbd, 0x74, 0xf4, 0x44, 0x3d, 0x67, 0x06, 0x59, 0x3e,
  0x72, 0x54, 0xd1, 0xbd, 0xe7, 0xb6, 0xe5, 0xbd, 0x61, 0xb2, 0x00, 0xbd,
  0x76, 0xb7, 0x6c, 0xbe, 0x1c, 0xba, 0x72, 0xbd, 0x9f, 0xec, 0x81, 0xbe,
  0xa8, 0xcc, 0x97, 0x3e, 0xb7, 0xb2, 0x06, 0xbb, 0xdd, 0x21, 0x6e, 0x3e,
  0xb1, 0xe3, 0xe6, 0x3d, 0x7f, 0xbe, 0xa6, 0xbe, 0x5f, 0xe3, 0x11, 0xbe,
  0x66, 0x8c, 0x78, 0xbc, 0xc2, 0xd0, 0x1c, 0xbe, 0x24, 0xef, 0x9a, 0xbe,
  0xba, 0x5c, 0x31, 0x3e, 0x82, 0xa0, 0x31, 0x3e, 0xb7, 0x12, 0xe3, 0x3d,
  0xe0, 0xc7, 0xd3, 0xbe, 0x5c, 0x0d, 0xab, 0xbe, 0x13, 0x7f, 0x01, 0xbd,
  0x5d, 0xfd, 0x3e, 0xbd, 0xf7, 0xf5, 0x17, 0x3e, 0xb8, 0x8c, 0x3d, 0xbe,
  0xb5, 0x33, 0xf1, 0xbc, 0x35, 0xa6, 0x81, 0x3c, 0xe6, 0xe1, 0x21, 0xbe,
  0xee, 0xe9, 0x4b, 0xbe, 0xce, 0x20, 0xb7, 0xbe, 0x70, 0xfd, 0x1f, 0xbe,
  0xfb, 0x5e, 0x93, 0xbe, 0x59, 0xb3, 0x79, 0x3e, 0xaa, 0xb7, 0xbc, 0x3d,
  0x5f, 0x6a, 0xd1, 0x3d, 0x0b, 0xfc, 0xd0, 0x3e, 0xca, 0xb0, 0x80, 0xbd,
  0x95, 0xc9, 0x7f, 0xbe, 0x94, 0x50, 0x56, 0xbe, 0x90, 0xe4, 0xfc, 0xbd,
  0xd7, 0x7e, 0xa5, 0xbe, 0x1b, 0xd5, 0x31, 0xbd, 0x6c, 0x21, 0xb7, 0x3a,
  0xd1, 0x73, 0x09, 0x3e, 0x2c, 0x3c, 0xd2, 0x3d, 0xe5, 0xcc, 0x8c, 0x3d,
  0x95, 0xe2, 0xda, 0x3d, 0xf8, 0x09, 0x90, 0x3e, 0x50, 0xed, 0x70, 0x3e,
  0x59, 0x57, 0x70, 0xbe, 0x7e, 0x84, 0x8c, 0xbe, 0x03, 0x3b, 0xb7, 0xbb,
  0x4c, 0x2b, 0x65, 0xbd, 0xb7, 0x15, 0xc5, 0x3c, 0x4c, 0xe0, 0xff, 0xbd,
  0xbb, 0x19, 0xaf, 0x3d, 0x7a, 0xc7, 0x3c, 0x3e, 0xb6, 0x9f, 0xad, 0xbe,
  0x58, 0x37, 0x46, 0xbe, 0x35, 0x9b, 0x14, 0x3e, 0x23, 0xcc, 0x2b, 0x3e,
  0x11, 0xfe, 0xfe, 0x3d, 0x4a, 0x26, 0xe2, 0x3d, 0xdf, 0x3e, 0x54, 0x3e,
  0xb1, 0x9c, 0x1e, 0x3e, 0x8f, 0xac, 0x2c, 0xbe, 0xe2, 0x09, 0x44, 0xbe,
  0x7e, 0x5e, 0x30, 0xba, 0x22, 0x9a, 0x64, 0xbe, 0x10, 0xad, 0x96, 0x3d,
  0x2f, 0x69, 0x02, 0xbb, 0x18, 0x4e, 0xcf, 0x3e, 0x3c, 0xc9, 0x1f, 0x3e,
  0x88, 0x0d, 0x06, 0xbe, 0x25, 0xd7, 0x44, 0xbe, 0xe5, 0x65, 0x22, 0xbe,
  0x9e, 0x07, 0x06, 0xbe, 0x3a, 0x00, 0x85, 0xbd, 0xa8, 0x87, 0x8b, 0x3e,
  0x87, 0x47, 0x21, 0x3d, 0xfd, 0x23, 0x66, 0x3e, 0xa6, 0x17, 0xcc, 0xbd,
  0x88, 0xc3, 0x0b, 0xbd, 0xe2, 0x74, 0x20, 0x3d, 0xa8, 0xa8, 0x3c, 0xbe,
  0x5b, 0xbf, 0xab, 0x3b, 0xe3, 0x35, 0x2b, 0xbe, 0xf8, 0xba, 0x63, 0x3e,
  0x81, 0xf0, 0x4f, 0x3e, 0x73, 0xb3, 0xb3, 0xbe, 0x2c, 0xc5, 0x63, 0xbe,
  0x77, 0xeb, 0x53, 0xbe, 0xe8, 0x33, 0xe0, 0xbd, 0xae, 0xec, 0xcf, 0xbc,
  0x6c, 0x91, 0xf1, 0xbd, 0xf3, 0x11, 0xa4, 0xbd, 0x65, 0xd0, 0xa0, 0x3e,
  0x2c, 0xe8, 0x32, 0x3e, 0x71, 0x32, 0x2a, 0x3e, 0x47, 0x5d, 0xb1, 0x3e,
  0xec, 0x88, 0x09, 0x3e, 0x1a, 0x68, 0x60, 0xbd, 0xea, 0x1d, 0x1f, 0x3e,
  0x18, 0x20, 0x60, 0x3e, 0x2c, 0xcb, 0x6c, 0x3d, 0xfe, 0x48, 0x90, 0xbe,
  0xa9, 0x90, 0x60, 0x3e, 0x40, 0x9e, 0xc3, 0xbe, 0xdb, 0xb1, 0x16, 0xbc,
  0x03, 0x56, 0x83, 0xbe, 0x6d, 0xee, 0x67, 0x3e, 0x9d, 0x4f, 0x5e, 0x3c,
  0xc1, 0x63, 0x66, 0xbe, 0x2a, 0xa3, 0x25, 0x3e, 0x95, 0x16, 0x20, 0x3e,
  0xe2, 0xd9, 0xdf, 0xbd, 0x0f, 0x44, 0x31, 0xbe, 0xc1, 0xa6, 0x49, 0xbe,
  0x00, 0x92, 0x03, 0x3c, 0xab, 0x74, 0x04, 0xbd, 0xb3, 0xa4, 0x18, 0x3e,
  0x5b, 0xca, 0x12, 0xbe, 0x05, 0x82, 0xf4, 0xbd, 0xb1, 0x32, 0x91, 0x3d,
  0xbe, 0xb9, 0x6d, 0xbe, 0xed, 0xa7, 0x0b, 0x3e, 0x65, 0xa4, 0x70, 0xbd,
  0xd6, 0xf7, 0xbe, 0xbd, 0x67, 0xf2, 0xc4, 0xbd, 0x41, 0x5f, 0x4b, 0xbe,
  0xcb, 0x81, 0xcc, 0xbc, 0xec, 0x54, 0x45, 0x3d, 0x35, 0x02, 0x8b, 0x3d,
  0x05, 0x37, 0x08, 0x3d, 0xf0, 0x67, 0x99, 0xbe, 0xf5, 0xf0, 0x80, 0xbe,
  0x5d, 0x9e, 0xde, 0x3d, 0x58, 0xbb, 0x25, 0xbe, 0x56, 0x52, 0x33, 0xbe,
  0x61, 0x1a, 0x5c, 0x3d, 0x0a, 0x0a, 0xc0, 0x3d, 0x74, 0xda, 0x16, 0x3e,
  0x24, 0x96, 0x02, 0xbd, 0xdb, 0x0d, 0x3c, 0xbe, 0xab, 0xb2, 0x81, 0x3c,
  0x41, 0xe0, 0x11, 0x3e, 0x57, 0x7d, 0x1b, 0x3e, 0x96, 0xe1, 0x94, 0xbd,
  0xed, 0x86, 0x67, 0xbd, 0x37, 0x83, 0x27, 0x3d, 0xae, 0x93, 0x86, 0x3d,
  0x15, 0xf3, 0xbb, 0x3d, 0x2f, 0xcf, 0xad, 0x3d, 0xca, 0x47, 0xf0, 0x3c,
  0xbe, 0x90, 0x2a, 0xbe, 0xfc, 0x92, 0x7e, 0xbe, 0x48, 0x33, 0x78, 0x3d,
  0xab, 0xcd, 0x9a, 0xbd, 0xa9, 0xbf, 0x39, 0x3d, 0xfc, 0x9c, 0xf5, 0x3d,
  0x7f, 0x32, 0x15, 0x3e, 0x28, 0x14, 0x4a, 0x3d, 0xc5, 0xac, 0xfa, 0xbc,
  0x13, 0xa0, 0x0a, 0x3e, 0xd8, 0xd5, 0x2e, 0xbd, 0x84, 0xd8, 0x3b, 0xbe,
  0xb0, 0xe2, 0x0d, 0xbe, 0x39, 0xc3, 0xb1, 0xbb, 0x09, 0x1c, 0x1d, 0x3c,
  0x93, 0x90, 0x6c, 0x3d, 0x13, 0x30, 0xc2, 0xbd, 0x3f, 0xae, 0x28, 0x3d,
  0xc5, 0xb9, 0xae, 0x3d, 0x4b, 0x63, 0x05, 0x3e, 0x30, 0xf6, 0x98, 0xbd,
  0x31, 0xf1, 0xcc, 0xbd, 0x4f, 0xf3, 0x43, 0xbe, 0xed, 0x5c, 0x87, 0x3d,
  0x15, 0x57, 0x3e, 0xbe, 0x3c, 0x5b, 0x6c, 0xbe, 0x3a, 0x15, 0xcd, 0xba,
  0x25, 0x5c, 0x5d, 0x3e, 0x3d, 0xb9, 0xbc, 0xbd, 0x8b, 0xe0, 0xac, 0x3e,
  0x17, 0x22, 0x4c, 0x3e, 0xe6, 0xa4, 0xb0, 0x3e, 0x1a, 0x0a, 0x49, 0xbe,
  0xf6, 0x31, 0xfd, 0x3c, 0xb1, 0x4c, 0x18, 0x3e, 0x59, 0x6b, 0x28, 0xbd,
  0xaf, 0x21, 0xd8, 0x3c, 0xa8, 0x56, 0x37, 0xbe, 0x0c, 0x13, 0x42, 0xbd,
  0x31, 0x5c, 0x94, 0x3d, 0x58, 0x39, 0x9f, 0xbb, 0x98, 0x83, 0x94, 0x3e,
  0xef, 0x80, 0xd5, 0xbe, 0xcb, 0x25, 0x7c, 0xbe, 0x35, 0x12, 0xc7, 0x3d,
  0x7c, 0x18, 0x26, 0xbe, 0x84, 0xaa, 0x2b, 0x3e, 0xe3, 0x5a, 0xa8, 0xbc,
  0xe2, 0x6f, 0x7e, 0x3b, 0x08, 0x99, 0xc2, 0x3d, 0xcf, 0xe1, 0x51, 0x3c,
  0x08, 0xd2, 0x22, 0x3c, 0x5d, 0x23, 0x42, 0xbe, 0x78, 0xeb, 0x13, 0xbd,
  0x0d, 0x11, 0x44, 0xbe, 0x94, 0x60, 0xfc, 0xbd, 0x1d, 0xd5, 0xe2, 0xbe,
  0x33, 0xd2, 0xc3, 0xbe, 0x35, 0x9a, 0x44, 0xbe, 0xf9, 0x37, 0xab, 0xbb,
  0x87, 0x96, 0xd0, 0xbc, 0x2b, 0xe4, 0x06, 0x3e, 0xdc, 0xd2, 0x96, 0x3d,
  0x70, 0x18, 0xad, 0xbd, 0x00, 0x54, 0xf4, 0xbd, 0xaf, 0xc8, 0x52, 0x3e,
  0x22, 0x08, 0x6c, 0x3e, 0x14, 0x84, 0x85, 0x3e, 0x8b, 0xb1, 0x3f, 0x3e,
  0xf3, 0x53, 0x7d, 0xbd, 0x17, 0x3a, 0xab, 0x3e, 0x0e, 0xf9, 0xf5, 0x3d,
  0x0c, 0x96, 0x00, 0x3e, 0xe3, 0xf5, 0x05, 0xbd, 0x7c, 0x30, 0x13, 0xbe,
  0x7e, 0x38, 0x9f, 0xbd, 0x4c, 0x71, 0x88, 0xba, 0x74, 0x17, 0x1c, 0xbd,
  0x34, 0xf5, 0x85, 0x3e, 0x6a, 0x2b, 0xc3, 0x3c, 0x3c, 0xc6, 0x15, 0xbc,
  0x1e, 0x1d, 0x8e, 0x3e, 0x25, 0x48, 0xa7, 0xbd, 0x94, 0x68, 0x26, 0xbc,
  0x36, 0x29, 0x15, 0x3d, 0xa6, 0xd7, 0xee, 0xbd, 0x20, 0x51, 0xf9, 0x3b,
  0x96, 0xe4, 0xff, 0xff, 0x04, 0x00, 0x00, 0x00, 0x00, 0x0a, 0x00, 0x00,
  0x51, 0xe6, 0xb0, 0x3c, 0xa8, 0xe3, 0xde, 0x3d, 0x6f, 0x3e, 0x19, 0x3e,
  0xaf, 0x17, 0xb8, 0xbb, 0xc6, 0x44, 0x62, 0x3e, 0x4e, 0x8d, 0xa8, 0x3e,
  0xe4, 0xc1, 0x35, 0x3e, 0xd2, 0x27, 0xe2, 0x3e, 0x4f, 0x3d, 0x9f, 0x3d,
  0xe6, 0xb2, 0xb9, 0x3d, 0xd6, 0xca, 0x74, 0xbc, 0x70, 0x14, 0x92, 0xbd,
  0x7e, 0xd9, 0xf7, 0x3c, 0x99, 0xb3, 0x6b, 0x3e, 0x5c, 0xc6, 0xad, 0x3e,
  0x97, 0xcc, 0xbe, 0x3e, 0xce, 0x88, 0x34, 0xbd, 0x4f, 0xcf, 0xc4, 0xbc,
  0xa7, 0xc8, 0xda, 0x3e, 0x76, 0x4c, 0x08, 0xbd, 0xa3, 0x9d, 0x96, 0x3e,
  0xac, 0x6d, 0xcc, 0x3e, 0xb8, 0x97, 0x99, 0x3d, 0x74, 0x45, 0x42, 0x3e,
  0x85, 0x48, 0xc9, 0xbd, 0xe0, 0x75, 0xf9, 0x3c, 0x1f, 0xaf, 0x7f, 0x3e,
  0x40, 0xff, 0x95, 0x3d, 0xb7, 0x8e, 0x9b, 0x3e, 0xf0, 0x7d, 0x3c, 0x3e,
  0x64, 0x84, 0x80, 0x3d, 0x92, 0x9b, 0x79, 0xbd, 0x9d, 0xed, 0xb5, 0x3e,
  0xd6, 0x5c, 0x17, 0x3e, 0x0f, 0xef, 0x8f, 0x3d, 0x50, 0x55, 0xaf, 0x3c,
  0xbe, 0xc6, 0xf0, 0x3d, 0x17, 0xb9, 0x98, 0xbe, 0x01, 0x5c, 0x2c, 0x3e,
  0xcb, 0x52, 0x94, 0x3d, 0xa3, 0x51, 0xb0, 0x3c, 0x7e, 0x33, 0x26, 0xbd,
  0x08, 0xfa, 0x50, 0xbd, 0xce, 0x25, 0xb0, 0xbd, 0x72, 0x23, 0x00, 0xbe,
  0xee, 0x0d, 0x0a, 0x3e, 0xa9, 0x36, 0x25, 0x3d, 0x4a, 0x36, 0xee, 0xbd,
  0xca, 0xcb, 0x38, 0x3e, 0xcd, 0x6c, 0xaf, 0x3b, 0x2b, 0x2b, 0xdf, 0xbd,
  0x67, 0xb4, 0x3b, 0x3e, 0xab, 0xec, 0x9e, 0x3d, 0x83, 0x5d, 0x19, 0x3e,
  0x4a, 0xf0, 0x20, 0x3d, 0x7f, 0xbe, 0x6f, 0xbd, 0xc6, 0x47, 0x45, 0xbd,
  0x6b, 0x57, 0xd5, 0x3e, 0x18, 0xfc, 0x07, 0x3e, 0x03, 0x48, 0x83, 0x3e,
  0x31, 0x79, 0x27, 0xbe, 0x82, 0x43, 0x8a, 0x3d, 0x08, 0x34, 0x2c, 0x3e,
  0x0c, 0xff, 0x8f, 0x3c, 0xb6, 0xf6, 0x04, 0x3d, 0x58, 0xda, 0x25, 0xbd,
  0x1f, 0x36, 0xcf, 0x3e, 0xc1, 0x33, 0xe5, 0x3d, 0x7c, 0x6c, 0x6c, 0x3e,
  0x0e, 0xdf, 0x99, 0xbc, 0xd6, 0xed, 0xb7, 0xbc, 0x09, 0xd3, 0xfe, 0x3d,
  0x0b, 0xe1, 0xe5, 0x3e, 0x92, 0x21, 0x22, 0xbe, 0xa0, 0x3b, 0x66, 0xbd,
  0x26, 0xa1, 0x88, 0x3e, 0x7b, 0x17, 0x74, 0xbe, 0x88, 0x46, 0x47, 0xbe,
  0x29, 0xbc, 0xd5, 0x3d, 0x5f, 0xb6, 0x6c, 0xbe, 0x82, 0xa9, 0x73, 0xbc,
  0x45, 0x2a, 0x09, 0xbe, 0x38, 0x7c, 0x2c, 0x3d, 0x30, 0xcd, 0x86, 0x3d,
  0x91, 0x68, 0x8f, 0xbe, 0xba, 0xcc, 0xe5, 0x3c, 0xc5, 0x75, 0x42, 0xbe,
  0x19, 0xa6, 0x75, 0xbe, 0x57, 0x1f, 0xf1, 0xbc, 0x86, 0xb1, 0x5a, 0x3e,
  0x45, 0x46, 0x8d, 0x3d, 0xf9, 0xc3, 0xbb, 0xbe, 0x74, 0x8c, 0x07, 0xbe,
  0x4f, 0xbb, 0x73, 0x3d, 0x1e, 0x38, 0xba, 0xbe, 0xbd, 0x89, 0xa0, 0xbe,
  0xde, 0x48, 0x04, 0x3e, 0xfc, 0x6f, 0x33, 0x3e, 0x7e, 0x54, 0xbb, 0xbe,
  0xd8, 0x08, 0xbb, 0x3c, 0xd3, 0xb8, 0xbf, 0xbe, 0x59, 0x45, 0xa5, 0xbe,
  0x25, 0x42, 0xd6, 0x3d, 0x57, 0x9b, 0x88, 0x3d, 0x1f, 0x12, 0xde, 0xbc,
  0x65, 0xdd, 0xc7, 0x3d, 0x57, 0xc1, 0xad, 0x3d, 0xb1, 0x9a, 0x7b, 0xbe,
  0x4c, 0xd4, 0x38, 0xbe, 0x80, 0x1c, 0x2a, 0xbd, 0x72, 0x31, 0xcc, 0xbe,
  0x81, 0x15, 0x11, 0x3d, 0xe2, 0x07, 0x13, 0x3d, 0x5c, 0x63, 0x79, 0xbe,
  0x26, 0x04, 0x06, 0xbe, 0x9d, 0xc7, 0xd6, 0xbe, 0xa6, 0x2e, 0xc4, 0xbe,
  0x4c, 0xda, 0x45, 0x3d, 0x71, 0x92, 0x9c, 0xbd, 0xac, 0xec, 0x26, 0x3c,
  0xb8, 0x1b, 0x07, 0x3e, 0x4a, 0x45, 0xd5, 0x3d, 0x2d, 0xb2, 0xde, 0xbd,
  0xec, 0x89, 0x24, 0xbe, 0xae, 0xbf, 0x35, 0xbe, 0xd8, 0xe7, 0xb3, 0x3d,
  0x1e, 0x0d, 0xae, 0x3e, 0x0b, 0xad, 0x03, 0x3d, 0x42, 0xbf, 0xc8, 0x3c,
  0xdf, 0x1b, 0x60, 0xbe, 0xad, 0x7b, 0x28, 0x3e, 0xa5, 0xa7, 0x3a, 0x3d,
  0xfb, 0x08, 0x96, 0xbd, 0x22, 0xf9, 0xf5, 0xbd, 0xba, 0x30, 0x80, 0xbe,
  0x1f, 0x89, 0xa9, 0x3c, 0xdf, 0x6b, 0xf8, 0xbd, 0xf5, 0x01, 0x6a, 0xbd,
  0x5f, 0x04, 0x3e, 0xbd, 0x4f, 0x60, 0xcd, 0xbe, 0x29, 0xe3, 0xd4, 0xbe,
  0x8a, 0x63, 0xc0, 0xbc, 0x36, 0xb3, 0x65, 0x3c, 0x2b, 0x0b, 0xc0, 0xbd,
  0x28, 0xda, 0xab, 0xbc, 0x5b, 0xf9, 0x08, 0xbe, 0x2f, 0x7c, 0xe8, 0xbe,
  0xbe, 0xad, 0x0b, 0xbf, 0x84, 0xca, 0xca, 0xbe, 0x2f, 0xbf, 0x83, 0xbe,
  0xb1, 0xcc, 0xa7, 0xbe, 0xe8, 0xa4, 0x43, 0xbe, 0x3e, 0xef, 0xac, 0xbd,
  0x7c, 0xf2, 0xae, 0xbe, 0xad, 0xe1, 0x7d, 0xbe, 0x25, 0x5e, 0x8b, 0xbe,
  0xc0, 0xc2, 0xe9, 0xbe, 0xa9, 0x2b, 0xcf, 0xbd, 0x14, 0x3b, 0x16, 0xbf,
  0x9c, 0xb8, 0x85, 0x3d, 0x89, 0x61, 0x36, 0xbe, 0x9c, 0x93, 0x7f, 0xbe,
  0xbd, 0x80, 0x64, 0xbd, 0x4c, 0x69, 0x68, 0xbe, 0xe6, 0xb0, 0xf5, 0xbe,
  0xad, 0xc9, 0x82, 0xbe, 0xcb, 0xea, 0xaf, 0xbd, 0xc9, 0xf0, 0xae, 0xbd,
  0x9d, 0xdb, 0xe9, 0xbd, 0x49, 0xae, 0x17, 0x3d, 0x71, 0x0f, 0x39, 0xbe,
  0x0d, 0xa7, 0xa2, 0xbe, 0x93, 0xbf, 0x07, 0xbf, 0xe5, 0x15, 0xd0, 0xbe,
  0x00, 0x27, 0x98, 0xbe, 0x91, 0x19, 0xb3, 0xbd, 0x14, 0x8d, 0x1f, 0x3e,
  0x20, 0x89, 0xd4, 0xbc, 0xfe, 0x02, 0x25, 0x3c, 0x5d, 0xe1, 0x9a, 0xbe,
  0xed, 0xea, 0xaa, 0xbe, 0x33, 0xbc, 0x17, 0xbe, 0x38, 0x41, 0x0f, 0xbe,
  0xd5, 0x98, 0xbb, 0x3e, 0xe2, 0xb0, 0xb3, 0x3e, 0x3d, 0xe7, 0x80, 0x3e,
  0x26, 0x90, 0x7a, 0x3d, 0x1e, 0x26, 0x2f, 0xbe, 0x11, 0x31, 0x46, 0x3c,
  0xff, 0x5f, 0x90, 0x3e, 0xe5, 0xda, 0xa0, 0x3e, 0x28, 0x14, 0x09, 0xbe,
  0x9d, 0xbf, 0x8b, 0xbd, 0x69, 0x79, 0x98, 0x3d, 0x93, 0x51, 0x2b, 0xbe,
  0x14, 0x36, 0x00, 0x3e, 0x87, 0x23, 0x22, 0x3e, 0xa8, 0xeb, 0x2d, 0xbe,
  0x2b, 0xa2, 0x78, 0xbe, 0xd3, 0x11, 0xa1, 0x3b, 0x7c, 0x88, 0x8b, 0x3e,
  0x86, 0xeb, 0x05, 0xbd, 0x92, 0xa7, 0x36, 0x3e, 0xfd, 0xaa, 0xc7, 0x3e,
  0x3a, 0x14, 0x8e, 0x3e, 0x52, 0xe1, 0x3d, 0x3e, 0xe8, 0xbc, 0x17, 0x3e,
  0x4c, 0x8c, 0xa7, 0xbe, 0x59, 0x57, 0xc9, 0x3d, 0x9a, 0xa1, 0x1c, 0x3e,
  0xe4, 0xfb, 0x8a, 0x3c, 0x6e, 0x98, 0xf2, 0x3d, 0xaf, 0x12, 0x8b, 0xbc,
  0x60, 0x0d, 0xa6, 0xbd, 0xc6, 0xa1, 0xdc, 0xbc, 0xe2, 0xac, 0x0f, 0xbe,
  0xde, 0x84, 0xaf, 0xbd, 0xd0, 0x34, 0xc3, 0x3d, 0xe2, 0x79, 0x74, 0xbd,
  0xb1, 0x9c, 0xbf, 0xbd, 0xed, 0x16, 0x90, 0x3e, 0xe5, 0xbc, 0x2b, 0x3e,
  0x7e, 0x35, 0xab, 0x3e, 0xdc, 0xa8, 0x12, 0x3e, 0x37, 0x32, 0x25, 0x3e,
  0xbf, 0x26, 0x7c, 0x3e, 0x8d, 0xbb, 0x62, 0x3e, 0x1f, 0xd1, 0x74, 0xbd,
  0xda, 0xff, 0x1e, 0xbe, 0x96, 0x95, 0x7a, 0x3e, 0x06, 0xe0, 0xd2, 0xbc,
  0xe2, 0xa1, 0x27, 0x3c, 0x26, 0x60, 0x5c, 0x3b, 0x7d, 0xf8, 0x0b, 0x3e,
  0x42, 0x82, 0xfe, 0xbd, 0xad, 0x1d, 0x15, 0x3e, 0xff, 0x61, 0x7e, 0xbd,
  0x1d, 0x1c, 0xf6, 0x3d, 0x89, 0xfa, 0x5d, 0xbe, 0x40, 0x0f, 0x22, 0x3e,
  0x28, 0x66, 0xad, 0x3b, 0x97, 0x49, 0x57, 0xbe, 0x1c, 0x76, 0x3e, 0xbe,
  0xae, 0xb9, 0x5d, 0xbe, 0xa9, 0x85, 0xc7, 0x3d, 0xac, 0xb5, 0x27, 0xbe,
  0x03, 0x43, 0x12, 0xbe, 0xc9, 0x6e, 0x5e, 0xbd, 0x47, 0x7d, 0x1b, 0x3e,
  0x33, 0xf9, 0x8c, 0x3e, 0xb7, 0xa3, 0xcc, 0x3e, 0x51, 0x7e, 0x81, 0x3d,
  0x95, 0xfa, 0xbf, 0xbc, 0x02, 0xd1, 0x70, 0xbe, 0x0a, 0x12, 0xf1, 0xbd,
  0x5b, 0x16, 0x57, 0xbe, 0xbb, 0x91, 0x2e, 0x3e, 0x37, 0x40, 0x13, 0x3d,
  0x23, 0x5c, 0xd8, 0x3d, 0x31, 0xac, 0x00, 0x3e, 0x40, 0x89, 0xcd, 0x3d,
  0xf7, 0x5e, 0xfd, 0xbd, 0x17, 0xaa, 0x48, 0xbe, 0x07, 0x3a, 0xa1, 0xbd,
  0x93, 0x27, 0xb8, 0xbe, 0x4d, 0x1a, 0x77, 0x3e, 0x81, 0x89, 0x82, 0xbd,
  0x45, 0xcf, 0x01, 0xbe, 0x54, 0xbb, 0x1d, 0x3e, 0x85, 0x56, 0x68, 0xbe,
  0x28, 0x84, 0x96, 0xbe, 0x84, 0x53, 0x58, 0x3d, 0x46, 0x3d, 0x9c, 0xbd,
  0x89, 0x46, 0xa7, 0xbe, 0xd2, 0x2d, 0x1f, 0x3e, 0xad, 0x35, 0xa4, 0xbe,
  0x59, 0xd3, 0x4f, 0x3e, 0xd7, 0xc5, 0x1d, 0xbd, 0x39, 0xc3, 0x30, 0x3e,
  0x97, 0x29, 0x82, 0x3c, 0x1a, 0x83, 0x53, 0xbe, 0xd0, 0xa2, 0x58, 0xbe,
  0xbe, 0x23, 0x5a, 0xbd, 0x25, 0xb1, 0x3b, 0x3e, 0x1e, 0x00, 0x20, 0x3e,
  0xb1, 0x1c, 0x16, 0x3e, 0xc1, 0x49, 0x77, 0xbe, 0x61, 0x9c, 0xe6, 0x3a,
  0x30, 0x15, 0x5f, 0xbc, 0xf7, 0x2b, 0xbd, 0xbd, 0xec, 0xce, 0xa6, 0xbe,
  0x69, 0xda, 0x72, 0xbe, 0x12, 0x8d, 0x30, 0x3e, 0x33, 0xb8, 0x10, 0x3e,
  0x05, 0x27, 0x1f, 0xbe, 0x9f, 0x97, 0x9b, 0x3e, 0x7f, 0x4a, 0x66, 0xbe,
  0x14, 0xd1, 0xb5, 0xbe, 0xa1, 0x08, 0x1d, 0xbd, 0x95, 0xc2, 0x6f, 0xbd,
  0x5b, 0x41, 0x58, 0xbe, 0x46, 0x01, 0xb3, 0x3e, 0x23, 0x87, 0x1a, 0x3e,
  0xbd, 0x02, 0x7c, 0x3d, 0x6a, 0x3e, 0xa2, 0x3b, 0xa3, 0xdf, 0x95, 0x3c,
  0xed, 0x59, 0x0b, 0xbe, 0x6a, 0x67, 0x99, 0xbd, 0x98, 0xf9, 0x77, 0x3d,
  0xca, 0x87, 0x56, 0xbd, 0x3f, 0x0a, 0xa8, 0x3d, 0x53, 0x5b, 0xae, 0xbe,
  0x7d, 0xd7, 0x2d, 0xbd, 0x29, 0x14, 0x30, 0xbe, 0x12, 0x65, 0x8f, 0x3c,
  0x9b, 0xcd, 0x23, 0x3c, 0x4d, 0xd0, 0x1b, 0x3e, 0xd0, 0xe3, 0x85, 0xbd,
  0xc0, 0x3e, 0x38, 0xbe, 0x8c, 0xb9, 0x8c, 0xbb, 0xee, 0xb8, 0x09, 0x3d,
  0xdf, 0xe7, 0xda, 0xbc, 0xd5, 0xad, 0x8c, 0x3c, 0xef, 0x5f, 0x36, 0x3d,
  0x27, 0xc1, 0xd5, 0x3e, 0x32, 0xe1, 0x3f, 0x3e, 0xeb, 0x92, 0x01, 0x3e,
  0x49, 0xbe, 0x9e, 0x3d, 0x7a, 0xaa, 0x94, 0xbd, 0xaf, 0x47, 0x9e, 0x3d,
  0xd8, 0x81, 0xb7, 0xbd, 0x5b, 0x3a, 0xbc, 0xba, 0xb6, 0x3d, 0x0a, 0x3f,
  0x64, 0xeb, 0x4a, 0x3e, 0x58, 0xe2, 0x25, 0x3e, 0x02, 0xd2, 0xbe, 0x3d,
  0x70, 0xa6, 0x71, 0xbe, 0xdf, 0xa6, 0x83, 0x3d, 0xd4, 0x7f, 0x9c, 0xbc,
  0x5e, 0xb9, 0x90, 0xbc, 0x23, 0x16, 0x7b, 0x3e, 0x78, 0xf5, 0x1a, 0x3d,
  0x03, 0x40, 0xfc, 0x3e, 0x49, 0x38, 0xac, 0x3e, 0xe6, 0x43, 0xa8, 0xbe,
  0x38, 0x53, 0xdc, 0xbd, 0x47, 0x0a, 0x99, 0x3d, 0x14, 0x30, 0x5a, 0x3e,
  0x6c, 0x0f, 0xbc, 0xbd, 0xe5, 0xb6, 0x93, 0xbd, 0xdc, 0xf2, 0x69, 0x3e,
  0xb7, 0xcf, 0x09, 0xbe, 0x57, 0xf1, 0x9e, 0xbe, 0xf2, 0x9e, 0xa0, 0x3d,
  0xb4, 0x4e, 0x9e, 0xbd, 0xc4, 0xd1, 0xcf, 0x3d, 0x4a, 0x0e, 0x0b, 0x3e,
  0xe3, 0x6d, 0x5a, 0xbd, 0x6e, 0x0f, 0x66, 0x3e, 0xa7, 0x26, 0x6d, 0x3d,
  0x70, 0x5c, 0xba, 0xbe, 0xbd, 0x99, 0x8c, 0xbe, 0xc8, 0x9c, 0xfe, 0x3d,
  0x7f, 0xe3, 0x8c, 0x3e, 0xe7, 0x0a, 0xd5, 0x3e, 0x48, 0xb1, 0x7c, 0x3d,
  0xc6, 0x91, 0x76, 0x3e, 0x2a, 0xcb, 0xc8, 0x3e, 0x91, 0x7a, 0xc2, 0xbe,
  0x8a, 0x9a, 0x3a, 0x3d, 0x45, 0xeb, 0xde, 0x3d, 0xeb, 0x6e, 0x60, 0x3b,
  0xf6, 0x34, 0xa1, 0x3e, 0xc9, 0xdc, 0x6a, 0x3e, 0xc2, 0xfa, 0x9f, 0x39,
  0x77, 0x1f, 0xe9, 0x3d, 0x2d, 0xdf, 0x9f, 0xbe, 0x46, 0x87, 0x8a, 0x3e,
  0x4e, 0x28, 0xc0, 0x3c, 0x4d, 0xeb, 0xc1, 0x3e, 0x72, 0x23, 0x8e, 0x3e,
  0xf5, 0x3d, 0x23, 0x3e, 0xea, 0xf4, 0x1b, 0x3e, 0x85, 0x62, 0xfe, 0x3d,
  0x7a, 0xa8, 0x8d, 0x3e, 0x20, 0x02, 0x98, 0x3e, 0xa8, 0x78, 0x7c, 0xbc,
  0x7f, 0x13, 0x4f, 0xbd, 0x08, 0xe9, 0x6d, 0x3e, 0xc1, 0x94, 0xd2, 0xbd,
  0x1c, 0xe7, 0x24, 0xbe, 0x92, 0xbb, 0x4b, 0xbe, 0x5f, 0x0a, 0x05, 0xbd,
  0xcd, 0x55, 0x66, 0xbd, 0x32, 0x85, 0x57, 0x3e, 0x13, 0x46, 0x36, 0xbb,
  0x6b, 0xac, 0x4c, 0x3e, 0xdf, 0x72, 0x50, 0x3d, 0x84, 0xd5, 0x77, 0xbe,
  0x80, 0x4e, 0xa3, 0xbd, 0x08, 0xb9, 0xbc, 0x3d, 0xb7, 0xc5, 0xc5, 0x3d,
  0x65, 0x79, 0xc3, 0x3e, 0xd5, 0xe7, 0x03, 0x3f, 0x59, 0x42, 0xcc, 0x3d,
  0x25, 0x0f, 0xd7, 0xbd, 0x62, 0x32, 0x13, 0xba, 0xda, 0x5f, 0x92, 0xbd,
  0x6c, 0xcd, 0x0c, 0x3a, 0x3a, 0x55, 0x69, 0xbd, 0x92, 0xd3, 0x35, 0x3e,
  0xef, 0xf6, 0x11, 0xbe, 0x42, 0x5d, 0xd6, 0x3e, 0xee, 0x29, 0x4f, 0x3e,
  0xcb, 0x37, 0xd5, 0x3d, 0x22, 0x23, 0x9b, 0xbe, 0x80, 0x78, 0xbd, 0x3e,
  0xb2, 0xd6, 0x5b, 0x3e, 0xb0, 0x0a, 0xe3, 0x3d, 0xc3, 0x53, 0xe3, 0x3e,
  0x33, 0xe7, 0x29, 0x3e, 0xe5, 0x48, 0xbb, 0x3d, 0x8a, 0x48, 0x5b, 0x3e,
  0x86, 0x77, 0xab, 0x3d, 0x39, 0x20, 0x7d, 0x3e, 0xa5, 0x7d, 0xca, 0x3d,
  0x5c, 0x14, 0x49, 0x3e, 0xe7, 0x7a, 0x11, 0xbd, 0xda, 0x59, 0x24, 0x3e,
  0xf0, 0xe0, 0x5b, 0xbd, 0x80, 0x41, 0x0e, 0xbd, 0x8c, 0x6d, 0xa0, 0xbe,
  0x3c, 0x47, 0x14, 0x3e, 0xa8, 0x97, 0x10, 0xbb, 0xea, 0xd8, 0x8c, 0xbe,
  0x44, 0x3e, 0xf2, 0x3d, 0x8f, 0x63, 0x39, 0xbe, 0xb5, 0x26, 0x5e, 0xbe,
  0x3a, 0xa5, 0x7d, 0xbe, 0x87, 0x06, 0x53, 0x3e, 0x5c, 0x4f, 0x15, 0x3e,
  0xd1, 0xd8, 0xa6, 0x3e, 0x1b, 0xc2, 0x55, 0x3e, 0xa2, 0x3f, 0x85, 0xbe,
  0x0d, 0x47, 0x12, 0x3e, 0x2d, 0x7c, 0xb6, 0xbd, 0x7c, 0xc4, 0x89, 0x3d,
  0x08, 0x75, 0xcc, 0xbe, 0x9a, 0x7d, 0x9e, 0x3e, 0xb7, 0x2d, 0x51, 0x3e,
  0x4e, 0x30, 0xff, 0xbc, 0xe8, 0x1e, 0x21, 0xbe, 0x97, 0x84, 0x44, 0xbd,
  0xbb, 0xb6, 0x5a, 0xbe, 0x44, 0x35, 0xbe, 0x3d, 0x64, 0x1d, 0x2d, 0x3e,
  0xe7, 0x92, 0xfe, 0x3d, 0x75, 0x28, 0x52, 0x3d, 0x35, 0x99, 0xce, 0xbd,
  0x03, 0xf1, 0x83, 0xbe, 0xfd, 0x43, 0x72, 0xbd, 0xfa, 0x24, 0x2c, 0xbe,
  0x36, 0x15, 0x0a, 0xbe, 0xae, 0xe3, 0x81, 0xbe, 0x9b, 0x87, 0x17, 0x3c,
  0x77, 0xfc, 0x27, 0x3d, 0x05, 0xb1, 0xb8, 0xbe, 0x7b, 0x9b, 0x99, 0xbe,
  0xd5, 0xc7, 0xfa, 0xbe, 0x64, 0xf7, 0x97, 0xbe, 0xb1, 0xec, 0x97, 0xbe,
  0xeb, 0x40, 0xaa, 0xbe, 0x81, 0x66, 0x26, 0x3d, 0x49, 0xc7, 0xbc, 0xbd,
  0xc0, 0xcd, 0x42, 0x3e, 0xea, 0xa7, 0xcd, 0xbd, 0x63, 0xf8, 0x27, 0xbe,
  0x82, 0x1a, 0x4e, 0xbe, 0x9b, 0xb4, 0xd6, 0x3d, 0x74, 0xd1, 0x6e, 0xbe,
  0x7a, 0xb8, 0x76, 0xbd, 0x1f, 0xbc, 0x83, 0x3e, 0x60, 0x1a, 0xaa, 0xbd,
  0x10, 0x3f, 0xd5, 0xbe, 0x95, 0xe3, 0x94, 0xbe, 0x9f, 0x44, 0x13, 0x3e,
  0xc4, 0x7c, 0x4d, 0xbe, 0x39, 0x82, 0xd2, 0xbd, 0xd2, 0x15, 0xac, 0x3d,
  0x05, 0x4d, 0x16, 0xbe, 0x09, 0x7b, 0x85, 0x3e, 0x6b, 0x6b, 0x0d, 0xbe,
  0x6d, 0x64, 0x85, 0xbe, 0xf9, 0xf0, 0xaa, 0x3d, 0x00, 0x8a, 0x8e, 0xbe,
  0xe2, 0xc3, 0x15, 0x3e, 0x41, 0x9d, 0x43, 0xbe, 0xf6, 0x03, 0xa8, 0xbe,
  0x9d, 0x54, 0x98, 0x3c, 0xee, 0x86, 0x20, 0xbd, 0x41, 0x59, 0xfe, 0xbd,
  0x45, 0x83, 0xab, 0xbe, 0xb4, 0x6b, 0x9f, 0xbe, 0x4e, 0x26, 0x98, 0x3d,
  0x43, 0xbe, 0xb5, 0x3e, 0x36, 0x3e, 0xac, 0x3d, 0x65, 0xaa, 0xa2, 0x3e,
  0x39, 0x8a, 0xf4, 0xbe, 0x27, 0x6f, 0xaa, 0x3d, 0x7b, 0xb2, 0xce, 0xbe,
  0xc3, 0x83, 0x9e, 0xbd, 0x80, 0x42, 0x75, 0x3e, 0x80, 0xb6, 0x07, 0x3e,
  0x1e, 0xdb, 0x10, 0x3b, 0xcb, 0x7f, 0x24, 0xbd, 0xfc, 0xc3, 0x15, 0xbe,
  0xbd, 0x00, 0x2e, 0x3d, 0x99, 0x31, 0x94, 0x3d, 0xa2, 0x62, 0xa1, 0xbe,
  0x9b, 0xab, 0xe9, 0xbd, 0xb5, 0x1b, 0xd4, 0xbc, 0xac, 0x57, 0x4d, 0x3d,
  0xc0, 0x80, 0xa7, 0xbd, 0x21, 0x01, 0x77, 0xbe, 0x1c, 0xaf, 0x40, 0xbe,
  0xce, 0xad, 0x81, 0x3e, 0xe3, 0x12, 0x80, 0x3e, 0x44, 0xd3, 0xe8, 0xbd,
  0x3f, 0x8d, 0x2e, 0x3e, 0x25, 0x85, 0x17, 0x3e, 0x4b, 0x79, 0x71, 0x3e,
  0x98, 0x95, 0xbb, 0x3d, 0xe2, 0xfc, 0x87, 0xbd, 0x9a, 0x07, 0x7e, 0x3e,
  0xaa, 0x33, 0x98, 0xbd, 0xa0, 0xb7, 0x06, 0xbe, 0x8c, 0x70, 0xbd, 0xbd,
  0x96, 0xff, 0x6b, 0x3d, 0x1a, 0x55, 0xea, 0x3d, 0x6f, 0xca, 0xa1, 0x3d,
  0xba, 0xea, 0x2e, 0x3e, 0xfc, 0x7a, 0x8c, 0x3d, 0x66, 0xc3, 0x7f, 0x3d,
  0xd8, 0xf6, 0x40, 0x3e, 0xbb, 0xd0, 0x04, 0xbe, 0x4d, 0x9e, 0xce, 0xba,
  0x80, 0xd8, 0x97, 0x3e, 0xe4, 0xa6, 0x28, 0x3e, 0x9c, 0xef, 0x36, 0x3c,
  0x0e, 0xcf, 0x13, 0x3e, 0xe1, 0x74, 0x79, 0xbe, 0x67, 0x3a, 0x85, 0xbe,
  0xab, 0x51, 0xf6, 0xbd, 0x7a, 0x7d, 0x8a, 0xbe, 0x8a, 0x16, 0x09, 0xbe,
  0xcb, 0xe4, 0x3a, 0xbc, 0xfd, 0x5f, 0xad, 0xbd, 0xcd, 0x00, 0x66, 0xbe,
  0x22, 0xb9, 0x6d, 0xbe, 0x9e, 0x82, 0x62, 0x3e, 0xec, 0x0e, 0x48, 0x3e,
  0xd9, 0xf1, 0x3d, 0xbd, 0x67, 0x2b, 0xcf, 0x3d, 0xda, 0x90, 0x80, 0xbd,
  0xc5, 0x87, 0x8d, 0xbd, 0x58, 0x6e, 0x9b, 0x3e, 0xb6, 0x4a, 0xd9, 0xbc,
  0x5d, 0x68, 0xc4, 0xbd, 0x28, 0x28, 0xa8, 0x3e, 0x0d, 0xa0, 0xaa, 0xbd,
  0x41, 0xf7, 0xcd, 0x3d, 0xf0, 0x18, 0x96, 0xbe, 0x2b, 0x0d, 0x8a, 0x3d,
  0x71, 0x97, 0xcc, 0xbd, 0x98, 0xba, 0xaa, 0xbd, 0x8d, 0xf0, 0x82, 0xbc,
  0xe8, 0x6d, 0x33, 0xbd, 0x63, 0x3d, 0x14, 0x3e, 0xe0, 0xb6, 0x96, 0x3c,
  0xbe, 0x50, 0xba, 0xbc, 0xbc, 0x5d, 0x87, 0x3e, 0x4e, 0x53, 0xb6, 0xbd,
  0xd7, 0x2e, 0x4e, 0xbe, 0x9f, 0xc1, 0x04, 0xbe, 0x36, 0x59, 0xc2, 0x3e,
  0x2a, 0x3c, 0x55, 0x3e, 0xd0, 0x78, 0x4a, 0xbe, 0x7d, 0x1d, 0x84, 0x3e,
  0x4a, 0x60, 0x8e, 0x3e, 0x24, 0xd7, 0xa9, 0xbd, 0x9e, 0xd8, 0x3f, 0x3e,
  0x04, 0x85, 0xc9, 0x3d, 0x94, 0x04, 0x65, 0x3e, 0x75, 0x99, 0x21, 0xbe,
  0xfb, 0x23, 0xad, 0x3e, 0xee, 0x9e, 0x5e, 0x3e, 0x59, 0x81, 0xa6, 0x3e,
  0x46, 0xfc, 0x96, 0x3d, 0x29, 0x69, 0x14, 0xbd, 0x1c, 0x8c, 0xac, 0xbd,
  0x6e, 0x7b, 0xa2, 0x3e, 0xab, 0x85, 0xaa, 0xbc, 0xf7, 0xf7, 0x45, 0xbc,
  0xfd, 0x70, 0x8d, 0x3e, 0x94, 0xf3, 0x52, 0x3d, 0xdf, 0xfb, 0xc3, 0xbd,
  0x3b, 0xa9, 0xf0, 0xbd, 0x77, 0xf0, 0x38, 0x3e, 0x7b, 0x3b, 0x91, 0x3e,
  0xda, 0xd5, 0xa9, 0x3d, 0x23, 0xbc, 0x27, 0x3e, 0x02, 0x3b, 0x02, 0x3e,
  0xfa, 0xa2, 0xcf, 0x3a, 0x6b, 0x30, 0xd3, 0xbd, 0x57, 0x1d, 0xa4, 0xbb,
  0x27, 0xec, 0xfe, 0x3c, 0x7b, 0xbb, 0xa0, 0x3d, 0x3d, 0x68, 0x9a, 0xbb,
  0x00, 0xa5, 0x31, 0x3e, 0x98, 0x2b, 0xa6, 0xbe, 0xd5, 0x09, 0xe2, 0xbd,
  0x00, 0xad, 0x34, 0x3e, 0x74, 0xcc, 0x62, 0x3d, 0x0e, 0xe1, 0xae, 0x3e,
  0xc8, 0x2b, 0x22, 0xbd, 0x71, 0xda, 0x6d, 0x3e, 0xb5, 0x9f, 0x97, 0xbe,
  0xc0, 0xc8, 0xf6, 0x37, 0xe5, 0xa0, 0x5a, 0x3d, 0x87, 0xf2, 0x65, 0x3e,
  0xd8, 0x44, 0x98, 0x3d, 0x78, 0x05, 0x17, 0xbd, 0x99, 0xb3, 0x90, 0x3d,
  0xde, 0x26, 0x06, 0xbd, 0xfa, 0xa5, 0xee, 0x39, 0x11, 0x0d, 0xb0, 0xbe,
  0xb7, 0x04, 0xae, 0xbb, 0xb9, 0x2a, 0x56, 0xbe, 0x4d, 0x38, 0xc4, 0xbc,
  0xfc, 0x60, 0x90, 0x3e, 0xa2, 0xee, 0xff, 0xff, 0x04, 0x00, 0x00, 0x00,
  0x00, 0x0a, 0x00, 0x00, 0x88, 0x3b, 0x07, 0x3f, 0x9f, 0x2a, 0x8b, 0x3e,
  0xb4, 0xf5, 0x40, 0xbd, 0x4a, 0x47, 0x16, 0x3e, 0xaa, 0x28, 0xd8, 0xbc,
  0x8d, 0x19, 0xae, 0xbd, 0x16, 0x4f, 0x94, 0x3e, 0xcf, 0x43, 0x94, 0x3e,
  0xa7, 0xea, 0x85, 0x3d, 0x5e, 0x58, 0x90, 0xbe, 0x1e, 0x50, 0x62, 0x3c,
  0x42, 0xa5, 0x45, 0xbe, 0x34, 0x75, 0xeb, 0xbd, 0x0f, 0xc8, 0x4d, 0xbe,
  0xc6, 0x78, 0x2c, 0xbe, 0xbe, 0xf1, 0x15, 0xbe, 0xd1, 0x15, 0x97, 0xbd,
  0xa2, 0x03, 0x23, 0x3c, 0xbe, 0x2b, 0x40, 0x3d, 0x19, 0x11, 0x58, 0x3d,
  0xb0, 0xce, 0x7f, 0x3c, 0xb6, 0x0c, 0xb2, 0xbe, 0xa8, 0x09, 0x3f, 0xbe,
  0xeb, 0x25, 0x10, 0xbe, 0xbb, 0x2e, 0x30, 0x3e, 0xbc, 0xc0, 0xa0, 0xbe,
  0x20, 0x1d, 0xb1, 0xbd, 0x0c, 0x1a, 0xeb, 0xbe, 0x86, 0x27, 0xeb, 0xbd,
  0xff, 0x10, 0x36, 0x3d, 0xc1, 0xb7, 0x2b, 0xbe, 0xd1, 0x2c, 0x8d, 0x3e,
  0x2a, 0xa9, 0x8c, 0x3e, 0x20, 0x95, 0xcb, 0x3e, 0xeb, 0x6e, 0x3d, 0xbe,
  0x11, 0xc2, 0xab, 0xbd, 0x0e, 0xdf, 0x90, 0xbd, 0x73, 0x51, 0x36, 0xbe,
  0xd1, 0x41, 0x5b, 0x3e, 0x9a, 0xf1, 0xb8, 0x3e, 0x98, 0xc4, 0x76, 0x3e,
  0x54, 0x67, 0x81, 0x3e, 0x31, 0x20, 0xaa, 0x3e, 0x96, 0xe9, 0x90, 0x3d,
  0xb0, 0x12, 0xc0, 0xbe, 0x5c, 0x49, 0xa5, 0x3e, 0x6b, 0x1c, 0x8f, 0x3e,
  0x16, 0xbc, 0xbd, 0xbd, 0xdc, 0xd6, 0x27, 0x3d, 0x8a, 0x3e, 0xd9, 0xbd,
  0x49, 0x6d, 0x8c, 0x3e, 0x90, 0x50, 0x99, 0x3e, 0xea, 0x73, 0xbd, 0x3e,
  0x09, 0x4f, 0x9a, 0x3e, 0xc7, 0x07, 0xdc, 0x3d, 0x22, 0x1d, 0xc2, 0x3d,
  0xa3, 0x77, 0x99, 0xbc, 0x84, 0xe7, 0x93, 0xbe, 0x21, 0x2c, 0x69, 0xbe,
  0x4a, 0xa3, 0xdd, 0x3d, 0xab, 0xf4, 0x15, 0x3e, 0x08, 0x5c, 0xad, 0x3e,
  0xd0, 0x66, 0xff, 0x3d, 0xa2, 0x0b, 0x3f, 0x3e, 0xfd, 0xf9, 0xb0, 0x3e,
  0xfb, 0x96, 0x13, 0xbe, 0xdd, 0xa3, 0xb9, 0x3d, 0xb3, 0x94, 0x79, 0x3d,
  0xab, 0x1b, 0x1e, 0x3e, 0xc5, 0x20, 0x17, 0xbe, 0x6d, 0x78, 0x95, 0x3c,
  0x43, 0x53, 0xc6, 0x3d, 0x6e, 0xce, 0x69, 0x3e, 0x5e, 0x6c, 0xc2, 0xbe,
  0x8f, 0x2c, 0x86, 0xbe, 0x4e, 0x2e, 0x6d, 0xbe, 0x35, 0x4f, 0xab, 0xbd,
  0xa4, 0x22, 0xe1, 0xbd, 0x6f, 0x18, 0x3f, 0xbe, 0x16, 0xb7, 0x87, 0xbe,
  0x3f, 0x4a, 0x42, 0x3e, 0x31, 0xe2, 0xb9, 0xbd, 0x47, 0x49, 0x98, 0xbe,
  0xaa, 0x2e, 0xfb, 0xbe, 0xc6, 0xa4, 0x49, 0xbe, 0xb8, 0xcc, 0x46, 0xbe,
  0x05, 0xe9, 0x35, 0x3e, 0xc7, 0x95, 0xaf, 0xbd, 0xbb, 0x47, 0x84, 0xbd,
  0x6d, 0x36, 0xd1, 0xbd, 0x5a, 0xe5, 0x70, 0xbe, 0xd6, 0xc8, 0x38, 0xbe,
  0xb0, 0x80, 0x52, 0xbb, 0xe6, 0x7c, 0x18, 0xbe, 0xfa, 0x5d, 0x02, 0xbd,
  0x93, 0xc2, 0xc1, 0xbe, 0x64, 0x29, 0xe8, 0xbd, 0xcf, 0x1a, 0x72, 0xbd,
  0x54, 0x76, 0x9c, 0xbe, 0x78, 0xb2, 0xeb, 0xbe, 0x58, 0xe2, 0x75, 0xbe,
  0x13, 0x88, 0x9a, 0xbe, 0x25, 0xa6, 0x3e, 0xbe, 0x46, 0x7f, 0xba, 0xbd,
  0xbf, 0x7f, 0xeb, 0x3d, 0xd7, 0xcc, 0xce, 0xbd, 0xab, 0x57, 0x9f, 0xbe,
  0x7d, 0x29, 0x9f, 0xbe, 0x12, 0x01, 0x86, 0xbe, 0xad, 0xd8, 0x3d, 0xbc,
  0x69, 0x9c, 0xc7, 0x3c, 0x68, 0x92, 0x9f, 0x3e, 0xbc, 0xc5, 0x4a, 0xbd,
  0x06, 0xd2, 0x85, 0xbe, 0x3f, 0x34, 0xbf, 0xbe, 0xd6, 0x60, 0xb0, 0xbe,
  0xe3, 0x7f, 0x89, 0xbd, 0xe9, 0x8e, 0xcd, 0x3e, 0x38, 0xd3, 0x82, 0x3e,
  0x82, 0x3e, 0xbf, 0x3e, 0xe2, 0x7c, 0x2c, 0xbc, 0x67, 0xed, 0x39, 0xbe,
  0xc9, 0x10, 0x0b, 0x3e, 0xfc, 0xcd, 0xe2, 0x3d, 0xfa, 0xa3, 0x3b, 0xbe,
  0x4c, 0x27, 0x03, 0x3f, 0xf1, 0xb9, 0x23, 0x3e, 0x8d, 0x12, 0x2a, 0x3f,
  0x33, 0x11, 0x49, 0x3e, 0x58, 0x35, 0x74, 0xbd, 0x9f, 0xed, 0xbb, 0xbc,
  0x63, 0x23, 0x89, 0x3e, 0x67, 0x97, 0x72, 0xbd, 0x6c, 0x1d, 0x08, 0x3d,
  0x16, 0x09, 0xad, 0xbc, 0xc3, 0x3e, 0xb2, 0x3e, 0xf2, 0x58, 0xa7, 0x3e,
  0xe2, 0x83, 0xc1, 0x3d, 0x2f, 0xb2, 0x72, 0xbe, 0x27, 0x54, 0x52, 0xbe,
  0x56, 0x67, 0x15, 0xbd, 0xc5, 0x48, 0x43, 0x3e, 0xa1, 0xc8, 0x2d, 0x3e,
  0xf9, 0x86, 0x25, 0xbd, 0xef, 0x38, 0xbe, 0x3d, 0x86, 0xcf, 0x14, 0x3e,
  0xbe, 0x77, 0xc7, 0xba, 0xb3, 0x96, 0x0d, 0xbd, 0xea, 0x44, 0xbd, 0xbe,
  0x47, 0x89, 0x24, 0xbe, 0xf4, 0x6c, 0xd7, 0x3d, 0xa0, 0xc1, 0xf8, 0x3d,
  0xb4, 0xa0, 0x48, 0x3d, 0xc6, 0x0c, 0x87, 0x3d, 0x1a, 0x57, 0x2a, 0xbe,
  0xca, 0x6e, 0x01, 0xbe, 0x18, 0xf4, 0x08, 0x3d, 0x59, 0x16, 0x57, 0xbe,
  0xbd, 0x43, 0x00, 0xbe, 0xc2, 0xcf, 0xec, 0x3c, 0xac, 0xd1, 0xa2, 0x3e,
  0xf4, 0x32, 0x88, 0xbe, 0x06, 0xd5, 0xde, 0xbd, 0x22, 0x22, 0x8e, 0xbe,
  0x50, 0xae, 0xa6, 0xbe, 0x9e, 0x20, 0xaa, 0xbe, 0x70, 0x66, 0x73, 0xbe,
  0x0a, 0x77, 0x41, 0xbe, 0xc4, 0xf9, 0xe2, 0x3e, 0x48, 0x80, 0x94, 0x3e,
  0x02, 0xd2, 0x05, 0x3f, 0x53, 0x05, 0xb5, 0xbd, 0x0f, 0xac, 0x27, 0x3d,
  0x4f, 0x6c, 0xb5, 0xbe, 0x97, 0xfd, 0xa4, 0xbe, 0xd9, 0xa0, 0x68, 0xbc,
  0xe6, 0x8d, 0xd0, 0x3e, 0x0a, 0x3f, 0x5a, 0x3e, 0xba, 0x4d, 0xbd, 0x3d,
  0xef, 0x51, 0xc4, 0x3e, 0x04, 0xd1, 0xc1, 0xbc, 0xab, 0x06, 0x70, 0xbc,
  0x97, 0x4f, 0x5a, 0xbe, 0x03, 0xb5, 0x17, 0x3e, 0x73, 0xad, 0x9f, 0x3e,
  0xb1, 0x4b, 0xa3, 0x3e, 0x0c, 0x05, 0x39, 0x3e, 0x0d, 0x13, 0x3f, 0x3e,
  0xea, 0xda, 0xac, 0x3e, 0x78, 0x17, 0x57, 0x3d, 0x69, 0x40, 0x25, 0x3e,
  0x80, 0x0a, 0x3f, 0x3e, 0xaa, 0x2c, 0xf1, 0xbd, 0x7e, 0x7c, 0x9b, 0xbe,
  0xee, 0x43, 0x32, 0x3d, 0xc5, 0x6e, 0x2b, 0x3e, 0x2a, 0x08, 0x67, 0x3d,
  0x9d, 0x07, 0xfd, 0xbd, 0x43, 0xdc, 0x95, 0xbe, 0x06, 0x4b, 0x2f, 0x3e,
  0x4c, 0x32, 0xe0, 0x3d, 0xf6, 0xbc, 0xde, 0xbe, 0xeb, 0x67, 0xa6, 0xbe,
  0x58, 0x19, 0x16, 0xbd, 0x81, 0xc8, 0x33, 0xbd, 0x1b, 0x40, 0x0e, 0x3e,
  0xfd, 0xf0, 0x48, 0x3d, 0x16, 0x50, 0x97, 0xbe, 0x93, 0x49, 0x49, 0xbe,
  0x70, 0x04, 0xcd, 0xbe, 0xb4, 0xb9, 0xf3, 0xbd, 0x49, 0x8d, 0x6b, 0xbe,
  0xa7, 0xfa, 0xff, 0xbc, 0x90, 0xef, 0xb2, 0x3c, 0x69, 0xc3, 0x0c, 0x3d,
  0x4a, 0x96, 0xa7, 0xbe, 0x59, 0x9e, 0x01, 0xbd, 0x6a, 0xcc, 0x18, 0x3e,
  0xfe, 0x69, 0x29, 0xbe, 0xc6, 0xa6, 0xa4, 0x3d, 0xf6, 0x6c, 0x44, 0xbe,
  0x2c, 0x64, 0x43, 0xbe, 0xfa, 0xd4, 0x0e, 0xbe, 0x2d, 0x95, 0x96, 0xbe,
  0x53, 0x82, 0x31, 0xbd, 0xda, 0xc4, 0x67, 0x3d, 0x33, 0x49, 0x6a, 0xbe,
  0x67, 0x7c, 0x8a, 0x3d, 0x0d, 0x11, 0x9e, 0xbe, 0xbd, 0x14, 0x29, 0x3e,
  0x35, 0x1b, 0x1b, 0xbe, 0xc5, 0x08, 0xa7, 0x3c, 0x1d, 0x72, 0x82, 0x3c,
  0x4e, 0x96, 0x87, 0xbe, 0x8b, 0xc2, 0xc9, 0xbd, 0x82, 0x5f, 0xbb, 0x3d,
  0x26, 0x50, 0x1c, 0xbe, 0x69, 0x7a, 0x04, 0x3e, 0xf0, 0xe6, 0x59, 0x3d,
  0x9e, 0x19, 0x6f, 0xbc, 0xa4, 0x7c, 0xa7, 0xbd, 0x07, 0x6b, 0x97, 0xbe,
  0x0f, 0x08, 0x6e, 0xbe, 0x26, 0x90, 0x31, 0xbb, 0x2a, 0x6e, 0x01, 0x3d,
  0xc3, 0x81, 0x2a, 0x3e, 0xca, 0xe0, 0xdc, 0x3c, 0xe0, 0x7a, 0x90, 0x3c,
  0x84, 0xfd, 0xec, 0xbd, 0xfc, 0xd7, 0x33, 0x3e, 0x58, 0x01, 0xb9, 0x3c,
  0xbb, 0x25, 0x38, 0xbe, 0x80, 0xcb, 0x59, 0x3e, 0x6c, 0x69, 0x70, 0x3e,
  0x0c, 0x8d, 0x34, 0x3d, 0xea, 0x9d, 0x42, 0x3e, 0x65, 0xa8, 0x93, 0x3e,
  0x8c, 0xb8, 0x80, 0x3d, 0x49, 0x6c, 0xfc, 0xbd, 0x3e, 0x2d, 0x29, 0x3d,
  0xa5, 0x18, 0x53, 0x3e, 0xcc, 0x57, 0xd6, 0x3c, 0xc0, 0x11, 0xf0, 0xbd,
  0xe6, 0x9d, 0x8a, 0x3d, 0x44, 0x77, 0x06, 0x3f, 0xc3, 0xfa, 0x5b, 0x3e,
  0x96, 0x3e, 0xfc, 0x3d, 0x5c, 0x57, 0x01, 0xbe, 0x5a, 0x4f, 0xc1, 0x3e,
  0x5e, 0x94, 0x7d, 0xbe, 0xf3, 0x13, 0xea, 0x3c, 0xdc, 0x0e, 0x2c, 0xbe,
  0x59, 0xbf, 0xce, 0x3e, 0x3a, 0x75, 0xa6, 0xbb, 0x86, 0x97, 0x49, 0xbd,
  0xd0, 0x1e, 0xf9, 0xbd, 0xc0, 0xa5, 0x0b, 0x3e, 0x0e, 0x34, 0x74, 0x3d,
  0xf5, 0x8c, 0x4c, 0x3d, 0x1a, 0x82, 0xbc, 0x3e, 0x87, 0x5a, 0xdc, 0xbb,
  0x5d, 0xeb, 0x42, 0x3e, 0x0c, 0x72, 0x2c, 0xbe, 0xef, 0xa6, 0x35, 0xbe,
  0xbf, 0x36, 0xac, 0xbd, 0xe0, 0x9e, 0xd0, 0xb8, 0x30, 0xa4, 0x22, 0x3e,
  0xaf, 0x51, 0x03, 0xbe, 0x93, 0xe3, 0xc3, 0xbc, 0xa2, 0xc0, 0xdb, 0xbd,
  0xf6, 0x0d, 0xf8, 0x3d, 0xe0, 0x33, 0x44, 0x3e, 0xe1, 0x80, 0xd9, 0x3a,
  0x8d, 0x83, 0xd1, 0xbd, 0x06, 0x66, 0x9c, 0xbd, 0xf3, 0x15, 0x57, 0x3e,
  0x7c, 0x11, 0x58, 0x3e, 0xf2, 0xd9, 0x56, 0x3e, 0xb3, 0x4d, 0x00, 0xbe,
  0x20, 0xc0, 0xb4, 0xbc, 0xa4, 0x94, 0xa5, 0x3d, 0x2d, 0x67, 0xfe, 0xbb,
  0x01, 0x01, 0x7d, 0xbe, 0x20, 0x9a, 0xbf, 0x3e, 0xf8, 0x3c, 0x0c, 0x3e,
  0xba, 0x36, 0x9f, 0x3d, 0xf6, 0x15, 0xe6, 0x3d, 0x0d, 0xc9, 0x92, 0x3e,
  0x1b, 0xf0, 0x99, 0x3e, 0x02, 0x73, 0x80, 0xbe, 0xfd, 0x14, 0x35, 0x3e,
  0xbc, 0x6e, 0x30, 0xbe, 0x44, 0xd3, 0xc5, 0xbd, 0x4e, 0xf0, 0x2d, 0x3e,
  0x5c, 0xa6, 0x6a, 0x3e, 0x64, 0xf7, 0x1d, 0x3f, 0xdd, 0x6f, 0x4f, 0xbd,
  0x23, 0xd0, 0xdb, 0x3d, 0xfb, 0xaa, 0xeb, 0x3e, 0xb4, 0x28, 0xbd, 0xbd,
  0xec, 0x6c, 0xb9, 0x3b, 0x91, 0xfd, 0x03, 0x3f, 0xea, 0x6c, 0x51, 0x3e,
  0xba, 0x8d, 0x81, 0xbe, 0x17, 0x27, 0x01, 0x3e, 0x56, 0xe6, 0x96, 0x3d,
  0x89, 0x46, 0xec, 0x3e, 0x98, 0x4c, 0xd6, 0x3d, 0x33, 0x81, 0x80, 0x3e,
  0xcc, 0xb8, 0xc2, 0x3e, 0x3a, 0x7d, 0xcd, 0x3c, 0xa3, 0x70, 0xe5, 0xbe,
  0x63, 0xe2, 0x15, 0xbe, 0xbd, 0x8a, 0x09, 0x3e, 0x76, 0x73, 0xd1, 0x3d,
  0x30, 0xec, 0x0c, 0x3d, 0xde, 0xc3, 0x14, 0x3e, 0x05, 0xb3, 0x39, 0x3e,
  0x1e, 0x7f, 0x02, 0x3d, 0xaa, 0x11, 0x49, 0x3e, 0x48, 0x18, 0x47, 0x3e,
  0xec, 0x6f, 0x0a, 0x3e, 0xe1, 0x18, 0x96, 0x3d, 0xab, 0x21, 0xb4, 0x3d,
  0xc2, 0x75, 0x4f, 0xbe, 0x76, 0x11, 0x08, 0x3d, 0x4e, 0x03, 0x87, 0x3c,
  0x53, 0x9f, 0x9e, 0xbe, 0xe4, 0xd9, 0x96, 0xbc, 0x20, 0x77, 0x28, 0xbe,
  0x4d, 0xf1, 0x47, 0xbe, 0xbc, 0xec, 0xf6, 0x3c, 0x58, 0x2b, 0x58, 0x3e,
  0x05, 0xb1, 0x62, 0xbe, 0xa4, 0x28, 0xf7, 0x3d, 0x67, 0x64, 0x40, 0x3d,
  0x2b, 0xfb, 0x3f, 0xbd, 0x74, 0x54, 0x14, 0xbe, 0x58, 0x26, 0x9d, 0xbe,
  0x18, 0xa7, 0x0a, 0xbc, 0xa3, 0x86, 0x23, 0xbe, 0xda, 0xe5, 0x88, 0x3d,
  0xbd, 0x95, 0x07, 0x3e, 0x17, 0xa3, 0xf1, 0x3d, 0xb3, 0x38, 0xfa, 0x3c,
  0xf2, 0x7e, 0xbe, 0xbe, 0x7a, 0x35, 0x55, 0xbd, 0xcb, 0xba, 0x03, 0xbe,
  0x85, 0x33, 0x2a, 0x3d, 0x68, 0x98, 0xb7, 0x3e, 0xa6, 0x7d, 0xf4, 0x3d,
  0x69, 0x12, 0xe2, 0x3c, 0x8f, 0xb8, 0xe6, 0xbd, 0x6e, 0x37, 0x10, 0xbe,
  0x2b, 0x27, 0x07, 0xbf, 0x30, 0xa5, 0xce, 0x3d, 0x42, 0xbb, 0x65, 0x3e,
  0xe8, 0xb2, 0xb2, 0xbd, 0xd5, 0xc0, 0x8e, 0xbe, 0xd1, 0x5e, 0x2a, 0x3e,
  0xdb, 0x99, 0x50, 0xbe, 0x23, 0x6b, 0x38, 0xbf, 0xd9, 0xf7, 0xfb, 0xbe,
  0x13, 0xa9, 0x9a, 0xbe, 0xc5, 0x09, 0xae, 0x3e, 0xe0, 0xaf, 0xb1, 0x3e,
  0x31, 0xa9, 0x81, 0x3d, 0xcd, 0x89, 0x8c, 0x3e, 0x03, 0x78, 0x46, 0x3e,
  0xf6, 0xb5, 0xba, 0x3e, 0x6c, 0xac, 0x0e, 0x3f, 0x89, 0xe5, 0x6d, 0x3e,
  0xe5, 0x76, 0xec, 0x3e, 0x8a, 0x7a, 0xc4, 0x3e, 0x13, 0x65, 0x5d, 0x3d,
  0x10, 0x58, 0x8e, 0x3d, 0x3e, 0xd8, 0xb1, 0x3e, 0x7e, 0x14, 0x56, 0x3e,
  0x22, 0xa0, 0x93, 0x3e, 0xbb, 0x62, 0x1a, 0xbb, 0x8d, 0x6f, 0x9d, 0x3e,
  0x78, 0x36, 0x43, 0x3d, 0x15, 0x19, 0xd3, 0x3e, 0xc9, 0x76, 0x99, 0xbd,
  0xc8, 0x06, 0x78, 0xbd, 0xc4, 0x81, 0x2e, 0x3d, 0xb7, 0x71, 0xdc, 0xbe,
  0xdd, 0xff, 0x54, 0x3e, 0x9d, 0x2c, 0xea, 0x3d, 0x09, 0xcf, 0x01, 0xbe,
  0xcb, 0xeb, 0x74, 0x3d, 0xf9, 0xa6, 0xc4, 0xbc, 0xbc, 0x83, 0x20, 0xbe,
  0xae, 0xcc, 0x81, 0xbe, 0xd5, 0x3f, 0x7e, 0x3e, 0x16, 0x56, 0x00, 0xbf,
  0x2d, 0x42, 0x83, 0x3e, 0xce, 0x0f, 0xbe, 0xbb, 0xd7, 0xdd, 0x3d, 0x3e,
  0x45, 0x05, 0x9b, 0xbe, 0xf1, 0x2b, 0xa2, 0xbe, 0x59, 0x4d, 0x69, 0x3e,
  0x8e, 0xea, 0x74, 0x3d, 0x15, 0xfa, 0xd0, 0x3e, 0xb3, 0xb3, 0x65, 0x3e,
  0x28, 0xdc, 0x9e, 0x3e, 0x49, 0x6d, 0x2e, 0x3f, 0x35, 0xca, 0x4e, 0x3e,
  0x87, 0x5f, 0x13, 0x3f, 0x05, 0xe8, 0x12, 0x3e, 0xb3, 0xfe, 0xcb, 0x3e,
  0x3c, 0x49, 0x91, 0x3e, 0xce, 0x35, 0xe9, 0x3d, 0x04, 0x42, 0x97, 0x3e,
  0x00, 0xf1, 0x9e, 0x3d, 0x5c, 0x0e, 0x5f, 0x3e, 0x9f, 0x1b, 0x33, 0xbb,
  0x68, 0x7a, 0x76, 0x3e, 0xd4, 0x44, 0xae, 0x3d, 0xe3, 0xd4, 0xf7, 0x3c,
  0x41, 0xe4, 0xaf, 0x3e, 0x1d, 0x3e, 0x62, 0x3d, 0x6a, 0x0c, 0x21, 0x3e,
  0x1c, 0x90, 0x54, 0x3e, 0x61, 0x89, 0x12, 0x3e, 0x15, 0x25, 0x80, 0x3c,
  0xaf, 0x34, 0xb7, 0x3e, 0xb8, 0x1d, 0xa1, 0x3e, 0x73, 0xc2, 0xb7, 0x3e,
  0x33, 0xf9, 0x09, 0xbe, 0xf4, 0x64, 0x06, 0x3e, 0x9f, 0x7d, 0x52, 0x3e,
  0x8d, 0xde, 0x8f, 0x3e, 0xab, 0x18, 0xa6, 0xbd, 0x94, 0xd8, 0x8f, 0x3d,
  0x03, 0xde, 0xcf, 0x3c, 0x62, 0x18, 0x94, 0x3e, 0xd5, 0x9a, 0x67, 0xbe,
  0x97, 0x88, 0x90, 0xbe, 0x21, 0x43, 0x5b, 0x3c, 0xcb, 0x08, 0x15, 0x3e,
  0xea, 0x17, 0x9d, 0x3d, 0xfc, 0x1f, 0x00, 0x3e, 0x6c, 0xc1, 0xa7, 0x3e,
  0xff, 0x25, 0x0a, 0xbd, 0x66, 0x17, 0xe2, 0x3c, 0xbf, 0xdf, 0x59, 0xbe,
  0x4b, 0x39, 0x1c, 0xbe, 0x86, 0xcb, 0x94, 0xbc, 0xbe, 0xbf, 0x61, 0x3e,
  0xf0, 0x12, 0xc9, 0x3e, 0x4c, 0x05, 0xff, 0x3e, 0x67, 0xed, 0x1c, 0xbd,
  0xb4, 0x3c, 0x0f, 0xbd, 0xd1, 0x91, 0xb3, 0x3d, 0x0e, 0x11, 0x84, 0xbd,
  0xb9, 0x38, 0xa0, 0x39, 0xed, 0x7c, 0x29, 0x3e, 0xea, 0xd3, 0x5b, 0x3d,
  0xf9, 0x36, 0x0f, 0xbe, 0xe2, 0xe9, 0x21, 0x3d, 0x88, 0xf7, 0x4b, 0xbe,
  0x75, 0x5a, 0xc3, 0x3c, 0x72, 0x55, 0x27, 0xbe, 0x9e, 0xc7, 0x27, 0xbe,
  0x8f, 0xb7, 0xfa, 0x3c, 0xb4, 0x0d, 0xc2, 0x3d, 0x2d, 0xe6, 0xbd, 0x3e,
  0x5a, 0xb4, 0xd7, 0x3e, 0xa9, 0x60, 0x3c, 0xbe, 0x6f, 0x21, 0xb3, 0x3e,
  0x06, 0x47, 0x2c, 0xbe, 0xaf, 0x0b, 0x82, 0x3d, 0x4a, 0x91, 0xb0, 0x3e,
  0x92, 0x4f, 0x25, 0x3e, 0x16, 0x78, 0x99, 0x3e, 0xce, 0x3d, 0xb6, 0x3d,
  0xcc, 0x7b, 0x75, 0x3e, 0x36, 0x2e, 0x08, 0xbe, 0x59, 0xb6, 0x4e, 0xbe,
  0x73, 0x62, 0x9b, 0xbd, 0x5d, 0x49, 0x5b, 0xbd, 0x35, 0x65, 0xe5, 0x3d,
  0xa7, 0xc0, 0x7a, 0x3e, 0x7e, 0xfb, 0xa3, 0x3d, 0xfc, 0x3b, 0xfb, 0xbd,
  0xc3, 0x96, 0x22, 0xbd, 0xa3, 0x97, 0x39, 0xbd, 0x24, 0x00, 0x57, 0xbe,
  0xb2, 0x2f, 0x91, 0x3e, 0x42, 0x47, 0x8a, 0x3e, 0x02, 0x15, 0x94, 0x3e,
  0x80, 0x65, 0xa0, 0x3d, 0x4b, 0x9f, 0xc8, 0x3e, 0xf6, 0xa6, 0xc0, 0xbd,
  0x1c, 0xd8, 0x16, 0x3e, 0x57, 0x58, 0xb8, 0x3d, 0x1c, 0xcb, 0xb1, 0x3e,
  0xa6, 0xa0, 0xeb, 0xbd, 0x1c, 0xeb, 0x86, 0x3d, 0x2b, 0x9b, 0x20, 0x3d,
  0x51, 0xd1, 0x9f, 0xbd, 0xaf, 0xb4, 0x81, 0x3e, 0x67, 0xed, 0x82, 0xbd,
  0x7e, 0x93, 0x3f, 0x3e, 0xd5, 0xda, 0x8f, 0x3d, 0x28, 0x78, 0xbb, 0x3e,
  0xb6, 0x45, 0xad, 0xbd, 0xff, 0x33, 0x1c, 0x3d, 0x2a, 0x25, 0x19, 0x3c,
  0x6a, 0xff, 0x1e, 0x3d, 0x82, 0x1b, 0xb1, 0xbd, 0xb7, 0x24, 0x31, 0xbd,
  0x88, 0x27, 0xbb, 0x3d, 0xfb, 0xda, 0x47, 0x3e, 0x33, 0x3b, 0x06, 0x3e,
  0x81, 0xa3, 0xe1, 0x3e, 0x3f, 0x2d, 0xd3, 0xbc, 0x64, 0x1e, 0x99, 0xbd,
  0x20, 0x3c, 0x83, 0xbd, 0x03, 0x83, 0x6b, 0x3c, 0x2c, 0xe5, 0xed, 0xbc,
  0xac, 0x72, 0xe9, 0x3d, 0xae, 0xf4, 0x83, 0x3e, 0x2a, 0xa9, 0x35, 0xbc,
  0xa3, 0xbe, 0x9f, 0xbd, 0x9c, 0x8b, 0x32, 0x3d, 0xf9, 0xd8, 0xcd, 0xbd,
  0x09, 0x56, 0x83, 0xbc, 0x97, 0x33, 0xcf, 0xbd, 0xb6, 0x5d, 0x40, 0xbe,
  0x5c, 0x72, 0xca, 0xbb, 0xb2, 0x5c, 0x8d, 0x3e, 0xc6, 0x8e, 0x5b, 0x3e,
  0x98, 0xaa, 0x1a, 0x3e, 0x3f, 0x5a, 0x83, 0x3e, 0xa0, 0xc7, 0xee, 0x3d,
  0x96, 0x59, 0xe6, 0x3c, 0xbe, 0x40, 0x80, 0x3e, 0x00, 0xf6, 0xc1, 0x3e,
  0x4f, 0xe4, 0x37, 0x3d, 0xc8, 0xc7, 0x70, 0x3d, 0x83, 0x04, 0x71, 0x3e,
  0x83, 0x1e, 0xef, 0x3c, 0x3b, 0xca, 0xa5, 0x3e, 0x30, 0xff, 0x91, 0x3e,
  0x15, 0xc2, 0x58, 0x3e, 0xe6, 0xa4, 0xa7, 0x3e, 0xa0, 0xb1, 0x5a, 0x3e,
  0x4b, 0xcf, 0xa0, 0x3d, 0xe5, 0x29, 0x0c, 0x3e, 0x14, 0xdb, 0x23, 0x3d,
  0x49, 0x61, 0x76, 0x3e, 0xf8, 0xbb, 0xa2, 0xbd, 0x2f, 0x31, 0x6c, 0x3e,
  0x6b, 0x71, 0x38, 0xbe, 0xe8, 0x9b, 0x22, 0xbd, 0x46, 0x8e, 0x5c, 0xbe,
  0xfa, 0xa1, 0xff, 0x3d, 0x4d, 0x6b, 0x17, 0xbb, 0x0b, 0xa7, 0x90, 0xbe,
  0xd9, 0xf4, 0x61, 0xbe, 0xc1, 0xbf, 0xa2, 0xbd, 0xad, 0xf0, 0x7b, 0xbe,
  0x43, 0xdd, 0xb2, 0xbd, 0xbe, 0xaf, 0x0a, 0xbf, 0x84, 0xf1, 0xa9, 0xbd,
  0x29, 0x68, 0x41, 0x3d, 0x18, 0xfa, 0x9e, 0x3d, 0xb5, 0x3a, 0x36, 0xbe,
  0x6d, 0x6a, 0x28, 0xbe, 0xdb, 0xfb, 0xd5, 0xbe, 0x73, 0x65, 0xf8, 0x3c,
  0x3c, 0x5a, 0xdf, 0xbd, 0x6d, 0x3d, 0x6c, 0xbe, 0x1c, 0x13, 0x33, 0xbe,
  0xac, 0xce, 0x9f, 0xbd, 0x8a, 0xb2, 0xa3, 0xbe, 0xde, 0x3f, 0x07, 0xbe,
  0x5b, 0x93, 0xa1, 0xbe, 0xd6, 0xe0, 0x86, 0xbd, 0x92, 0x23, 0x70, 0xbe,
  0x35, 0xd0, 0x70, 0xbe, 0xe8, 0x32, 0xea, 0xbe, 0x0a, 0x93, 0x39, 0xbe,
  0xd8, 0x3e, 0xda, 0xbd, 0xd8, 0x0b, 0x55, 0xbd, 0x51, 0xe8, 0x81, 0xbe,
  0x13, 0xf9, 0x98, 0xbd, 0xb6, 0xd7, 0x4e, 0xbc, 0x20, 0xa7, 0x7a, 0xbe,
  0x8d, 0x8d, 0x88, 0xbe, 0x32, 0x94, 0x5c, 0xbe, 0x36, 0x27, 0xc2, 0xbe,
  0xe1, 0xb8, 0xd4, 0x3c, 0x6e, 0xc1, 0x1f, 0x3e, 0x51, 0x72, 0xe9, 0xbd,
  0xd5, 0xcc, 0x53, 0xbe, 0x73, 0x84, 0x54, 0xbd, 0x71, 0x29, 0x90, 0xbe,
  0xe3, 0x8a, 0xad, 0x3d, 0xe7, 0xd4, 0x6c, 0xbe, 0x61, 0x59, 0x87, 0x3d,
  0xc6, 0xb4, 0x8c, 0x3e, 0x54, 0x81, 0xfe, 0x3c, 0xfd, 0x04, 0xac, 0xbe,
  0x8d, 0x3e, 0xbc, 0xbe, 0x28, 0x23, 0x96, 0xbe, 0x13, 0x51, 0x89, 0xbe,
  0x5f, 0x54, 0x78, 0xbc, 0xe4, 0xa4, 0x9f, 0x3e, 0x67, 0xaf, 0x51, 0x3e,
  0x4a, 0xb4, 0x59, 0x3e, 0x91, 0x26, 0x1e, 0x3d, 0xa5, 0xe8, 0x32, 0x3e,
  0xab, 0x04, 0x92, 0xbd, 0x2a, 0x00, 0x81, 0xbe, 0x3a, 0x94, 0x25, 0xbd,
  0xb0, 0xac, 0x6a, 0x3b, 0x2f, 0x71, 0xcc, 0x3d, 0xae, 0xf8, 0xff, 0xff,
  0x04, 0x00, 0x00, 0x00, 0x28, 0x00, 0x00, 0x00, 0x61, 0xc6, 0xbe, 0x3e,
  0xd3, 0x89, 0xd4, 0x3e, 0x0b, 0xde, 0x00, 0x3f, 0x55, 0xf8, 0xb8, 0x3e,
  0x4b, 0x5b, 0x02, 0x3e, 0xc6, 0x9c, 0x53, 0x3e, 0xf5, 0xaf, 0xdf, 0x3e,
  0x01, 0x49, 0xb1, 0x3e, 0xb2, 0x7b, 0xc5, 0x3e, 0x3e, 0x7d, 0xab, 0x3e,
  0xe2, 0xf8, 0xff, 0xff, 0x04, 0x00, 0x00, 0x00, 0x28, 0x00, 0x00, 0x00,
  0x9c, 0xf6, 0xa2, 0xbc, 0xeb, 0xbd, 0x1a, 0xbe, 0x7b, 0xc5, 0x1a, 0xbe,
  0xa3, 0x92, 0x00, 0xbe, 0x21, 0x76, 0x01, 0xbe, 0x87, 0x17, 0x0e, 0xbe,
  0x1f, 0xf3, 0xe7, 0xbd, 0x61, 0xc3, 0xe9, 0xbd, 0x1b, 0x42, 0x95, 0x3d,
  0xe6, 0x65, 0xc3, 0x3e, 0x16, 0xf9, 0xff, 0xff, 0x04, 0x00, 0x00, 0x00,
  0x28, 0x00, 0x00, 0x00, 0x49, 0x4c, 0x8f, 0x3f, 0xa4, 0x29, 0x92, 0x3f,
  0x86, 0x7d, 0x87, 0x3f, 0x28, 0x9b, 0x88, 0x3f, 0xc1, 0xa3, 0x7b, 0x3f,
  0x75, 0x0c, 0x70, 0x3f, 0x76, 0x9a, 0x83, 0x3f, 0x3a, 0xbc, 0x8d, 0x3f,
  0x8f, 0x45, 0x8c, 0x3f, 0x3d, 0x1b, 0x9f, 0x3f, 0x4a, 0xf9, 0xff, 0xff,
  0x04, 0x00, 0x00, 0x00, 0x28, 0x00, 0x00, 0x00, 0xaf, 0x6c, 0x96, 0x3e,
  0x67, 0x6f, 0x7d, 0x3e, 0x44, 0xaf, 0x8b, 0x3e, 0x8d, 0x2c, 0x21, 0x3e,
  0xcb, 0x6b, 0xdb, 0xbc, 0xf3, 0x55, 0x17, 0x3e, 0x3f, 0x0e, 0x6d, 0x3e,
  0x24, 0xf6, 0x54, 0x3e, 0xcc, 0xe2, 0x94, 0x3e, 0xce, 0x2c, 0x4a, 0x3e,
  0x7e, 0xf9, 0xff, 0xff, 0x04, 0x00, 0x00, 0x00, 0x90, 0x01, 0x00, 0x00,
  0xae, 0x53, 0x47, 0x3d, 0x26, 0x23, 0xe6, 0x3e, 0xc9, 0xf3, 0x07, 0x3d,
  0xab, 0x45, 0x75, 0xbe, 0x6c, 0x79, 0x86, 0x3e, 0x61, 0x44, 0xc9, 0x3e,
  0x70, 0x50, 0x46, 0x3e, 0x5e, 0x0d, 0xfb, 0x3e, 0x83, 0x44, 0xf2, 0x3e,
  0x4f, 0x73, 0xab, 0x3e, 0xd3, 0x51, 0x99, 0x3d, 0xd4, 0x03, 0xb2, 0x3d,
  0x3b, 0xd2, 0xaf, 0x3e, 0xc4, 0x19, 0x88, 0xbe, 0xca, 0xfb, 0x03, 0x3f,
  0xa4, 0x42, 0x84, 0x3d, 0xf5, 0xc4, 0xbb, 0x3e, 0xf6, 0xa2, 0x08, 0x3e,
  0xe4, 0xcc, 0x27, 0x3d, 0x87, 0x04, 0xb7, 0x3e, 0x0c, 0x3b, 0x52, 0x3d,
  0x41, 0x05, 0xce, 0x3e, 0xe8, 0x67, 0x02, 0xbe, 0x72, 0x15, 0x90, 0xbe,
  0x08, 0xc6, 0x0d, 0x3e, 0x79, 0xb9, 0x86, 0x3e, 0x4e, 0xa1, 0x3b, 0x3e,
  0x96, 0x4c, 0xae, 0x3e, 0x38, 0xc3, 0x99, 0x3e, 0xb5, 0x4f, 0x2e, 0x3f,
  0x61, 0x1f, 0xdd, 0x3d, 0x2c, 0x86, 0x4e, 0xbe, 0xdb, 0x61, 0xb0, 0xbd,
  0x6f, 0x8a, 0x5e, 0xbe, 0xf9, 0x10, 0x01, 0x3e, 0x8a, 0x7c, 0x05, 0x3e,
  0xbe, 0x0e, 0x09, 0xbf, 0x9f, 0xa2, 0x3c, 0xbe, 0xfc, 0xcb, 0x7d, 0x3e,
  0xad, 0x37, 0x09, 0x3f, 0xd2, 0xfd, 0xb9, 0xbd, 0x35, 0x42, 0x4c, 0x3e,
  0xfd, 0x9b, 0x89, 0x3d, 0x0b, 0x36, 0x51, 0xbc, 0x55, 0x8f, 0xcc, 0x3e,
  0x05, 0x8e, 0x21, 0x3e, 0x00, 0x9c, 0x30, 0x3e, 0x61, 0x1d, 0xc7, 0x3e,
  0x8c, 0x37, 0x99, 0x3d, 0xfc, 0xde, 0x91, 0x3e, 0x7b, 0xb5, 0x32, 0x3e,
  0x20, 0xae, 0xac, 0x3e, 0xd7, 0xd9, 0x19, 0x3e, 0x0d, 0x47, 0xc0, 0xbe,
  0x9b, 0x35, 0x0f, 0x3e, 0x5a, 0x87, 0xaf, 0x3e, 0x30, 0xdd, 0x0a, 0xbe,
  0xcc, 0x5c, 0x0d, 0x3f, 0x95, 0x56, 0x2c, 0x3f, 0xfe, 0xa2, 0x2b, 0x3e,
  0x27, 0x4c, 0xbf, 0x3e, 0xf0, 0x87, 0x38, 0x3e, 0x29, 0x2a, 0x1b, 0x3e,
  0xa1, 0x49, 0x32, 0xbf, 0x65, 0xe6, 0x66, 0x3f, 0xce, 0x57, 0x76, 0x3f,
  0x8f, 0xff, 0xbb, 0xbe, 0x4e, 0xd9, 0x80, 0xbd, 0x25, 0x2c, 0x4c, 0x3f,
  0xec, 0x45, 0x9f, 0x3e, 0x24, 0x02, 0x1a, 0x3e, 0x70, 0xf2, 0xca, 0x3d,
  0x50, 0x14, 0xab, 0x3e, 0x13, 0xd4, 0xa9, 0xbd, 0x6c, 0xb2, 0x18, 0x3f,
  0x5e, 0xc8, 0xdc, 0x3e, 0xf6, 0x83, 0x4a, 0x3d, 0x1c, 0xe2, 0x09, 0xbd,
  0x9c, 0x29, 0xda, 0x3e, 0x63, 0x5e, 0x0b, 0x3d, 0x82, 0x66, 0x04, 0xbe,
  0x3f, 0xbd, 0xc8, 0xbd, 0xbc, 0x15, 0xa9, 0xbe, 0x24, 0xe3, 0xb5, 0xbe,
  0xe1, 0x97, 0x3c, 0x3c, 0x56, 0xd0, 0x06, 0x3e, 0x09, 0xbe, 0xec, 0xbe,
  0x4d, 0x38, 0x18, 0x3e, 0x3d, 0xba, 0x96, 0x3e, 0x31, 0x70, 0x77, 0x3e,
  0x48, 0x49, 0x63, 0xbe, 0xc4, 0x12, 0xb9, 0xbe, 0xad, 0xb7, 0xc6, 0xbe,
  0x58, 0x2a, 0x67, 0xbe, 0x76, 0xb3, 0xb8, 0xbe, 0xa9, 0xc4, 0xc7, 0xbe,
  0xed, 0xcd, 0xca, 0xbe, 0xf0, 0x32, 0x31, 0xbf, 0x00, 0xe4, 0x92, 0x3e,
  0xfd, 0x89, 0xb6, 0x3e, 0x1a, 0xfb, 0xff, 0xff, 0x04, 0x00, 0x00, 0x00,
  0x90, 0x01, 0x00, 0x00, 0x50, 0xdb, 0x03, 0xbe, 0x55, 0x5b, 0x84, 0x3e,
  0x07, 0x24, 0xb4, 0x3d, 0x53, 0x7e, 0x84, 0x3e, 0x31, 0x2a, 0xc4, 0x3e,
  0x15, 0xa8, 0x48, 0x3e, 0x99, 0x28, 0x25, 0xbe, 0x40, 0xa5, 0xb2, 0x3e,
  0x97, 0xfa, 0xaf, 0x3d, 0xb3, 0x37, 0x91, 0x3d, 0xca, 0x90, 0xc0, 0x3c,
  0xde, 0x97, 0x92, 0x3c, 0x63, 0xed, 0xdb, 0x3c, 0xb3, 0x7f, 0x15, 0x3e,
  0x65, 0x77, 0x05, 0x3f, 0xc0, 0xd2, 0x97, 0x3e, 0xf8, 0xb4, 0x13, 0x3e,
  0xb1, 0xfa, 0x95, 0x3e, 0x1d, 0x8a, 0xa5, 0x3e, 0x20, 0x36, 0x21, 0xbe,
  0x60, 0x40, 0xd8, 0x3e, 0x8b, 0xe8, 0x11, 0x3f, 0x4c, 0x5d, 0xc2, 0xbc,
  0xfa, 0x31, 0xe5, 0x3c, 0x95, 0xbd, 0xd9, 0x3e, 0xb8, 0xd1, 0x13, 0x3f,
  0x46, 0xc5, 0x06, 0x3d, 0x43, 0x3c, 0x7b, 0x3e, 0x88, 0x8f, 0x7e, 0xbc,
  0x27, 0x33, 0x79, 0xbe, 0x87, 0x45, 0x97, 0xbd, 0x51, 0xca, 0x8b, 0x3e,
  0xc7, 0x4d, 0x18, 0xbe, 0xcf, 0x9c, 0x22, 0xbd, 0x3d, 0xf8, 0xa0, 0x3e,
  0xa9, 0xc6, 0x8f, 0x3e, 0xa0, 0x9a, 0x4d, 0x3e, 0x4d, 0x0b, 0x56, 0x3e,
  0x1f, 0xd1, 0x6e, 0xbd, 0xda, 0x52, 0x6a, 0x3e, 0xe6, 0x76, 0xaa, 0x3d,
  0x0a, 0xb4, 0x0b, 0xbd, 0x33, 0xf0, 0xd2, 0xbe, 0xbb, 0x12, 0x58, 0x3e,
  0x0a, 0x30, 0x60, 0xbd, 0x0d, 0xcb, 0xbd, 0x3e, 0x1f, 0xab, 0xae, 0xbd,
  0xd7, 0x79, 0x1c, 0xba, 0x6a, 0x55, 0x50, 0x3d, 0x4c, 0x83, 0x3e, 0xbe,
  0x0b, 0x8a, 0xcc, 0x3c, 0x97, 0x44, 0x39, 0x3e, 0x20, 0xa5, 0x0e, 0x3d,
  0xbd, 0x21, 0x72, 0xbd, 0xb1, 0xb1, 0xf3, 0xbc, 0xb0, 0x0e, 0xd4, 0x3d,
  0x13, 0x35, 0x03, 0x3e, 0xfa, 0x88, 0xc3, 0x3d, 0xc9, 0xda, 0x89, 0x3e,
  0xba, 0xa1, 0x5b, 0x3d, 0x78, 0xb2, 0xa7, 0x3d, 0x56, 0x9c, 0xae, 0x3e,
  0xdc, 0xb8, 0xae, 0x3e, 0x40, 0x9a, 0x23, 0x3d, 0x6a, 0xa1, 0xef, 0x3e,
  0xc5, 0x46, 0xd7, 0x3e, 0xfe, 0x60, 0x11, 0x3e, 0xd6, 0x7a, 0xb5, 0x3e,
  0x00, 0x95, 0x64, 0x3c, 0xbd, 0x43, 0x4b, 0xbe, 0xda, 0xfc, 0x31, 0xbd,
  0x4c, 0x83, 0x06, 0x3f, 0x62, 0xdd, 0xf4, 0x3d, 0x5b, 0x27, 0xbb, 0x3e,
  0x1d, 0x89, 0x48, 0x3e, 0xf6, 0x93, 0x78, 0x3e, 0xcc, 0x73, 0xee, 0x3c,
  0x8c, 0xa9, 0x17, 0x3e, 0xaf, 0xa1, 0x2f, 0x3e, 0xac, 0xfa, 0x0f, 0x3d,
  0xf0, 0xe0, 0x83, 0x3c, 0xa4, 0xf7, 0xd7, 0xbe, 0xe2, 0xa1, 0xe3, 0xbe,
  0x23, 0x53, 0xad, 0xbe, 0x09, 0xf1, 0xa1, 0xbd, 0x4a, 0x01, 0x46, 0xbe,
  0x40, 0x38, 0x1e, 0xbe, 0x73, 0xc7, 0x44, 0xbd, 0x99, 0x1b, 0x70, 0x3e,
  0x5a, 0x32, 0xcf, 0x3e, 0xc4, 0xf8, 0x92, 0x3d, 0xc2, 0x38, 0x84, 0x3c,
  0xab, 0x9e, 0xcf, 0xbd, 0x0a, 0xea, 0xa3, 0xbe, 0xc8, 0xe2, 0xb3, 0x3c,
  0x67, 0x88, 0x1d, 0xbf, 0xf9, 0x7e, 0x3b, 0xbe, 0xf9, 0xe9, 0xe8, 0xbe,
  0x6f, 0x3b, 0x2f, 0xbd, 0x92, 0x0e, 0xe5, 0x3e, 0xb6, 0xfc, 0xff, 0xff,
  0x04, 0x00, 0x00, 0x00, 0x90, 0x01, 0x00, 0x00, 0x51, 0x5b, 0xae, 0x3d,
  0xa7, 0x1c, 0xa4, 0xbd, 0x6f, 0x52, 0xb9, 0x3c, 0x53, 0x05, 0x5e, 0xbd,
  0x49, 0xb2, 0xd4, 0x3e, 0x63, 0x2d, 0x90, 0x3e, 0xd8, 0xed, 0x87, 0xbe,
  0x2e, 0xf6, 0x0d, 0x3e, 0xb2, 0xf7, 0xac, 0x3e, 0x89, 0x12, 0xf1, 0x3e,
  0x57, 0x20, 0x84, 0x3e, 0x5c, 0xcc, 0x2f, 0xbc, 0x54, 0x34, 0x2a, 0x3e,
  0xaa, 0xf1, 0xf1, 0xbc, 0x26, 0x50, 0x59, 0x3e, 0x5c, 0xf8, 0x5d, 0xbd,
  0x8c, 0x3a, 0x8b, 0x3e, 0xe9, 0xf1, 0x11, 0x3e, 0x00, 0x8f, 0x9f, 0x3e,
  0x22, 0x15, 0x73, 0x3d, 0x5b, 0xdc, 0xd1, 0xbd, 0xda, 0x9a, 0x27, 0x3e,
  0x84, 0xc0, 0x93, 0xbe, 0xb2, 0x7b, 0xf7, 0xbc, 0xba, 0x18, 0x8f, 0xbd,
  0xe9, 0xa7, 0xa5, 0x3d, 0x0b, 0x16, 0xc9, 0x3e, 0xd9, 0xdc, 0xa6, 0x3e,
  0xa2, 0x1f, 0x7d, 0x3e, 0x01, 0x49, 0x05, 0x3d, 0xe1, 0xdb, 0x58, 0x3d,
  0xfc, 0x5d, 0x54, 0xbe, 0xdd, 0xb2, 0x89, 0xbe, 0x62, 0x36, 0x21, 0xbe,
  0x03, 0x2d, 0xc8, 0x3d, 0xc4, 0x71, 0x6a, 0xbd, 0x41, 0x0c, 0x70, 0xbe,
  0xf3, 0xa8, 0x0e, 0xbf, 0x78, 0x5b, 0x4b, 0xbd, 0xb8, 0x8a, 0x6b, 0x3e,
  0xd0, 0x39, 0x82, 0x3e, 0xcf, 0x82, 0x18, 0xbd, 0x9c, 0x9a, 0x43, 0x3b,
  0xdb, 0x80, 0x21, 0xbe, 0x2f, 0x02, 0x9d, 0x3e, 0x4c, 0xef, 0x93, 0xbe,
  0x42, 0xee, 0x09, 0x3d, 0x2d, 0x05, 0x41, 0x3e, 0x26, 0x58, 0x16, 0x3f,
  0xa1, 0x2f, 0x4c, 0x3e, 0x59, 0x6e, 0x93, 0x3e, 0xfe, 0x14, 0x86, 0x3d,
  0xbc, 0xa6, 0xac, 0x3e, 0x47, 0xac, 0xa1, 0xbd, 0xd6, 0xe5, 0x73, 0x3d,
  0xcf, 0xc4, 0x43, 0xbd, 0xdd, 0x47, 0xb4, 0xbd, 0xea, 0x92, 0xd8, 0x3e,
  0x40, 0xfc, 0x8e, 0x3e, 0x2b, 0x27, 0x3d, 0x3e, 0x48, 0xa5, 0xd0, 0x3d,
  0xa1, 0xcd, 0xbf, 0x3e, 0xf3, 0x88, 0x14, 0xbe, 0xb7, 0x66, 0x5c, 0x3c,
  0x50, 0x67, 0xa5, 0xbe, 0x6c, 0x3e, 0xb3, 0xbe, 0x95, 0xe2, 0x15, 0xbe,
  0xc0, 0xd2, 0x30, 0x3e, 0xde, 0xf5, 0x08, 0xbe, 0x2d, 0xa9, 0xee, 0x3d,
  0xf3, 0xd8, 0x14, 0x3e, 0x91, 0x3d, 0xe9, 0xbd, 0xc2, 0xfd, 0xa8, 0x3e,
  0x37, 0x7d, 0x02, 0x3d, 0x2f, 0xf0, 0xba, 0xbb, 0x71, 0xaf, 0x34, 0xbe,
  0x57, 0xb5, 0xf4, 0xbd, 0x6b, 0xdd, 0x39, 0x3e, 0xd1, 0xae, 0x3e, 0x3e,
  0x4d, 0x7d, 0x96, 0x3e, 0x15, 0x54, 0x08, 0xbe, 0x51, 0x45, 0x0c, 0xbd,
  0x61, 0xa6, 0xfc, 0x3b, 0xad, 0x8d, 0x1c, 0xbd, 0x34, 0x89, 0xba, 0x3d,
  0xc1, 0x06, 0x56, 0x3d, 0x40, 0xb7, 0xad, 0x3c, 0x74, 0x92, 0x26, 0xbd,
  0xae, 0xce, 0x9e, 0x3e, 0x1b, 0x1a, 0xcd, 0x3e, 0x64, 0x68, 0xe7, 0xbe,
  0xeb, 0xc6, 0x87, 0xbe, 0x6c, 0xf8, 0xa3, 0xbe, 0x36, 0xd5, 0xb7, 0xbe,
  0x79, 0x4e, 0x32, 0xbd, 0x77, 0x2e, 0xc6, 0xbd, 0xae, 0xc1, 0xb8, 0xbe,
  0xf8, 0x40, 0x9d, 0xbe, 0x32, 0xd5, 0x5a, 0x3e, 0x11, 0x78, 0x88, 0x3e,
  0x52, 0xfe, 0xff, 0xff, 0x04, 0x00, 0x00, 0x00, 0x90, 0x01, 0x00, 0x00,
  0x27, 0x76, 0x5a, 0x3e, 0x28, 0x54, 0xe3, 0x3d, 0x4c, 0xab, 0xa6, 0x3d,
  0xba, 0xe4, 0x20, 0xbe, 0x79, 0x90, 0xe1, 0x3e, 0x9e, 0xd8, 0xd5, 0x3b,
  0x30, 0xfe, 0xeb, 0xbe, 0x77, 0x31, 0x94, 0x3e, 0x3b, 0xb3, 0xd3, 0x3e,
  0xb8, 0x85, 0xc6, 0x37, 0xd3, 0x5c, 0xa1, 0xbd, 0xb5, 0x1f, 0x24, 0xbe,
  0x6c, 0xc6, 0xa7, 0x3e, 0x76, 0xf4, 0x1c, 0xbf, 0xb4, 0xb2, 0x9c, 0x3e,
  0xf2, 0xdd, 0x2c, 0x3e, 0x1c, 0x9d, 0x1a, 0x3e, 0x09, 0xfb, 0x23, 0x3e,
  0xaf, 0x56, 0x47, 0x3e, 0x7b, 0x32, 0x7f, 0xbd, 0x45, 0x84, 0xf0, 0xbd,
  0x46, 0xf3, 0xd3, 0x3d, 0xda, 0xb5, 0xeb, 0xbd, 0xee, 0x54, 0xf4, 0xbe,
  0xf2, 0x46, 0xad, 0x3e, 0xc8, 0x77, 0x05, 0x3e, 0x9f, 0x15, 0x2d, 0x3d,
  0xd8, 0x23, 0x01, 0x3d, 0x27, 0x27, 0x49, 0x3c, 0x7a, 0x2f, 0x89, 0x3e,
  0xd4, 0x25, 0x6e, 0x3e, 0x64, 0xc3, 0x67, 0x3e, 0x09, 0x6a, 0x11, 0xbd,
  0xd2, 0x04, 0xa3, 0xbe, 0xa5, 0xad, 0x4e, 0x3e, 0x0a, 0x8b, 0x38, 0xbe,
  0xd6, 0x84, 0xaf, 0x3d, 0x3d, 0x77, 0x77, 0x3d, 0x46, 0x88, 0xcd, 0x3d,
  0x10, 0xa1, 0xd8, 0x3d, 0xc5, 0xfd, 0x32, 0x3e, 0xd3, 0x71, 0xcd, 0xbe,
  0xf9, 0xaa, 0x61, 0x3e, 0xfc, 0x83, 0xeb, 0xbd, 0xb6, 0xb4, 0x26, 0x3e,
  0xd6, 0x12, 0x0a, 0x3e, 0x44, 0x2d, 0x2d, 0xbe, 0xbc, 0x90, 0xba, 0xbe,
  0x97, 0x3e, 0x00, 0xbc, 0xd1, 0xed, 0x89, 0xbc, 0x5e, 0x85, 0xb2, 0x3e,
  0xed, 0x31, 0xd6, 0xbd, 0xb8, 0x0c, 0xb4, 0xbe, 0xcf, 0xd8, 0xef, 0x3d,
  0xf5, 0x0f, 0xaf, 0xbe, 0xcb, 0x17, 0xb6, 0xbd, 0x01, 0x1e, 0xa8, 0x3d,
  0x92, 0x50, 0x5f, 0x3a, 0xcc, 0x77, 0x99, 0x3e, 0x84, 0xc5, 0xb5, 0x3e,
  0x96, 0xf0, 0x84, 0x3e, 0x6c, 0x6f, 0x1d, 0x3d, 0x1c, 0x88, 0xbe, 0x3e,
  0x56, 0x1f, 0x2c, 0xbf, 0x3d, 0x02, 0x5f, 0x3f, 0xe6, 0xd8, 0x43, 0x3f,
  0x66, 0x5a, 0xc9, 0xbe, 0x5c, 0x3d, 0xde, 0x3e, 0x61, 0xdc, 0xf1, 0x3d,
  0x97, 0x49, 0x01, 0x3f, 0xc2, 0xee, 0xf8, 0x3d, 0x63, 0x95, 0x27, 0x3e,
  0x2c, 0x81, 0xb9, 0x3e, 0x76, 0xb2, 0x55, 0xbe, 0x38, 0x01, 0x01, 0x3f,
  0xfa, 0x0f, 0x43, 0x3e, 0xd5, 0xd4, 0x87, 0xbd, 0xd4, 0x47, 0x05, 0x3e,
  0x47, 0x2a, 0xbd, 0x3e, 0x9d, 0x71, 0x4d, 0x3b, 0x56, 0xf6, 0x85, 0x3e,
  0xa5, 0xf2, 0x72, 0x3e, 0xae, 0x9f, 0x33, 0x3d, 0xa9, 0x99, 0x0c, 0xbf,
  0xb9, 0xc7, 0x37, 0x3e, 0x71, 0x6b, 0x35, 0x3d, 0x84, 0xe6, 0x24, 0xbe,
  0x89, 0xe2, 0x7f, 0x3e, 0x66, 0x25, 0x22, 0xbd, 0x78, 0x0b, 0x47, 0x3e,
  0x4b, 0x05, 0x02, 0x3d, 0xc4, 0xa5, 0xaa, 0xbe, 0x2d, 0xe1, 0x9d, 0xbd,
  0x29, 0xf4, 0xc5, 0xbd, 0xa9, 0x17, 0xf0, 0xbc, 0x00, 0xda, 0xc2, 0xbe,
  0xaa, 0x74, 0x01, 0x3e, 0x7e, 0xa3, 0x1d, 0x3e, 0x76, 0x01, 0xc0, 0x3d,
  0x7e, 0x9a, 0x3d, 0x3e, 0xee, 0xff, 0xff, 0xff, 0x04, 0x00, 0x00, 0x00,
  0x04, 0x00, 0x00, 0x00, 0x18, 0x71, 0xda, 0xbd, 0x00, 0x00, 0x06, 0x00,
  0x08, 0x00, 0x04, 0x00, 0x06, 0x00, 0x00, 0x00, 0x04, 0x00, 0x00, 0x00,
  0x28, 0x00, 0x00, 0x00, 0x00, 0x00, 0x00, 0x00, 0x00, 0x00, 0x00, 0x00,
  0x00, 0x00, 0x00, 0x00, 0x00, 0x00, 0x00, 0x00, 0x00, 0x00, 0x00, 0x00,
  0x00, 0x00, 0x00, 0x00, 0x00, 0x00, 0x00, 0x00, 0x00, 0x00, 0x00, 0x00,
  0x00, 0x00, 0x00, 0x00, 0x00, 0x00, 0x00, 0x00, 0x70, 0xf7, 0xff, 0xff,
  0x74, 0xf7, 0xff, 0xff, 0x0f, 0x00, 0x00, 0x00, 0x4d, 0x4c, 0x49, 0x52,
  0x20, 0x43, 0x6f, 0x6e, 0x76, 0x65, 0x72, 0x74, 0x65, 0x64, 0x2e, 0x00,
  0x01, 0x00, 0x00, 0x00, 0x14, 0x00, 0x00, 0x00, 0x00, 0x00, 0x0e, 0x00,
  0x18, 0x00, 0x14, 0x00, 0x10, 0x00, 0x0c, 0x00, 0x08, 0x00, 0x04, 0x00,
  0x0e, 0x00, 0x00, 0x00, 0x14, 0x00, 0x00, 0x00, 0x1c, 0x00, 0x00, 0x00,
  0xa4, 0x01, 0x00, 0x00, 0xa8, 0x01, 0x00, 0x00, 0xac, 0x01, 0x00, 0x00,
  0x04, 0x00, 0x00, 0x00, 0x6d, 0x61, 0x69, 0x6e, 0x00, 0x00, 0x00, 0x00,
  0x04, 0x00, 0x00, 0x00, 0xec, 0x00, 0x00, 0x00, 0x7c, 0x00, 0x00, 0x00,
  0x34, 0x00, 0x00, 0x00, 0x10, 0x00, 0x00, 0x00, 0x00, 0x00, 0x0a, 0x00,
  0x10, 0x00, 0x0c, 0x00, 0x08, 0x00, 0x04, 0x00, 0x0a, 0x00, 0x00, 0x00,
  0x0c, 0x00, 0x00, 0x00, 0x10, 0x00, 0x00, 0x00, 0x03, 0x00, 0x00, 0x00,
  0x01, 0x00, 0x00, 0x00, 0x17, 0x00, 0x00, 0x00, 0x01, 0x00, 0x00, 0x00,
  0x16, 0x00, 0x00, 0x00, 0xca, 0xff, 0xff, 0xff, 0x14, 0x00, 0x00, 0x00,
  0x00, 0x00, 0x00, 0x08, 0x10, 0x00, 0x00, 0x00, 0x14, 0x00, 0x00, 0x00,
  0x02, 0x00, 0x00, 0x00, 0x20, 0xf8, 0xff, 0xff, 0x01, 0x00, 0x00, 0x00,
  0x16, 0x00, 0x00, 0x00, 0x03, 0x00, 0x00, 0x00, 0x15, 0x00, 0x00, 0x00,
  0x0f, 0x00, 0x00, 0x00, 0x02, 0x00, 0x00, 0x00, 0x00, 0x00, 0x0e, 0x00,
  0x1a, 0x00, 0x14, 0x00, 0x10, 0x00, 0x0c, 0x00, 0x0b, 0x00, 0x04, 0x00,
  0x0e, 0x00, 0x00, 0x00, 0x24, 0x00, 0x00, 0x00, 0x00, 0x00, 0x00, 0x20,
  0x2c, 0x00, 0x00, 0x00, 0x30, 0x00, 0x00, 0x00, 0x01, 0x00, 0x00, 0x00,
  0x00, 0x00, 0x0e, 0x00, 0x10, 0x00, 0x0c, 0x00, 0x08, 0x00, 0x00, 0x00,
  0x00, 0x00, 0x04, 0x00, 0x0e, 0x00, 0x00, 0x00, 0x02, 0x00, 0x00, 0x00,
  0x05, 0x00, 0x00, 0x00, 0x05, 0x00, 0x00, 0x00, 0x01, 0x00, 0x00, 0x00,
  0x15, 0x00, 0x00, 0x00, 0x04, 0x00, 0x00, 0x00, 0x14, 0x00, 0x00, 0x00,
  0x10, 0x00, 0x00, 0x00, 0x11, 0x00, 0x00, 0x00, 0x12, 0x00, 0x00, 0x00,
  0x00, 0x00, 0x16, 0x00, 0x18, 0x00, 0x00, 0x00, 0x14, 0x00, 0x10, 0x00,
  0x0f, 0x00, 0x08, 0x00, 0x00, 0x00, 0x00, 0x00, 0x00, 0x00, 0x04, 0x00,
  0x16, 0x00, 0x00, 0x00, 0x14, 0x00, 0x00, 0x00, 0x1c, 0x00, 0x00, 0x00,
  0x00, 0x00, 0x00, 0x47, 0x20, 0x00, 0x00, 0x00, 0x24, 0x00, 0x00, 0x00,
  0x00, 0x00, 0x00, 0x00, 0x08, 0x00, 0x0c, 0x00, 0x0b, 0x00, 0x04, 0x00,
  0x08, 0x00, 0x00, 0x00, 0x00, 0x00, 0x20, 0x41, 0x00, 0x00, 0x00, 0x04,
  0x01, 0x00, 0x00, 0x00, 0x14, 0x00, 0x00, 0x00, 0x18, 0x00, 0x00, 0x00,
  0x00, 0x00, 0x00, 0x00, 0x0b, 0x00, 0x00, 0x00, 0x0c, 0x00, 0x00, 0x00,
  0x0d, 0x00, 0x00, 0x00, 0x0e, 0x00, 0x00, 0x00, 0x03, 0x00, 0x00, 0x00,
  0x04, 0x00, 0x00, 0x00, 0x05, 0x00, 0x00, 0x00, 0x06, 0x00, 0x00, 0x00,
  0xff, 0xff, 0xff, 0xff, 0xff, 0xff, 0xff, 0xff, 0xff, 0xff, 0xff, 0xff,
  0x07, 0x00, 0x00, 0x00, 0x08, 0x00, 0x00, 0x00, 0x09, 0x00, 0x00, 0x00,
  0x0a, 0x00, 0x00, 0x00, 0xff, 0xff, 0xff, 0xff, 0xff, 0xff, 0xff, 0xff,
  0x01, 0x00, 0x00, 0x00, 0x13, 0x00, 0x00, 0x00, 0xff, 0xff, 0xff, 0xff,
  0xff, 0xff, 0xff, 0xff, 0xff, 0xff, 0xff, 0xff, 0xff, 0xff, 0xff, 0xff,
  0x01, 0x00, 0x00, 0x00, 0x17, 0x00, 0x00, 0x00, 0x01, 0x00, 0x00, 0x00,
  0x00, 0x00, 0x00, 0x00, 0x18, 0x00, 0x00, 0x00, 0x80, 0x06, 0x00, 0x00,
  0x24, 0x06, 0x00, 0x00, 0xb8, 0x05, 0x00, 0x00, 0x78, 0x05, 0x00, 0x00,
  0x38, 0x05, 0x00, 0x00, 0xf8, 0x04, 0x00, 0x00, 0xb8, 0x04, 0x00, 0x00,
  0x7c, 0x04, 0x00, 0x00, 0x40, 0x04, 0x00, 0x00, 0x04, 0x04, 0x00, 0x00,
  0xc8, 0x03, 0x00, 0x00, 0x88, 0x03, 0x00, 0x00, 0x48, 0x03, 0x00, 0x00,
  0x04, 0x03, 0x00, 0x00, 0xc0, 0x02, 0x00, 0x00, 0x78, 0x02, 0x00, 0x00,
  0x34, 0x02, 0x00, 0x00, 0xd8, 0x01, 0x00, 0x00, 0x94, 0x01, 0x00, 0x00,
  0x50, 0x01, 0x00, 0x00, 0xf8, 0x00, 0x00, 0x00, 0xb4, 0x00, 0x00, 0x00,
  0x50, 0x00, 0x00, 0x00, 0x04, 0x00, 0x00, 0x00, 0xf6, 0xf9, 0xff, 0xff,
  0x00, 0x00, 0x00, 0x01, 0x10, 0x00, 0x00, 0x00, 0x10, 0x00, 0x00, 0x00,
  0x18, 0x00, 0x00, 0x00, 0x28, 0x00, 0x00, 0x00, 0xe0, 0xf9, 0xff, 0xff,
  0x19, 0x00, 0x00, 0x00, 0x53, 0x74, 0x61, 0x74, 0x65, 0x66, 0x75, 0x6c,
  0x50, 0x61, 0x72, 0x74, 0x69, 0x74, 0x69, 0x6f, 0x6e, 0x65, 0x64, 0x43,
  0x61, 0x6c, 0x6c, 0x3a, 0x30, 0x00, 0x00, 0x00, 0x02, 0x00, 0x00, 0x00,
  0x01, 0x00, 0x00, 0x00, 0x01, 0x00, 0x00, 0x00, 0x3e, 0xfa, 0xff, 0xff,
  0x00, 0x00, 0x00, 0x01, 0x10, 0x00, 0x00, 0x00, 0x10, 0x00, 0x00, 0x00,
  0x17, 0x00, 0x00, 0x00, 0x40, 0x00, 0x00, 0x00, 0x28, 0xfa, 0xff, 0xff,
  0x30, 0x00, 0x00, 0x00, 0x73, 0x65, 0x71, 0x75, 0x65, 0x6e, 0x74, 0x69,
  0x61, 0x6c, 0x2f, 0x64, 0x65, 0x6e, 0x73, 0x65, 0x2f, 0x4d, 0x61, 0x74,
  0x4d, 0x75, 0x6c, 0x3b, 0x73, 0x65, 0x71, 0x75, 0x65, 0x6e, 0x74, 0x69,
  0x61, 0x6c, 0x2f, 0x64, 0x65, 0x6e, 0x73, 0x65, 0x2f, 0x42, 0x69, 0x61,
  0x73, 0x41, 0x64, 0x64, 0x00, 0x00, 0x00, 0x00, 0x02, 0x00, 0x00, 0x00,
  0x01, 0x00, 0x00, 0x00, 0x01, 0x00, 0x00, 0x00, 0x9e, 0xfa, 0xff, 0xff,
  0x00, 0x00, 0x00, 0x01, 0x10, 0x00, 0x00, 0x00, 0x10, 0x00, 0x00, 0x00,
  0x16, 0x00, 0x00, 0x00, 0x20, 0x00, 0x00, 0x00, 0x88, 0xfa, 0xff, 0xff,
  0x11, 0x00, 0x00, 0x00, 0x74, 0x66, 0x6c, 0x2e, 0x73, 0x74, 0x72, 0x69,
  0x64, 0x65, 0x64, 0x5f, 0x73, 0x6c, 0x69, 0x63, 0x65, 0x00, 0x00, 0x00,
  0x02, 0x00, 0x00, 0x00, 0x01, 0x00, 0x00, 0x00, 0x0a, 0x00, 0x00, 0x00,
  0xde, 0xfa, 0xff, 0xff, 0x00, 0x00, 0x00, 0x01, 0x10, 0x00, 0x00, 0x00,
  0x10, 0x00, 0x00, 0x00, 0x15, 0x00, 0x00, 0x00, 0x30, 0x00, 0x00, 0x00,
  0xc8, 0xfa, 0xff, 0xff, 0x20, 0x00, 0x00, 0x00, 0x74, 0x66, 0x6c, 0x2e,
  0x75, 0x6e, 0x69, 0x64, 0x69, 0x72, 0x65, 0x63, 0x74, 0x69, 0x6f, 0x6e,
  0x61, 0x6c, 0x5f, 0x73, 0x65, 0x71, 0x75, 0x65, 0x6e, 0x63, 0x65, 0x5f,
  0x6c, 0x73, 0x74, 0x6d, 0x00, 0x00, 0x00, 0x00, 0x03, 0x00, 0x00, 0x00,
  0x01, 0x00, 0x00, 0x00, 0x14, 0x00, 0x00, 0x00, 0x0a, 0x00, 0x00, 0x00,
  0x8a, 0xfb, 0xff, 0xff, 0x00, 0x00, 0x01, 0x01, 0x0c, 0x00, 0x00, 0x00,
  0x0c, 0x00, 0x00, 0x00, 0x24, 0x00, 0x00, 0x00, 0x18, 0xfb, 0xff, 0xff,
  0x16, 0x00, 0x00, 0x00, 0x73, 0x65, 0x71, 0x75, 0x65, 0x6e, 0x74, 0x69,
  0x61, 0x6c, 0x2f, 0x6c, 0x73, 0x74, 0x6d, 0x2f, 0x7a, 0x65, 0x72, 0x6f,
  0x73, 0x31, 0x00, 0x00, 0x02, 0x00, 0x00, 0x00, 0x01, 0x00, 0x00, 0x00,
  0x0a, 0x00, 0x00, 0x00, 0x7e, 0xff, 0xff, 0xff, 0x00, 0x00, 0x00, 0x01,
  0x14, 0x00, 0x00, 0x00, 0x14, 0x00, 0x00, 0x00, 0x13, 0x00, 0x00, 0x00,
  0x00, 0x00, 0x00, 0x02, 0x20, 0x00, 0x00, 0x00, 0x60, 0xfb, 0xff, 0xff,
  0x10, 0x00, 0x00, 0x00, 0x61, 0x72, 0x69, 0x74, 0x68, 0x2e, 0x63, 0x6f,
  0x6e, 0x73, 0x74, 0x61, 0x6e, 0x74, 0x31, 0x34, 0x00, 0x00, 0x00, 0x00,
  0x01, 0x00, 0x00, 0x00, 0x03, 0x00, 0x00, 0x00, 0xbe, 0xff, 0xff, 0xff,
  0x00, 0x00, 0x00, 0x01, 0x14, 0x00, 0x00, 0x00, 0x14, 0x00, 0x00, 0x00,
  0x12, 0x00, 0x00, 0x00, 0x00, 0x00, 0x00, 0x02, 0x20, 0x00, 0x00, 0x00,
  0xa0, 0xfb, 0xff, 0xff, 0x10, 0x00, 0x00, 0x00, 0x61, 0x72, 0x69, 0x74,
  0x68, 0x2e, 0x63, 0x6f, 0x6e, 0x73, 0x74, 0x61, 0x6e, 0x74, 0x31, 0x33,
  0x00, 0x00, 0x00, 0x00, 0x01, 0x00, 0x00, 0x00, 0x03, 0x00, 0x00, 0x00,
  0x00, 0x00, 0x16, 0x00, 0x1c, 0x00, 0x18, 0x00, 0x17, 0x00, 0x10, 0x00,
  0x0c, 0x00, 0x08, 0x00, 0x00, 0x00, 0x00, 0x00, 0x00, 0x00, 0x07, 0x00,
  0x16, 0x00, 0x00, 0x00, 0x00, 0x00, 0x00, 0x01, 0x14, 0x00, 0x00, 0x00,
  0x14, 0x00, 0x00, 0x00, 0x11, 0x00, 0x00, 0x00, 0x00, 0x00, 0x00, 0x02,
  0x20, 0x00, 0x00, 0x00, 0xf8, 0xfb, 0xff, 0xff, 0x10, 0x00, 0x00, 0x00,
  0x61, 0x72, 0x69, 0x74, 0x68, 0x2e, 0x63, 0x6f, 0x6e, 0x73, 0x74, 0x61,
  0x6e, 0x74, 0x31, 0x32, 0x00, 0x00, 0x00, 0x00, 0x01, 0x00, 0x00, 0x00,
  0x03, 0x00, 0x00, 0x00, 0x4a, 0xfc, 0xff, 0xff, 0x00, 0x00, 0x00, 0x01,
  0x10, 0x00, 0x00, 0x00, 0x10, 0x00, 0x00, 0x00, 0x10, 0x00, 0x00, 0x00,
  0x24, 0x00, 0x00, 0x00, 0x34, 0xfc, 0xff, 0xff, 0x17, 0x00, 0x00, 0x00,
  0x73, 0x65, 0x71, 0x75, 0x65, 0x6e, 0x74, 0x69, 0x61, 0x6c, 0x2f, 0x64,
  0x65, 0x6e, 0x73, 0x65, 0x2f, 0x4d, 0x61, 0x74, 0x4d, 0x75, 0x6c, 0x00,
  0x02, 0x00, 0x00, 0x00, 0x01, 0x00, 0x00, 0x00, 0x0a, 0x00, 0x00, 0x00,
  0x8e, 0xfc, 0xff, 0xff, 0x00, 0x00, 0x00, 0x01, 0x10, 0x00, 0x00, 0x00,
  0x10, 0x00, 0x00, 0x00, 0x0f, 0x00, 0x00, 0x00, 0x20, 0x00, 0x00, 0x00,
  0x78, 0xfc, 0xff, 0xff, 0x10, 0x00, 0x00, 0x00, 0x61, 0x72, 0x69, 0x74,
  0x68, 0x2e, 0x63, 0x6f, 0x6e, 0x73, 0x74, 0x61, 0x6e, 0x74, 0x31, 0x31,
  0x00, 0x00, 0x00, 0x00, 0x02, 0x00, 0x00, 0x00, 0x0a, 0x00, 0x00, 0x00,
  0x40, 0x00, 0x00, 0x00, 0xce, 0xfc, 0xff, 0xff, 0x00, 0x00, 0x00, 0x01,
  0x10, 0x00, 0x00, 0x00, 0x10, 0x00, 0x00, 0x00, 0x0e, 0x00, 0x00, 0x00,
  0x20, 0x00, 0x00, 0x00, 0xb8, 0xfc, 0xff, 0xff, 0x10, 0x00, 0x00, 0x00,
  0x61, 0x72, 0x69, 0x74, 0x68, 0x2e, 0x63, 0x6f, 0x6e, 0x73, 0x74, 0x61,
  0x6e, 0x74, 0x31, 0x30, 0x00, 0x00, 0x00, 0x00, 0x02, 0x00, 0x00, 0x00,
  0x0a, 0x00, 0x00, 0x00, 0x40, 0x00, 0x00, 0x00, 0x0e, 0xfd, 0xff, 0xff,
  0x00, 0x00, 0x00, 0x01, 0x10, 0x00, 0x00, 0x00, 0x10, 0x00, 0x00, 0x00,
  0x0d, 0x00, 0x00, 0x00, 0x1c, 0x00, 0x00, 0x00, 0xf8, 0xfc, 0xff, 0xff,
  0x0f, 0x00, 0x00, 0x00, 0x61, 0x72, 0x69, 0x74, 0x68, 0x2e, 0x63, 0x6f,
  0x6e, 0x73, 0x74, 0x61, 0x6e, 0x74, 0x39, 0x00, 0x02, 0x00, 0x00, 0x00,
  0x0a, 0x00, 0x00, 0x00, 0x40, 0x00, 0x00, 0x00, 0x4a, 0xfd, 0xff, 0xff,
  0x00, 0x00, 0x00, 0x01, 0x10, 0x00, 0x00, 0x00, 0x10, 0x00, 0x00, 0x00,
  0x0c, 0x00, 0x00, 0x00, 0x1c, 0x00, 0x00, 0x00, 0x34, 0xfd, 0xff, 0xff,
  0x0f, 0x00, 0x00, 0x00, 0x61, 0x72, 0x69, 0x74, 0x68, 0x2e, 0x63, 0x6f,
  0x6e, 0x73, 0x74, 0x61, 0x6e, 0x74, 0x38, 0x00, 0x02, 0x00, 0x00, 0x00,
  0x0a, 0x00, 0x00, 0x00, 0x40, 0x00, 0x00, 0x00, 0x86, 0xfd, 0xff, 0xff,
  0x00, 0x00, 0x00, 0x01, 0x10, 0x00, 0x00, 0x00, 0x10, 0x00, 0x00, 0x00,
  0x0b, 0x00, 0x00, 0x00, 0x1c, 0x00, 0x00, 0x00, 0x70, 0xfd, 0xff, 0xff,
  0x0f, 0x00, 0x00, 0x00, 0x61, 0x72, 0x69, 0x74, 0x68, 0x2e, 0x63, 0x6f,
  0x6e, 0x73, 0x74, 0x61, 0x6e, 0x74, 0x37, 0x00, 0x01, 0x00, 0x00, 0x00,
  0x0a, 0x00, 0x00, 0x00, 0xbe, 0xfd, 0xff, 0xff, 0x00, 0x00, 0x00, 0x01,
  0x10, 0x00, 0x00, 0x00, 0x10, 0x00, 0x00, 0x00, 0x0a, 0x00, 0x00, 0x00,
  0x1c, 0x00, 0x00, 0x00, 0xa8, 0xfd, 0xff, 0xff, 0x0f, 0x00, 0x00, 0x00,
  0x61, 0x72, 0x69, 0x74, 0x68, 0x2e, 0x63, 0x6f, 0x6e, 0x73, 0x74, 0x61,
  0x6e, 0x74, 0x36, 0x00, 0x01, 0x00, 0x00, 0x00, 0x0a, 0x00, 0x00, 0x00,
  0xf6, 0xfd, 0xff, 0xff, 0x00, 0x00, 0x00, 0x01, 0x10, 0x00, 0x00, 0x00,
  0x10, 0x00, 0x00, 0x00, 0x09, 0x00, 0x00, 0x00, 0x1c, 0x00, 0x00, 0x00,
  0xe0, 0xfd, 0xff, 0xff, 0x0f, 0x00, 0x00, 0x00, 0x61, 0x72, 0x69, 0x74,
  0x68, 0x2e, 0x63, 0x6f, 0x6e, 0x73, 0x74, 0x61, 0x6e, 0x74, 0x35, 0x00,
  0x01, 0x00, 0x00, 0x00, 0x0a, 0x00, 0x00, 0x00, 0x2e, 0xfe, 0xff, 0xff,
  0x00, 0x00, 0x00, 0x01, 0x10, 0x00, 0x00, 0x00, 0x10, 0x00, 0x00, 0x00,
  0x08, 0x00, 0x00, 0x00, 0x1c, 0x00, 0x00, 0x00, 0x18, 0xfe, 0xff, 0xff,
  0x0f, 0x00, 0x00, 0x00, 0x61, 0x72, 0x69, 0x74, 0x68, 0x2e, 0x63, 0x6f,
  0x6e, 0x73, 0x74, 0x61, 0x6e, 0x74, 0x34, 0x00, 0x01, 0x00, 0x00, 0x00,
  0x0a, 0x00, 0x00, 0x00, 0x66, 0xfe, 0xff, 0xff, 0x00, 0x00, 0x00, 0x01,
  0x10, 0x00, 0x00, 0x00, 0x10, 0x00, 0x00, 0x00, 0x07, 0x00, 0x00, 0x00,
  0x1c, 0x00, 0x00, 0x00, 0x50, 0xfe, 0xff, 0xff, 0x0f, 0x00, 0x00, 0x00,
  0x61, 0x72, 0x69, 0x74, 0x68, 0x2e, 0x63, 0x6f, 0x6e, 0x73, 0x74, 0x61,
  0x6e, 0x74, 0x33, 0x00, 0x02, 0x00, 0x00, 0x00, 0x0a, 0x00, 0x00, 0x00,
  0x0a, 0x00, 0x00, 0x00, 0xa2, 0xfe, 0xff, 0xff, 0x00, 0x00, 0x00, 0x01,
  0x10, 0x00, 0x00, 0x00, 0x10, 0x00, 0x00, 0x00, 0x06, 0x00, 0x00, 0x00,
  0x1c, 0x00, 0x00, 0x00, 0x8c, 0xfe, 0xff, 0xff, 0x0f, 0x00, 0x00, 0x00,
  0x61, 0x72, 0x69, 0x74, 0x68, 0x2e, 0x63, 0x6f, 0x6e, 0x73, 0x74, 0x61,
  0x6e, 0x74, 0x32, 0x00, 0x02, 0x00, 0x00, 0x00, 0x0a, 0x00, 0x00, 0x00,
  0x0a, 0x00, 0x00, 0x00, 0xde, 0xfe, 0xff, 0xff, 0x00, 0x00, 0x00, 0x01,
  0x10, 0x00, 0x00, 0x00, 0x10, 0x00, 0x00, 0x00, 0x05, 0x00, 0x00, 0x00,
  0x1c, 0x00, 0x00, 0x00, 0xc8, 0xfe, 0xff, 0xff, 0x0f, 0x00, 0x00, 0x00,
  0x61, 0x72, 0x69, 0x74, 0x68, 0x2e, 0x63, 0x6f, 0x6e, 0x73, 0x74, 0x61,
  0x6e, 0x74, 0x31, 0x00, 0x02, 0x00, 0x00, 0x00, 0x0a, 0x00, 0x00, 0x00,
  0x0a, 0x00, 0x00, 0x00, 0x1a, 0xff, 0xff, 0xff, 0x00, 0x00, 0x00, 0x01,
  0x10, 0x00, 0x00, 0x00, 0x10, 0x00, 0x00, 0x00, 0x04, 0x00, 0x00, 0x00,
  0x1c, 0x00, 0x00, 0x00, 0x04, 0xff, 0xff, 0xff, 0x0e, 0x00, 0x00, 0x00,
  0x61, 0x72, 0x69, 0x74, 0x68, 0x2e, 0x63, 0x6f, 0x6e, 0x73, 0x74, 0x61,
  0x6e, 0x74, 0x00, 0x00, 0x02, 0x00, 0x00, 0x00, 0x0a, 0x00, 0x00, 0x00,
  0x0a, 0x00, 0x00, 0x00, 0x56, 0xff, 0xff, 0xff, 0x00, 0x00, 0x00, 0x01,
  0x10, 0x00, 0x00, 0x00, 0x10, 0x00, 0x00, 0x00, 0x03, 0x00, 0x00, 0x00,
  0x34, 0x00, 0x00, 0x00, 0x40, 0xff, 0xff, 0xff, 0x27, 0x00, 0x00, 0x00,
  0x73, 0x65, 0x71, 0x75, 0x65, 0x6e, 0x74, 0x69, 0x61, 0x6c, 0x2f, 0x64,
  0x65, 0x6e, 0x73, 0x65, 0x2f, 0x42, 0x69, 0x61, 0x73, 0x41, 0x64, 0x64,
  0x2f, 0x52, 0x65, 0x61, 0x64, 0x56, 0x61, 0x72, 0x69, 0x61, 0x62, 0x6c,
  0x65, 0x4f, 0x70, 0x00, 0x01, 0x00, 0x00, 0x00, 0x01, 0x00, 0x00, 0x00,
  0x00, 0x00, 0x16, 0x00, 0x14, 0x00, 0x10, 0x00, 0x00, 0x00, 0x00, 0x00,
  0x0c, 0x00, 0x08, 0x00, 0x07, 0x00, 0x00, 0x00, 0x00, 0x00, 0x06, 0x00,
  0x16, 0x00, 0x00, 0x00, 0x00, 0x00, 0x01, 0x01, 0x0c, 0x00, 0x00, 0x00,
  0x0c, 0x00, 0x00, 0x00, 0x24, 0x00, 0x00, 0x00, 0xa4, 0xff, 0xff, 0xff,
  0x15, 0x00, 0x00, 0x00, 0x73, 0x65, 0x71, 0x75, 0x65, 0x6e, 0x74, 0x69,
  0x61, 0x6c, 0x2f, 0x6c, 0x73, 0x74, 0x6d, 0x2f, 0x7a, 0x65, 0x72, 0x6f,
  0x73, 0x00, 0x00, 0x00, 0x02, 0x00, 0x00, 0x00, 0x01, 0x00, 0x00, 0x00,
  0x0a, 0x00, 0x00, 0x00, 0x00, 0x00, 0x16, 0x00, 0x18, 0x00, 0x14, 0x00,
  0x00, 0x00, 0x10, 0x00, 0x0c, 0x00, 0x08, 0x00, 0x00, 0x00, 0x00, 0x00,
  0x00, 0x00, 0x07, 0x00, 0x16, 0x00, 0x00, 0x00, 0x00, 0x00, 0x00, 0x01,
  0x14, 0x00, 0x00, 0x00, 0x14, 0x00, 0x00, 0x00, 0x01, 0x00, 0x00, 0x00,
  0x30, 0x00, 0x00, 0x00, 0x04, 0x00, 0x04, 0x00, 0x04, 0x00, 0x00, 0x00,
  0x1c, 0x00, 0x00, 0x00, 0x73, 0x65, 0x72, 0x76, 0x69, 0x6e, 0x67, 0x5f,
  0x64, 0x65, 0x66, 0x61, 0x75, 0x6c, 0x74, 0x5f, 0x6c, 0x73, 0x74, 0x6d,
  0x5f, 0x69, 0x6e, 0x70, 0x75, 0x74, 0x3a, 0x30, 0x00, 0x00, 0x00, 0x00,
  0x03, 0x00, 0x00, 0x00, 0x01, 0x00, 0x00, 0x00, 0x14, 0x00, 0x00, 0x00,
  0x40, 0x00, 0x00, 0x00, 0x04, 0x00, 0x00, 0x00, 0x40, 0x00, 0x00, 0x00,
  0x24, 0x00, 0x00, 0x00, 0x14, 0x00, 0x00, 0x00, 0x04, 0x00, 0x00, 0x00,
  0xdc, 0xff, 0xff, 0xff, 0x0e, 0x00, 0x00, 0x00, 0x00, 0x00, 0x00, 0x0e,
  0xe8, 0xff, 0xff, 0xff, 0x09, 0x00, 0x00, 0x00, 0x00, 0x00, 0x00, 0x09,
  0xf4, 0xff, 0xff, 0xff, 0x2d, 0x00, 0x00, 0x00, 0x00, 0x00, 0x00, 0x2d,
  0x0c, 0x00, 0x0c, 0x00, 0x0b, 0x00, 0x00, 0x00, 0x00, 0x00, 0x04, 0x00,
  0x0c, 0x00, 0x00, 0x00, 0x2c, 0x00, 0x00, 0x00, 0x00, 0x00, 0x00, 0x2c};
unsigned int model_tflite_len = 15240;

unsigned char* get_model_data() {
  return (unsigned char*)g_tof_detector_model_data;
}
