/* Copyright 2019 The TensorFlow Authors. All Rights Reserved.

Licensed under the Apache License, Version 2.0 (the "License");
you may not use this file except in compliance with the License.
You may obtain a copy of the License at

    http://www.apache.org/licenses/LICENSE-2.0

Unless required by applicable law or agreed to in writing, software
distributed under the License is distributed on an "AS IS" BASIS,
WITHOUT WARRANTIES OR CONDITIONS OF ANY KIND, either express or implied.
See the License for the specific language governing permissions and
limitations under the License.
==============================================================================*/

// Automatically created from a TensorFlow Lite flatbuffer using the command:
// xxd -i magic_wand_model.tflite > magic_wand_model_data.cc
// See the README for a full description of the creation process.

// We need to keep the data array aligned on some architectures.
#ifdef __has_attribute
#define HAVE_ATTRIBUTE(x) __has_attribute(x)
#else
#define HAVE_ATTRIBUTE(x) 0
#endif
#if HAVE_ATTRIBUTE(aligned) || (defined(__GNUC__) && !defined(__clang__))
#define DATA_ALIGN_ATTRIBUTE __attribute__((aligned(4)))
#else
#define DATA_ALIGN_ATTRIBUTE
#endif

const unsigned char g_tof_detector_model_data[] DATA_ALIGN_ATTRIBUTE = {
  0x1c, 0x00, 0x00, 0x00, 0x54, 0x46, 0x4c, 0x33, 0x14, 0x00, 0x20, 0x00,
  0x1c, 0x00, 0x18, 0x00, 0x14, 0x00, 0x10, 0x00, 0x0c, 0x00, 0x00, 0x00,
  0x08, 0x00, 0x04, 0x00, 0x14, 0x00, 0x00, 0x00, 0x1c, 0x00, 0x00, 0x00,
  0x84, 0x00, 0x00, 0x00, 0xdc, 0x00, 0x00, 0x00, 0x48, 0x32, 0x00, 0x00,
  0x58, 0x32, 0x00, 0x00, 0x04, 0x3b, 0x00, 0x00, 0x03, 0x00, 0x00, 0x00,
  0x01, 0x00, 0x00, 0x00, 0x04, 0x00, 0x00, 0x00, 0x6a, 0xcd, 0xff, 0xff,
  0x0c, 0x00, 0x00, 0x00, 0x1c, 0x00, 0x00, 0x00, 0x38, 0x00, 0x00, 0x00,
  0x0f, 0x00, 0x00, 0x00, 0x73, 0x65, 0x72, 0x76, 0x69, 0x6e, 0x67, 0x5f,
  0x64, 0x65, 0x66, 0x61, 0x75, 0x6c, 0x74, 0x00, 0x01, 0x00, 0x00, 0x00,
  0x04, 0x00, 0x00, 0x00, 0x98, 0xff, 0xff, 0xff, 0x17, 0x00, 0x00, 0x00,
  0x04, 0x00, 0x00, 0x00, 0x05, 0x00, 0x00, 0x00, 0x64, 0x65, 0x6e, 0x73,
  0x65, 0x00, 0x00, 0x00, 0x01, 0x00, 0x00, 0x00, 0x04, 0x00, 0x00, 0x00,
  0x5e, 0xce, 0xff, 0xff, 0x04, 0x00, 0x00, 0x00, 0x0a, 0x00, 0x00, 0x00,
  0x6c, 0x73, 0x74, 0x6d, 0x5f, 0x69, 0x6e, 0x70, 0x75, 0x74, 0x00, 0x00,
  0x02, 0x00, 0x00, 0x00, 0x34, 0x00, 0x00, 0x00, 0x04, 0x00, 0x00, 0x00,
  0xdc, 0xff, 0xff, 0xff, 0x1a, 0x00, 0x00, 0x00, 0x04, 0x00, 0x00, 0x00,
  0x13, 0x00, 0x00, 0x00, 0x43, 0x4f, 0x4e, 0x56, 0x45, 0x52, 0x53, 0x49,
  0x4f, 0x4e, 0x5f, 0x4d, 0x45, 0x54, 0x41, 0x44, 0x41, 0x54, 0x41, 0x00,
  0x08, 0x00, 0x0c, 0x00, 0x08, 0x00, 0x04, 0x00, 0x08, 0x00, 0x00, 0x00,
  0x19, 0x00, 0x00, 0x00, 0x04, 0x00, 0x00, 0x00, 0x13, 0x00, 0x00, 0x00,
  0x6d, 0x69, 0x6e, 0x5f, 0x72, 0x75, 0x6e, 0x74, 0x69, 0x6d, 0x65, 0x5f,
  0x76, 0x65, 0x72, 0x73, 0x69, 0x6f, 0x6e, 0x00, 0x1b, 0x00, 0x00, 0x00,
  0x68, 0x31, 0x00, 0x00, 0x60, 0x31, 0x00, 0x00, 0x28, 0x31, 0x00, 0x00,
  0x0c, 0x31, 0x00, 0x00, 0x6c, 0x2f, 0x00, 0x00, 0xcc, 0x2d, 0x00, 0x00,
  0x2c, 0x2c, 0x00, 0x00, 0x8c, 0x2a, 0x00, 0x00, 0x54, 0x2a, 0x00, 0x00,
  0x1c, 0x2a, 0x00, 0x00, 0xe4, 0x29, 0x00, 0x00, 0xac, 0x29, 0x00, 0x00,
  0x9c, 0x1f, 0x00, 0x00, 0x8c, 0x15, 0x00, 0x00, 0x7c, 0x0b, 0x00, 0x00,
  0x6c, 0x01, 0x00, 0x00, 0x34, 0x01, 0x00, 0x00, 0x18, 0x01, 0x00, 0x00,
  0xfc, 0x00, 0x00, 0x00, 0xe0, 0x00, 0x00, 0x00, 0xa8, 0x00, 0x00, 0x00,
  0xa0, 0x00, 0x00, 0x00, 0x98, 0x00, 0x00, 0x00, 0x90, 0x00, 0x00, 0x00,
  0x88, 0x00, 0x00, 0x00, 0x68, 0x00, 0x00, 0x00, 0x04, 0x00, 0x00, 0x00,
  0x42, 0xcf, 0xff, 0xff, 0x04, 0x00, 0x00, 0x00, 0x54, 0x00, 0x00, 0x00,
  0x0c, 0x00, 0x00, 0x00, 0x08, 0x00, 0x0e, 0x00, 0x08, 0x00, 0x04, 0x00,
  0x08, 0x00, 0x00, 0x00, 0x10, 0x00, 0x00, 0x00, 0x24, 0x00, 0x00, 0x00,
  0x00, 0x00, 0x06, 0x00, 0x08, 0x00, 0x04, 0x00, 0x06, 0x00, 0x00, 0x00,
  0x04, 0x00, 0x00, 0x00, 0x00, 0x00, 0x00, 0x00, 0x00, 0x00, 0x0a, 0x00,
  0x10, 0x00, 0x0c, 0x00, 0x08, 0x00, 0x04, 0x00, 0x0a, 0x00, 0x00, 0x00,
  0x02, 0x00, 0x00, 0x00, 0x02, 0x00, 0x00, 0x00, 0x04, 0x00, 0x00, 0x00,
  0x06, 0x00, 0x00, 0x00, 0x32, 0x2e, 0x31, 0x35, 0x2e, 0x30, 0x00, 0x00,
  0xa2, 0xcf, 0xff, 0xff, 0x04, 0x00, 0x00, 0x00, 0x10, 0x00, 0x00, 0x00,
  0x31, 0x2e, 0x31, 0x34, 0x2e, 0x30, 0x00, 0x00, 0x00, 0x00, 0x00, 0x00,
  0x00, 0x00, 0x00, 0x00, 0xf4, 0xc6, 0xff, 0xff, 0xf8, 0xc6, 0xff, 0xff,
  0xfc, 0xc6, 0xff, 0xff, 0x00, 0xc7, 0xff, 0xff, 0xce, 0xcf, 0xff, 0xff,
  0x04, 0x00, 0x00, 0x00, 0x28, 0x00, 0x00, 0x00, 0x00, 0x00, 0x00, 0x00,
  0x00, 0x00, 0x00, 0x00, 0x00, 0x00, 0x00, 0x00, 0x00, 0x00, 0x00, 0x00,
  0x00, 0x00, 0x00, 0x00, 0x00, 0x00, 0x00, 0x00, 0x00, 0x00, 0x00, 0x00,
  0x00, 0x00, 0x00, 0x00, 0x00, 0x00, 0x00, 0x00, 0x00, 0x00, 0x00, 0x00,
  0x02, 0xd0, 0xff, 0xff, 0x04, 0x00, 0x00, 0x00, 0x0c, 0x00, 0x00, 0x00,
  0x01, 0x00, 0x00, 0x00, 0x01, 0x00, 0x00, 0x00, 0x01, 0x00, 0x00, 0x00,
  0x1a, 0xd0, 0xff, 0xff, 0x04, 0x00, 0x00, 0x00, 0x0c, 0x00, 0x00, 0x00,
  0x00, 0x00, 0x00, 0x00, 0x00, 0x00, 0x00, 0x00, 0x00, 0x00, 0x00, 0x00,
  0x32, 0xd0, 0xff, 0xff, 0x04, 0x00, 0x00, 0x00, 0x0c, 0x00, 0x00, 0x00,
  0x00, 0x00, 0x00, 0x00, 0xff, 0xff, 0xff, 0xff, 0x00, 0x00, 0x00, 0x00,
  0x4a, 0xd0, 0xff, 0xff, 0x04, 0x00, 0x00, 0x00, 0x28, 0x00, 0x00, 0x00,
  0x0e, 0x39, 0xb4, 0xbf, 0xe3, 0xaf, 0x60, 0xbf, 0x69, 0xe8, 0xaf, 0x3f,
  0xbe, 0x09, 0x24, 0xbf, 0x83, 0x80, 0x3c, 0xbf, 0x1b, 0xbd, 0xfb, 0xbe,
  0xfb, 0x02, 0x6a, 0x3f, 0x17, 0xc9, 0x2c, 0xbf, 0xe0, 0xba, 0x28, 0x3f,
  0x48, 0xc2, 0x29, 0xbf, 0x7e, 0xd0, 0xff, 0xff, 0x04, 0x00, 0x00, 0x00,
  0x00, 0x0a, 0x00, 0x00, 0x91, 0x1f, 0xa2, 0x3d, 0x4b, 0xd3, 0x96, 0x3d,
  0x8f, 0x54, 0xa4, 0x3d, 0x55, 0xfd, 0x79, 0x3e, 0x09, 0xf4, 0xa6, 0xbd,
  0x77, 0x4d, 0xbb, 0x3d, 0xe6, 0xa0, 0x3e, 0xbe, 0x1d, 0xc4, 0xc9, 0xbc,
  0x28, 0x4f, 0x31, 0x3e, 0x8e, 0x73, 0x43, 0x3e, 0x84, 0xce, 0x49, 0xbc,
  0xf8, 0x5e, 0x89, 0x3e, 0x6f, 0xb8, 0x10, 0x3e, 0x77, 0x02, 0xd6, 0xbd,
  0xea, 0x07, 0xf5, 0xbd, 0xa2, 0x2b, 0x15, 0x3e, 0x66, 0x70, 0x39, 0x3e,
  0x95, 0xf1, 0x13, 0xbd, 0xf8, 0x1a, 0x5f, 0x3e, 0x9d, 0x1a, 0xd3, 0xbd,
  0x0e, 0x72, 0xcf, 0xbc, 0x6a, 0x8d, 0x1d, 0xbe, 0x19, 0x1f, 0x33, 0xbe,
  0x63, 0xc2, 0x46, 0x3d, 0x53, 0x52, 0xdc, 0x3d, 0xfc, 0x52, 0xd0, 0x3c,
  0xea, 0x9d, 0x2f, 0xbd, 0x7e, 0xd2, 0x2c, 0xbe, 0xa7, 0xc3, 0x78, 0x3e,
  0x13, 0x76, 0x41, 0x3e, 0xd4, 0xac, 0x25, 0xbd, 0xc4, 0x27, 0xac, 0x3d,
  0xdb, 0xd0, 0x9a, 0xbd, 0xe1, 0x25, 0xd0, 0xbc, 0xb7, 0xf2, 0x03, 0x3d,
  0x4e, 0x75, 0x2e, 0x3d, 0x78, 0x58, 0xe7, 0xbc, 0xc2, 0xa7, 0xdc, 0x3d,
  0x90, 0x85, 0xcc, 0x3d, 0x09, 0x8d, 0x6c, 0x3e, 0x11, 0x74, 0x62, 0x3e,
  0x82, 0x66, 0x65, 0xbd, 0x35, 0xae, 0x4f, 0x3d, 0xa4, 0x0c, 0x33, 0xbe,
  0xfd, 0x58, 0x42, 0x3d, 0x9d, 0x2b, 0x32, 0x3e, 0x40, 0x54, 0x04, 0x3e,
  0xe3, 0xd3, 0xf7, 0xbc, 0x43, 0xa6, 0x30, 0x3e, 0xfb, 0x53, 0x1b, 0x3e,
  0xf1, 0x17, 0x60, 0xbd, 0xc8, 0x26, 0x3a, 0x3e, 0x32, 0x19, 0xd0, 0xbd,
  0x9f, 0xe2, 0xaa, 0x3d, 0x93, 0x31, 0x75, 0x3d, 0xc5, 0x21, 0x28, 0xbc,
  0xa7, 0x12, 0x05, 0xbe, 0x93, 0x7d, 0x61, 0x3e, 0xdf, 0x78, 0x0f, 0x3d,
  0xdb, 0x10, 0xb6, 0x3d, 0x82, 0x87, 0x06, 0xbe, 0x6a, 0x56, 0x5d, 0xbd,
  0x39, 0xd1, 0x00, 0x3e, 0xcb, 0x57, 0x4d, 0x3e, 0x83, 0x27, 0x83, 0x3c,
  0xe5, 0x42, 0x60, 0x3d, 0x5f, 0xd5, 0x4e, 0x3d, 0x57, 0x7d, 0x6d, 0xbe,
  0x9f, 0x2e, 0xce, 0xbd, 0x15, 0x84, 0x35, 0x3d, 0x04, 0xad, 0x40, 0xbe,
  0x1f, 0x51, 0xf5, 0x3c, 0x66, 0x72, 0x6d, 0xbe, 0xa1, 0x15, 0x1e, 0xbe,
  0xb2, 0x04, 0x58, 0xbd, 0x9f, 0x4c, 0x65, 0xbe, 0x78, 0x2e, 0x9c, 0xbe,
  0x5e, 0xdf, 0xb6, 0xbd, 0x88, 0x4b, 0x8e, 0x3d, 0xaf, 0x8b, 0xa9, 0x3d,
  0x34, 0xdc, 0x8c, 0xbe, 0x2f, 0x5c, 0x8d, 0xbe, 0x5e, 0x4e, 0xe8, 0x3c,
  0xcc, 0xf3, 0x21, 0x3d, 0x35, 0x36, 0x07, 0xbf, 0x6e, 0xe2, 0xb9, 0xbe,
  0xd5, 0x4a, 0x28, 0xbe, 0x9e, 0xdd, 0x82, 0xbe, 0xfe, 0x72, 0x6b, 0xbe,
  0xbc, 0xda, 0xe6, 0xbd, 0x14, 0x4b, 0x87, 0x3d, 0xa4, 0xc8, 0x8a, 0xbd,
  0xdb, 0xe5, 0x80, 0xbe, 0x82, 0xbd, 0xc0, 0xbe, 0xd5, 0xa4, 0xce, 0xbe,
  0x04, 0xf0, 0x7d, 0xbe, 0xee, 0xbb, 0x93, 0x3d, 0x7a, 0xb9, 0x99, 0xbe,
  0xf1, 0x11, 0xf1, 0x3d, 0x67, 0x57, 0x84, 0xbd, 0x9d, 0x2e, 0x98, 0xbe,
  0x3f, 0xb4, 0x5c, 0xbd, 0x02, 0x39, 0xbd, 0xbe, 0x97, 0x1d, 0x1b, 0xbe,
  0x77, 0x75, 0x49, 0xbe, 0x8f, 0xbd, 0x1d, 0xbe, 0x2b, 0x53, 0xbd, 0xbd,
  0x34, 0x02, 0x3c, 0xbe, 0x63, 0xdd, 0xc1, 0xbe, 0xce, 0x93, 0x0b, 0x3e,
  0x8e, 0x6f, 0x07, 0xbe, 0xdd, 0x85, 0xe4, 0xbe, 0x57, 0x50, 0x27, 0x3d,
  0xa1, 0x55, 0x00, 0x3d, 0x52, 0x15, 0xb3, 0xbe, 0xf9, 0xaa, 0x61, 0xbe,
  0xde, 0x71, 0x86, 0x3d, 0x5a, 0xe6, 0x96, 0xbd, 0x46, 0x2c, 0x0a, 0xbe,
  0x0f, 0x60, 0xa1, 0x3d, 0xec, 0x13, 0x8c, 0xbd, 0x51, 0xaf, 0x51, 0xbd,
  0x1a, 0x16, 0x82, 0x3d, 0x1b, 0x13, 0xc0, 0xbe, 0x6c, 0xce, 0x90, 0x3d,
  0x41, 0x15, 0x38, 0xbe, 0x95, 0x73, 0x08, 0x3e, 0x76, 0x84, 0x69, 0xbe,
  0x0d, 0xc0, 0xa9, 0xbd, 0xea, 0xee, 0x92, 0xbb, 0x8e, 0x63, 0x57, 0x3e,
  0xb4, 0x9b, 0xad, 0xbd, 0x5f, 0x26, 0x79, 0x3d, 0x91, 0x82, 0x1d, 0x3e,
  0x64, 0x90, 0xdb, 0xbd, 0x1b, 0x3a, 0xdf, 0x3c, 0x06, 0x97, 0x39, 0x3e,
  0x88, 0x9d, 0x5a, 0x3e, 0x11, 0x51, 0x2e, 0xbe, 0x86, 0xb7, 0xc2, 0x3d,
  0x73, 0xc9, 0x2d, 0xbe, 0x86, 0x0c, 0x26, 0xbc, 0x90, 0x58, 0xf8, 0x3d,
  0x9d, 0x9e, 0x97, 0x3d, 0x21, 0x3e, 0x83, 0x3d, 0x51, 0xaf, 0x95, 0xbd,
  0x81, 0x55, 0xfe, 0x3d, 0x49, 0x76, 0x9c, 0x3b, 0xf9, 0x8a, 0x7e, 0x3e,
  0x40, 0xb9, 0x01, 0x3e, 0x6a, 0x8c, 0x29, 0x3e, 0xa0, 0xfa, 0x23, 0x3e,
  0x0e, 0x4f, 0x05, 0x3e, 0xd0, 0xd2, 0x43, 0x3e, 0xd4, 0x09, 0x7c, 0x3d,
  0x56, 0x6c, 0x00, 0xbd, 0xa0, 0x48, 0x66, 0x3e, 0x42, 0x79, 0x2d, 0x3e,
  0xdf, 0x72, 0x3e, 0x3e, 0x55, 0x41, 0xce, 0x3d, 0x8a, 0xaa, 0xd2, 0xbd,
  0x32, 0x3b, 0xd7, 0x3b, 0x12, 0x92, 0x0d, 0xbe, 0xf8, 0x7e, 0x16, 0x3e,
  0xd2, 0xd5, 0xdd, 0xbd, 0x23, 0xce, 0x0e, 0xbe, 0xaf, 0x6e, 0xab, 0x3c,
  0x22, 0xaf, 0xf6, 0xbd, 0xb0, 0xd1, 0x42, 0x3e, 0xc9, 0x92, 0xfb, 0xbd,
  0x1b, 0xf8, 0x34, 0x3e, 0x31, 0xe2, 0xc8, 0xbc, 0xb2, 0x2f, 0x8f, 0x3d,
  0x91, 0xc1, 0x07, 0xbd, 0xfc, 0x10, 0xfe, 0xbd, 0x71, 0x70, 0xdb, 0x3d,
  0x6b, 0x47, 0x10, 0xbd, 0xb1, 0x46, 0xf9, 0xbd, 0xa5, 0xa7, 0x9b, 0x3d,
  0xa1, 0xc1, 0xaf, 0x3d, 0x64, 0x18, 0x44, 0x3e, 0x30, 0x60, 0xcd, 0x3c,
  0x5f, 0x71, 0xa6, 0xbd, 0x77, 0xae, 0x08, 0x3e, 0xc5, 0x79, 0xcb, 0xbd,
  0x0e, 0x95, 0xc5, 0x3d, 0x47, 0x4c, 0xab, 0xbd, 0xb0, 0x4d, 0x00, 0xbc,
  0xf9, 0x52, 0xde, 0x3c, 0x29, 0x93, 0x9c, 0xbd, 0x0f, 0xa2, 0x7d, 0x3c,
  0x75, 0x93, 0xbd, 0xbd, 0x05, 0x4f, 0xff, 0xbd, 0x14, 0xf1, 0xe5, 0x3d,
  0x90, 0x78, 0x82, 0xbe, 0xef, 0xc2, 0x89, 0xbd, 0x5f, 0x55, 0xc7, 0x3d,
  0x2c, 0x7c, 0x1f, 0xbe, 0x34, 0x9a, 0xa6, 0x3b, 0x5e, 0x7a, 0x42, 0x3e,
  0x0b, 0xfb, 0x37, 0xbe, 0x68, 0x6d, 0x5c, 0xbe, 0xe1, 0x59, 0xdd, 0xbd,
  0xed, 0xab, 0xf5, 0xbd, 0xa6, 0xfc, 0x81, 0x3d, 0x0f, 0x3b, 0x90, 0xbd,
  0x3d, 0xfd, 0x0e, 0xbd, 0xe3, 0x23, 0x22, 0xbe, 0xc5, 0x93, 0x2b, 0x3c,
  0xde, 0x3e, 0xfe, 0xbc, 0x38, 0x60, 0x98, 0xbd, 0xb6, 0xd0, 0x13, 0x3e,
  0xef, 0x98, 0x67, 0x3d, 0x2e, 0x8d, 0x01, 0xbe, 0x08, 0x80, 0xe6, 0xbb,
  0xc5, 0xa9, 0x82, 0x3e, 0xea, 0x00, 0x2d, 0xbe, 0x45, 0xf2, 0xf8, 0x3d,
  0x90, 0xb3, 0xb1, 0x3c, 0x85, 0xf1, 0x87, 0x3e, 0xba, 0x28, 0xc3, 0xbd,
  0xde, 0x09, 0xc6, 0xbd, 0x06, 0x1e, 0x24, 0x3e, 0x53, 0x75, 0x0c, 0x3e,
  0xf2, 0x7e, 0x28, 0x3e, 0x78, 0x48, 0x2c, 0xbe, 0x7e, 0xa8, 0xf0, 0x3d,
  0xb3, 0x38, 0x72, 0xbe, 0x78, 0x26, 0x71, 0x3e, 0xd4, 0xeb, 0x76, 0xbe,
  0x20, 0x4f, 0x73, 0xbd, 0xe4, 0x0d, 0x92, 0xbb, 0x7e, 0x66, 0x1a, 0xbe,
  0xfc, 0x08, 0x82, 0xbc, 0xbb, 0x6b, 0x63, 0xbc, 0xa2, 0xaa, 0xa4, 0x3d,
  0x33, 0xb8, 0xe6, 0xbd, 0x5b, 0x44, 0x5a, 0xbe, 0xa4, 0x5d, 0x10, 0xbe,
  0x73, 0x87, 0x77, 0x3e, 0x6c, 0x0b, 0x51, 0xbe, 0xe0, 0xea, 0x1a, 0x3e,
  0x32, 0x70, 0x72, 0x3d, 0xa7, 0x40, 0x08, 0xbd, 0xeb, 0xd2, 0x0d, 0xbb,
  0xb9, 0x08, 0x58, 0x3e, 0x47, 0xc2, 0x35, 0x3b, 0x1b, 0x45, 0x24, 0xbd,
  0xbd, 0x6b, 0x71, 0xbd, 0x7c, 0xd7, 0x29, 0x3e, 0xcb, 0xcd, 0x2a, 0xbe,
  0x35, 0xd5, 0x3f, 0x3e, 0x72, 0x17, 0x11, 0x3e, 0xe2, 0xd7, 0x4b, 0xbb,
  0xd4, 0x91, 0x2f, 0x3e, 0xa4, 0xb3, 0x47, 0x3e, 0xea, 0x17, 0x20, 0xbe,
  0x29, 0xff, 0x0d, 0xbe, 0x0b, 0x32, 0x1a, 0x3d, 0x74, 0xef, 0xdb, 0xbd,
  0xca, 0xaa, 0x02, 0xbd, 0x5e, 0x57, 0x83, 0x3d, 0xf0, 0x7b, 0x2f, 0xbe,
  0x61, 0x54, 0x47, 0xbd, 0x89, 0xca, 0xd6, 0xbd, 0xb8, 0xf5, 0xc8, 0xbd,
  0x52, 0x1b, 0x91, 0xbd, 0x0c, 0xf2, 0x48, 0x3d, 0xdc, 0x04, 0xa6, 0xbe,
  0x52, 0xb8, 0xb6, 0xbe, 0x3a, 0xa4, 0x7d, 0xbe, 0x04, 0x22, 0xfc, 0xbb,
  0x53, 0x13, 0x91, 0xbd, 0xe2, 0x95, 0x6e, 0x3c, 0x00, 0x70, 0x85, 0xbd,
  0x24, 0x12, 0x09, 0xbd, 0x41, 0xd9, 0x3f, 0xbe, 0xbb, 0x1c, 0xea, 0xbe,
  0xe0, 0x68, 0xbb, 0xbe, 0x59, 0x58, 0xc4, 0xbe, 0xed, 0x83, 0x82, 0xbe,
  0x6c, 0x68, 0xae, 0xbe, 0x0a, 0xd5, 0x9b, 0xbd, 0xd7, 0x07, 0x3a, 0xbd,
  0xb3, 0x03, 0x97, 0xbe, 0xd4, 0x4e, 0x03, 0xbf, 0x9c, 0x0a, 0xb6, 0xbe,
  0xc1, 0x71, 0xad, 0xbd, 0xcc, 0x01, 0xbf, 0x3c, 0x48, 0x7c, 0x99, 0xbe,
  0xb4, 0xfa, 0x9c, 0xbe, 0x7c, 0xb0, 0x0a, 0x3d, 0x55, 0x7e, 0xf3, 0xbd,
  0xda, 0x45, 0x68, 0xbe, 0xa2, 0x1c, 0x8e, 0xbe, 0x98, 0x0b, 0xea, 0xbd,
  0xfa, 0xe7, 0x00, 0xbc, 0xdb, 0x63, 0x75, 0xbd, 0xf2, 0x0d, 0x9f, 0xbd,
  0xdc, 0x35, 0x0c, 0xbd, 0x64, 0x74, 0x21, 0x3c, 0xa5, 0xe3, 0xc0, 0x3d,
  0xcb, 0xd6, 0x3e, 0xbe, 0x75, 0xd4, 0x83, 0xbe, 0xa2, 0xd5, 0x38, 0xbe,
  0xb8, 0x74, 0x0e, 0xbe, 0x59, 0x9e, 0xee, 0xbd, 0x31, 0x55, 0x4c, 0xbe,
  0x2c, 0xcf, 0x8f, 0xbe, 0xd4, 0x83, 0x08, 0xbd, 0x25, 0x04, 0x0d, 0x3e,
  0xfc, 0x4c, 0xcc, 0xbd, 0x0d, 0x2b, 0xcc, 0x3d, 0xb7, 0x08, 0x96, 0xbe,
  0x7b, 0xe2, 0x11, 0x3d, 0x72, 0xac, 0x39, 0x3c, 0x45, 0x74, 0x86, 0xbd,
  0x20, 0x3f, 0x5e, 0xbe, 0x70, 0x9b, 0x06, 0x3e, 0x4f, 0x7a, 0x51, 0xbd,
  0xa8, 0xfa, 0x64, 0xbd, 0xc2, 0xfc, 0x15, 0xbe, 0x14, 0xce, 0x49, 0x3d,
  0xcc, 0x30, 0xd8, 0xbc, 0xf6, 0xe5, 0x8f, 0xbd, 0x47, 0xb7, 0xf0, 0xbc,
  0x39, 0x6f, 0x14, 0xbe, 0x98, 0x6d, 0xe2, 0xbd, 0xe2, 0xd5, 0xc7, 0x3d,
  0x30, 0x29, 0xca, 0xbe, 0xaf, 0x9d, 0x44, 0xbd, 0x61, 0xe4, 0x14, 0xbe,
  0x58, 0xdd, 0xcf, 0xbe, 0x7d, 0x0f, 0x8c, 0x3d, 0x07, 0xe8, 0x40, 0x3d,
  0x0a, 0x02, 0x27, 0x3e, 0x66, 0xff, 0x52, 0xbb, 0x8f, 0xf2, 0x5d, 0x3d,
  0xef, 0x47, 0x85, 0xbe, 0xb6, 0x25, 0x62, 0xbd, 0x39, 0xb7, 0xee, 0xbc,
  0x44, 0xff, 0xc8, 0xbe, 0x6e, 0xdd, 0x07, 0xbe, 0xd9, 0xc9, 0x93, 0xbe,
  0xa2, 0xa1, 0x90, 0xbd, 0x3a, 0x1b, 0xae, 0xbe, 0x1d, 0x31, 0x7b, 0xbe,
  0x36, 0x6d, 0x88, 0xbe, 0xda, 0x76, 0xaf, 0xbd, 0x8a, 0xc6, 0x88, 0xbe,
  0xd4, 0x5e, 0x3f, 0xbe, 0x4f, 0x35, 0x30, 0x3e, 0x0c, 0x37, 0x74, 0xbe,
  0xaa, 0x20, 0xf9, 0xbe, 0x96, 0xae, 0x0e, 0xbe, 0xab, 0xed, 0xb7, 0xbb,
  0xf9, 0x57, 0xe0, 0xbe, 0xa5, 0x03, 0xd9, 0xbe, 0xd1, 0x96, 0x63, 0xbe,
  0xc1, 0xb9, 0x10, 0xbd, 0x45, 0x60, 0xb5, 0xbe, 0x96, 0x90, 0xd6, 0xbe,
  0x14, 0xe4, 0xcb, 0xbe, 0xbd, 0x7a, 0x16, 0xbe, 0xba, 0x4e, 0x31, 0xbe,
  0xba, 0x8a, 0x5b, 0xbe, 0x11, 0x1b, 0xbe, 0xbe, 0xe9, 0xa5, 0x93, 0x3d,
  0xf6, 0xe7, 0x81, 0xbe, 0x43, 0xc1, 0xe8, 0xbe, 0xa2, 0x4f, 0xe9, 0xbe,
  0xb0, 0x87, 0xae, 0xbd, 0xd0, 0x7e, 0xc7, 0xbe, 0x6e, 0x9e, 0x97, 0xbe,
  0x28, 0x2c, 0x36, 0xbe, 0x6d, 0x36, 0x13, 0x3e, 0x2f, 0x73, 0x3c, 0xbd,
  0xf2, 0x91, 0xa5, 0xbd, 0x67, 0x5c, 0xc5, 0xbe, 0xca, 0xee, 0x89, 0xbe,
  0x1e, 0x1b, 0x3f, 0xbe, 0x2c, 0x19, 0x22, 0x3d, 0x7f, 0x65, 0x3b, 0x3d,
  0x8e, 0xf5, 0xe4, 0xbd, 0xab, 0x79, 0x7c, 0x3d, 0xcc, 0x14, 0xaf, 0x3d,
  0x8d, 0xb7, 0x9e, 0xbd, 0x03, 0xf2, 0xd8, 0x3d, 0x30, 0xee, 0x07, 0x3e,
  0x2b, 0x0a, 0x6d, 0xbc, 0x08, 0x39, 0xd7, 0xbd, 0xbc, 0xa3, 0xb3, 0xbd,
  0x7e, 0xe8, 0x19, 0x3d, 0x4b, 0xc9, 0xda, 0xbd, 0xe8, 0xd2, 0x31, 0xbd,
  0x68, 0xba, 0x54, 0xbe, 0xff, 0x04, 0xdb, 0xbd, 0x04, 0x35, 0x78, 0xbe,
  0x4e, 0x3e, 0x6a, 0x3d, 0x06, 0x85, 0xc0, 0xbd, 0xaa, 0x75, 0x1a, 0xbe,
  0x34, 0xb4, 0x28, 0xbe, 0x1c, 0x28, 0x0b, 0xbe, 0x95, 0x1b, 0xfa, 0xbd,
  0xfc, 0x2b, 0xcc, 0xbe, 0x7c, 0xc5, 0x0f, 0xbe, 0x52, 0x87, 0xcc, 0xbe,
  0xfb, 0x01, 0x81, 0xbe, 0xd1, 0x38, 0x6f, 0xbe, 0x95, 0x51, 0x99, 0xbe,
  0x4b, 0x27, 0x45, 0xbb, 0xe6, 0x38, 0x4b, 0x3d, 0x6f, 0x45, 0xad, 0xbe,
  0x19, 0xec, 0x5a, 0xbd, 0xe4, 0x0f, 0x52, 0x3d, 0x83, 0x83, 0xa4, 0xbe,
  0x04, 0x6f, 0x9d, 0xbe, 0xde, 0xb0, 0xc5, 0xbc, 0xe4, 0x49, 0x9b, 0xbe,
  0x27, 0xee, 0x16, 0xbe, 0x4d, 0x44, 0x9a, 0xbe, 0x37, 0x6e, 0xcd, 0xbc,
  0x11, 0x47, 0x97, 0xbe, 0x72, 0x69, 0x4e, 0xbd, 0x13, 0xba, 0x6e, 0xbe,
  0x63, 0xe9, 0xe5, 0x3d, 0x6d, 0x77, 0x55, 0xbd, 0x0d, 0xdf, 0xd4, 0xbd,
  0xf2, 0x3f, 0x18, 0xbe, 0x46, 0xa0, 0x0f, 0x3e, 0xa0, 0x72, 0xab, 0x3d,
  0x38, 0xc4, 0x3c, 0xbe, 0x5e, 0xa9, 0xbb, 0xbe, 0x96, 0x8c, 0x8b, 0xbe,
  0xc4, 0x4d, 0x4d, 0xbe, 0xa4, 0x7e, 0xaf, 0xbe, 0x57, 0x57, 0x84, 0x3d,
  0xa0, 0x8e, 0x76, 0xbe, 0xd5, 0x54, 0x53, 0xbe, 0x7c, 0x60, 0x07, 0x3d,
  0x22, 0x85, 0xa1, 0xbe, 0x9d, 0x10, 0x56, 0x3d, 0x0f, 0xa2, 0xba, 0xbe,
  0xf3, 0x2d, 0xb1, 0xbe, 0xfa, 0x6b, 0x94, 0xbe, 0xc3, 0x88, 0xf1, 0x3b,
  0x31, 0xe8, 0xb9, 0x3d, 0xf5, 0x4a, 0xc9, 0xbd, 0x07, 0xcb, 0x4e, 0xbe,
  0x50, 0xac, 0xc8, 0xbd, 0x76, 0x39, 0x92, 0xbe, 0x6b, 0xf7, 0xdb, 0xbb,
  0x62, 0xd7, 0x1f, 0xbe, 0x9d, 0x35, 0x4e, 0xbe, 0x32, 0x8a, 0x38, 0x3e,
  0x12, 0x89, 0x81, 0x3e, 0x17, 0x15, 0x3d, 0xbd, 0x20, 0xef, 0xaf, 0xbd,
  0x4d, 0x82, 0x5d, 0xbc, 0xbf, 0x5a, 0xe6, 0xbd, 0x5e, 0xfe, 0xb6, 0xbd,
  0xdb, 0x84, 0xc5, 0x3d, 0xf9, 0x4c, 0x7a, 0x3e, 0xb8, 0xe8, 0xdb, 0x3c,
  0x58, 0x15, 0xf5, 0x3c, 0xf5, 0xe4, 0x98, 0xbd, 0x2d, 0xd2, 0x2e, 0x3e,
  0xff, 0x46, 0x5c, 0x3e, 0xcb, 0x87, 0x21, 0x3d, 0x48, 0xad, 0xb2, 0x3e,
  0x7a, 0x5d, 0x12, 0x3e, 0x79, 0x40, 0x97, 0x3e, 0x1e, 0x50, 0x24, 0xbe,
  0x59, 0x97, 0x97, 0x3d, 0x18, 0xd1, 0x85, 0x3e, 0xe3, 0x05, 0x14, 0x3e,
  0x3f, 0x12, 0x94, 0x3e, 0x39, 0x83, 0x32, 0xbe, 0x56, 0xe1, 0x4d, 0xbd,
  0xa0, 0xd5, 0x93, 0x3e, 0x83, 0x13, 0xed, 0xbd, 0xc5, 0x4b, 0xa3, 0x3e,
  0x98, 0x1a, 0xf7, 0xbd, 0x24, 0xc4, 0x03, 0x3e, 0x1b, 0xd7, 0x45, 0xbe,
  0x3d, 0x38, 0x04, 0xbd, 0xcb, 0x7e, 0x3d, 0xbd, 0xeb, 0x9b, 0x87, 0xbe,
  0x26, 0xee, 0x11, 0x3e, 0xc6, 0x82, 0x2d, 0xbe, 0xc8, 0x12, 0x2a, 0xbe,
  0xb4, 0x3e, 0x44, 0xbe, 0x84, 0xea, 0x85, 0xbe, 0x1a, 0xa7, 0x85, 0xbe,
  0xd8, 0x7d, 0x6d, 0xbe, 0x72, 0x4b, 0x36, 0xbc, 0xd9, 0xb5, 0x17, 0x3e,
  0x23, 0x09, 0xc1, 0xbd, 0x87, 0xa2, 0x95, 0x3c, 0x5e, 0x23, 0xb4, 0xbe,
  0xab, 0x2f, 0x8c, 0x3d, 0xa6, 0x30, 0x4d, 0xbd, 0xa0, 0xe3, 0x79, 0xbe,
  0x02, 0x57, 0x71, 0x3e, 0x7c, 0xf2, 0xd8, 0xbd, 0x83, 0xbe, 0xe0, 0x3d,
  0xa5, 0xf4, 0xff, 0xbd, 0xe3, 0x6e, 0x62, 0xbd, 0x81, 0x34, 0x18, 0xbe,
  0x25, 0xaa, 0x94, 0xbd, 0x3b, 0xfd, 0xfb, 0xbc, 0x5f, 0x97, 0xec, 0x3c,
  0x19, 0xfd, 0x40, 0x3e, 0xf1, 0xac, 0x0d, 0x3e, 0x7d, 0x8a, 0xfc, 0x3d,
  0x1d, 0x54, 0x06, 0x3e, 0x85, 0x82, 0x97, 0x3e, 0x4d, 0xab, 0x7e, 0x3d,
  0x86, 0x7c, 0x4d, 0x3e, 0x68, 0xe4, 0x65, 0xbe, 0x21, 0x34, 0x7d, 0x3e,
  0xbc, 0xad, 0x5a, 0x3e, 0x2e, 0x42, 0x7b, 0x3e, 0xe5, 0x84, 0x1d, 0xbc,
  0x1d, 0xca, 0x64, 0x3e, 0xc5, 0xc9, 0x2b, 0xbd, 0x55, 0xe3, 0x2a, 0xbe,
  0x7e, 0x4b, 0x08, 0xbe, 0x57, 0x4e, 0xc8, 0xbd, 0x5f, 0x51, 0x7b, 0x3d,
  0xc6, 0x87, 0x48, 0x3e, 0xa5, 0xeb, 0x08, 0x3e, 0xb9, 0xa1, 0x4d, 0xbe,
  0x69, 0xb2, 0x56, 0xbd, 0xdc, 0x4f, 0x4a, 0xbe, 0x6e, 0xd4, 0x81, 0xbe,
  0x58, 0x57, 0x56, 0xbe, 0x19, 0xdf, 0x05, 0x3d, 0x7b, 0x4a, 0x1f, 0xbd,
  0x1d, 0x85, 0x31, 0xbd, 0xf3, 0xe5, 0x5c, 0xbe, 0xda, 0x0e, 0x0a, 0xbd,
  0x51, 0x6f, 0x82, 0xbe, 0xa8, 0x82, 0xe6, 0xbe, 0x04, 0x77, 0x3e, 0x3e,
  0x8d, 0xfb, 0xe6, 0xbd, 0x73, 0xc7, 0x70, 0xbe, 0xc4, 0x22, 0xc1, 0xbd,
  0xf8, 0x23, 0xfc, 0x3c, 0x5b, 0x1d, 0x86, 0xbe, 0xa3, 0x2b, 0x01, 0xbe,
  0x35, 0xac, 0x06, 0xbd, 0xb0, 0x33, 0xa1, 0xbe, 0x79, 0xf1, 0x45, 0x3d,
  0xa7, 0xd5, 0xe1, 0x3d, 0x57, 0xe6, 0x2c, 0xbe, 0x09, 0x28, 0x8c, 0xbe,
  0x61, 0x16, 0xca, 0xbd, 0xf2, 0xa9, 0x8b, 0xbd, 0xd8, 0x65, 0xf7, 0xbe,
  0xbc, 0x5f, 0xc8, 0xbe, 0x60, 0x6d, 0x9e, 0xbc, 0xe8, 0xd6, 0xe5, 0x3d,
  0x0f, 0xc1, 0x0a, 0xbe, 0xb7, 0x66, 0x4e, 0xbe, 0x92, 0xc5, 0x24, 0xbd,
  0x4a, 0x6c, 0x37, 0x3e, 0xf7, 0x84, 0xb3, 0xbe, 0x03, 0x69, 0xac, 0xbe,
  0xd9, 0x22, 0x0a, 0x3e, 0x34, 0x19, 0x30, 0x3d, 0xf2, 0x8b, 0x79, 0x3e,
  0x25, 0x95, 0x76, 0xbe, 0x96, 0x7c, 0x89, 0x3e, 0x4c, 0xec, 0xa0, 0x3e,
  0x7e, 0xf4, 0x59, 0x3e, 0xbb, 0xfa, 0x95, 0xbd, 0x47, 0x1a, 0x08, 0x3e,
  0x3b, 0x57, 0x86, 0x3d, 0x9d, 0xb8, 0x7f, 0xbe, 0x22, 0x6f, 0x5b, 0x3e,
  0xfe, 0x0e, 0xdb, 0x3d, 0xcc, 0x90, 0x0b, 0x3e, 0x12, 0x97, 0x64, 0x3e,
  0xe0, 0xa5, 0x0a, 0x3e, 0x44, 0x31, 0xf5, 0xbc, 0x6f, 0xf7, 0x74, 0xbe,
  0x15, 0x14, 0x3f, 0x3e, 0x34, 0x3c, 0xb9, 0x3e, 0x7e, 0xa4, 0xcb, 0xbc,
  0x99, 0x42, 0x3b, 0x3e, 0x7c, 0x15, 0x21, 0x3d, 0x03, 0xbf, 0xb0, 0x3d,
  0x59, 0x4f, 0x97, 0xbd, 0x44, 0x7f, 0xbd, 0x3d, 0xe6, 0x35, 0x67, 0xbd,
  0x84, 0xae, 0x20, 0x3e, 0x8c, 0x54, 0xae, 0x3e, 0x34, 0x76, 0x13, 0xbd,
  0x13, 0x45, 0x8f, 0x3b, 0x03, 0xc3, 0x8d, 0x3d, 0x15, 0x80, 0x75, 0x3d,
  0x7a, 0xa1, 0x80, 0xbe, 0xb8, 0xc6, 0xf0, 0x3d, 0xd2, 0x24, 0x1f, 0x3e,
  0x4a, 0xdd, 0x6f, 0x3e, 0xef, 0x6c, 0x5a, 0xbc, 0x9f, 0xc6, 0x86, 0x3e,
  0x03, 0x3a, 0x31, 0x3e, 0x5e, 0xe4, 0x42, 0x3d, 0xcc, 0x57, 0x0b, 0xbe,
  0xa0, 0xbf, 0x2d, 0x3e, 0x80, 0x43, 0xa7, 0x3d, 0xd5, 0xfb, 0x16, 0xbe,
  0xa1, 0xb0, 0x5a, 0xbd, 0x5d, 0x6c, 0x5f, 0x3e, 0x1d, 0xc4, 0xd6, 0xbd,
  0x36, 0x85, 0x1d, 0xbe, 0x4e, 0x4d, 0xcf, 0xbd, 0xf2, 0xd1, 0x1f, 0xbe,
  0xf9, 0xe8, 0xae, 0x3d, 0x12, 0xf2, 0x09, 0x3e, 0x76, 0xe8, 0x36, 0x3e,
  0xce, 0x49, 0x6d, 0x3d, 0x47, 0x8a, 0x64, 0x3e, 0x01, 0xfe, 0x5e, 0x3d,
  0x55, 0x43, 0x14, 0xbe, 0x33, 0xfc, 0x45, 0xba, 0x75, 0xc8, 0xa4, 0x3d,
  0x60, 0x47, 0x02, 0xbe, 0xf2, 0x6d, 0xaf, 0x3d, 0xaa, 0x4b, 0x30, 0xbe,
  0xce, 0xed, 0xc4, 0xbd, 0xb0, 0xa0, 0x40, 0x3d, 0xd0, 0x3d, 0x17, 0x3e,
  0x15, 0xeb, 0xbb, 0x3d, 0x0a, 0x97, 0x1d, 0xbc, 0xa6, 0x2a, 0x37, 0x3d,
  0x22, 0xeb, 0xb1, 0x3d, 0x3b, 0x94, 0x69, 0x3c, 0x8a, 0xda, 0xff, 0xff,
  0x04, 0x00, 0x00, 0x00, 0x00, 0x0a, 0x00, 0x00, 0xbc, 0xef, 0xd0, 0xbd,
  0xa0, 0xad, 0x05, 0xbe, 0x1c, 0x26, 0x6f, 0xbd, 0xc9, 0xee, 0x5b, 0x3e,
  0xfc, 0x19, 0x25, 0xbe, 0x13, 0xe4, 0x15, 0xbd, 0xe8, 0x24, 0x30, 0x3d,
  0x57, 0xb8, 0xfe, 0x3b, 0xb0, 0x38, 0x79, 0xbd, 0x86, 0x52, 0x04, 0xbc,
  0x7c, 0xba, 0xde, 0x3d, 0x98, 0x8b, 0x71, 0x3e, 0xab, 0x7c, 0xcc, 0x3c,
  0x5e, 0x77, 0x37, 0x3d, 0x11, 0x78, 0x2c, 0xbe, 0xf6, 0x4a, 0x2c, 0xbd,
  0x5b, 0x3d, 0x4c, 0xbb, 0x26, 0x65, 0x1e, 0x3e, 0x67, 0x91, 0x01, 0x3e,
  0x4b, 0xae, 0x2d, 0x3e, 0x23, 0xb2, 0x19, 0xbe, 0x0e, 0x2a, 0xce, 0x3d,
  0xd0, 0xd8, 0x9c, 0xbe, 0x88, 0xe9, 0x7b, 0x39, 0xa8, 0x34, 0x30, 0xbc,
  0xab, 0x0e, 0x1e, 0x3e, 0xe4, 0x6e, 0x84, 0xbe, 0xec, 0x7e, 0x37, 0xbe,
  0x87, 0x21, 0x3f, 0x3e, 0x3c, 0x06, 0x21, 0x3e, 0xee, 0x2f, 0x8c, 0x3d,
  0x0e, 0x8f, 0x0f, 0xbd, 0x1b, 0x00, 0x65, 0x3e, 0xc0, 0xbe, 0x88, 0x3e,
  0x80, 0x21, 0x0d, 0x3e, 0x8f, 0x44, 0x0a, 0xbd, 0xef, 0x16, 0x3f, 0x3e,
  0xbd, 0xf7, 0x7c, 0x3e, 0xd2, 0x5d, 0xe5, 0xbd, 0x39, 0x1b, 0xeb, 0xbc,
  0xed, 0xc2, 0xf0, 0x3c, 0x52, 0x57, 0x8d, 0xbd, 0xcd, 0x20, 0x0c, 0xbe,
  0xc7, 0xc8, 0x3b, 0x3e, 0x3a, 0x2a, 0xb1, 0xbc, 0x2b, 0xa7, 0xa3, 0x3d,
  0xc8, 0x49, 0x23, 0xbe, 0x9e, 0x59, 0x38, 0x3e, 0x08, 0xaa, 0x95, 0xbd,
  0x77, 0x28, 0x64, 0x3d, 0x28, 0x67, 0xa1, 0x3e, 0xb5, 0xf1, 0x88, 0x3e,
  0x0a, 0xec, 0x5f, 0x3e, 0xd2, 0xcb, 0xa9, 0xbd, 0xb2, 0x41, 0x30, 0x3d,
  0x29, 0x1b, 0xd9, 0xbd, 0x84, 0x94, 0xfe, 0xbd, 0x40, 0x34, 0x95, 0x3e,
  0xe3, 0x57, 0x98, 0xbd, 0x5d, 0xfe, 0x4d, 0x3e, 0x75, 0xed, 0x32, 0xbd,
  0xf9, 0xc5, 0x61, 0x3e, 0x21, 0x1c, 0x20, 0x3b, 0xfd, 0xaa, 0x1c, 0x3e,
  0x57, 0x31, 0x35, 0xbe, 0x79, 0x4f, 0x80, 0x3b, 0x3f, 0x11, 0x0f, 0xbd,
  0xdb, 0xcd, 0xb1, 0x3c, 0xdc, 0xe7, 0xac, 0xbd, 0x22, 0xff, 0xe9, 0xbd,
  0x7e, 0x93, 0x47, 0xbd, 0x05, 0xb8, 0xc0, 0x3c, 0x1c, 0xe9, 0x53, 0x3e,
  0x43, 0x03, 0x3f, 0xbd, 0x4b, 0x1f, 0x55, 0x3d, 0xe2, 0x00, 0x48, 0xbe,
  0x67, 0xb8, 0xfe, 0xbd, 0x93, 0xf1, 0x82, 0xbd, 0x19, 0x17, 0x83, 0x3d,
  0x91, 0x1b, 0xa3, 0x3d, 0xef, 0x49, 0x9d, 0xbd, 0xdd, 0x43, 0x06, 0xbe,
  0x08, 0xca, 0xee, 0xbb, 0x6b, 0xc3, 0x78, 0x3d, 0x68, 0x41, 0xdf, 0xbc,
  0x34, 0x66, 0x1d, 0xbe, 0x90, 0x50, 0x86, 0xbe, 0x1d, 0x47, 0x5b, 0x3d,
  0x59, 0x47, 0x9a, 0x3a, 0x34, 0xb9, 0xaa, 0xbd, 0x1e, 0x9a, 0x19, 0x3d,
  0x18, 0xdf, 0x09, 0x3d, 0x23, 0x02, 0x3b, 0xbe, 0x8b, 0x80, 0x35, 0x3e,
  0xcf, 0xc7, 0x33, 0xbe, 0x16, 0x1a, 0xcf, 0x3d, 0x37, 0xdb, 0xb7, 0x3d,
  0x2b, 0x34, 0x04, 0xbd, 0xba, 0x4d, 0x63, 0xbe, 0xd9, 0x28, 0x81, 0x3c,
  0x4c, 0x64, 0x34, 0x3e, 0x13, 0x61, 0xac, 0x3d, 0x8a, 0x3e, 0x65, 0x3c,
  0x9e, 0xd2, 0x55, 0x3d, 0x26, 0xe9, 0x0c, 0xbe, 0x9f, 0xd5, 0x3f, 0x3e,
  0xca, 0x5d, 0xb1, 0xbd, 0x10, 0x78, 0x1f, 0xbe, 0x5c, 0x31, 0x28, 0x3e,
  0x4b, 0x7a, 0x21, 0xbe, 0xc5, 0x43, 0x9f, 0xbd, 0x10, 0x22, 0xb9, 0x3d,
  0x84, 0xfd, 0xf4, 0xbd, 0xea, 0x85, 0x60, 0xbd, 0xc3, 0x05, 0x94, 0xbd,
  0x26, 0xa2, 0xf5, 0x3b, 0x17, 0xc9, 0xdc, 0x3d, 0x0c, 0xb1, 0x00, 0xbe,
  0x26, 0x9c, 0x83, 0x3e, 0xf8, 0x65, 0x00, 0xbd, 0xf9, 0xe3, 0xfe, 0xbd,
  0x57, 0x8a, 0x8d, 0x3e, 0xb5, 0x1e, 0x2a, 0x3c, 0x3c, 0x37, 0xf0, 0xbd,
  0x71, 0x24, 0x3b, 0x3d, 0x98, 0x09, 0xf0, 0x3d, 0x65, 0xe7, 0x85, 0x3d,
  0xbf, 0x41, 0x39, 0xbe, 0xb6, 0x9b, 0x02, 0x3e, 0x07, 0x9f, 0xfc, 0xbc,
  0xf2, 0xea, 0x52, 0x3e, 0x92, 0x4e, 0xc5, 0xbd, 0x43, 0xde, 0x48, 0xbd,
  0x35, 0xfa, 0xa9, 0x3d, 0x37, 0xe1, 0xfe, 0x3c, 0x58, 0xa1, 0xc3, 0xbc,
  0xed, 0x2a, 0x6c, 0x3c, 0x8d, 0x34, 0x1f, 0x3e, 0x8b, 0x69, 0x20, 0xbe,
  0x5e, 0x4c, 0x02, 0x3e, 0x41, 0xb1, 0xc5, 0xbd, 0x6f, 0x0e, 0xb4, 0x3d,
  0x9a, 0x4a, 0x59, 0x3d, 0x60, 0x7b, 0x9c, 0x3c, 0xfa, 0x08, 0xbe, 0xbc,
  0xd0, 0x7c, 0x96, 0x3b, 0xe3, 0x2b, 0x00, 0xbc, 0x56, 0x30, 0x14, 0xbe,
  0xe1, 0x3f, 0x48, 0xbe, 0xa3, 0xeb, 0xac, 0xbd, 0x28, 0xcd, 0x0e, 0x3b,
  0xd0, 0x4a, 0x56, 0x3a, 0x11, 0xb7, 0x28, 0xbd, 0x42, 0x0d, 0x53, 0x3d,
  0x5c, 0x3a, 0xc0, 0xbd, 0xdf, 0x0f, 0xdd, 0xbd, 0x43, 0xaa, 0xce, 0xbe,
  0xdd, 0xb5, 0x77, 0xbd, 0x58, 0xd2, 0xc6, 0x3d, 0xbc, 0x8f, 0xd3, 0xbd,
  0x85, 0xde, 0x8e, 0x3d, 0xef, 0x2a, 0xe0, 0x3c, 0x63, 0x61, 0x9c, 0xbc,
  0x52, 0x63, 0x7b, 0xbe, 0x8c, 0x41, 0x79, 0xbd, 0xaf, 0xfc, 0xd2, 0x3c,
  0x8f, 0x00, 0x1c, 0x3c, 0x4e, 0x1e, 0x2b, 0x3e, 0x20, 0x57, 0x19, 0x3e,
  0x0f, 0xce, 0x9c, 0xbd, 0xe0, 0x61, 0x41, 0xbc, 0xff, 0x0c, 0xa2, 0xbd,
  0x86, 0xff, 0x91, 0xbd, 0x84, 0xa9, 0x15, 0x3e, 0x96, 0xc0, 0x8f, 0x3c,
  0xd6, 0x28, 0xad, 0xbd, 0xd7, 0x8e, 0x9a, 0xbe, 0x6f, 0xa1, 0x5e, 0xbd,
  0x54, 0xbc, 0x1b, 0xbe, 0xa5, 0x3f, 0x46, 0x3d, 0xcf, 0x5a, 0x19, 0xbe,
  0x92, 0x65, 0x85, 0xbe, 0x13, 0xca, 0x02, 0x3e, 0x53, 0xaa, 0x24, 0x3d,
  0x31, 0xf7, 0x34, 0x3d, 0x7f, 0x63, 0x0c, 0xbd, 0x85, 0x18, 0x4e, 0x3d,
  0x0a, 0x44, 0xa6, 0xbd, 0x2f, 0x05, 0x8b, 0xbe, 0xa0, 0x50, 0xc0, 0x3d,
  0xbf, 0x35, 0x03, 0x3c, 0x17, 0x02, 0x2a, 0x3c, 0xe4, 0x78, 0xff, 0x3d,
  0x9d, 0xf7, 0xd0, 0xbc, 0x70, 0x6f, 0xdc, 0x3c, 0x1a, 0x5d, 0x27, 0xbd,
  0x6a, 0x03, 0xa8, 0xbb, 0x4e, 0x8d, 0x02, 0x3e, 0x34, 0x00, 0xfd, 0xbd,
  0x98, 0x47, 0x60, 0x3e, 0x10, 0x06, 0xbd, 0x3e, 0xd9, 0x8b, 0xdb, 0x3d,
  0xae, 0x3c, 0xc4, 0xbc, 0x23, 0x35, 0x99, 0xbd, 0x5b, 0x59, 0xe2, 0x3b,
  0x5e, 0x80, 0xd3, 0x3c, 0x3f, 0xcf, 0x2f, 0x3e, 0xf8, 0x7f, 0xed, 0xbd,
  0xc4, 0xc1, 0xbc, 0xbc, 0x67, 0xd3, 0x66, 0x3c, 0x04, 0xcd, 0xea, 0xbd,
  0xbe, 0x66, 0x26, 0x3e, 0x96, 0xf1, 0xad, 0x3d, 0x6d, 0xcd, 0xbf, 0xbc,
  0x74, 0x90, 0xf1, 0xbd, 0x99, 0xdd, 0x1b, 0xbe, 0xf5, 0x59, 0x2b, 0x3e,
  0x3c, 0x82, 0x29, 0x3d, 0xde, 0xe2, 0xac, 0x3d, 0xe3, 0x60, 0x4a, 0xbe,
  0x22, 0x65, 0x75, 0xbe, 0x3f, 0x78, 0x3f, 0xbd, 0x70, 0x2f, 0xee, 0x3d,
  0x52, 0x40, 0x09, 0x3d, 0x5e, 0x3e, 0x86, 0xbd, 0xdb, 0xcf, 0x1e, 0x3e,
  0x7a, 0x71, 0x19, 0xbd, 0x2f, 0xc0, 0x7e, 0xbc, 0x44, 0xd6, 0xe7, 0xbd,
  0x70, 0x71, 0x0f, 0xbe, 0xe2, 0xbe, 0x46, 0x3d, 0xed, 0x98, 0x2f, 0xbe,
  0x72, 0xfb, 0xac, 0xbd, 0xa8, 0x4c, 0x62, 0x3e, 0xdd, 0x74, 0xb5, 0xbb,
  0x73, 0x72, 0x91, 0xbd, 0x34, 0x4c, 0x6a, 0xbd, 0xb8, 0x31, 0x4f, 0x3d,
  0x6b, 0x4e, 0x30, 0x3d, 0xc6, 0x25, 0x40, 0x3d, 0xad, 0xde, 0x65, 0x3c,
  0x28, 0x4a, 0x3e, 0x3d, 0x84, 0xa0, 0x4a, 0xbe, 0xa5, 0xa6, 0xa2, 0x3d,
  0xb8, 0xc6, 0x82, 0xbd, 0xac, 0x68, 0x29, 0x3e, 0xd2, 0x45, 0xe0, 0xbd,
  0x05, 0x9b, 0xc6, 0xbd, 0x3e, 0x1f, 0x23, 0x3e, 0xdd, 0x22, 0xa8, 0x3d,
  0xf8, 0xd0, 0x23, 0xbe, 0x22, 0x3e, 0x5b, 0x3d, 0xf3, 0x11, 0x9c, 0x3c,
  0xcd, 0x6b, 0x3f, 0xbd, 0xa5, 0x05, 0xd8, 0xbb, 0x1e, 0x25, 0x6a, 0xbd,
  0x15, 0xf6, 0xca, 0x3c, 0xc1, 0x80, 0xf3, 0x3d, 0x0b, 0xbc, 0x5f, 0xbe,
  0xf0, 0x82, 0xd8, 0xbd, 0xa4, 0x65, 0xf0, 0xbd, 0xc3, 0xb7, 0x95, 0x3d,
  0x65, 0x64, 0xda, 0xbd, 0xcf, 0xfe, 0x9d, 0x3d, 0x39, 0x28, 0x36, 0x3d,
  0x97, 0x39, 0x64, 0xbc, 0x75, 0xdc, 0x2e, 0xbd, 0x18, 0xff, 0x78, 0xbe,
  0x8e, 0x8b, 0xa4, 0xbb, 0x49, 0x59, 0xc9, 0x3c, 0xd2, 0x03, 0xa0, 0x3d,
  0x93, 0x79, 0xcf, 0xbd, 0xe2, 0xf1, 0x04, 0x3e, 0x3c, 0x43, 0x6d, 0xbe,
  0xed, 0x13, 0x49, 0xbe, 0xa9, 0xba, 0xe5, 0xbd, 0xbd, 0x2d, 0xee, 0xbd,
  0x4c, 0xa8, 0x8b, 0xbd, 0x87, 0x1b, 0x6e, 0xbe, 0x4d, 0x18, 0x90, 0x3d,
  0x1b, 0xc9, 0x3e, 0x3e, 0x11, 0xbe, 0x40, 0xbe, 0xe4, 0xd2, 0x00, 0x3c,
  0x58, 0xf1, 0xf3, 0x3d, 0x8d, 0x91, 0x4b, 0xbe, 0xd3, 0x62, 0x1a, 0x3e,
  0x24, 0xb8, 0x86, 0x3d, 0xb4, 0x9d, 0x14, 0xbd, 0x09, 0xa2, 0x4d, 0x3e,
  0x92, 0x21, 0xa3, 0x3d, 0xda, 0x21, 0x0c, 0xbe, 0xb7, 0xd4, 0xfe, 0xbd,
  0x84, 0xd4, 0x10, 0x3e, 0x5b, 0x61, 0x1c, 0xbd, 0x3b, 0x5d, 0xb7, 0xbc,
  0xb8, 0x32, 0x35, 0xbd, 0x92, 0xc8, 0x29, 0xbe, 0x67, 0xbf, 0x88, 0x3e,
  0x70, 0xcf, 0x28, 0x3d, 0xff, 0x41, 0xb0, 0xbd, 0x7c, 0x2b, 0x90, 0x3e,
  0xa5, 0x3c, 0x2e, 0x3d, 0x3d, 0x12, 0x28, 0xbe, 0x3f, 0xd3, 0x8d, 0x3b,
  0x25, 0x9d, 0x03, 0xbe, 0x1d, 0x47, 0x1b, 0x3e, 0x43, 0x3b, 0x22, 0x3e,
  0x3e, 0x02, 0x26, 0x3d, 0xc6, 0xc4, 0x1f, 0x3e, 0xc8, 0xc2, 0xba, 0xbd,
  0x65, 0x06, 0x04, 0xbe, 0xbf, 0x74, 0x6d, 0x3e, 0x78, 0xc9, 0x51, 0xbc,
  0xe9, 0x34, 0x8b, 0xbd, 0xdc, 0x7b, 0x9b, 0x3d, 0x1f, 0x6f, 0x43, 0xbe,
  0xa4, 0x36, 0xb7, 0xbd, 0xe3, 0xb4, 0x85, 0xbe, 0x3e, 0xa9, 0x12, 0xbe,
  0x26, 0xfe, 0xbd, 0x3c, 0x4b, 0x23, 0x23, 0x3e, 0x3d, 0xb8, 0x9b, 0xbd,
  0x0e, 0x63, 0x2a, 0xbe, 0x34, 0x49, 0x01, 0x3a, 0xe5, 0x2a, 0x62, 0x3e,
  0xa1, 0xac, 0x63, 0x3c, 0xf3, 0x2d, 0x25, 0x3c, 0xae, 0x2c, 0xdd, 0xbc,
  0xf0, 0xd9, 0x21, 0x3e, 0xd4, 0x68, 0xda, 0x3c, 0xad, 0xb1, 0xc6, 0xbd,
  0x91, 0xef, 0x34, 0x3e, 0x8e, 0xc5, 0x93, 0xbd, 0xaf, 0xfb, 0x09, 0xbe,
  0x22, 0x29, 0xc0, 0xbd, 0x48, 0x2f, 0x95, 0xbc, 0x60, 0x89, 0xb4, 0xbd,
  0xa7, 0x05, 0x8e, 0x3d, 0xc2, 0x9e, 0x48, 0xbd, 0xb3, 0xcd, 0xa4, 0x3d,
  0x4c, 0x01, 0x8f, 0xbe, 0x70, 0x3f, 0xe4, 0x3c, 0xaf, 0xbd, 0x32, 0xbe,
  0x16, 0x38, 0x16, 0x3d, 0x97, 0xe8, 0xff, 0x3c, 0xaa, 0xab, 0x09, 0x3e,
  0xc7, 0xff, 0x81, 0xbe, 0x93, 0x07, 0xa1, 0xbd, 0x03, 0x24, 0x19, 0xbe,
  0xf2, 0x1e, 0x89, 0xbe, 0xf0, 0x9d, 0xdd, 0x3d, 0x57, 0xb3, 0xf3, 0x3d,
  0xd6, 0x42, 0x9f, 0xbb, 0x55, 0xf1, 0x48, 0xbd, 0x73, 0x80, 0x64, 0xbe,
  0x5f, 0xb0, 0xcf, 0xbd, 0xec, 0x60, 0xeb, 0xbd, 0xb3, 0x27, 0x0d, 0xbe,
  0xd1, 0x36, 0x44, 0xbe, 0x19, 0xaa, 0x36, 0x3d, 0x4f, 0x22, 0x10, 0x3e,
  0xd3, 0x37, 0x1d, 0x3d, 0xbb, 0x42, 0x5e, 0x3e, 0xe2, 0x07, 0x0e, 0x3e,
  0xec, 0x89, 0x03, 0xbd, 0xa7, 0x1c, 0x33, 0x3e, 0x21, 0x72, 0x2c, 0x3e,
  0xf4, 0x7d, 0x9d, 0xbe, 0x72, 0xa6, 0xc8, 0xbd, 0x8d, 0xb2, 0x83, 0x3e,
  0x9a, 0x06, 0x21, 0xbe, 0x79, 0x15, 0x58, 0x3d, 0x16, 0x7c, 0xa4, 0xbd,
  0x56, 0x3a, 0x16, 0x3e, 0x04, 0x2d, 0x45, 0x3d, 0x00, 0x04, 0x9b, 0xbd,
  0x79, 0x26, 0x34, 0x3e, 0x08, 0x65, 0x42, 0x3c, 0xd0, 0x1d, 0xfa, 0x3d,
  0x59, 0xcc, 0xa7, 0xbc, 0x1e, 0xc6, 0x02, 0xbe, 0x6f, 0x59, 0x2d, 0xbc,
  0x83, 0xbf, 0x97, 0xbd, 0xe4, 0x28, 0x92, 0xbd, 0xcb, 0xa5, 0xbe, 0xbc,
  0xaf, 0xe9, 0xeb, 0x3c, 0x21, 0xcf, 0xc9, 0xbd, 0xa8, 0xa7, 0x25, 0x3d,
  0x83, 0x8e, 0x06, 0xbd, 0xee, 0x52, 0x1c, 0x3e, 0xb2, 0x18, 0x58, 0xbd,
  0xe6, 0x1f, 0x11, 0xbd, 0x6e, 0xf4, 0xc8, 0x3d, 0x4f, 0xd1, 0x66, 0x3d,
  0xf5, 0xa4, 0x25, 0xbe, 0x09, 0x56, 0xb0, 0x3d, 0x7c, 0x18, 0x3b, 0x3d,
  0x2d, 0x5d, 0x80, 0xbd, 0x03, 0x5f, 0xe5, 0x3d, 0xdc, 0x5e, 0x1c, 0x3e,
  0x97, 0x5d, 0xea, 0x3d, 0xcf, 0x3b, 0x2e, 0xbe, 0x55, 0xfb, 0xe3, 0x3d,
  0x71, 0x2a, 0xd9, 0x3d, 0xb3, 0x89, 0x55, 0x3d, 0xcb, 0xda, 0xdd, 0xbc,
  0xf0, 0xc3, 0x9f, 0xbd, 0x45, 0x2c, 0xb1, 0x3d, 0xf8, 0x58, 0x2f, 0xbe,
  0x01, 0x99, 0xc1, 0xbd, 0x9a, 0x09, 0x50, 0x3d, 0x9f, 0x86, 0x6a, 0xbe,
  0xb9, 0x5e, 0xfe, 0x3c, 0xdc, 0xad, 0x9b, 0xbd, 0x35, 0x5c, 0x43, 0xbe,
  0xbb, 0xf5, 0x7a, 0x3e, 0x76, 0xe1, 0x3b, 0x3e, 0x4c, 0x6b, 0x19, 0x3e,
  0x66, 0x74, 0x61, 0x3e, 0x77, 0x8a, 0x19, 0x3e, 0xe7, 0xac, 0x27, 0xbe,
  0x73, 0x19, 0x83, 0xbe, 0xc8, 0xab, 0x31, 0x3e, 0x53, 0x3c, 0xa1, 0x3e,
  0x15, 0xaf, 0x87, 0xbd, 0x14, 0xbe, 0x08, 0x3e, 0xdd, 0xd2, 0x58, 0x3d,
  0xdb, 0xe2, 0xe0, 0x3d, 0x30, 0x57, 0x8b, 0x3d, 0xb6, 0x83, 0xd3, 0xbb,
  0xae, 0x10, 0x10, 0x3e, 0x86, 0xa8, 0x81, 0x3e, 0xa9, 0xf0, 0x57, 0xbb,
  0x4b, 0x30, 0x3f, 0xbe, 0xbd, 0xa6, 0x0d, 0x3e, 0xa5, 0x7f, 0x55, 0xbe,
  0xe5, 0xb4, 0x18, 0x3e, 0x82, 0x93, 0x55, 0x3d, 0x5e, 0x49, 0x6d, 0xbd,
  0x84, 0x36, 0x30, 0xbd, 0xa2, 0x4e, 0x25, 0xbe, 0x87, 0x65, 0x00, 0xbd,
  0xbb, 0x3d, 0x80, 0xbd, 0x89, 0x8b, 0x5c, 0xbe, 0x5f, 0x31, 0x17, 0xbe,
  0x38, 0x59, 0xef, 0x3d, 0x03, 0xaf, 0x13, 0xbe, 0xb9, 0x4f, 0x17, 0x3e,
  0x4d, 0xa9, 0x0e, 0xbd, 0xe3, 0x52, 0x18, 0x3e, 0xbf, 0xd7, 0x8f, 0xbc,
  0xd1, 0xff, 0x96, 0xbe, 0x3e, 0xeb, 0x1c, 0xbd, 0x3a, 0x41, 0xef, 0xbd,
  0xfe, 0x24, 0x81, 0xbe, 0x88, 0x4c, 0x40, 0xbc, 0x63, 0x52, 0x4a, 0xbe,
  0x94, 0x81, 0x20, 0x3e, 0x65, 0xc5, 0x12, 0x3d, 0xdc, 0xd0, 0x10, 0x3e,
  0x79, 0x3e, 0x52, 0xbd, 0x7c, 0xac, 0x90, 0xbe, 0x57, 0x38, 0x0c, 0x3e,
  0x4a, 0xfd, 0xd1, 0xbd, 0x54, 0x1c, 0x65, 0xbe, 0x3d, 0xa6, 0x4d, 0xbe,
  0x62, 0x93, 0x1d, 0x3e, 0x2b, 0x46, 0xe9, 0xbd, 0xfe, 0xc6, 0x64, 0xbd,
  0xf4, 0x97, 0x31, 0xbe, 0xfe, 0xcd, 0x5e, 0x3e, 0xc6, 0x3f, 0x41, 0x3e,
  0x56, 0x94, 0x39, 0xbe, 0xe7, 0xf3, 0xbc, 0xbd, 0x01, 0x68, 0xa8, 0x3d,
  0x7c, 0x6b, 0x00, 0x3e, 0x35, 0x32, 0x52, 0x3e, 0x39, 0x69, 0xab, 0xbd,
  0x09, 0xb1, 0x32, 0xbe, 0xb1, 0x05, 0x54, 0xbd, 0xce, 0x26, 0x5f, 0xbe,
  0x51, 0x35, 0x42, 0xbc, 0x7c, 0xea, 0x3c, 0x3e, 0x3e, 0x2a, 0x5c, 0xbe,
  0xd6, 0x94, 0x74, 0xbd, 0x1d, 0x57, 0x20, 0xbe, 0x90, 0xfc, 0x55, 0x3c,
  0x75, 0x9d, 0x49, 0x3d, 0x18, 0x52, 0x0b, 0x3e, 0xed, 0x8e, 0xb9, 0xbd,
  0x78, 0x13, 0x0e, 0x3e, 0x2f, 0x4e, 0x1e, 0xbc, 0x30, 0xdb, 0x3d, 0xbe,
  0x51, 0xbb, 0x8e, 0xbd, 0xcf, 0x82, 0x34, 0xbe, 0xb1, 0x05, 0xa3, 0x3e,
  0x6b, 0xd8, 0x58, 0x3e, 0xad, 0xc0, 0x24, 0xbe, 0xed, 0x06, 0x6b, 0x3d,
  0x1a, 0xbb, 0x39, 0xbe, 0xe8, 0x19, 0x2e, 0xbe, 0x8f, 0xf1, 0x2c, 0x3e,
  0xf3, 0x6a, 0x5a, 0xbe, 0x92, 0x54, 0x1c, 0xbe, 0xdd, 0xad, 0xf2, 0x3d,
  0x3e, 0x0d, 0xf5, 0x3d, 0xae, 0x7c, 0x45, 0x3d, 0x03, 0xe4, 0xbb, 0xbd,
  0x47, 0x52, 0xc1, 0xbd, 0x4c, 0x08, 0x20, 0xbe, 0xee, 0xe2, 0x13, 0xbe,
  0x58, 0xd2, 0x16, 0x3e, 0xdf, 0xc7, 0x1c, 0x3d, 0xbc, 0xc9, 0x5b, 0xbe,
  0x00, 0x76, 0xb5, 0xbd, 0x2b, 0x13, 0x9d, 0xbc, 0x38, 0xea, 0xa7, 0xbd,
  0xb0, 0x6a, 0x19, 0x3e, 0x24, 0xbc, 0xe2, 0x3d, 0xc2, 0xf2, 0xb2, 0x3d,
  0x3a, 0x0f, 0xe1, 0xbd, 0xe6, 0xf0, 0x6e, 0x3e, 0xbc, 0x85, 0xbc, 0xbd,
  0x89, 0xa4, 0x32, 0xbe, 0x91, 0x31, 0xe4, 0xbd, 0xd6, 0x62, 0x44, 0xbd,
  0x3e, 0x93, 0xfd, 0xbd, 0xa0, 0xb5, 0x72, 0x3e, 0x4d, 0xec, 0xd2, 0xbd,
  0xcd, 0x88, 0x4f, 0xbb, 0x58, 0xbe, 0x2f, 0xbc, 0xb4, 0x39, 0xb9, 0x3b,
  0xaa, 0xa6, 0x52, 0x3e, 0x95, 0x37, 0x84, 0x3e, 0x41, 0xc2, 0x16, 0x3e,
  0x77, 0x2c, 0x5e, 0x3d, 0xbb, 0x52, 0xff, 0xbd, 0x09, 0x3b, 0xd9, 0xbd,
  0x23, 0xb2, 0x51, 0xbd, 0x9c, 0x59, 0x07, 0xbd, 0xbc, 0x55, 0x98, 0x3d,
  0xf5, 0x7b, 0x62, 0xbd, 0xfc, 0xf8, 0x42, 0x39, 0x31, 0xb1, 0x86, 0x3e,
  0x9b, 0x19, 0x91, 0x3d, 0x65, 0x58, 0x71, 0x3c, 0x0a, 0x1e, 0x62, 0xbd,
  0xec, 0x90, 0x85, 0x3e, 0x12, 0x20, 0x9b, 0x3e, 0xa7, 0xd6, 0x9c, 0xbd,
  0x4e, 0x5f, 0xec, 0x3d, 0x99, 0x33, 0x43, 0x3e, 0x04, 0xca, 0x1b, 0x3d,
  0xb6, 0x58, 0xe0, 0xbd, 0xad, 0xc8, 0xc7, 0x3d, 0xd1, 0xa4, 0x4f, 0x3e,
  0x78, 0xd1, 0x67, 0xbc, 0x40, 0xb9, 0x40, 0x3e, 0x4f, 0xc1, 0x24, 0xbe,
  0x30, 0x84, 0x40, 0x3e, 0xf5, 0x00, 0xe9, 0x3d, 0xa1, 0x61, 0x95, 0xbe,
  0x1b, 0x6f, 0x83, 0xbd, 0x40, 0x0a, 0x4d, 0xbe, 0x18, 0xe4, 0xd1, 0xbd,
  0x9e, 0x2e, 0x3a, 0xbc, 0xba, 0x6d, 0x2c, 0xbe, 0x73, 0xce, 0x83, 0xbd,
  0x84, 0xda, 0xe3, 0xbc, 0xaf, 0x66, 0x2b, 0x3e, 0xc9, 0x12, 0x5f, 0xbe,
  0x2e, 0x47, 0xab, 0xbd, 0x4a, 0x5a, 0x1f, 0x3e, 0xbe, 0xba, 0x44, 0x3e,
  0xe1, 0x31, 0x5e, 0xbe, 0xb5, 0x5b, 0x28, 0x3e, 0x30, 0x64, 0x49, 0x3e,
  0x4e, 0xa2, 0x71, 0x3e, 0x62, 0xe6, 0x2a, 0xbd, 0x56, 0x32, 0x68, 0x3d,
  0x1b, 0x8d, 0x53, 0xbd, 0x22, 0x13, 0xc2, 0x3d, 0xd5, 0x19, 0x1b, 0x3e,
  0xf2, 0xb2, 0x4e, 0x3d, 0xe4, 0x71, 0xd3, 0x3d, 0x4f, 0xb1, 0xc1, 0xbd,
  0x8e, 0x45, 0x94, 0x3d, 0xff, 0x1b, 0xc4, 0xbd, 0xf1, 0x67, 0x0f, 0xbd,
  0xde, 0x04, 0xc7, 0xbd, 0xde, 0xf1, 0x26, 0x3e, 0x0e, 0x1d, 0x8c, 0xbe,
  0x04, 0x93, 0x30, 0xbd, 0xf8, 0x34, 0xba, 0xbd, 0x72, 0x24, 0x39, 0x3d,
  0x17, 0xae, 0x47, 0x3d, 0xe5, 0x7d, 0x80, 0x3e, 0xc5, 0x03, 0xfe, 0x3d,
  0x61, 0xfe, 0x2f, 0x3e, 0x1e, 0x0b, 0x23, 0x3d, 0x28, 0x50, 0xa1, 0x3c,
  0x0f, 0x7b, 0x95, 0x3e, 0xe5, 0x7f, 0x1f, 0x3e, 0x97, 0x63, 0x3c, 0x3e,
  0x1a, 0x1b, 0x81, 0x3c, 0xbb, 0x1f, 0x5e, 0xbd, 0xc7, 0x03, 0x86, 0x3d,
  0x1c, 0x2e, 0x10, 0xbe, 0x45, 0xd7, 0x45, 0x3d, 0xb5, 0xcb, 0x09, 0x3e,
  0xf4, 0xef, 0x68, 0x3e, 0xf0, 0x6f, 0x91, 0x3b, 0x47, 0x62, 0x24, 0x3e,
  0x9e, 0x0f, 0xa2, 0xbd, 0xeb, 0x6f, 0xcc, 0x3d, 0xc0, 0xcf, 0xab, 0x3d,
  0xa8, 0x09, 0x00, 0xbe, 0x08, 0x9b, 0x3e, 0xbb, 0x3a, 0x88, 0x37, 0xbe,
  0x9b, 0xee, 0xdd, 0xbc, 0x0c, 0xd5, 0xed, 0x3d, 0x28, 0xd4, 0x2f, 0x3e,
  0x93, 0xa4, 0xda, 0xbd, 0x7d, 0xb8, 0x23, 0x3e, 0x8b, 0xb5, 0x89, 0x3d,
  0x34, 0x1a, 0x21, 0x3e, 0xec, 0x39, 0xf4, 0x3d, 0xd5, 0xcd, 0xfd, 0x3a,
  0x21, 0xfd, 0x0d, 0x3e, 0xae, 0x61, 0x4c, 0xbe, 0x36, 0xb3, 0x20, 0x3e,
  0x1c, 0x41, 0x14, 0xbe, 0x5c, 0x09, 0xab, 0xbc, 0x54, 0x5c, 0xbb, 0x3d,
  0xb3, 0x04, 0x21, 0x3d, 0x43, 0xc4, 0x3d, 0xbe, 0x35, 0xec, 0xad, 0xbd,
  0xe9, 0x70, 0x39, 0xbe, 0xa4, 0x79, 0x1f, 0x3e, 0x8d, 0xcf, 0x13, 0x3d,
  0x96, 0xe4, 0xff, 0xff, 0x04, 0x00, 0x00, 0x00, 0x00, 0x0a, 0x00, 0x00,
  0x2b, 0x08, 0xb7, 0xbd, 0xf0, 0xad, 0x73, 0xbd, 0x37, 0xe6, 0x1a, 0x3d,
  0x16, 0x9d, 0xda, 0x3d, 0x57, 0x42, 0xf8, 0xbc, 0x85, 0x33, 0x48, 0xbe,
  0xb1, 0x49, 0x66, 0x3c, 0xb2, 0xfb, 0xa3, 0x3d, 0xd6, 0xe8, 0x20, 0xbe,
  0xd0, 0x1e, 0x5c, 0x3d, 0x21, 0x10, 0x9e, 0x3d, 0xde, 0xa0, 0xfa, 0xbc,
  0xef, 0xdb, 0x44, 0xbd, 0xa2, 0xec, 0xff, 0xbd, 0xcc, 0xfc, 0xbd, 0x3d,
  0xce, 0x75, 0x73, 0x3d, 0x7e, 0x70, 0x9b, 0x3d, 0xdf, 0x75, 0x04, 0xbe,
  0x0c, 0x1f, 0xf4, 0xbd, 0xe5, 0x3f, 0x11, 0x3e, 0xbd, 0xd7, 0xd7, 0x3d,
  0xbf, 0xfb, 0x30, 0xbd, 0xbd, 0x1e, 0xf3, 0xbc, 0x94, 0xbb, 0x3e, 0xbd,
  0xf3, 0x1e, 0xad, 0x3e, 0xa5, 0x43, 0x90, 0xbd, 0x03, 0x95, 0xb1, 0xbd,
  0x1f, 0x14, 0x01, 0x3e, 0xd0, 0xfb, 0xb1, 0x3e, 0x7d, 0x54, 0x8f, 0x3e,
  0xa9, 0x4e, 0xd6, 0x3d, 0x5c, 0x9d, 0x94, 0x3d, 0x41, 0x00, 0x03, 0x3e,
  0x26, 0x1e, 0xb3, 0x3e, 0x3b, 0xc8, 0x13, 0xbe, 0x95, 0x8c, 0xaf, 0xbc,
  0xc1, 0xca, 0xde, 0xbc, 0xea, 0x17, 0x0b, 0xbe, 0x94, 0x12, 0x9f, 0xbc,
  0x2c, 0x10, 0x00, 0x3e, 0x9a, 0x9a, 0x26, 0x3d, 0x1b, 0x2c, 0x9b, 0x3d,
  0x48, 0xb9, 0x54, 0xbe, 0x58, 0x0b, 0x25, 0xbe, 0x45, 0x2b, 0xae, 0x3d,
  0x22, 0xa1, 0x84, 0xbd, 0x9d, 0xdc, 0x3c, 0xbd, 0x36, 0x88, 0x02, 0x3e,
  0xc5, 0x44, 0x66, 0x3e, 0x8d, 0x99, 0x10, 0x3c, 0xdd, 0x52, 0xde, 0xbd,
  0x77, 0x4f, 0x48, 0x3d, 0xa5, 0x8b, 0x5a, 0xbe, 0xf7, 0x4d, 0x84, 0x3d,
  0xfe, 0x00, 0x9b, 0x3d, 0x3e, 0x87, 0x52, 0x3d, 0xeb, 0xdf, 0x3e, 0x3e,
  0x7a, 0xc9, 0x8d, 0x3e, 0x1b, 0x58, 0xd4, 0x3e, 0xeb, 0x1d, 0xb4, 0x3e,
  0x86, 0xbc, 0x65, 0x3e, 0x68, 0x79, 0xd3, 0xbd, 0xf7, 0x89, 0x47, 0x3e,
  0x2b, 0xcf, 0x42, 0x3d, 0x5c, 0x49, 0x2c, 0x3e, 0xfb, 0x65, 0xe6, 0x3c,
  0x49, 0x95, 0x5e, 0xbe, 0xc2, 0xab, 0x05, 0xbe, 0x55, 0xb3, 0x94, 0xbe,
  0x21, 0x0f, 0x22, 0xbe, 0xad, 0x2f, 0x19, 0x3e, 0x63, 0x55, 0x74, 0x3e,
  0x4a, 0xbc, 0x3b, 0xbe, 0x14, 0x83, 0xaa, 0xbd, 0x3d, 0xe6, 0x33, 0xbe,
  0x21, 0xd4, 0x5e, 0xbd, 0xef, 0xb7, 0x43, 0xbc, 0x0f, 0x11, 0x09, 0xbe,
  0x02, 0x89, 0x37, 0xbd, 0x3b, 0xeb, 0xfa, 0x3d, 0x2d, 0xf4, 0xbe, 0xbd,
  0xe8, 0xc9, 0x2f, 0xbe, 0x81, 0x84, 0x22, 0xbe, 0x86, 0x72, 0xa3, 0xbd,
  0xee, 0x32, 0xdd, 0xbe, 0xca, 0x2a, 0xb7, 0xbd, 0x2e, 0xe0, 0x28, 0x3b,
  0x82, 0xca, 0x8d, 0xbe, 0x40, 0x64, 0x3d, 0x3c, 0xd0, 0xaa, 0x6e, 0xbd,
  0xe5, 0xd8, 0x88, 0xbb, 0xe9, 0x52, 0x1e, 0x3d, 0xcb, 0x75, 0x12, 0x3d,
  0x91, 0x44, 0x9e, 0xbe, 0x84, 0xdd, 0x43, 0x3d, 0x32, 0x29, 0xc1, 0x3c,
  0x56, 0x7d, 0xf6, 0xbc, 0xba, 0xda, 0x36, 0xbe, 0xdc, 0xc1, 0x2e, 0x3b,
  0xdf, 0xab, 0x8f, 0xbd, 0xa1, 0xa7, 0x5e, 0x3e, 0x16, 0x1f, 0x94, 0xbe,
  0x7f, 0x3d, 0xe0, 0x3d, 0x4e, 0xb4, 0xc8, 0x3d, 0x72, 0x7d, 0x0a, 0xbe,
  0x81, 0x05, 0xf7, 0xbc, 0xf5, 0xb6, 0xab, 0x3d, 0x56, 0x91, 0x0f, 0xbd,
  0x18, 0x0c, 0xbc, 0xbe, 0xee, 0x80, 0x0d, 0xbc, 0xf5, 0x1c, 0x0e, 0xbe,
  0xb0, 0xa0, 0xbb, 0xbd, 0x43, 0xd1, 0x65, 0xbd, 0xf9, 0xbd, 0x3d, 0xbe,
  0x50, 0xac, 0x31, 0xbd, 0x85, 0x49, 0x33, 0xbe, 0x56, 0xc3, 0x5c, 0xbe,
  0xe3, 0x91, 0x9d, 0xbe, 0x62, 0x1e, 0x13, 0x3e, 0xcc, 0xc7, 0x08, 0xbe,
  0x88, 0xff, 0x77, 0xbe, 0x32, 0xee, 0xc9, 0xbd, 0x42, 0xe1, 0xa0, 0xbe,
  0xaa, 0xb1, 0x2a, 0xbe, 0x2e, 0x23, 0xc5, 0xbe, 0x1d, 0x7e, 0x0a, 0x3e,
  0x65, 0x37, 0xbf, 0x3d, 0xc2, 0x00, 0x75, 0x3c, 0xe7, 0x00, 0xba, 0x3d,
  0x14, 0x10, 0x7d, 0x3d, 0xaf, 0x45, 0x3e, 0x3e, 0xae, 0x09, 0x96, 0x3c,
  0x39, 0xbe, 0x97, 0x3d, 0xa4, 0xd8, 0x5e, 0xbc, 0x11, 0x58, 0xc3, 0xbd,
  0xe5, 0xd0, 0x80, 0xbd, 0xdd, 0xca, 0x0c, 0x3e, 0xb0, 0x5c, 0x68, 0xbe,
  0xa6, 0x15, 0x0d, 0xbd, 0xd4, 0xf9, 0x35, 0xbe, 0xf4, 0x1b, 0x05, 0x3e,
  0x8e, 0xd8, 0x38, 0x3e, 0xc2, 0x1b, 0x1c, 0x3e, 0x44, 0x9e, 0x5c, 0xbe,
  0xba, 0x14, 0x98, 0x3d, 0xff, 0x2c, 0x46, 0xbe, 0x82, 0xdf, 0x00, 0x3d,
  0xbf, 0x17, 0x08, 0x3e, 0x9c, 0x6a, 0x87, 0x3e, 0xba, 0xc0, 0xdc, 0x3d,
  0xf0, 0x02, 0x04, 0x3e, 0x1e, 0x91, 0x8f, 0xbe, 0x18, 0xe9, 0x55, 0x3e,
  0xbf, 0x87, 0xb0, 0xbd, 0x16, 0xd1, 0x37, 0x3e, 0x1a, 0xf2, 0x1f, 0xbe,
  0x5d, 0x7c, 0x75, 0x3e, 0x34, 0x4a, 0x11, 0xbe, 0xb7, 0x89, 0x46, 0xbd,
  0xac, 0x15, 0x09, 0x3e, 0x56, 0x36, 0x6a, 0xbd, 0x41, 0x9a, 0x70, 0x3c,
  0x9b, 0xdd, 0xfd, 0xbd, 0x82, 0x7d, 0x19, 0x3e, 0x05, 0xa8, 0x41, 0xbd,
  0x34, 0x07, 0xbe, 0x3d, 0x94, 0x04, 0x2c, 0xbb, 0xe1, 0xe3, 0xa0, 0x3e,
  0x54, 0x42, 0x8d, 0x3e, 0x08, 0xdc, 0x0d, 0xbe, 0xa1, 0x02, 0x99, 0xbe,
  0x2f, 0xf2, 0x96, 0xbc, 0xe4, 0x3a, 0x24, 0xbe, 0x07, 0x12, 0x75, 0x3e,
  0x09, 0x24, 0xa5, 0xbe, 0x39, 0x12, 0x4b, 0xbb, 0x75, 0xe3, 0x01, 0x3e,
  0x55, 0xda, 0xeb, 0xbd, 0x34, 0x88, 0x07, 0x3e, 0xaa, 0x61, 0x57, 0xbe,
  0x8d, 0x43, 0xa5, 0xbd, 0x70, 0x8f, 0xd0, 0x3d, 0x00, 0x13, 0xb1, 0x3d,
  0x5d, 0xa5, 0xfe, 0x3d, 0xd1, 0x52, 0x17, 0x3e, 0x47, 0x80, 0x83, 0x3e,
  0x66, 0x8a, 0xad, 0x3e, 0x4d, 0xa3, 0x57, 0xbe, 0x4a, 0x8b, 0x96, 0x3e,
  0x1b, 0xfb, 0xf9, 0x3d, 0x4d, 0x22, 0xa1, 0x3e, 0x06, 0xfa, 0xfa, 0x3c,
  0xbd, 0xd6, 0xe7, 0xbd, 0x27, 0x53, 0xe3, 0xbb, 0x33, 0x07, 0x1a, 0x3d,
  0x00, 0x97, 0xea, 0x3d, 0x13, 0xdf, 0x4d, 0xbe, 0x57, 0x1a, 0xf3, 0xbb,
  0x9f, 0xfe, 0xb6, 0x3c, 0x1f, 0xb1, 0x13, 0x3e, 0x49, 0x83, 0x55, 0xbd,
  0x98, 0x41, 0x23, 0x3d, 0x47, 0x3a, 0x18, 0xbe, 0xbf, 0x26, 0xfe, 0xbd,
  0xcf, 0x1b, 0x3e, 0x3d, 0xd2, 0x07, 0x42, 0x3e, 0x09, 0x58, 0x49, 0x3d,
  0x85, 0xb4, 0x34, 0x3e, 0x6c, 0x9f, 0x02, 0x3e, 0x88, 0x29, 0x99, 0x3d,
  0xac, 0x18, 0x1a, 0x3e, 0xf1, 0x6b, 0xcb, 0xbd, 0xce, 0x5f, 0x3a, 0x3e,
  0xea, 0xef, 0xbe, 0x3b, 0x04, 0x70, 0xe8, 0x3d, 0x0b, 0x35, 0x10, 0x3e,
  0x82, 0x77, 0x4b, 0x3e, 0x73, 0x06, 0x65, 0x3d, 0x7e, 0x16, 0x7f, 0x3d,
  0x0c, 0x90, 0xc6, 0x3e, 0xcc, 0x1f, 0x68, 0x3e, 0x45, 0x1a, 0xe5, 0x3d,
  0x10, 0xeb, 0x8d, 0x3e, 0x8e, 0xb8, 0x14, 0x3e, 0xe1, 0x54, 0x29, 0xbd,
  0x32, 0x84, 0x25, 0x3e, 0x55, 0xd6, 0xde, 0x3d, 0xd4, 0x42, 0x9f, 0x3d,
  0xb9, 0xb7, 0x42, 0x3e, 0xec, 0x71, 0x0c, 0xbe, 0x1c, 0xb6, 0xe1, 0xbd,
  0x9c, 0xe9, 0xd4, 0x3c, 0xcb, 0x6e, 0x53, 0xbd, 0xd3, 0xcf, 0x25, 0xbd,
  0x12, 0xc8, 0xbb, 0xbd, 0x15, 0x4c, 0xd6, 0x3c, 0x9b, 0xc9, 0xa0, 0xbd,
  0x7c, 0x64, 0xac, 0x3d, 0x93, 0x15, 0x7b, 0xbd, 0x0d, 0x25, 0x05, 0xbe,
  0x49, 0x34, 0x7f, 0x3d, 0x45, 0x63, 0x9a, 0x3d, 0x94, 0x45, 0xcc, 0x3c,
  0xe2, 0x05, 0x55, 0x3c, 0xb7, 0xb1, 0x5d, 0x3c, 0x86, 0x65, 0x83, 0x3b,
  0x6d, 0xf5, 0x12, 0xbd, 0x89, 0xc2, 0xac, 0xbd, 0x32, 0xd0, 0x19, 0x3e,
  0x0a, 0x39, 0xb9, 0x3d, 0xe3, 0x3d, 0x31, 0x3e, 0xc2, 0x0d, 0x1d, 0x3e,
  0xfc, 0xa2, 0x29, 0xbd, 0x67, 0xc1, 0x08, 0x3e, 0x4a, 0x32, 0xd9, 0x3d,
  0x6e, 0x1b, 0x50, 0x3e, 0x89, 0xf9, 0x19, 0x3e, 0x6d, 0xa8, 0x63, 0xbd,
  0x62, 0x36, 0x9d, 0xbd, 0xef, 0xdb, 0xac, 0xbe, 0xe5, 0xe1, 0x91, 0xbd,
  0x15, 0x4b, 0xfc, 0x3d, 0xfa, 0x5c, 0x2c, 0x3e, 0xf5, 0x92, 0xbd, 0x3e,
  0x25, 0xee, 0xd0, 0x3d, 0x6e, 0x95, 0x45, 0xbd, 0x54, 0x54, 0x91, 0x3d,
  0x25, 0xf5, 0x95, 0xbe, 0xbd, 0x3d, 0x41, 0xbe, 0x1f, 0xc4, 0x89, 0xbe,
  0x80, 0xf6, 0x44, 0xbe, 0xf1, 0x1e, 0x2e, 0xbd, 0xba, 0x83, 0x7d, 0xbe,
  0x98, 0xe2, 0x8b, 0xbd, 0x5c, 0xc0, 0x9e, 0xbe, 0x0c, 0xb1, 0x8d, 0xbd,
  0x6a, 0xc2, 0x43, 0xbe, 0x2b, 0xc7, 0xd9, 0xbe, 0x3c, 0x1f, 0xda, 0xbe,
  0x41, 0x6a, 0xac, 0xbe, 0x2b, 0x8b, 0xce, 0xbd, 0x06, 0xac, 0x00, 0xbe,
  0xb6, 0xfa, 0x63, 0xbc, 0xc8, 0xb0, 0x91, 0xbe, 0xb5, 0x8f, 0x82, 0xbe,
  0x40, 0x07, 0x34, 0x3d, 0x3b, 0x54, 0x63, 0xbe, 0x76, 0x30, 0xd1, 0x3d,
  0x15, 0x19, 0x36, 0xbe, 0xf5, 0x62, 0x1c, 0x3d, 0xff, 0x50, 0x66, 0xbe,
  0x17, 0xd6, 0xde, 0xb8, 0xf2, 0x59, 0x3e, 0xbe, 0x78, 0xe7, 0x97, 0xba,
  0xde, 0x55, 0xdf, 0xbd, 0xd4, 0xdf, 0x07, 0x3e, 0xc6, 0x41, 0x87, 0xbe,
  0x5b, 0x7d, 0xe3, 0xbc, 0xc2, 0xd0, 0x09, 0xbe, 0xb2, 0xe4, 0x9d, 0xbe,
  0x2b, 0xf1, 0x69, 0x3d, 0xe0, 0x0f, 0x19, 0x3e, 0xb9, 0x2a, 0x95, 0xbb,
  0x0f, 0x6d, 0xe3, 0xbd, 0xd2, 0x0d, 0x92, 0xbe, 0x5e, 0xd1, 0x4d, 0xbd,
  0x00, 0x27, 0xa8, 0x3d, 0x03, 0x4f, 0x96, 0xbe, 0xa6, 0xd5, 0xba, 0xbd,
  0x96, 0x4f, 0x4a, 0x3d, 0xd6, 0x92, 0x08, 0x3e, 0xdd, 0x76, 0x90, 0xbd,
  0x35, 0xbc, 0xcf, 0xbb, 0xa1, 0x26, 0x1d, 0xbd, 0xa7, 0x06, 0xcb, 0x3c,
  0x37, 0xee, 0x42, 0xbe, 0x52, 0x77, 0x48, 0xbe, 0x0a, 0xaa, 0xf8, 0xbd,
  0x15, 0xeb, 0xf6, 0xbd, 0x95, 0x85, 0x8f, 0x3d, 0x25, 0x62, 0xc0, 0xbc,
  0x6a, 0x57, 0x8e, 0x3d, 0x69, 0x5d, 0x92, 0x3c, 0xdd, 0x89, 0xa4, 0xbd,
  0x6a, 0xa2, 0xaa, 0xbd, 0x9b, 0xa6, 0xee, 0x3d, 0x02, 0x81, 0xa9, 0x3d,
  0x76, 0xde, 0x22, 0x3e, 0xb1, 0x3b, 0x22, 0xbe, 0xf5, 0xfe, 0x1a, 0xbd,
  0x22, 0xb3, 0xee, 0x3d, 0xfa, 0x6e, 0x3b, 0x3b, 0x80, 0x7f, 0xd8, 0xbd,
  0x4f, 0x01, 0xa6, 0x3d, 0x60, 0xba, 0x4a, 0xbe, 0xf8, 0x86, 0x65, 0x3c,
  0xb4, 0x49, 0x03, 0x3e, 0x67, 0x9d, 0x95, 0xbe, 0x16, 0x81, 0x95, 0xbe,
  0x4f, 0x9c, 0x15, 0x3e, 0xef, 0x4d, 0x4c, 0x3d, 0xee, 0x03, 0xa7, 0xbc,
  0x18, 0xda, 0x8f, 0xbe, 0x18, 0xed, 0x09, 0xbe, 0xa6, 0x06, 0x93, 0x3d,
  0xc8, 0x8e, 0xfe, 0xbd, 0xf1, 0x23, 0xa3, 0xbe, 0x57, 0xcf, 0x4d, 0xbe,
  0xe5, 0xfe, 0x9f, 0xbe, 0x20, 0x5c, 0x66, 0xbd, 0x3f, 0xfb, 0x59, 0xbe,
  0x5a, 0x1a, 0x89, 0xbe, 0x84, 0x9c, 0x5d, 0xbe, 0x4c, 0xc7, 0x8c, 0x3d,
  0x98, 0xd5, 0xbb, 0xbd, 0x37, 0x58, 0x70, 0xbe, 0x0d, 0xb6, 0x70, 0x3d,
  0x7b, 0x04, 0x49, 0xbd, 0xa8, 0xbc, 0x09, 0xbe, 0xc8, 0xb8, 0xc6, 0xbd,
  0x21, 0xc4, 0x85, 0x3d, 0xc7, 0x56, 0xa3, 0xbe, 0x03, 0x29, 0xc5, 0x3d,
  0x26, 0x9e, 0x86, 0x3d, 0x94, 0xcb, 0xa9, 0xbe, 0x68, 0xb6, 0x71, 0xbe,
  0xf1, 0xf8, 0xb2, 0xbd, 0x83, 0x2d, 0x4d, 0xbd, 0x8d, 0x4c, 0x96, 0x3c,
  0xbe, 0xb0, 0x7e, 0xbe, 0x4c, 0xe7, 0xb9, 0x3c, 0xd4, 0x32, 0x55, 0x3c,
  0x56, 0x9d, 0x1b, 0xbe, 0xb2, 0xb8, 0xbf, 0x3d, 0x4a, 0xac, 0xa8, 0xbe,
  0x3c, 0xfd, 0x2a, 0xbe, 0xf5, 0xa4, 0xdb, 0x3d, 0xda, 0x51, 0x33, 0xbd,
  0xd9, 0x6e, 0xb6, 0x3d, 0x11, 0x72, 0x6d, 0x3d, 0x96, 0x00, 0x7d, 0x3d,
  0x00, 0x06, 0xd1, 0xbc, 0xd3, 0xa2, 0x53, 0xbe, 0x40, 0xe7, 0x3f, 0x3e,
  0xd8, 0x17, 0x40, 0x3d, 0xd5, 0x9f, 0x0e, 0x3e, 0x31, 0x5b, 0x63, 0xbe,
  0x4f, 0xec, 0x08, 0xbd, 0xe1, 0xd6, 0x6c, 0xbd, 0x66, 0xf8, 0xad, 0x3d,
  0x9f, 0x85, 0xcb, 0x3d, 0x23, 0x30, 0x6a, 0x3e, 0x72, 0xd0, 0xcf, 0x3d,
  0xc0, 0x52, 0x18, 0xbe, 0x7f, 0xa2, 0x3b, 0xbe, 0x48, 0x1b, 0x35, 0xbe,
  0x2c, 0x9c, 0x75, 0xbe, 0x76, 0x90, 0x6d, 0x3e, 0x05, 0xcd, 0x93, 0xbe,
  0x72, 0x20, 0x2e, 0xbe, 0x7b, 0x09, 0x06, 0xbe, 0x63, 0x04, 0x11, 0xbe,
  0xdb, 0x18, 0xa7, 0xbd, 0x10, 0xf9, 0x90, 0xbd, 0xd0, 0x30, 0x4e, 0xbe,
  0xf0, 0xd9, 0x4f, 0xbe, 0x41, 0xb7, 0x5a, 0x3e, 0x5b, 0xea, 0xcf, 0xbe,
  0xf1, 0x97, 0x01, 0x3b, 0x30, 0xcd, 0xc8, 0xbc, 0x22, 0xb2, 0x1c, 0x3e,
  0xe0, 0xfb, 0x8d, 0xbe, 0x57, 0xa1, 0x9f, 0x3d, 0x5d, 0x09, 0xa6, 0xbe,
  0x5b, 0xa6, 0xb0, 0xbe, 0xa7, 0xf2, 0x8f, 0xbe, 0xc1, 0x57, 0x20, 0xbe,
  0x30, 0x69, 0x99, 0xbd, 0xa7, 0xe8, 0x3a, 0xbd, 0xd0, 0xf0, 0x54, 0xbd,
  0x19, 0xda, 0x1d, 0xbe, 0x5d, 0x20, 0x50, 0xbe, 0xf3, 0x37, 0x91, 0xbe,
  0xa8, 0xfd, 0xdf, 0x3d, 0x98, 0x92, 0x24, 0xbd, 0x17, 0x79, 0x72, 0xbc,
  0x73, 0xd1, 0x8f, 0xbc, 0x73, 0xe1, 0x18, 0xbd, 0x2e, 0x32, 0x8d, 0xbe,
  0xb5, 0xae, 0xf5, 0x3d, 0xc4, 0x9b, 0x9d, 0xbd, 0x28, 0x2c, 0x90, 0xbe,
  0xa0, 0x83, 0x6d, 0xbc, 0xa0, 0x68, 0xa4, 0xbd, 0x44, 0xc3, 0x28, 0xbc,
  0x60, 0x67, 0xa2, 0xbe, 0x01, 0xb8, 0x54, 0xbe, 0x8a, 0x01, 0x71, 0xbd,
  0xcf, 0x0d, 0xf2, 0xbd, 0x92, 0x9e, 0xc8, 0xbd, 0x2b, 0x7a, 0x41, 0xbe,
  0xe9, 0x64, 0x56, 0xbe, 0x60, 0xbe, 0x04, 0xbe, 0xcc, 0xb0, 0x5c, 0xbe,
  0xa9, 0xc7, 0xdd, 0x3c, 0xa0, 0xf2, 0xd3, 0x3d, 0xf7, 0x32, 0x2b, 0x3e,
  0xa4, 0xb1, 0x97, 0xbe, 0xb0, 0x16, 0x39, 0xbe, 0xa9, 0x26, 0x2c, 0xbc,
  0x51, 0x3e, 0xe8, 0xbe, 0x43, 0x26, 0x90, 0xbe, 0x5a, 0x63, 0x93, 0xbe,
  0xe9, 0x37, 0xea, 0x3d, 0xcf, 0x73, 0x1e, 0xbe, 0xb2, 0x73, 0x1f, 0x3e,
  0x04, 0xbd, 0x6e, 0x3e, 0x28, 0x9b, 0x55, 0xbd, 0x87, 0x38, 0x2f, 0xbe,
  0x8d, 0x47, 0xdc, 0x3d, 0xfc, 0xe3, 0x99, 0xbd, 0x08, 0x6a, 0xc2, 0x3c,
  0x1a, 0x22, 0x31, 0x3e, 0xca, 0x69, 0x8b, 0x3d, 0xb9, 0x7e, 0x72, 0xbc,
  0x0b, 0x1c, 0x8a, 0xbd, 0x82, 0xd3, 0xdb, 0x3c, 0x38, 0xa5, 0x55, 0x3e,
  0x43, 0x98, 0x76, 0xbd, 0xe9, 0x50, 0x40, 0x3d, 0x07, 0xda, 0xc9, 0x3c,
  0x6f, 0xa1, 0x3c, 0xbe, 0x1b, 0x52, 0x33, 0x3e, 0x67, 0x29, 0x47, 0xbd,
  0x14, 0x8f, 0x53, 0x3e, 0x63, 0x84, 0xb3, 0x3d, 0x85, 0x4e, 0xc8, 0x3d,
  0x35, 0x23, 0x85, 0xbe, 0x90, 0xca, 0xda, 0xbd, 0xa5, 0x46, 0xf5, 0x3d,
  0xed, 0x9f, 0x2e, 0xbe, 0x0c, 0x15, 0xc3, 0xbc, 0x38, 0xda, 0xfc, 0x3c,
  0x08, 0xdf, 0xd7, 0x3d, 0x6f, 0x58, 0xcd, 0x3d, 0xa9, 0x34, 0x82, 0xbe,
  0xfe, 0xcb, 0x6b, 0xbb, 0x2c, 0x2d, 0xe1, 0xbd, 0x57, 0xa2, 0xa4, 0x3c,
  0xab, 0xb3, 0x85, 0x3c, 0x37, 0x06, 0x0b, 0x3e, 0x2f, 0x16, 0x25, 0xbe,
  0xd4, 0xb5, 0xb6, 0xbd, 0x85, 0x64, 0x04, 0x3d, 0x98, 0x9f, 0xb9, 0xbd,
  0xab, 0x4a, 0x21, 0xbd, 0x42, 0x2a, 0x40, 0xbe, 0xe1, 0x78, 0x1f, 0xbe,
  0xfd, 0x57, 0xa1, 0xbd, 0xf5, 0x61, 0x9a, 0xbe, 0x7e, 0x2f, 0xcf, 0xbe,
  0x01, 0x45, 0x38, 0xbe, 0x6b, 0x76, 0x63, 0xbd, 0x45, 0x04, 0x36, 0xbc,
  0x4c, 0x60, 0x6c, 0x3e, 0xb4, 0x12, 0x8f, 0x3d, 0xa4, 0x34, 0x4f, 0xba,
  0x11, 0x25, 0x30, 0xbe, 0x79, 0xdd, 0xe9, 0xbc, 0x00, 0xd0, 0x7c, 0xbd,
  0x49, 0x9e, 0x8a, 0x3d, 0xa8, 0x68, 0xc4, 0xbd, 0x0f, 0x74, 0x2c, 0x3e,
  0xc5, 0xce, 0x15, 0x3d, 0x0a, 0x0e, 0x42, 0x3e, 0x3b, 0x80, 0xca, 0x3d,
  0x54, 0x4c, 0xca, 0x3d, 0xba, 0xe9, 0x40, 0x3e, 0x40, 0x33, 0x03, 0x3e,
  0xc8, 0x3a, 0xb0, 0xbd, 0x6e, 0xe1, 0x06, 0x3c, 0xe6, 0xe6, 0x07, 0xbd,
  0x3b, 0xe4, 0xe9, 0xbc, 0x89, 0x06, 0xab, 0x3e, 0x88, 0x94, 0x71, 0x3c,
  0x1a, 0xcd, 0x5b, 0x3e, 0x14, 0x8c, 0x44, 0xbe, 0x46, 0xbc, 0x01, 0xbd,
  0x5a, 0x84, 0x03, 0xbe, 0x16, 0x4a, 0x03, 0x3e, 0xae, 0x60, 0x8a, 0x3e,
  0xd3, 0x1c, 0xbe, 0xbc, 0xe5, 0x2b, 0x6e, 0xbe, 0x76, 0x7f, 0x66, 0x3c,
  0xa9, 0x65, 0x9b, 0x3e, 0xe0, 0x16, 0xb6, 0xbe, 0xb6, 0x11, 0x3c, 0x3d,
  0x03, 0x32, 0x3b, 0xbe, 0x99, 0x98, 0x12, 0x3e, 0x58, 0xd8, 0x61, 0xbc,
  0x97, 0xe7, 0x89, 0xbe, 0x10, 0x52, 0xd4, 0x3c, 0xbd, 0x8e, 0xd3, 0xbe,
  0x6c, 0x92, 0x81, 0xbd, 0xba, 0x0f, 0x81, 0x3d, 0x8f, 0xd7, 0x81, 0xbb,
  0xe7, 0xb7, 0x6d, 0xbc, 0x58, 0x65, 0xe1, 0x3d, 0xf2, 0x7b, 0x1a, 0xbe,
  0x46, 0xaa, 0xdb, 0xbc, 0x25, 0x47, 0x23, 0x3e, 0x6e, 0x03, 0x24, 0xbe,
  0x53, 0x63, 0xe4, 0xbc, 0x6f, 0x41, 0x05, 0xbe, 0x99, 0x58, 0x02, 0x3c,
  0x96, 0x3b, 0xaf, 0xbb, 0xaa, 0x54, 0x7b, 0xbe, 0x0d, 0x96, 0x03, 0xbc,
  0xde, 0x4e, 0x95, 0xbc, 0x10, 0x03, 0x53, 0xbd, 0x9a, 0x35, 0x95, 0xbe,
  0x3d, 0x59, 0x4c, 0xbe, 0xd3, 0xf6, 0x62, 0x3e, 0xd4, 0x34, 0x81, 0xbe,
  0x4f, 0x12, 0x4a, 0x3e, 0xcd, 0x76, 0xe9, 0x3c, 0x94, 0x83, 0xbb, 0xbc,
  0x07, 0xd6, 0x4f, 0xbe, 0xfd, 0x5d, 0x88, 0xbd, 0xbc, 0x5a, 0xe7, 0x3c,
  0xb7, 0x77, 0x17, 0x3e, 0x7c, 0x95, 0xa3, 0xbd, 0xf5, 0x5b, 0x82, 0xbd,
  0x25, 0xa1, 0x10, 0x3e, 0xe1, 0xd2, 0x5f, 0x3e, 0x1c, 0x00, 0xcf, 0xbd,
  0x39, 0x58, 0x79, 0x3d, 0x93, 0x80, 0xad, 0xbd, 0x1d, 0x03, 0x86, 0xbe,
  0x27, 0xa7, 0x08, 0x3d, 0x1f, 0xf2, 0x72, 0x3e, 0xbc, 0x58, 0xc8, 0x3d,
  0x8f, 0x40, 0x55, 0xbe, 0xff, 0xcc, 0x8b, 0x3e, 0x9e, 0x2b, 0xe4, 0x3d,
  0xd7, 0x89, 0x92, 0x3d, 0xfe, 0xab, 0xab, 0x3d, 0x05, 0x15, 0x9f, 0x3d,
  0x36, 0x7c, 0x42, 0x3e, 0x7b, 0x08, 0x1e, 0xbd, 0xbe, 0x78, 0x91, 0x3e,
  0xf9, 0x86, 0xf0, 0xbd, 0x9a, 0x79, 0x4d, 0x3e, 0x1d, 0xc9, 0x8b, 0x3e,
  0x36, 0xaa, 0xde, 0x3d, 0x5a, 0xcd, 0xc6, 0xbd, 0xc7, 0x44, 0x5a, 0x3d,
  0x19, 0x6a, 0xa8, 0x3e, 0x21, 0x71, 0x69, 0xbe, 0x37, 0x8c, 0x29, 0x3d,
  0xdb, 0x37, 0x7c, 0xbe, 0x2a, 0xc9, 0x5f, 0x3d, 0x78, 0xbd, 0x1c, 0xbe,
  0x45, 0xb6, 0xf4, 0x3d, 0xec, 0x3a, 0x10, 0x3e, 0xae, 0x65, 0x3e, 0xbd,
  0xc8, 0x07, 0x4e, 0x3c, 0x2a, 0xea, 0xfa, 0x3d, 0xf6, 0x72, 0x82, 0x3e,
  0xe6, 0x4f, 0x4c, 0xbd, 0x1d, 0xbc, 0x33, 0xbc, 0xa0, 0x79, 0x01, 0x3d,
  0x83, 0x08, 0x26, 0xbd, 0xba, 0x2c, 0x7b, 0x3e, 0x8f, 0x9d, 0xca, 0xbd,
  0xff, 0xb3, 0x3e, 0xbe, 0x36, 0x0c, 0x16, 0xbe, 0xa2, 0xf9, 0xe2, 0xbc,
  0x81, 0x07, 0x1a, 0x3e, 0x9b, 0x8e, 0x4f, 0x3d, 0xb0, 0x73, 0x77, 0x3d,
  0xcf, 0x13, 0xe8, 0x3d, 0x4a, 0xcd, 0x28, 0xbe, 0xea, 0x19, 0xd9, 0x3c,
  0xd1, 0x9c, 0xc0, 0xbd, 0xcb, 0xf5, 0x46, 0x3e, 0x17, 0x51, 0x14, 0xbe,
  0x41, 0x8d, 0xe9, 0xbd, 0xa7, 0x07, 0x04, 0xbe, 0x2a, 0x3c, 0x66, 0x3d,
  0x2a, 0xcf, 0x16, 0xbd, 0xd3, 0xf8, 0x9e, 0x3b, 0x4f, 0xcd, 0x0e, 0x3e,
  0x11, 0x76, 0x3f, 0x3e, 0x9b, 0x08, 0x74, 0x3e, 0x29, 0xfb, 0x1e, 0xbe,
  0xc4, 0x77, 0x98, 0x3d, 0x6b, 0x9f, 0xb3, 0x3d, 0x59, 0x14, 0x9b, 0x3d,
  0x37, 0x4f, 0x25, 0xbe, 0xa2, 0xee, 0xff, 0xff, 0x04, 0x00, 0x00, 0x00,
  0x00, 0x0a, 0x00, 0x00, 0xc1, 0xbd, 0x4b, 0x3e, 0xb8, 0xf4, 0x5d, 0x3d,
  0xe3, 0xb3, 0x54, 0x3e, 0x0b, 0x45, 0x13, 0x3d, 0x6f, 0xc3, 0x9f, 0x3e,
  0x00, 0xe8, 0xd6, 0xbd, 0xb1, 0x10, 0xcd, 0xbd, 0x16, 0x0c, 0x30, 0x3e,
  0xfd, 0x14, 0x93, 0xbe, 0x66, 0x0e, 0xf1, 0xbe, 0xbf, 0x20, 0x4d, 0x3d,
  0x71, 0xd0, 0x72, 0xbd, 0xca, 0x58, 0x32, 0xbe, 0x15, 0xd5, 0xa6, 0x3d,
  0x0a, 0x4e, 0x85, 0x3d, 0x41, 0x14, 0xb7, 0xbd, 0x5b, 0xb2, 0x97, 0x3d,
  0x3e, 0x79, 0x0a, 0xbe, 0x85, 0x6b, 0xdd, 0xbd, 0xe2, 0x03, 0x04, 0xbe,
  0x97, 0x7a, 0x66, 0xba, 0xbe, 0xa9, 0x4c, 0xbe, 0x58, 0x8c, 0xa4, 0x3b,
  0xe0, 0x00, 0x2b, 0xbc, 0x7c, 0xe5, 0xbc, 0xbd, 0xcc, 0xb1, 0xe6, 0xbd,
  0x67, 0x96, 0x05, 0xbc, 0xce, 0x84, 0x56, 0xbb, 0x14, 0x4e, 0x41, 0x3d,
  0x82, 0x31, 0x5e, 0x3e, 0x98, 0x7e, 0xd4, 0xbd, 0x88, 0xc6, 0x1d, 0x3e,
  0x8e, 0x57, 0xed, 0xbd, 0x85, 0xf5, 0x0f, 0xbe, 0xe8, 0xf2, 0x20, 0xbe,
  0x77, 0x97, 0xcf, 0xbe, 0x83, 0xcd, 0x01, 0xbe, 0x2d, 0x2e, 0x40, 0x3d,
  0xfc, 0x24, 0xcf, 0x3b, 0xb6, 0xe6, 0x4d, 0x3c, 0xed, 0x90, 0x83, 0x3d,
  0xce, 0x92, 0x4f, 0xbe, 0xb7, 0x89, 0xac, 0x3d, 0xab, 0xe7, 0x49, 0xbe,
  0xc0, 0x8a, 0xaa, 0xbe, 0xfe, 0x72, 0xd6, 0xbd, 0x63, 0xd2, 0x31, 0xbe,
  0x48, 0x63, 0xc6, 0x3d, 0x51, 0x3c, 0x5b, 0x3c, 0xa6, 0xe9, 0x8d, 0xbe,
  0xfc, 0xc1, 0x57, 0xbe, 0x76, 0xcd, 0x71, 0xbc, 0x84, 0xf7, 0x87, 0xbe,
  0x83, 0x72, 0x90, 0x3d, 0x4f, 0x37, 0x65, 0x3e, 0x5b, 0x08, 0x9e, 0xbd,
  0x6e, 0xaf, 0x62, 0xbd, 0x37, 0x5d, 0xd6, 0x3d, 0x7d, 0xb9, 0xc2, 0x3c,
  0x15, 0xeb, 0x7e, 0x3d, 0x44, 0xf2, 0x2e, 0xbc, 0x8b, 0xee, 0xf7, 0x3c,
  0x9a, 0xd7, 0x1d, 0x3e, 0xad, 0x15, 0xdd, 0x3d, 0x99, 0xb8, 0xbe, 0x3e,
  0x32, 0x08, 0x0f, 0x3e, 0x66, 0x4d, 0x24, 0xbe, 0xe3, 0x4f, 0x88, 0xbe,
  0xef, 0x37, 0xf4, 0xbd, 0x9f, 0x63, 0xb8, 0x3d, 0xff, 0x3f, 0x27, 0xbe,
  0xce, 0x19, 0xa9, 0x3c, 0x67, 0x81, 0x52, 0xbe, 0xb5, 0x79, 0x06, 0xbe,
  0x8a, 0x8e, 0x64, 0xbe, 0x32, 0xea, 0x7a, 0xbe, 0x90, 0x4c, 0x43, 0x3d,
  0x4d, 0xfd, 0x95, 0xbe, 0xb3, 0x58, 0xbe, 0x3b, 0x06, 0xb2, 0xf9, 0x3d,
  0x14, 0x41, 0x4b, 0x3d, 0x88, 0xca, 0x67, 0x3e, 0xc1, 0x39, 0x42, 0xbe,
  0x08, 0x3b, 0x2c, 0xbe, 0x1a, 0x4e, 0x32, 0x3e, 0x89, 0x38, 0x17, 0x3e,
  0x63, 0x44, 0x4c, 0xbd, 0x59, 0x04, 0x7a, 0xbe, 0xc2, 0x02, 0x22, 0xbd,
  0x96, 0x7f, 0x39, 0x3e, 0xb2, 0x44, 0x16, 0x3b, 0xe1, 0x15, 0x70, 0xbd,
  0x54, 0x6f, 0x88, 0xbb, 0x2c, 0xd9, 0x63, 0xbe, 0x7f, 0x6b, 0xc7, 0xbd,
  0xf9, 0xf8, 0xb4, 0xbe, 0xfe, 0xe6, 0x6b, 0xbd, 0x1d, 0xb5, 0x40, 0xbe,
  0x7a, 0x2f, 0x3c, 0xbe, 0xc6, 0x37, 0x49, 0x3e, 0x77, 0x30, 0xe7, 0x3d,
  0x42, 0xba, 0xcb, 0x3d, 0x9b, 0xc6, 0xf7, 0x3d, 0x33, 0x8f, 0x6c, 0xbe,
  0x27, 0x5c, 0x8e, 0x3d, 0x14, 0x93, 0x53, 0xbd, 0xc9, 0xe0, 0x08, 0x3e,
  0xb3, 0x46, 0x7d, 0x3e, 0x3a, 0xe7, 0x4b, 0x3d, 0x83, 0xc7, 0x8b, 0x3d,
  0x89, 0xfb, 0xb1, 0x3e, 0xfe, 0x15, 0xc4, 0xbc, 0x47, 0xde, 0x4a, 0xbe,
  0xeb, 0x09, 0x95, 0xbe, 0xdd, 0xfe, 0xec, 0xbc, 0x4e, 0x32, 0x1a, 0xbd,
  0x6b, 0x21, 0x2a, 0xbe, 0x76, 0xa6, 0x44, 0x3e, 0xc4, 0xd8, 0x6d, 0xbe,
  0xd0, 0x54, 0x86, 0xbe, 0x8c, 0x34, 0xb2, 0xbe, 0xd4, 0xd9, 0x41, 0xbe,
  0xdf, 0xc9, 0x89, 0xbe, 0x99, 0xbd, 0x0d, 0x3e, 0x74, 0x77, 0x4d, 0xbd,
  0xa1, 0x6f, 0x49, 0x3e, 0x07, 0x95, 0x92, 0xbe, 0xc7, 0xb6, 0x0e, 0x3a,
  0x7b, 0xde, 0x6a, 0xbc, 0x8b, 0xa5, 0x1a, 0xbc, 0x31, 0x12, 0x18, 0x3e,
  0x1f, 0xb9, 0x1b, 0xbe, 0x59, 0xad, 0x46, 0x3e, 0x92, 0x93, 0x37, 0xbd,
  0x40, 0x7b, 0x97, 0xbd, 0x30, 0xa3, 0x42, 0x3e, 0xe2, 0xea, 0xd0, 0xbd,
  0x32, 0x63, 0x64, 0xbe, 0x45, 0x48, 0xf6, 0xbd, 0x92, 0xad, 0x85, 0xbe,
  0xc0, 0x5f, 0xcf, 0xbd, 0x06, 0x8c, 0x85, 0x3e, 0x37, 0x70, 0x79, 0xbe,
  0xb3, 0xaf, 0xcf, 0xbd, 0x3c, 0xf5, 0x74, 0xbe, 0x77, 0x83, 0x02, 0xbe,
  0xc9, 0x38, 0x17, 0x3e, 0x87, 0x14, 0x98, 0xbc, 0x27, 0x06, 0xb2, 0xbd,
  0x83, 0x55, 0x33, 0xbe, 0x2b, 0xc9, 0x48, 0xbe, 0x67, 0xfa, 0xe5, 0x3c,
  0xcb, 0x44, 0xe2, 0x3d, 0xca, 0x87, 0xb9, 0xbd, 0x2a, 0xd7, 0x8a, 0xba,
  0x95, 0x42, 0xe8, 0xbd, 0xf3, 0x75, 0x2c, 0xbe, 0x04, 0xc1, 0x4c, 0xbc,
  0xc2, 0xed, 0xc5, 0xbd, 0xed, 0x07, 0x90, 0xbd, 0x6f, 0x7a, 0x0c, 0x3e,
  0xe4, 0xdb, 0xf8, 0x3d, 0x23, 0xbc, 0x9b, 0xbd, 0xc1, 0x71, 0x77, 0xbe,
  0x03, 0xde, 0x87, 0xbe, 0x33, 0xfb, 0x47, 0xbe, 0x8c, 0x56, 0x2d, 0x3e,
  0x13, 0xd5, 0x8d, 0x3e, 0x65, 0xfe, 0x5c, 0xbe, 0x01, 0x06, 0x03, 0xbe,
  0xd0, 0xc6, 0xb3, 0xbd, 0xcb, 0x49, 0x03, 0xbd, 0xe1, 0xe9, 0xce, 0xbd,
  0x03, 0x23, 0x6e, 0xbe, 0xa8, 0x95, 0x1a, 0xbd, 0x1c, 0x7e, 0x0c, 0x3e,
  0xdd, 0x1e, 0xfc, 0xbd, 0x58, 0x1c, 0x1d, 0x3d, 0x92, 0x4d, 0x2c, 0xbe,
  0xfb, 0xf4, 0x47, 0xbe, 0xf8, 0x1e, 0x08, 0xbe, 0x15, 0x0c, 0xa1, 0xbe,
  0x85, 0x6c, 0x2c, 0xbd, 0x70, 0x94, 0x4f, 0x3e, 0xa8, 0x60, 0xdf, 0xbc,
  0xe5, 0x5c, 0x51, 0x3e, 0xb4, 0x01, 0x41, 0xbe, 0xa3, 0x77, 0x28, 0x3d,
  0x95, 0xcd, 0x0b, 0xbd, 0x38, 0xd4, 0xd1, 0x3e, 0xe7, 0x92, 0x58, 0x3e,
  0x42, 0x9b, 0x8a, 0x3e, 0xb9, 0x20, 0x75, 0xbd, 0x33, 0x6e, 0xb0, 0x3c,
  0x2d, 0x3d, 0xbb, 0x3d, 0xa0, 0xc3, 0x40, 0x3e, 0x8d, 0xce, 0x4f, 0x3e,
  0x64, 0x6c, 0x9a, 0xbd, 0x9a, 0x82, 0x68, 0xbe, 0xb3, 0xc9, 0x00, 0x3e,
  0x68, 0xc0, 0x88, 0x3e, 0xf2, 0xc4, 0x40, 0xbc, 0xe8, 0x45, 0x2b, 0xbe,
  0x8d, 0x78, 0x3a, 0xbe, 0x53, 0xd3, 0x43, 0x3d, 0x1b, 0x98, 0x04, 0xbe,
  0x72, 0xd5, 0x62, 0x3d, 0xcd, 0x2f, 0x73, 0xbe, 0x46, 0x49, 0x5f, 0xbe,
  0xf0, 0xf9, 0x4d, 0xbe, 0x24, 0x80, 0xec, 0x3c, 0xa7, 0x89, 0x47, 0x3e,
  0x69, 0x44, 0x09, 0x3e, 0x52, 0x56, 0xf4, 0xbc, 0xff, 0x25, 0xf8, 0x39,
  0xbd, 0x24, 0x42, 0xbe, 0xf8, 0xc3, 0x47, 0x3e, 0xcd, 0xe8, 0x50, 0xbd,
  0xd4, 0x93, 0x8f, 0xbc, 0x60, 0x54, 0x95, 0xbe, 0xe4, 0xb6, 0x7d, 0xbe,
  0x6b, 0x06, 0x72, 0xbe, 0x67, 0x38, 0xe1, 0xbd, 0xf5, 0x4a, 0x60, 0xbd,
  0x11, 0x4e, 0xa2, 0xbe, 0xd7, 0x7a, 0x1d, 0x3d, 0xc2, 0xb5, 0x67, 0xbe,
  0x2f, 0x62, 0x33, 0x3e, 0xcd, 0xe8, 0x87, 0xbd, 0x5d, 0xe5, 0xe6, 0xbc,
  0x87, 0x87, 0x22, 0x3b, 0x72, 0x02, 0x93, 0xbd, 0x87, 0xb5, 0x19, 0x3d,
  0xed, 0xbc, 0x18, 0x3e, 0x9e, 0xc6, 0x71, 0xbd, 0x8b, 0xd3, 0xce, 0xbb,
  0x07, 0xbe, 0xcd, 0xbd, 0x63, 0x99, 0xbf, 0xbd, 0x42, 0x50, 0x84, 0x3d,
  0x86, 0x6f, 0xc2, 0x3d, 0x59, 0x3c, 0x3e, 0xbd, 0xa9, 0xfd, 0x59, 0xbe,
  0xf3, 0x2e, 0x68, 0xbe, 0x22, 0xe1, 0x5a, 0xbd, 0xfe, 0xe9, 0xf3, 0x3d,
  0xca, 0x91, 0x6e, 0x3d, 0x48, 0xe4, 0xaa, 0xbd, 0x41, 0x0d, 0xe8, 0xbd,
  0x3d, 0xc9, 0xbe, 0x3d, 0x4e, 0x8e, 0x29, 0x3e, 0xc3, 0x8c, 0x11, 0xbe,
  0x0e, 0x1f, 0x38, 0x3d, 0xd0, 0x48, 0x19, 0x3e, 0xdd, 0xd1, 0xb1, 0xbe,
  0xd2, 0x3a, 0xdd, 0x3d, 0x16, 0xb4, 0x0a, 0xbe, 0x19, 0xf6, 0x02, 0xbd,
  0xd6, 0x42, 0x8b, 0xbe, 0x22, 0x7f, 0x60, 0x3c, 0xcd, 0xe1, 0x47, 0xbe,
  0xe4, 0xc1, 0x08, 0x3e, 0xdc, 0x4f, 0x88, 0x3d, 0x7e, 0x04, 0xc1, 0x3d,
  0xc3, 0x83, 0xc6, 0xbc, 0xce, 0x6d, 0x5b, 0xbd, 0x5d, 0x11, 0x02, 0xbe,
  0x4d, 0xd4, 0xa1, 0xbe, 0x09, 0xf9, 0x4e, 0x3e, 0x69, 0x29, 0x6f, 0x3d,
  0xa1, 0xce, 0x5e, 0xbe, 0x3f, 0x61, 0xd3, 0xbd, 0x9e, 0x27, 0xf6, 0xbd,
  0x58, 0xa2, 0x9d, 0xbe, 0x99, 0x67, 0x28, 0x3e, 0x33, 0xc6, 0x17, 0xbe,
  0xc5, 0x21, 0x74, 0xbc, 0x75, 0x87, 0x05, 0xbe, 0xfd, 0x8b, 0x29, 0xbe,
  0x55, 0xe7, 0xc4, 0xbd, 0xdb, 0x84, 0x0f, 0x3e, 0xca, 0xc2, 0xe0, 0xbd,
  0x39, 0x89, 0x39, 0xbe, 0xe1, 0x51, 0x52, 0xbe, 0xc2, 0xbd, 0x0f, 0xbd,
  0x23, 0xb1, 0x57, 0x3e, 0xe7, 0xab, 0x38, 0xbe, 0x98, 0xf3, 0x1b, 0x3e,
  0xad, 0x1c, 0x71, 0x3d, 0x52, 0xc1, 0x06, 0x3d, 0x67, 0x47, 0xa8, 0x3c,
  0xf4, 0x4c, 0x4c, 0x3e, 0xf0, 0xc7, 0x2a, 0x3d, 0xe3, 0xbd, 0x2e, 0xbb,
  0x4d, 0x46, 0x8d, 0xbd, 0x78, 0xa7, 0x22, 0x3d, 0x89, 0xd0, 0x68, 0x3e,
  0xe1, 0x4d, 0x62, 0xbe, 0xc7, 0x20, 0x36, 0xbe, 0x76, 0xc6, 0x18, 0xbe,
  0xde, 0xec, 0x28, 0x3e, 0x5b, 0x8f, 0x0d, 0xbe, 0xd3, 0x10, 0x67, 0xbc,
  0x24, 0x56, 0xf1, 0x3d, 0x25, 0x9b, 0x39, 0x3e, 0x77, 0xc9, 0xf6, 0x3c,
  0x23, 0x79, 0x91, 0xbe, 0x4e, 0xbc, 0x81, 0xbe, 0x84, 0x3b, 0xed, 0x3d,
  0xa8, 0xe6, 0x4e, 0x3d, 0x24, 0x54, 0xab, 0xbc, 0x89, 0x68, 0x44, 0x3c,
  0x74, 0x4a, 0xae, 0x3e, 0xad, 0x17, 0x9a, 0xbe, 0x59, 0x58, 0x93, 0xbe,
  0xca, 0x5a, 0x95, 0xbe, 0x01, 0x63, 0xc7, 0x3d, 0xd3, 0xaa, 0x55, 0x3e,
  0x14, 0xcf, 0x72, 0x3d, 0x90, 0x47, 0x35, 0x3e, 0x09, 0x00, 0x90, 0xbd,
  0x31, 0x51, 0x94, 0xbe, 0x61, 0xf2, 0x8e, 0xbe, 0xf2, 0xff, 0xab, 0xbe,
  0xb2, 0xe8, 0x11, 0x3d, 0xee, 0xdb, 0x5c, 0xbe, 0x50, 0xb1, 0x21, 0x3d,
  0xa9, 0x36, 0x85, 0x3d, 0x0f, 0xfa, 0x57, 0xbe, 0x10, 0x31, 0x47, 0xbe,
  0xbb, 0xdd, 0xad, 0xbe, 0x83, 0x41, 0xd6, 0xba, 0x48, 0xc0, 0x94, 0x3d,
  0x37, 0xe8, 0x53, 0xbe, 0x94, 0xdc, 0x17, 0x3e, 0x9f, 0xdc, 0xb4, 0xbd,
  0x23, 0x0c, 0x2f, 0xbe, 0x1d, 0xc1, 0x02, 0x3d, 0xf3, 0x6c, 0x8b, 0x3d,
  0x3b, 0x4b, 0xd1, 0x3a, 0xe4, 0x82, 0xca, 0x3c, 0x81, 0x87, 0xf6, 0xbd,
  0xa5, 0xc9, 0x0d, 0x3e, 0x94, 0xae, 0x00, 0xbd, 0xe9, 0x42, 0x4b, 0xbc,
  0xdb, 0x7d, 0x13, 0xbe, 0xf6, 0x3f, 0x17, 0xbd, 0x44, 0xc9, 0x73, 0xbe,
  0xe2, 0xae, 0x6d, 0x3e, 0x9e, 0xcc, 0x15, 0x3e, 0xa8, 0xe8, 0xe9, 0x3d,
  0x26, 0x4c, 0xef, 0x3d, 0xbe, 0x36, 0xeb, 0x3d, 0xc8, 0x31, 0x04, 0xbd,
  0x74, 0x2c, 0x23, 0x3d, 0xf4, 0xa0, 0x0b, 0xbe, 0xb4, 0x37, 0xe4, 0xbc,
  0xb2, 0x64, 0x95, 0x3e, 0xa6, 0x06, 0x23, 0xbe, 0xdf, 0xf8, 0xa1, 0x3d,
  0x5e, 0x4e, 0x95, 0x3b, 0xa6, 0x3a, 0x93, 0xbd, 0x2e, 0x15, 0x9f, 0xbd,
  0x18, 0xbe, 0xb9, 0xbd, 0x8a, 0x5a, 0x81, 0xbe, 0xb7, 0xe4, 0x11, 0xbc,
  0x66, 0x7e, 0xca, 0x3d, 0x1a, 0xa4, 0x97, 0xbd, 0x28, 0x26, 0xea, 0x3d,
  0x45, 0x23, 0xad, 0xbd, 0x4c, 0x8d, 0x5d, 0xbc, 0x53, 0xd4, 0x85, 0x3d,
  0x6f, 0xd5, 0x7b, 0x3d, 0xfa, 0xbe, 0x33, 0x3c, 0x83, 0x1f, 0x72, 0xbe,
  0x16, 0x66, 0xd6, 0x3d, 0xb2, 0xb5, 0x2b, 0x3d, 0xc0, 0x36, 0xf9, 0xbd,
  0x08, 0x8a, 0x22, 0xbe, 0xca, 0xed, 0xf4, 0xbd, 0x14, 0xfc, 0x4a, 0x3c,
  0xf4, 0xb8, 0xbe, 0xbd, 0x82, 0x74, 0xae, 0x3d, 0x8b, 0x6f, 0x14, 0x3e,
  0xce, 0xcf, 0xf2, 0x3d, 0xe4, 0xbd, 0x80, 0x3e, 0x23, 0xc7, 0x88, 0xbd,
  0xd4, 0x5f, 0xa9, 0xbe, 0xea, 0xc1, 0x55, 0x3e, 0x0b, 0x9f, 0x88, 0x3d,
  0xd1, 0xf2, 0x21, 0x3e, 0x21, 0x49, 0x6c, 0xbd, 0x22, 0xeb, 0x1c, 0xbe,
  0x1f, 0xc7, 0xf7, 0xbd, 0x09, 0x1d, 0x8f, 0xbd, 0x52, 0x02, 0x85, 0xbe,
  0x9f, 0x03, 0x12, 0x3e, 0xeb, 0x38, 0xca, 0xbd, 0x96, 0xeb, 0xe0, 0x3d,
  0x71, 0x40, 0x12, 0x3c, 0xa5, 0x19, 0x8f, 0x3e, 0x01, 0xcc, 0x88, 0xbe,
  0xc2, 0x7c, 0x7c, 0xbe, 0x8d, 0x2c, 0xe4, 0xbd, 0x65, 0xce, 0xcb, 0xbd,
  0xb7, 0x81, 0x10, 0xbe, 0x3f, 0x0e, 0x3b, 0xbe, 0x1e, 0x1f, 0xed, 0x3a,
  0x25, 0x6a, 0xb2, 0xbd, 0x3a, 0x91, 0x89, 0xbe, 0xc8, 0xf8, 0x55, 0x3c,
  0x83, 0xf8, 0xb6, 0xbd, 0xda, 0x7d, 0xe3, 0x3d, 0x1e, 0xa2, 0x62, 0xbe,
  0xff, 0xf8, 0xbb, 0x3d, 0xd8, 0x27, 0x38, 0xbd, 0xba, 0x5a, 0x76, 0x3d,
  0xa0, 0x74, 0x03, 0xbc, 0x49, 0x36, 0x84, 0xbe, 0xd0, 0xe6, 0xa0, 0xbe,
  0x18, 0xd6, 0xd1, 0xbe, 0x82, 0x92, 0x0c, 0xbe, 0xa7, 0x04, 0xdb, 0x3b,
  0xa5, 0x84, 0x21, 0x3d, 0x30, 0x39, 0x04, 0xbe, 0x0f, 0x5d, 0xbd, 0xbd,
  0x21, 0xc9, 0x72, 0x3d, 0xe9, 0x0f, 0x8f, 0xbe, 0xbb, 0x83, 0xef, 0x3d,
  0x99, 0xcf, 0x9d, 0xbe, 0xf8, 0xc5, 0x26, 0x3e, 0xa1, 0xb2, 0x6e, 0xbe,
  0x2e, 0xaa, 0x7a, 0x3e, 0x61, 0x9e, 0x65, 0xbd, 0xb7, 0x4b, 0xc4, 0xbd,
  0x1c, 0x6a, 0x1d, 0x3d, 0xfa, 0x31, 0xa4, 0xbd, 0x46, 0xa5, 0x23, 0x3e,
  0xfc, 0x69, 0x07, 0x3e, 0xa9, 0xd7, 0xeb, 0x3a, 0xec, 0xc3, 0x5e, 0x3e,
  0xd8, 0x14, 0xe3, 0x3c, 0x01, 0x6e, 0xaf, 0x3c, 0x8d, 0x96, 0x13, 0xbe,
  0x2e, 0xd2, 0x52, 0xbe, 0xd4, 0xc3, 0xeb, 0xbd, 0xda, 0x79, 0x82, 0x3e,
  0xf4, 0xcc, 0xc4, 0xbd, 0x1b, 0xeb, 0x40, 0x3e, 0x3f, 0xbc, 0xe7, 0xbd,
  0x6f, 0x66, 0xe4, 0xbd, 0x57, 0x22, 0x7c, 0xbe, 0x57, 0x69, 0xbd, 0xbe,
  0x02, 0x3c, 0xae, 0x3c, 0xb1, 0xd2, 0x96, 0xbd, 0x8a, 0x76, 0x98, 0xbc,
  0x96, 0xe0, 0x44, 0x3e, 0x4f, 0xdb, 0xee, 0xbc, 0xd4, 0x43, 0x03, 0x3d,
  0x03, 0x3e, 0xa0, 0xbd, 0xe7, 0x79, 0x91, 0xbe, 0xfd, 0x43, 0x32, 0x3d,
  0x9c, 0x52, 0x81, 0xbe, 0x61, 0xb4, 0x23, 0xbe, 0x52, 0x3e, 0xb9, 0x3d,
  0x07, 0x68, 0x91, 0xbe, 0x35, 0xdf, 0x78, 0x3e, 0xbc, 0x43, 0xb1, 0x3d,
  0xa5, 0x0a, 0x1b, 0xbd, 0x84, 0x32, 0x1d, 0xbe, 0x61, 0x4e, 0xc6, 0xbc,
  0x6d, 0x39, 0x0a, 0xbe, 0xe7, 0x54, 0xe4, 0x3d, 0x8f, 0xf3, 0x50, 0xbd,
  0x2a, 0xc3, 0x89, 0x3c, 0x2f, 0x19, 0xe5, 0xbc, 0x47, 0x6b, 0x3e, 0x3d,
  0x6e, 0xe6, 0x91, 0xbe, 0x6b, 0xbe, 0x71, 0x3e, 0x08, 0x5f, 0x08, 0xbe,
  0x7b, 0x8b, 0x51, 0x3e, 0x45, 0x6d, 0x20, 0x3e, 0xd4, 0xb0, 0x6b, 0x3e,
  0x8f, 0x1d, 0xf6, 0x3a, 0xd3, 0xd2, 0xb7, 0xbd, 0x1a, 0x32, 0x11, 0xbe,
  0xa7, 0xc3, 0x84, 0x3e, 0x38, 0x57, 0xa8, 0x3d, 0xfc, 0xf0, 0xaa, 0xbc,
  0x8a, 0x4f, 0xbe, 0x3c, 0x94, 0x69, 0x2d, 0x3e, 0xb6, 0x2a, 0x0e, 0x3d,
  0x1e, 0x2b, 0x1a, 0xbc, 0xbf, 0x79, 0x53, 0x3d, 0x40, 0x51, 0x17, 0x3d,
  0x81, 0xfb, 0x35, 0x3e, 0x37, 0xbf, 0x4e, 0x3e, 0x44, 0xd5, 0x1d, 0xbd,
  0x44, 0x1b, 0xa5, 0xbd, 0x22, 0x34, 0x6f, 0x3d, 0x2a, 0xf2, 0x5d, 0xbe,
  0x32, 0x94, 0xa6, 0x3e, 0x07, 0xf5, 0x83, 0x3e, 0x32, 0xe2, 0x1b, 0x3e,
  0x89, 0xf9, 0x9c, 0xbd, 0x4c, 0x7b, 0x28, 0xbe, 0xef, 0x78, 0xfe, 0xbd,
  0x5b, 0x0f, 0x75, 0xbe, 0xd0, 0x38, 0xa7, 0x3e, 0xde, 0x13, 0x57, 0xbb,
  0x1f, 0x81, 0x4f, 0xbe, 0x74, 0xa7, 0x16, 0xbe, 0xcf, 0x56, 0x63, 0xbe,
  0x2b, 0x6b, 0x7e, 0x3c, 0x48, 0x31, 0xb9, 0x3e, 0xa4, 0x2e, 0x33, 0xbe,
  0xaf, 0x11, 0x7c, 0x3e, 0x78, 0xab, 0x64, 0x3d, 0xba, 0x33, 0xc1, 0xbd,
  0x37, 0xc5, 0xcd, 0x3d, 0x7d, 0xac, 0xb7, 0x3d, 0x23, 0xda, 0x0b, 0xbe,
  0x50, 0x6f, 0x0d, 0x3e, 0x8c, 0xc5, 0x7c, 0xbd, 0x1c, 0x5e, 0x89, 0xbd,
  0x57, 0x89, 0x14, 0xbe, 0xda, 0x32, 0xa4, 0xbd, 0xcc, 0x73, 0x8b, 0xbe,
  0xff, 0x0a, 0x3c, 0xbe, 0xb8, 0x8d, 0x18, 0xbe, 0x55, 0x65, 0x37, 0xbe,
  0x53, 0xe8, 0x8d, 0x3c, 0x50, 0xba, 0x20, 0x3d, 0xcd, 0x99, 0xcc, 0xbc,
  0x02, 0xfa, 0x6b, 0xbe, 0xc2, 0x9e, 0x54, 0x3c, 0x33, 0x93, 0x08, 0xbe,
  0x27, 0x0d, 0xfb, 0x3d, 0x05, 0x6c, 0x97, 0xbd, 0x59, 0xa2, 0x6f, 0xbe,
  0xd8, 0x09, 0x60, 0x3e, 0xf4, 0x4c, 0xb7, 0x3d, 0x30, 0x37, 0x28, 0xbe,
  0xbd, 0x85, 0xba, 0x3d, 0x3f, 0x7b, 0x9a, 0x3a, 0x25, 0x8a, 0xac, 0x3d,
  0x09, 0x74, 0x43, 0x3e, 0xc8, 0xcb, 0x54, 0xbe, 0x66, 0x64, 0x56, 0x3c,
  0xa3, 0x2a, 0xc7, 0x3e, 0xd5, 0x27, 0xa2, 0xbd, 0xc0, 0xa3, 0xd9, 0x3d,
  0x3e, 0x1f, 0xfa, 0x3c, 0x10, 0x84, 0x7a, 0x3d, 0x74, 0x21, 0xa3, 0xbe,
  0x3a, 0x83, 0x17, 0xbe, 0x4f, 0xcf, 0x41, 0x3e, 0x76, 0x29, 0xd6, 0xbe,
  0xf5, 0xbc, 0x9e, 0xbd, 0x0b, 0x47, 0x53, 0xbe, 0x42, 0x7e, 0x98, 0x3d,
  0xd8, 0x93, 0xf5, 0xbe, 0xad, 0x2e, 0x83, 0x3d, 0x87, 0x57, 0xf4, 0x3d,
  0x9f, 0x8b, 0x34, 0x3e, 0x82, 0x3a, 0x46, 0x3d, 0xa6, 0x73, 0x20, 0x3d,
  0x82, 0x85, 0x18, 0x3e, 0x76, 0x16, 0x2f, 0xbd, 0x34, 0xa2, 0x7a, 0x3c,
  0x4b, 0xfe, 0xb3, 0x3d, 0x5b, 0xaa, 0xcd, 0xbd, 0xfa, 0x50, 0x8b, 0x3e,
  0xbf, 0x1e, 0x57, 0x3e, 0x1f, 0xe4, 0x85, 0x3e, 0x05, 0xfc, 0x76, 0x3c,
  0xd8, 0x08, 0x93, 0x3e, 0x73, 0x65, 0x55, 0xbd, 0x0b, 0x53, 0x16, 0xbe,
  0x7f, 0x15, 0xb6, 0xbd, 0x32, 0x11, 0x36, 0xbe, 0xf4, 0x26, 0x74, 0x3e,
  0x97, 0xbe, 0x94, 0x3c, 0x65, 0x50, 0x7c, 0xbd, 0xa5, 0x1b, 0xb7, 0xbd,
  0xaa, 0x3e, 0x8a, 0x3d, 0x17, 0x2e, 0x6d, 0x3e, 0x95, 0x3d, 0xb6, 0xbd,
  0x64, 0x79, 0xed, 0x3d, 0xc5, 0x9f, 0x3d, 0x3e, 0x8f, 0xcd, 0x27, 0xbe,
  0x44, 0xef, 0x18, 0xbe, 0x10, 0x0d, 0x74, 0xbe, 0x65, 0x97, 0x0b, 0xbe,
  0x2d, 0x20, 0xd8, 0xbc, 0x9b, 0x84, 0xd2, 0x3e, 0x40, 0x28, 0x3b, 0xbe,
  0x92, 0xc5, 0x64, 0xbe, 0x9e, 0xc9, 0x1a, 0xbe, 0xb8, 0x8e, 0xf5, 0x3d,
  0xc1, 0xf0, 0x94, 0x3e, 0x5c, 0x1f, 0x70, 0x3c, 0x2b, 0xfa, 0x68, 0x3e,
  0xf6, 0x40, 0xe1, 0x3d, 0x42, 0xca, 0x84, 0xbe, 0x40, 0x04, 0x1f, 0xbd,
  0xd7, 0xf5, 0x2a, 0x3e, 0xd6, 0x8f, 0x7d, 0xbe, 0xb6, 0xa2, 0x14, 0x3e,
  0x4f, 0x8c, 0x80, 0x3d, 0xc7, 0x07, 0x13, 0xbe, 0x9f, 0x78, 0x57, 0x3e,
  0x73, 0x7b, 0x7c, 0x3e, 0x95, 0xfb, 0x68, 0xbd, 0x7d, 0x7e, 0x9d, 0x3d,
  0xc6, 0x8b, 0x57, 0xbe, 0xab, 0x0a, 0xa2, 0x3d, 0x9a, 0x47, 0xc3, 0xbd,
  0x4a, 0x39, 0x0a, 0xbe, 0xa0, 0xda, 0x72, 0x3d, 0x3b, 0x1f, 0x06, 0xbd,
  0x08, 0x19, 0x93, 0x3e, 0xa3, 0xb4, 0x98, 0xbc, 0xd8, 0x55, 0x99, 0xbd,
  0xa0, 0x97, 0x7e, 0x3e, 0xea, 0x30, 0x21, 0x3e, 0x6f, 0x3f, 0xc0, 0x3d,
  0x0e, 0x2a, 0xa7, 0xbd, 0x63, 0x81, 0x83, 0xbd, 0x38, 0xd2, 0xca, 0x3d,
  0x5f, 0x7c, 0xe2, 0x3d, 0x07, 0x62, 0x69, 0xbe, 0xd8, 0xeb, 0x30, 0x3e,
  0xc8, 0xa2, 0x94, 0xbe, 0xae, 0x45, 0x11, 0xbe, 0xc7, 0x3c, 0x46, 0xbe,
  0xf9, 0x27, 0xf7, 0x3d, 0x26, 0xf8, 0xb9, 0x3d, 0xb3, 0x76, 0x9f, 0xbc,
  0x40, 0xb3, 0x27, 0xbe, 0x9e, 0x17, 0x65, 0xbb, 0xae, 0xf8, 0xff, 0xff,
  0x04, 0x00, 0x00, 0x00, 0x28, 0x00, 0x00, 0x00, 0x4f, 0x00, 0xf9, 0x3e,
  0x3c, 0x22, 0x16, 0x3e, 0xae, 0x08, 0x14, 0x3f, 0x7e, 0x1e, 0xee, 0x3e,
  0x93, 0xc4, 0x5b, 0x3e, 0x7c, 0xd9, 0x86, 0x3e, 0x0c, 0xca, 0x68, 0x3e,
  0xe0, 0x09, 0xad, 0x3e, 0xd2, 0x84, 0xd4, 0x3e, 0x42, 0x7c, 0xa3, 0x3e,
  0xe2, 0xf8, 0xff, 0xff, 0x04, 0x00, 0x00, 0x00, 0x28, 0x00, 0x00, 0x00,
  0xc0, 0x29, 0x93, 0x3d, 0x45, 0x43, 0x9c, 0xbd, 0x4b, 0xfa, 0x17, 0xbe,
  0x00, 0x1b, 0x7b, 0x3e, 0x40, 0x93, 0xcc, 0xbc, 0xe6, 0x94, 0x15, 0xbd,
  0xac, 0x97, 0x08, 0xbd, 0x2e, 0x07, 0xc2, 0x3d, 0xaa, 0x4f, 0x5d, 0xbd,
  0x07, 0x43, 0x41, 0x3e, 0x16, 0xf9, 0xff, 0xff, 0x04, 0x00, 0x00, 0x00,
  0x28, 0x00, 0x00, 0x00, 0x35, 0xc3, 0x9b, 0x3f, 0x7a, 0x04, 0x96, 0x3f,
  0xcf, 0x39, 0x96, 0x3f, 0xcf, 0xd5, 0xb9, 0x3f, 0xba, 0x41, 0x8b, 0x3f,
  0x07, 0xa6, 0x8e, 0x3f, 0x6c, 0xf1, 0x83, 0x3f, 0xad, 0xb7, 0xa3, 0x3f,
  0x35, 0x61, 0x95, 0x3f, 0xe2, 0xe8, 0x7e, 0x3f, 0x4a, 0xf9, 0xff, 0xff,
  0x04, 0x00, 0x00, 0x00, 0x28, 0x00, 0x00, 0x00, 0xa4, 0x54, 0xa4, 0x3e,
  0x95, 0xf6, 0x03, 0x3e, 0x1a, 0x2b, 0x82, 0x3e, 0xc2, 0x7b, 0x9f, 0x3e,
  0x98, 0xac, 0x01, 0x3e, 0x06, 0x68, 0x56, 0x3e, 0xb1, 0x4c, 0x40, 0x3e,
  0x9b, 0x85, 0x16, 0x3e, 0x1e, 0xc4, 0x8c, 0x3e, 0x20, 0x18, 0x76, 0x3e,
  0x7e, 0xf9, 0xff, 0xff, 0x04, 0x00, 0x00, 0x00, 0x90, 0x01, 0x00, 0x00,
  0x29, 0x00, 0x7d, 0x3d, 0x22, 0x61, 0xe6, 0xbe, 0x6d, 0xff, 0x83, 0xbe,
  0x88, 0xb1, 0x28, 0x3e, 0x60, 0xf0, 0xd1, 0xbe, 0x07, 0x70, 0x3b, 0xbf,
  0xca, 0x3d, 0x6d, 0x3e, 0x2e, 0x31, 0xb3, 0x3e, 0xe7, 0x06, 0x49, 0x3d,
  0x1f, 0x65, 0x04, 0x3f, 0x80, 0xfb, 0xcc, 0xbe, 0xd1, 0xc0, 0x80, 0x3e,
  0xf1, 0x88, 0xea, 0x3e, 0x80, 0x6d, 0xba, 0xbd, 0xf7, 0xc7, 0xd9, 0x3e,
  0x9e, 0x9d, 0x3f, 0x3e, 0xbd, 0x38, 0x15, 0xbe, 0x84, 0x84, 0x8b, 0xbc,
  0xb0, 0xc4, 0x56, 0xbc, 0x57, 0xc6, 0x53, 0xbd, 0x4c, 0x27, 0x6f, 0x3d,
  0x76, 0xde, 0x26, 0xbd, 0xb3, 0xed, 0x94, 0xbd, 0xdd, 0xed, 0xf1, 0x3e,
  0xfe, 0xb3, 0x91, 0xbe, 0xe0, 0x19, 0xa6, 0xbe, 0x08, 0x27, 0x87, 0x3e,
  0xcf, 0x60, 0x39, 0x3f, 0x64, 0xce, 0x02, 0x3d, 0xdc, 0x1b, 0xfc, 0x3e,
  0x83, 0xe0, 0x06, 0x3d, 0x11, 0xff, 0xbc, 0x3e, 0x80, 0xe9, 0xdf, 0xbe,
  0xbb, 0xf1, 0xe3, 0x3d, 0x1e, 0x9f, 0x8b, 0xbd, 0x4a, 0xa3, 0x6d, 0x3d,
  0x23, 0x3b, 0x65, 0xbe, 0xeb, 0x75, 0x8a, 0x3e, 0x58, 0x11, 0xb9, 0xbc,
  0xac, 0x73, 0x27, 0x3f, 0x8e, 0x77, 0x13, 0xbf, 0xe5, 0xdd, 0x62, 0x3e,
  0x33, 0xef, 0x30, 0x3e, 0xd3, 0xd2, 0x75, 0xbe, 0x4b, 0x00, 0x51, 0xbe,
  0xcf, 0x97, 0x47, 0x3e, 0xdf, 0x11, 0x83, 0xbd, 0x77, 0x37, 0xce, 0x3d,
  0x1e, 0xcb, 0xda, 0xbd, 0x7a, 0x03, 0x34, 0xbe, 0x90, 0x62, 0x2d, 0xbd,
  0x56, 0x06, 0xe8, 0x39, 0x0d, 0xe7, 0xc8, 0x3e, 0xd0, 0xd1, 0xba, 0xbd,
  0x79, 0xc9, 0x07, 0x3e, 0x4f, 0x31, 0xc9, 0x3c, 0x44, 0x41, 0x69, 0xbe,
  0x19, 0xc3, 0x25, 0x3e, 0x90, 0xf4, 0x01, 0x3d, 0xdd, 0xee, 0xa2, 0xbe,
  0x79, 0x10, 0xfb, 0xbe, 0xea, 0x3e, 0x90, 0x3c, 0x8f, 0xe0, 0x9f, 0x3e,
  0xe9, 0xe5, 0xe1, 0xbc, 0x7b, 0x5b, 0xb3, 0x3d, 0x89, 0xd9, 0x7a, 0x3e,
  0x06, 0xfd, 0x06, 0xbe, 0x98, 0xb1, 0xaa, 0x3e, 0xa0, 0xe0, 0xd9, 0x3c,
  0x95, 0x18, 0xd5, 0xbe, 0x65, 0x6b, 0x15, 0x3e, 0x45, 0x91, 0xa7, 0x3e,
  0xf3, 0x26, 0x80, 0xbe, 0x38, 0x9b, 0x99, 0x3e, 0x4c, 0x1b, 0x81, 0x3e,
  0x3c, 0x94, 0xbe, 0x3e, 0x6c, 0x36, 0x8c, 0xbe, 0x53, 0x13, 0xda, 0x3d,
  0x4f, 0x62, 0x56, 0xbe, 0xf5, 0xbd, 0xb4, 0x3e, 0xde, 0xaa, 0x55, 0xbe,
  0x5e, 0x12, 0x8c, 0xbd, 0xdd, 0xa4, 0xf4, 0x3d, 0xe8, 0x76, 0xc0, 0x3d,
  0xdf, 0x1d, 0xf7, 0x3d, 0x69, 0xbb, 0xb1, 0x3d, 0x91, 0xb9, 0x80, 0x3d,
  0x93, 0xfd, 0xca, 0x3e, 0x49, 0x42, 0x56, 0xbe, 0xbc, 0x92, 0x03, 0x3f,
  0x1d, 0x43, 0xf9, 0x3e, 0x23, 0x8d, 0x66, 0x3e, 0x3f, 0xfc, 0x9d, 0xbe,
  0xad, 0x8f, 0x8f, 0x3e, 0x04, 0x57, 0x8a, 0xbe, 0xfa, 0x04, 0x79, 0x3d,
  0xa1, 0x37, 0x6f, 0x3e, 0x89, 0x6a, 0x3f, 0x3f, 0xc7, 0x6a, 0x45, 0xbe,
  0x7d, 0x80, 0xcd, 0x3e, 0x1a, 0xfb, 0xff, 0xff, 0x04, 0x00, 0x00, 0x00,
  0x90, 0x01, 0x00, 0x00, 0x0e, 0xba, 0x2c, 0x3e, 0x99, 0x36, 0x71, 0x3e,
  0x96, 0xaf, 0xe5, 0xbd, 0x63, 0x97, 0x19, 0xbe, 0xbd, 0x1e, 0x87, 0x3e,
  0x75, 0x91, 0xc0, 0x3e, 0x24, 0x3e, 0x38, 0xbe, 0xaa, 0x64, 0xda, 0x3e,
  0x92, 0x41, 0x3c, 0xbf, 0x8b, 0x02, 0x28, 0x3c, 0x25, 0x39, 0x08, 0x3e,
  0x27, 0x65, 0xba, 0x3c, 0x6f, 0xb3, 0x58, 0x3e, 0xaf, 0xcf, 0x05, 0xbf,
  0x6b, 0x4b, 0x5c, 0x3e, 0xf9, 0x6d, 0xad, 0x3e, 0x2a, 0xc3, 0x92, 0xbd,
  0x97, 0x49, 0xad, 0x3d, 0xe8, 0x33, 0xa9, 0xbd, 0x14, 0xae, 0x51, 0xbe,
  0x71, 0x92, 0x93, 0xbe, 0x41, 0x03, 0x9e, 0xbe, 0x4b, 0x4e, 0x56, 0xbc,
  0xbc, 0xf1, 0xab, 0xbe, 0x42, 0xe9, 0x22, 0xbd, 0x17, 0x9a, 0x59, 0xbf,
  0x6a, 0xfd, 0xc6, 0x3d, 0x92, 0xae, 0xbd, 0xbe, 0xce, 0x11, 0x2e, 0x3f,
  0x4b, 0xfa, 0x40, 0xbe, 0xb8, 0x9b, 0x05, 0xbe, 0x9a, 0xe4, 0x50, 0x3d,
  0x2b, 0xb4, 0x15, 0xbe, 0xc2, 0xa8, 0xac, 0x3e, 0x17, 0x1c, 0xf5, 0x3e,
  0xe9, 0x0e, 0x47, 0x3f, 0x45, 0x1e, 0x0f, 0xbf, 0xfd, 0xbb, 0x8b, 0x3e,
  0x58, 0x1d, 0x11, 0xbf, 0x9d, 0x84, 0xa4, 0x3e, 0x53, 0xc8, 0xe5, 0x3d,
  0x7b, 0x23, 0x16, 0xbe, 0x9b, 0x5e, 0x41, 0x3e, 0x2e, 0xab, 0x06, 0xbf,
  0xd6, 0xc1, 0x4e, 0x3d, 0x8d, 0x55, 0xd3, 0x3e, 0xfd, 0x05, 0x85, 0x3c,
  0x51, 0x30, 0x85, 0x3d, 0x98, 0x27, 0xb1, 0xbe, 0xc9, 0x46, 0xad, 0xbe,
  0x3c, 0x10, 0x17, 0x3c, 0x8e, 0x4b, 0x99, 0x3e, 0x7b, 0x4b, 0xb7, 0x3d,
  0x68, 0xca, 0x24, 0xbf, 0xce, 0x37, 0x92, 0x3e, 0x74, 0x3f, 0x37, 0xbc,
  0x36, 0x64, 0xc6, 0x3d, 0xa5, 0x70, 0x9d, 0x3e, 0x91, 0x9f, 0x87, 0xbe,
  0xf9, 0x33, 0x1e, 0xbe, 0x99, 0x40, 0xcd, 0x3c, 0x93, 0x7c, 0xaa, 0xbe,
  0x58, 0x07, 0x78, 0xbe, 0x0d, 0x63, 0xb7, 0xbd, 0x34, 0xa0, 0xa4, 0xbe,
  0x07, 0x2e, 0x1d, 0xbe, 0x60, 0xf7, 0xcb, 0xbd, 0x68, 0xf8, 0x05, 0x3e,
  0x0a, 0x44, 0xc2, 0x3e, 0xed, 0xc4, 0x0b, 0x3b, 0x4a, 0x63, 0x81, 0x3d,
  0xdf, 0xbd, 0x94, 0xbc, 0xc9, 0xbb, 0x93, 0xbe, 0x1f, 0x5b, 0x19, 0x3e,
  0x1c, 0x41, 0xa6, 0x3c, 0xdf, 0x9e, 0x9d, 0x3e, 0x95, 0x5f, 0x64, 0xbe,
  0x8d, 0xed, 0xb1, 0x3e, 0x1f, 0x46, 0x58, 0xbd, 0x72, 0xe5, 0x9f, 0x3d,
  0xb7, 0xb7, 0x22, 0xbe, 0xb4, 0xbf, 0xc2, 0xbe, 0x71, 0x32, 0xa6, 0x3c,
  0x11, 0xd2, 0x6e, 0x3e, 0x05, 0xb1, 0x96, 0xbe, 0x2a, 0xcb, 0xd7, 0xbe,
  0xc7, 0xa3, 0xcd, 0xbd, 0x46, 0x04, 0xb1, 0xbe, 0xae, 0x9b, 0xdc, 0x3d,
  0xcf, 0x37, 0xac, 0x3e, 0x41, 0xfe, 0x38, 0xbc, 0xb2, 0xc8, 0x7b, 0x3e,
  0xb2, 0xb0, 0x74, 0xbd, 0x90, 0x54, 0x85, 0x3e, 0x5a, 0xe0, 0x41, 0x3e,
  0xd0, 0x82, 0x85, 0x3e, 0xdd, 0x5c, 0x61, 0xbe, 0xf3, 0x81, 0x28, 0x3f,
  0x3a, 0x8f, 0x9a, 0xbd, 0x27, 0x02, 0xb4, 0x3e, 0xb6, 0xfc, 0xff, 0xff,
  0x04, 0x00, 0x00, 0x00, 0x90, 0x01, 0x00, 0x00, 0x6a, 0x85, 0x8b, 0xbd,
  0xb0, 0x86, 0xc1, 0xbd, 0x4a, 0x3e, 0x3d, 0xbe, 0x1e, 0xaa, 0x7e, 0xbd,
  0x34, 0x3d, 0x98, 0xbe, 0x88, 0x8b, 0x0d, 0xbe, 0x00, 0x6e, 0x63, 0x3d,
  0x0b, 0x9d, 0xb5, 0x3c, 0x81, 0xf4, 0x75, 0x3e, 0xc0, 0x8f, 0xc3, 0xbd,
  0x9e, 0x2c, 0xac, 0xbc, 0x3e, 0x50, 0x40, 0xbe, 0x40, 0x78, 0xd9, 0xbd,
  0x41, 0xf6, 0xf7, 0xbb, 0x4d, 0x5c, 0x20, 0x3e, 0x3d, 0x9e, 0xbe, 0x3d,
  0x85, 0xb2, 0x88, 0xba, 0xf0, 0xba, 0xad, 0x3e, 0xae, 0xa4, 0x15, 0x3d,
  0x87, 0x24, 0x79, 0x3d, 0xa1, 0xaa, 0xc6, 0x3e, 0x45, 0xfb, 0xab, 0xbd,
  0x39, 0x4d, 0x54, 0xbd, 0x0b, 0xa8, 0xd5, 0x3c, 0x8c, 0x13, 0xcd, 0xbe,
  0x21, 0x64, 0xef, 0xbd, 0xbd, 0xe3, 0x18, 0x3c, 0x7a, 0x38, 0x00, 0x3e,
  0xae, 0xbe, 0x9a, 0x3e, 0xd2, 0x3b, 0x5d, 0x3d, 0xc4, 0x82, 0x1e, 0xbe,
  0x3e, 0x44, 0x1a, 0x3e, 0x4f, 0xda, 0xd2, 0xbd, 0x90, 0x65, 0x9a, 0x3a,
  0xd6, 0x23, 0x31, 0x3d, 0xea, 0xbe, 0x03, 0xbd, 0x15, 0x94, 0xc0, 0x3d,
  0x07, 0x78, 0xa1, 0x3e, 0x1a, 0x7a, 0x5d, 0xbd, 0x76, 0xf2, 0xa9, 0x3e,
  0x3b, 0x5f, 0xca, 0x3c, 0xd8, 0xc3, 0x18, 0xbe, 0x88, 0x1f, 0x0c, 0x3e,
  0x0b, 0x6a, 0x98, 0x3e, 0xfa, 0x3a, 0x49, 0xbe, 0x9e, 0xc2, 0xac, 0xbd,
  0xa1, 0xc6, 0xf6, 0xbd, 0xcb, 0xfd, 0xf1, 0x3d, 0xae, 0x53, 0x93, 0x3e,
  0xd0, 0x99, 0x33, 0x3e, 0x78, 0xb0, 0x9c, 0x3d, 0x0c, 0x03, 0x11, 0xbe,
  0x9c, 0xec, 0x85, 0x3d, 0x7c, 0x90, 0x4b, 0x3e, 0x23, 0x39, 0x77, 0x3e,
  0xce, 0x9a, 0x6c, 0x3d, 0x97, 0x0b, 0x92, 0xbe, 0x2d, 0x6c, 0x51, 0x3e,
  0x8e, 0x5f, 0x4b, 0x3e, 0x08, 0xe9, 0x51, 0x3c, 0x40, 0x49, 0x18, 0x3e,
  0x82, 0x94, 0x4a, 0x3d, 0xcb, 0x19, 0x0a, 0xbd, 0x5b, 0xf7, 0x17, 0xbe,
  0x4c, 0x3d, 0x2e, 0x3d, 0x31, 0xd0, 0x57, 0x3d, 0x2e, 0x59, 0x19, 0xbe,
  0x6f, 0x7f, 0x77, 0xbd, 0xc8, 0x69, 0x9a, 0x3e, 0x82, 0x35, 0x5d, 0x3e,
  0xee, 0xfe, 0x93, 0xbd, 0x12, 0x1b, 0x00, 0x3e, 0xb6, 0xeb, 0x86, 0xbe,
  0x52, 0x46, 0xc5, 0x3e, 0x83, 0x9f, 0x1a, 0x3e, 0x46, 0xdc, 0x29, 0x3e,
  0x42, 0xbd, 0x1f, 0xbe, 0x43, 0x7f, 0xaa, 0x3e, 0x28, 0xf2, 0x24, 0xbd,
  0x29, 0x09, 0x0e, 0xbe, 0x08, 0xff, 0xa1, 0xbe, 0xfc, 0xf7, 0x1f, 0x3c,
  0xb5, 0x0a, 0xd2, 0x3d, 0x31, 0x52, 0xb9, 0x3d, 0xea, 0x6a, 0xe3, 0x3c,
  0xfb, 0x59, 0x18, 0xbd, 0xf9, 0xe3, 0xf1, 0x3d, 0xbb, 0x35, 0x34, 0x3d,
  0xde, 0xbe, 0xd1, 0x3c, 0xed, 0x5e, 0xec, 0x3c, 0x25, 0x37, 0xb5, 0xbe,
  0x6c, 0xc3, 0x43, 0x3e, 0xbc, 0x0c, 0x98, 0xbe, 0x67, 0x61, 0x87, 0x3e,
  0xd9, 0xe3, 0x6d, 0xbe, 0xea, 0xd1, 0xaf, 0xbd, 0x8b, 0x22, 0x25, 0x3e,
  0xda, 0x81, 0x6e, 0x3e, 0xb1, 0x3c, 0xc1, 0xbe, 0x8a, 0xfc, 0x44, 0xbd,
  0x52, 0xfe, 0xff, 0xff, 0x04, 0x00, 0x00, 0x00, 0x90, 0x01, 0x00, 0x00,
  0x22, 0xee, 0x10, 0x3e, 0xef, 0xbd, 0x5f, 0xbd, 0x09, 0x93, 0xa4, 0xbe,
  0x3c, 0x16, 0xbf, 0x3e, 0x49, 0x15, 0x97, 0xbe, 0xdb, 0x10, 0x44, 0xbe,
  0xab, 0xf8, 0x15, 0x3f, 0xa9, 0xaf, 0x51, 0x3e, 0xdd, 0x0a, 0x4b, 0x3e,
  0x0f, 0x1a, 0x47, 0x3e, 0xd6, 0x95, 0x07, 0x3d, 0x28, 0xde, 0x17, 0xbd,
  0xfd, 0x9c, 0x16, 0xbe, 0x25, 0x1b, 0x80, 0xba, 0xcb, 0xb2, 0xfa, 0x3c,
  0x22, 0xea, 0xc7, 0x3d, 0xa3, 0xd1, 0xda, 0x3d, 0xf5, 0xe1, 0x09, 0x3e,
  0x04, 0xc3, 0xb5, 0xb9, 0xff, 0xeb, 0x3e, 0xbe, 0x75, 0xd5, 0x92, 0x3e,
  0x1a, 0x52, 0x19, 0xbe, 0xe3, 0x51, 0x5d, 0x3c, 0x50, 0x62, 0xfc, 0x3e,
  0x7d, 0x9b, 0x30, 0xbe, 0x12, 0xc2, 0x81, 0xbe, 0xa1, 0x60, 0x23, 0xbd,
  0xa2, 0x31, 0xf6, 0x3e, 0x91, 0x9b, 0x39, 0xbe, 0x34, 0x9a, 0xd9, 0x3d,
  0x05, 0xaf, 0x82, 0xbe, 0xe6, 0x06, 0x16, 0x3e, 0xa7, 0xbe, 0x02, 0x3e,
  0x95, 0xac, 0x91, 0xbd, 0x72, 0x69, 0x6e, 0x3c, 0x36, 0xeb, 0x36, 0x3e,
  0x33, 0x8f, 0x8b, 0xbd, 0xe4, 0x27, 0xd0, 0x3e, 0x68, 0x14, 0xd7, 0xbe,
  0xfb, 0x6f, 0xc8, 0xbc, 0xa0, 0x74, 0x85, 0x3e, 0x04, 0x0f, 0xb7, 0x3e,
  0x05, 0x40, 0x0c, 0xbe, 0xe7, 0x22, 0x6a, 0xbd, 0xee, 0xda, 0xaf, 0xbc,
  0x7a, 0x55, 0x9f, 0x3d, 0xb5, 0x9a, 0x82, 0xbe, 0xc3, 0xe9, 0xa4, 0x3e,
  0x4d, 0x56, 0x86, 0xbe, 0x51, 0x71, 0x9e, 0x3d, 0xfc, 0x55, 0x36, 0x3e,
  0x0e, 0x8e, 0x7d, 0x3d, 0x62, 0xd5, 0x46, 0xbe, 0xe8, 0xb5, 0x4d, 0x3e,
  0x2e, 0xae, 0x1c, 0xbe, 0xc9, 0xc4, 0x87, 0x3d, 0x49, 0xf7, 0x02, 0xbd,
  0xad, 0x30, 0x3a, 0xbd, 0xd0, 0x06, 0x10, 0xbd, 0x84, 0x87, 0xdc, 0xbd,
  0x99, 0xc9, 0xc1, 0xbe, 0x4a, 0x6f, 0x42, 0xbd, 0x41, 0x45, 0x2d, 0xbc,
  0x5a, 0x51, 0xea, 0xbc, 0x97, 0xc9, 0xd1, 0xbd, 0x3b, 0xed, 0xf1, 0x3d,
  0x5e, 0x95, 0x83, 0xbe, 0xa2, 0xe0, 0x8f, 0x3e, 0x16, 0x5c, 0x55, 0xbe,
  0x65, 0x39, 0xa5, 0x3d, 0x96, 0x98, 0xf4, 0xbd, 0x06, 0x86, 0xa6, 0xbe,
  0x74, 0xa3, 0x0b, 0x3e, 0x2d, 0xa3, 0xd4, 0xbd, 0x8a, 0x56, 0x9f, 0x3e,
  0x58, 0x85, 0x84, 0xbd, 0x36, 0x24, 0x6c, 0x3e, 0xcb, 0x6d, 0x24, 0x3e,
  0x4d, 0xb3, 0xbd, 0xbd, 0x04, 0x73, 0xf4, 0x3d, 0x78, 0x02, 0x55, 0xbe,
  0xd5, 0xeb, 0x0a, 0x3e, 0x2b, 0x51, 0xd2, 0xbe, 0x98, 0x8f, 0x59, 0x3e,
  0x44, 0xeb, 0x83, 0x3e, 0xe8, 0x31, 0x07, 0x3e, 0x51, 0x82, 0x57, 0x3e,
  0x56, 0x4a, 0x23, 0x3e, 0x18, 0xd5, 0x3c, 0x3e, 0x05, 0xbb, 0xbe, 0xbb,
  0x34, 0x14, 0x23, 0xbd, 0xdd, 0x82, 0x7e, 0x3d, 0x59, 0x2a, 0x59, 0xbe,
  0xa7, 0x24, 0x16, 0x3e, 0x2d, 0x57, 0x1c, 0xbe, 0x2e, 0xc1, 0x10, 0xbe,
  0xa9, 0x35, 0xb8, 0x3c, 0xf0, 0x0f, 0x91, 0x3e, 0x87, 0xe6, 0xa3, 0xbe,
  0xd0, 0x4e, 0x44, 0x3e, 0xee, 0xff, 0xff, 0xff, 0x04, 0x00, 0x00, 0x00,
  0x04, 0x00, 0x00, 0x00, 0xd3, 0xba, 0x34, 0xbe, 0x00, 0x00, 0x06, 0x00,
  0x08, 0x00, 0x04, 0x00, 0x06, 0x00, 0x00, 0x00, 0x04, 0x00, 0x00, 0x00,
  0x28, 0x00, 0x00, 0x00, 0x00, 0x00, 0x00, 0x00, 0x00, 0x00, 0x00, 0x00,
  0x00, 0x00, 0x00, 0x00, 0x00, 0x00, 0x00, 0x00, 0x00, 0x00, 0x00, 0x00,
  0x00, 0x00, 0x00, 0x00, 0x00, 0x00, 0x00, 0x00, 0x00, 0x00, 0x00, 0x00,
  0x00, 0x00, 0x00, 0x00, 0x00, 0x00, 0x00, 0x00, 0x70, 0xf7, 0xff, 0xff,
  0x74, 0xf7, 0xff, 0xff, 0x0f, 0x00, 0x00, 0x00, 0x4d, 0x4c, 0x49, 0x52,
  0x20, 0x43, 0x6f, 0x6e, 0x76, 0x65, 0x72, 0x74, 0x65, 0x64, 0x2e, 0x00,
  0x01, 0x00, 0x00, 0x00, 0x14, 0x00, 0x00, 0x00, 0x00, 0x00, 0x0e, 0x00,
  0x18, 0x00, 0x14, 0x00, 0x10, 0x00, 0x0c, 0x00, 0x08, 0x00, 0x04, 0x00,
  0x0e, 0x00, 0x00, 0x00, 0x14, 0x00, 0x00, 0x00, 0x1c, 0x00, 0x00, 0x00,
  0xa4, 0x01, 0x00, 0x00, 0xa8, 0x01, 0x00, 0x00, 0xac, 0x01, 0x00, 0x00,
  0x04, 0x00, 0x00, 0x00, 0x6d, 0x61, 0x69, 0x6e, 0x00, 0x00, 0x00, 0x00,
  0x04, 0x00, 0x00, 0x00, 0xec, 0x00, 0x00, 0x00, 0x7c, 0x00, 0x00, 0x00,
  0x34, 0x00, 0x00, 0x00, 0x10, 0x00, 0x00, 0x00, 0x00, 0x00, 0x0a, 0x00,
  0x10, 0x00, 0x0c, 0x00, 0x08, 0x00, 0x04, 0x00, 0x0a, 0x00, 0x00, 0x00,
  0x0c, 0x00, 0x00, 0x00, 0x10, 0x00, 0x00, 0x00, 0x03, 0x00, 0x00, 0x00,
  0x01, 0x00, 0x00, 0x00, 0x17, 0x00, 0x00, 0x00, 0x01, 0x00, 0x00, 0x00,
  0x16, 0x00, 0x00, 0x00, 0xca, 0xff, 0xff, 0xff, 0x14, 0x00, 0x00, 0x00,
  0x00, 0x00, 0x00, 0x08, 0x10, 0x00, 0x00, 0x00, 0x14, 0x00, 0x00, 0x00,
  0x02, 0x00, 0x00, 0x00, 0x20, 0xf8, 0xff, 0xff, 0x01, 0x00, 0x00, 0x00,
  0x16, 0x00, 0x00, 0x00, 0x03, 0x00, 0x00, 0x00, 0x15, 0x00, 0x00, 0x00,
  0x0f, 0x00, 0x00, 0x00, 0x02, 0x00, 0x00, 0x00, 0x00, 0x00, 0x0e, 0x00,
  0x1a, 0x00, 0x14, 0x00, 0x10, 0x00, 0x0c, 0x00, 0x0b, 0x00, 0x04, 0x00,
  0x0e, 0x00, 0x00, 0x00, 0x24, 0x00, 0x00, 0x00, 0x00, 0x00, 0x00, 0x20,
  0x2c, 0x00, 0x00, 0x00, 0x30, 0x00, 0x00, 0x00, 0x01, 0x00, 0x00, 0x00,
  0x00, 0x00, 0x0e, 0x00, 0x10, 0x00, 0x0c, 0x00, 0x08, 0x00, 0x00, 0x00,
  0x00, 0x00, 0x04, 0x00, 0x0e, 0x00, 0x00, 0x00, 0x02, 0x00, 0x00, 0x00,
  0x05, 0x00, 0x00, 0x00, 0x05, 0x00, 0x00, 0x00, 0x01, 0x00, 0x00, 0x00,
  0x15, 0x00, 0x00, 0x00, 0x04, 0x00, 0x00, 0x00, 0x14, 0x00, 0x00, 0x00,
  0x10, 0x00, 0x00, 0x00, 0x11, 0x00, 0x00, 0x00, 0x12, 0x00, 0x00, 0x00,
  0x00, 0x00, 0x16, 0x00, 0x18, 0x00, 0x00, 0x00, 0x14, 0x00, 0x10, 0x00,
  0x0f, 0x00, 0x08, 0x00, 0x00, 0x00, 0x00, 0x00, 0x00, 0x00, 0x04, 0x00,
  0x16, 0x00, 0x00, 0x00, 0x14, 0x00, 0x00, 0x00, 0x1c, 0x00, 0x00, 0x00,
  0x00, 0x00, 0x00, 0x47, 0x20, 0x00, 0x00, 0x00, 0x24, 0x00, 0x00, 0x00,
  0x00, 0x00, 0x00, 0x00, 0x08, 0x00, 0x0c, 0x00, 0x0b, 0x00, 0x04, 0x00,
  0x08, 0x00, 0x00, 0x00, 0x00, 0x00, 0x20, 0x41, 0x00, 0x00, 0x00, 0x04,
  0x01, 0x00, 0x00, 0x00, 0x14, 0x00, 0x00, 0x00, 0x18, 0x00, 0x00, 0x00,
  0x00, 0x00, 0x00, 0x00, 0x0b, 0x00, 0x00, 0x00, 0x0c, 0x00, 0x00, 0x00,
  0x0d, 0x00, 0x00, 0x00, 0x0e, 0x00, 0x00, 0x00, 0x03, 0x00, 0x00, 0x00,
  0x04, 0x00, 0x00, 0x00, 0x05, 0x00, 0x00, 0x00, 0x06, 0x00, 0x00, 0x00,
  0xff, 0xff, 0xff, 0xff, 0xff, 0xff, 0xff, 0xff, 0xff, 0xff, 0xff, 0xff,
  0x07, 0x00, 0x00, 0x00, 0x08, 0x00, 0x00, 0x00, 0x09, 0x00, 0x00, 0x00,
  0x0a, 0x00, 0x00, 0x00, 0xff, 0xff, 0xff, 0xff, 0xff, 0xff, 0xff, 0xff,
  0x01, 0x00, 0x00, 0x00, 0x13, 0x00, 0x00, 0x00, 0xff, 0xff, 0xff, 0xff,
  0xff, 0xff, 0xff, 0xff, 0xff, 0xff, 0xff, 0xff, 0xff, 0xff, 0xff, 0xff,
  0x01, 0x00, 0x00, 0x00, 0x17, 0x00, 0x00, 0x00, 0x01, 0x00, 0x00, 0x00,
  0x00, 0x00, 0x00, 0x00, 0x18, 0x00, 0x00, 0x00, 0x80, 0x06, 0x00, 0x00,
  0x24, 0x06, 0x00, 0x00, 0xb8, 0x05, 0x00, 0x00, 0x78, 0x05, 0x00, 0x00,
  0x38, 0x05, 0x00, 0x00, 0xf8, 0x04, 0x00, 0x00, 0xb8, 0x04, 0x00, 0x00,
  0x7c, 0x04, 0x00, 0x00, 0x40, 0x04, 0x00, 0x00, 0x04, 0x04, 0x00, 0x00,
  0xc8, 0x03, 0x00, 0x00, 0x88, 0x03, 0x00, 0x00, 0x48, 0x03, 0x00, 0x00,
  0x04, 0x03, 0x00, 0x00, 0xc0, 0x02, 0x00, 0x00, 0x78, 0x02, 0x00, 0x00,
  0x34, 0x02, 0x00, 0x00, 0xd8, 0x01, 0x00, 0x00, 0x94, 0x01, 0x00, 0x00,
  0x50, 0x01, 0x00, 0x00, 0xf8, 0x00, 0x00, 0x00, 0xb4, 0x00, 0x00, 0x00,
  0x50, 0x00, 0x00, 0x00, 0x04, 0x00, 0x00, 0x00, 0xf6, 0xf9, 0xff, 0xff,
  0x00, 0x00, 0x00, 0x01, 0x10, 0x00, 0x00, 0x00, 0x10, 0x00, 0x00, 0x00,
  0x18, 0x00, 0x00, 0x00, 0x28, 0x00, 0x00, 0x00, 0xe0, 0xf9, 0xff, 0xff,
  0x19, 0x00, 0x00, 0x00, 0x53, 0x74, 0x61, 0x74, 0x65, 0x66, 0x75, 0x6c,
  0x50, 0x61, 0x72, 0x74, 0x69, 0x74, 0x69, 0x6f, 0x6e, 0x65, 0x64, 0x43,
  0x61, 0x6c, 0x6c, 0x3a, 0x30, 0x00, 0x00, 0x00, 0x02, 0x00, 0x00, 0x00,
  0x01, 0x00, 0x00, 0x00, 0x01, 0x00, 0x00, 0x00, 0x3e, 0xfa, 0xff, 0xff,
  0x00, 0x00, 0x00, 0x01, 0x10, 0x00, 0x00, 0x00, 0x10, 0x00, 0x00, 0x00,
  0x17, 0x00, 0x00, 0x00, 0x40, 0x00, 0x00, 0x00, 0x28, 0xfa, 0xff, 0xff,
  0x30, 0x00, 0x00, 0x00, 0x73, 0x65, 0x71, 0x75, 0x65, 0x6e, 0x74, 0x69,
  0x61, 0x6c, 0x2f, 0x64, 0x65, 0x6e, 0x73, 0x65, 0x2f, 0x4d, 0x61, 0x74,
  0x4d, 0x75, 0x6c, 0x3b, 0x73, 0x65, 0x71, 0x75, 0x65, 0x6e, 0x74, 0x69,
  0x61, 0x6c, 0x2f, 0x64, 0x65, 0x6e, 0x73, 0x65, 0x2f, 0x42, 0x69, 0x61,
  0x73, 0x41, 0x64, 0x64, 0x00, 0x00, 0x00, 0x00, 0x02, 0x00, 0x00, 0x00,
  0x01, 0x00, 0x00, 0x00, 0x01, 0x00, 0x00, 0x00, 0x9e, 0xfa, 0xff, 0xff,
  0x00, 0x00, 0x00, 0x01, 0x10, 0x00, 0x00, 0x00, 0x10, 0x00, 0x00, 0x00,
  0x16, 0x00, 0x00, 0x00, 0x20, 0x00, 0x00, 0x00, 0x88, 0xfa, 0xff, 0xff,
  0x11, 0x00, 0x00, 0x00, 0x74, 0x66, 0x6c, 0x2e, 0x73, 0x74, 0x72, 0x69,
  0x64, 0x65, 0x64, 0x5f, 0x73, 0x6c, 0x69, 0x63, 0x65, 0x00, 0x00, 0x00,
  0x02, 0x00, 0x00, 0x00, 0x01, 0x00, 0x00, 0x00, 0x0a, 0x00, 0x00, 0x00,
  0xde, 0xfa, 0xff, 0xff, 0x00, 0x00, 0x00, 0x01, 0x10, 0x00, 0x00, 0x00,
  0x10, 0x00, 0x00, 0x00, 0x15, 0x00, 0x00, 0x00, 0x30, 0x00, 0x00, 0x00,
  0xc8, 0xfa, 0xff, 0xff, 0x20, 0x00, 0x00, 0x00, 0x74, 0x66, 0x6c, 0x2e,
  0x75, 0x6e, 0x69, 0x64, 0x69, 0x72, 0x65, 0x63, 0x74, 0x69, 0x6f, 0x6e,
  0x61, 0x6c, 0x5f, 0x73, 0x65, 0x71, 0x75, 0x65, 0x6e, 0x63, 0x65, 0x5f,
  0x6c, 0x73, 0x74, 0x6d, 0x00, 0x00, 0x00, 0x00, 0x03, 0x00, 0x00, 0x00,
  0x01, 0x00, 0x00, 0x00, 0x14, 0x00, 0x00, 0x00, 0x0a, 0x00, 0x00, 0x00,
  0x8a, 0xfb, 0xff, 0xff, 0x00, 0x00, 0x01, 0x01, 0x0c, 0x00, 0x00, 0x00,
  0x0c, 0x00, 0x00, 0x00, 0x24, 0x00, 0x00, 0x00, 0x18, 0xfb, 0xff, 0xff,
  0x16, 0x00, 0x00, 0x00, 0x73, 0x65, 0x71, 0x75, 0x65, 0x6e, 0x74, 0x69,
  0x61, 0x6c, 0x2f, 0x6c, 0x73, 0x74, 0x6d, 0x2f, 0x7a, 0x65, 0x72, 0x6f,
  0x73, 0x31, 0x00, 0x00, 0x02, 0x00, 0x00, 0x00, 0x01, 0x00, 0x00, 0x00,
  0x0a, 0x00, 0x00, 0x00, 0x7e, 0xff, 0xff, 0xff, 0x00, 0x00, 0x00, 0x01,
  0x14, 0x00, 0x00, 0x00, 0x14, 0x00, 0x00, 0x00, 0x13, 0x00, 0x00, 0x00,
  0x00, 0x00, 0x00, 0x02, 0x20, 0x00, 0x00, 0x00, 0x60, 0xfb, 0xff, 0xff,
  0x10, 0x00, 0x00, 0x00, 0x61, 0x72, 0x69, 0x74, 0x68, 0x2e, 0x63, 0x6f,
  0x6e, 0x73, 0x74, 0x61, 0x6e, 0x74, 0x31, 0x34, 0x00, 0x00, 0x00, 0x00,
  0x01, 0x00, 0x00, 0x00, 0x03, 0x00, 0x00, 0x00, 0xbe, 0xff, 0xff, 0xff,
  0x00, 0x00, 0x00, 0x01, 0x14, 0x00, 0x00, 0x00, 0x14, 0x00, 0x00, 0x00,
  0x12, 0x00, 0x00, 0x00, 0x00, 0x00, 0x00, 0x02, 0x20, 0x00, 0x00, 0x00,
  0xa0, 0xfb, 0xff, 0xff, 0x10, 0x00, 0x00, 0x00, 0x61, 0x72, 0x69, 0x74,
  0x68, 0x2e, 0x63, 0x6f, 0x6e, 0x73, 0x74, 0x61, 0x6e, 0x74, 0x31, 0x33,
  0x00, 0x00, 0x00, 0x00, 0x01, 0x00, 0x00, 0x00, 0x03, 0x00, 0x00, 0x00,
  0x00, 0x00, 0x16, 0x00, 0x1c, 0x00, 0x18, 0x00, 0x17, 0x00, 0x10, 0x00,
  0x0c, 0x00, 0x08, 0x00, 0x00, 0x00, 0x00, 0x00, 0x00, 0x00, 0x07, 0x00,
  0x16, 0x00, 0x00, 0x00, 0x00, 0x00, 0x00, 0x01, 0x14, 0x00, 0x00, 0x00,
  0x14, 0x00, 0x00, 0x00, 0x11, 0x00, 0x00, 0x00, 0x00, 0x00, 0x00, 0x02,
  0x20, 0x00, 0x00, 0x00, 0xf8, 0xfb, 0xff, 0xff, 0x10, 0x00, 0x00, 0x00,
  0x61, 0x72, 0x69, 0x74, 0x68, 0x2e, 0x63, 0x6f, 0x6e, 0x73, 0x74, 0x61,
  0x6e, 0x74, 0x31, 0x32, 0x00, 0x00, 0x00, 0x00, 0x01, 0x00, 0x00, 0x00,
  0x03, 0x00, 0x00, 0x00, 0x4a, 0xfc, 0xff, 0xff, 0x00, 0x00, 0x00, 0x01,
  0x10, 0x00, 0x00, 0x00, 0x10, 0x00, 0x00, 0x00, 0x10, 0x00, 0x00, 0x00,
  0x24, 0x00, 0x00, 0x00, 0x34, 0xfc, 0xff, 0xff, 0x17, 0x00, 0x00, 0x00,
  0x73, 0x65, 0x71, 0x75, 0x65, 0x6e, 0x74, 0x69, 0x61, 0x6c, 0x2f, 0x64,
  0x65, 0x6e, 0x73, 0x65, 0x2f, 0x4d, 0x61, 0x74, 0x4d, 0x75, 0x6c, 0x00,
  0x02, 0x00, 0x00, 0x00, 0x01, 0x00, 0x00, 0x00, 0x0a, 0x00, 0x00, 0x00,
  0x8e, 0xfc, 0xff, 0xff, 0x00, 0x00, 0x00, 0x01, 0x10, 0x00, 0x00, 0x00,
  0x10, 0x00, 0x00, 0x00, 0x0f, 0x00, 0x00, 0x00, 0x20, 0x00, 0x00, 0x00,
  0x78, 0xfc, 0xff, 0xff, 0x10, 0x00, 0x00, 0x00, 0x61, 0x72, 0x69, 0x74,
  0x68, 0x2e, 0x63, 0x6f, 0x6e, 0x73, 0x74, 0x61, 0x6e, 0x74, 0x31, 0x31,
  0x00, 0x00, 0x00, 0x00, 0x02, 0x00, 0x00, 0x00, 0x0a, 0x00, 0x00, 0x00,
  0x40, 0x00, 0x00, 0x00, 0xce, 0xfc, 0xff, 0xff, 0x00, 0x00, 0x00, 0x01,
  0x10, 0x00, 0x00, 0x00, 0x10, 0x00, 0x00, 0x00, 0x0e, 0x00, 0x00, 0x00,
  0x20, 0x00, 0x00, 0x00, 0xb8, 0xfc, 0xff, 0xff, 0x10, 0x00, 0x00, 0x00,
  0x61, 0x72, 0x69, 0x74, 0x68, 0x2e, 0x63, 0x6f, 0x6e, 0x73, 0x74, 0x61,
  0x6e, 0x74, 0x31, 0x30, 0x00, 0x00, 0x00, 0x00, 0x02, 0x00, 0x00, 0x00,
  0x0a, 0x00, 0x00, 0x00, 0x40, 0x00, 0x00, 0x00, 0x0e, 0xfd, 0xff, 0xff,
  0x00, 0x00, 0x00, 0x01, 0x10, 0x00, 0x00, 0x00, 0x10, 0x00, 0x00, 0x00,
  0x0d, 0x00, 0x00, 0x00, 0x1c, 0x00, 0x00, 0x00, 0xf8, 0xfc, 0xff, 0xff,
  0x0f, 0x00, 0x00, 0x00, 0x61, 0x72, 0x69, 0x74, 0x68, 0x2e, 0x63, 0x6f,
  0x6e, 0x73, 0x74, 0x61, 0x6e, 0x74, 0x39, 0x00, 0x02, 0x00, 0x00, 0x00,
  0x0a, 0x00, 0x00, 0x00, 0x40, 0x00, 0x00, 0x00, 0x4a, 0xfd, 0xff, 0xff,
  0x00, 0x00, 0x00, 0x01, 0x10, 0x00, 0x00, 0x00, 0x10, 0x00, 0x00, 0x00,
  0x0c, 0x00, 0x00, 0x00, 0x1c, 0x00, 0x00, 0x00, 0x34, 0xfd, 0xff, 0xff,
  0x0f, 0x00, 0x00, 0x00, 0x61, 0x72, 0x69, 0x74, 0x68, 0x2e, 0x63, 0x6f,
  0x6e, 0x73, 0x74, 0x61, 0x6e, 0x74, 0x38, 0x00, 0x02, 0x00, 0x00, 0x00,
  0x0a, 0x00, 0x00, 0x00, 0x40, 0x00, 0x00, 0x00, 0x86, 0xfd, 0xff, 0xff,
  0x00, 0x00, 0x00, 0x01, 0x10, 0x00, 0x00, 0x00, 0x10, 0x00, 0x00, 0x00,
  0x0b, 0x00, 0x00, 0x00, 0x1c, 0x00, 0x00, 0x00, 0x70, 0xfd, 0xff, 0xff,
  0x0f, 0x00, 0x00, 0x00, 0x61, 0x72, 0x69, 0x74, 0x68, 0x2e, 0x63, 0x6f,
  0x6e, 0x73, 0x74, 0x61, 0x6e, 0x74, 0x37, 0x00, 0x01, 0x00, 0x00, 0x00,
  0x0a, 0x00, 0x00, 0x00, 0xbe, 0xfd, 0xff, 0xff, 0x00, 0x00, 0x00, 0x01,
  0x10, 0x00, 0x00, 0x00, 0x10, 0x00, 0x00, 0x00, 0x0a, 0x00, 0x00, 0x00,
  0x1c, 0x00, 0x00, 0x00, 0xa8, 0xfd, 0xff, 0xff, 0x0f, 0x00, 0x00, 0x00,
  0x61, 0x72, 0x69, 0x74, 0x68, 0x2e, 0x63, 0x6f, 0x6e, 0x73, 0x74, 0x61,
  0x6e, 0x74, 0x36, 0x00, 0x01, 0x00, 0x00, 0x00, 0x0a, 0x00, 0x00, 0x00,
  0xf6, 0xfd, 0xff, 0xff, 0x00, 0x00, 0x00, 0x01, 0x10, 0x00, 0x00, 0x00,
  0x10, 0x00, 0x00, 0x00, 0x09, 0x00, 0x00, 0x00, 0x1c, 0x00, 0x00, 0x00,
  0xe0, 0xfd, 0xff, 0xff, 0x0f, 0x00, 0x00, 0x00, 0x61, 0x72, 0x69, 0x74,
  0x68, 0x2e, 0x63, 0x6f, 0x6e, 0x73, 0x74, 0x61, 0x6e, 0x74, 0x35, 0x00,
  0x01, 0x00, 0x00, 0x00, 0x0a, 0x00, 0x00, 0x00, 0x2e, 0xfe, 0xff, 0xff,
  0x00, 0x00, 0x00, 0x01, 0x10, 0x00, 0x00, 0x00, 0x10, 0x00, 0x00, 0x00,
  0x08, 0x00, 0x00, 0x00, 0x1c, 0x00, 0x00, 0x00, 0x18, 0xfe, 0xff, 0xff,
  0x0f, 0x00, 0x00, 0x00, 0x61, 0x72, 0x69, 0x74, 0x68, 0x2e, 0x63, 0x6f,
  0x6e, 0x73, 0x74, 0x61, 0x6e, 0x74, 0x34, 0x00, 0x01, 0x00, 0x00, 0x00,
  0x0a, 0x00, 0x00, 0x00, 0x66, 0xfe, 0xff, 0xff, 0x00, 0x00, 0x00, 0x01,
  0x10, 0x00, 0x00, 0x00, 0x10, 0x00, 0x00, 0x00, 0x07, 0x00, 0x00, 0x00,
  0x1c, 0x00, 0x00, 0x00, 0x50, 0xfe, 0xff, 0xff, 0x0f, 0x00, 0x00, 0x00,
  0x61, 0x72, 0x69, 0x74, 0x68, 0x2e, 0x63, 0x6f, 0x6e, 0x73, 0x74, 0x61,
  0x6e, 0x74, 0x33, 0x00, 0x02, 0x00, 0x00, 0x00, 0x0a, 0x00, 0x00, 0x00,
  0x0a, 0x00, 0x00, 0x00, 0xa2, 0xfe, 0xff, 0xff, 0x00, 0x00, 0x00, 0x01,
  0x10, 0x00, 0x00, 0x00, 0x10, 0x00, 0x00, 0x00, 0x06, 0x00, 0x00, 0x00,
  0x1c, 0x00, 0x00, 0x00, 0x8c, 0xfe, 0xff, 0xff, 0x0f, 0x00, 0x00, 0x00,
  0x61, 0x72, 0x69, 0x74, 0x68, 0x2e, 0x63, 0x6f, 0x6e, 0x73, 0x74, 0x61,
  0x6e, 0x74, 0x32, 0x00, 0x02, 0x00, 0x00, 0x00, 0x0a, 0x00, 0x00, 0x00,
  0x0a, 0x00, 0x00, 0x00, 0xde, 0xfe, 0xff, 0xff, 0x00, 0x00, 0x00, 0x01,
  0x10, 0x00, 0x00, 0x00, 0x10, 0x00, 0x00, 0x00, 0x05, 0x00, 0x00, 0x00,
  0x1c, 0x00, 0x00, 0x00, 0xc8, 0xfe, 0xff, 0xff, 0x0f, 0x00, 0x00, 0x00,
  0x61, 0x72, 0x69, 0x74, 0x68, 0x2e, 0x63, 0x6f, 0x6e, 0x73, 0x74, 0x61,
  0x6e, 0x74, 0x31, 0x00, 0x02, 0x00, 0x00, 0x00, 0x0a, 0x00, 0x00, 0x00,
  0x0a, 0x00, 0x00, 0x00, 0x1a, 0xff, 0xff, 0xff, 0x00, 0x00, 0x00, 0x01,
  0x10, 0x00, 0x00, 0x00, 0x10, 0x00, 0x00, 0x00, 0x04, 0x00, 0x00, 0x00,
  0x1c, 0x00, 0x00, 0x00, 0x04, 0xff, 0xff, 0xff, 0x0e, 0x00, 0x00, 0x00,
  0x61, 0x72, 0x69, 0x74, 0x68, 0x2e, 0x63, 0x6f, 0x6e, 0x73, 0x74, 0x61,
  0x6e, 0x74, 0x00, 0x00, 0x02, 0x00, 0x00, 0x00, 0x0a, 0x00, 0x00, 0x00,
  0x0a, 0x00, 0x00, 0x00, 0x56, 0xff, 0xff, 0xff, 0x00, 0x00, 0x00, 0x01,
  0x10, 0x00, 0x00, 0x00, 0x10, 0x00, 0x00, 0x00, 0x03, 0x00, 0x00, 0x00,
  0x34, 0x00, 0x00, 0x00, 0x40, 0xff, 0xff, 0xff, 0x27, 0x00, 0x00, 0x00,
  0x73, 0x65, 0x71, 0x75, 0x65, 0x6e, 0x74, 0x69, 0x61, 0x6c, 0x2f, 0x64,
  0x65, 0x6e, 0x73, 0x65, 0x2f, 0x42, 0x69, 0x61, 0x73, 0x41, 0x64, 0x64,
  0x2f, 0x52, 0x65, 0x61, 0x64, 0x56, 0x61, 0x72, 0x69, 0x61, 0x62, 0x6c,
  0x65, 0x4f, 0x70, 0x00, 0x01, 0x00, 0x00, 0x00, 0x01, 0x00, 0x00, 0x00,
  0x00, 0x00, 0x16, 0x00, 0x14, 0x00, 0x10, 0x00, 0x00, 0x00, 0x00, 0x00,
  0x0c, 0x00, 0x08, 0x00, 0x07, 0x00, 0x00, 0x00, 0x00, 0x00, 0x06, 0x00,
  0x16, 0x00, 0x00, 0x00, 0x00, 0x00, 0x01, 0x01, 0x0c, 0x00, 0x00, 0x00,
  0x0c, 0x00, 0x00, 0x00, 0x24, 0x00, 0x00, 0x00, 0xa4, 0xff, 0xff, 0xff,
  0x15, 0x00, 0x00, 0x00, 0x73, 0x65, 0x71, 0x75, 0x65, 0x6e, 0x74, 0x69,
  0x61, 0x6c, 0x2f, 0x6c, 0x73, 0x74, 0x6d, 0x2f, 0x7a, 0x65, 0x72, 0x6f,
  0x73, 0x00, 0x00, 0x00, 0x02, 0x00, 0x00, 0x00, 0x01, 0x00, 0x00, 0x00,
  0x0a, 0x00, 0x00, 0x00, 0x00, 0x00, 0x16, 0x00, 0x18, 0x00, 0x14, 0x00,
  0x00, 0x00, 0x10, 0x00, 0x0c, 0x00, 0x08, 0x00, 0x00, 0x00, 0x00, 0x00,
  0x00, 0x00, 0x07, 0x00, 0x16, 0x00, 0x00, 0x00, 0x00, 0x00, 0x00, 0x01,
  0x14, 0x00, 0x00, 0x00, 0x14, 0x00, 0x00, 0x00, 0x01, 0x00, 0x00, 0x00,
  0x30, 0x00, 0x00, 0x00, 0x04, 0x00, 0x04, 0x00, 0x04, 0x00, 0x00, 0x00,
  0x1c, 0x00, 0x00, 0x00, 0x73, 0x65, 0x72, 0x76, 0x69, 0x6e, 0x67, 0x5f,
  0x64, 0x65, 0x66, 0x61, 0x75, 0x6c, 0x74, 0x5f, 0x6c, 0x73, 0x74, 0x6d,
  0x5f, 0x69, 0x6e, 0x70, 0x75, 0x74, 0x3a, 0x30, 0x00, 0x00, 0x00, 0x00,
  0x03, 0x00, 0x00, 0x00, 0x01, 0x00, 0x00, 0x00, 0x14, 0x00, 0x00, 0x00,
  0x40, 0x00, 0x00, 0x00, 0x04, 0x00, 0x00, 0x00, 0x40, 0x00, 0x00, 0x00,
  0x24, 0x00, 0x00, 0x00, 0x14, 0x00, 0x00, 0x00, 0x04, 0x00, 0x00, 0x00,
  0xdc, 0xff, 0xff, 0xff, 0x0e, 0x00, 0x00, 0x00, 0x00, 0x00, 0x00, 0x0e,
  0xe8, 0xff, 0xff, 0xff, 0x09, 0x00, 0x00, 0x00, 0x00, 0x00, 0x00, 0x09,
  0xf4, 0xff, 0xff, 0xff, 0x2d, 0x00, 0x00, 0x00, 0x00, 0x00, 0x00, 0x2d,
  0x0c, 0x00, 0x0c, 0x00, 0x0b, 0x00, 0x00, 0x00, 0x00, 0x00, 0x04, 0x00,
  0x0c, 0x00, 0x00, 0x00, 0x2c, 0x00, 0x00, 0x00, 0x00, 0x00, 0x00, 0x2c};
unsigned int model_tflite_len = 15240;

unsigned char* get_model_data() {
  return (unsigned char*)g_tof_detector_model_data;
}
