/* Copyright 2019 The TensorFlow Authors. All Rights Reserved.

Licensed under the Apache License, Version 2.0 (the "License");
you may not use this file except in compliance with the License.
You may obtain a copy of the License at

    http://www.apache.org/licenses/LICENSE-2.0

Unless required by applicable law or agreed to in writing, software
distributed under the License is distributed on an "AS IS" BASIS,
WITHOUT WARRANTIES OR CONDITIONS OF ANY KIND, either express or implied.
See the License for the specific language governing permissions and
limitations under the License.
==============================================================================*/

// Automatically created from a TensorFlow Lite flatbuffer using the command:
// xxd -i magic_wand_model.tflite > magic_wand_model_data.cc
// See the README for a full description of the creation process.

// We need to keep the data array aligned on some architectures.
#ifdef __has_attribute
#define HAVE_ATTRIBUTE(x) __has_attribute(x)
#else
#define HAVE_ATTRIBUTE(x) 0
#endif
#if HAVE_ATTRIBUTE(aligned) || (defined(__GNUC__) && !defined(__clang__))
#define DATA_ALIGN_ATTRIBUTE __attribute__((aligned(4)))
#else
#define DATA_ALIGN_ATTRIBUTE
#endif

const unsigned char g_tof_detector_model_data[] DATA_ALIGN_ATTRIBUTE = {
  0x1c, 0x00, 0x00, 0x00, 0x54, 0x46, 0x4c, 0x33, 0x14, 0x00, 0x20, 0x00,
  0x1c, 0x00, 0x18, 0x00, 0x14, 0x00, 0x10, 0x00, 0x0c, 0x00, 0x00, 0x00,
  0x08, 0x00, 0x04, 0x00, 0x14, 0x00, 0x00, 0x00, 0x1c, 0x00, 0x00, 0x00,
  0x84, 0x00, 0x00, 0x00, 0xdc, 0x00, 0x00, 0x00, 0x48, 0x32, 0x00, 0x00,
  0x58, 0x32, 0x00, 0x00, 0x04, 0x3b, 0x00, 0x00, 0x03, 0x00, 0x00, 0x00,
  0x01, 0x00, 0x00, 0x00, 0x04, 0x00, 0x00, 0x00, 0x6a, 0xcd, 0xff, 0xff,
  0x0c, 0x00, 0x00, 0x00, 0x1c, 0x00, 0x00, 0x00, 0x38, 0x00, 0x00, 0x00,
  0x0f, 0x00, 0x00, 0x00, 0x73, 0x65, 0x72, 0x76, 0x69, 0x6e, 0x67, 0x5f,
  0x64, 0x65, 0x66, 0x61, 0x75, 0x6c, 0x74, 0x00, 0x01, 0x00, 0x00, 0x00,
  0x04, 0x00, 0x00, 0x00, 0x98, 0xff, 0xff, 0xff, 0x17, 0x00, 0x00, 0x00,
  0x04, 0x00, 0x00, 0x00, 0x05, 0x00, 0x00, 0x00, 0x64, 0x65, 0x6e, 0x73,
  0x65, 0x00, 0x00, 0x00, 0x01, 0x00, 0x00, 0x00, 0x04, 0x00, 0x00, 0x00,
  0x5e, 0xce, 0xff, 0xff, 0x04, 0x00, 0x00, 0x00, 0x0a, 0x00, 0x00, 0x00,
  0x6c, 0x73, 0x74, 0x6d, 0x5f, 0x69, 0x6e, 0x70, 0x75, 0x74, 0x00, 0x00,
  0x02, 0x00, 0x00, 0x00, 0x34, 0x00, 0x00, 0x00, 0x04, 0x00, 0x00, 0x00,
  0xdc, 0xff, 0xff, 0xff, 0x1a, 0x00, 0x00, 0x00, 0x04, 0x00, 0x00, 0x00,
  0x13, 0x00, 0x00, 0x00, 0x43, 0x4f, 0x4e, 0x56, 0x45, 0x52, 0x53, 0x49,
  0x4f, 0x4e, 0x5f, 0x4d, 0x45, 0x54, 0x41, 0x44, 0x41, 0x54, 0x41, 0x00,
  0x08, 0x00, 0x0c, 0x00, 0x08, 0x00, 0x04, 0x00, 0x08, 0x00, 0x00, 0x00,
  0x19, 0x00, 0x00, 0x00, 0x04, 0x00, 0x00, 0x00, 0x13, 0x00, 0x00, 0x00,
  0x6d, 0x69, 0x6e, 0x5f, 0x72, 0x75, 0x6e, 0x74, 0x69, 0x6d, 0x65, 0x5f,
  0x76, 0x65, 0x72, 0x73, 0x69, 0x6f, 0x6e, 0x00, 0x1b, 0x00, 0x00, 0x00,
  0x68, 0x31, 0x00, 0x00, 0x60, 0x31, 0x00, 0x00, 0x28, 0x31, 0x00, 0x00,
  0x0c, 0x31, 0x00, 0x00, 0x6c, 0x2f, 0x00, 0x00, 0xcc, 0x2d, 0x00, 0x00,
  0x2c, 0x2c, 0x00, 0x00, 0x8c, 0x2a, 0x00, 0x00, 0x54, 0x2a, 0x00, 0x00,
  0x1c, 0x2a, 0x00, 0x00, 0xe4, 0x29, 0x00, 0x00, 0xac, 0x29, 0x00, 0x00,
  0x9c, 0x1f, 0x00, 0x00, 0x8c, 0x15, 0x00, 0x00, 0x7c, 0x0b, 0x00, 0x00,
  0x6c, 0x01, 0x00, 0x00, 0x34, 0x01, 0x00, 0x00, 0x18, 0x01, 0x00, 0x00,
  0xfc, 0x00, 0x00, 0x00, 0xe0, 0x00, 0x00, 0x00, 0xa8, 0x00, 0x00, 0x00,
  0xa0, 0x00, 0x00, 0x00, 0x98, 0x00, 0x00, 0x00, 0x90, 0x00, 0x00, 0x00,
  0x88, 0x00, 0x00, 0x00, 0x68, 0x00, 0x00, 0x00, 0x04, 0x00, 0x00, 0x00,
  0x42, 0xcf, 0xff, 0xff, 0x04, 0x00, 0x00, 0x00, 0x54, 0x00, 0x00, 0x00,
  0x0c, 0x00, 0x00, 0x00, 0x08, 0x00, 0x0e, 0x00, 0x08, 0x00, 0x04, 0x00,
  0x08, 0x00, 0x00, 0x00, 0x10, 0x00, 0x00, 0x00, 0x24, 0x00, 0x00, 0x00,
  0x00, 0x00, 0x06, 0x00, 0x08, 0x00, 0x04, 0x00, 0x06, 0x00, 0x00, 0x00,
  0x04, 0x00, 0x00, 0x00, 0x00, 0x00, 0x00, 0x00, 0x00, 0x00, 0x0a, 0x00,
  0x10, 0x00, 0x0c, 0x00, 0x08, 0x00, 0x04, 0x00, 0x0a, 0x00, 0x00, 0x00,
  0x02, 0x00, 0x00, 0x00, 0x02, 0x00, 0x00, 0x00, 0x04, 0x00, 0x00, 0x00,
  0x06, 0x00, 0x00, 0x00, 0x32, 0x2e, 0x31, 0x35, 0x2e, 0x30, 0x00, 0x00,
  0xa2, 0xcf, 0xff, 0xff, 0x04, 0x00, 0x00, 0x00, 0x10, 0x00, 0x00, 0x00,
  0x31, 0x2e, 0x31, 0x34, 0x2e, 0x30, 0x00, 0x00, 0x00, 0x00, 0x00, 0x00,
  0x00, 0x00, 0x00, 0x00, 0xf4, 0xc6, 0xff, 0xff, 0xf8, 0xc6, 0xff, 0xff,
  0xfc, 0xc6, 0xff, 0xff, 0x00, 0xc7, 0xff, 0xff, 0xce, 0xcf, 0xff, 0xff,
  0x04, 0x00, 0x00, 0x00, 0x28, 0x00, 0x00, 0x00, 0x00, 0x00, 0x00, 0x00,
  0x00, 0x00, 0x00, 0x00, 0x00, 0x00, 0x00, 0x00, 0x00, 0x00, 0x00, 0x00,
  0x00, 0x00, 0x00, 0x00, 0x00, 0x00, 0x00, 0x00, 0x00, 0x00, 0x00, 0x00,
  0x00, 0x00, 0x00, 0x00, 0x00, 0x00, 0x00, 0x00, 0x00, 0x00, 0x00, 0x00,
  0x02, 0xd0, 0xff, 0xff, 0x04, 0x00, 0x00, 0x00, 0x0c, 0x00, 0x00, 0x00,
  0x01, 0x00, 0x00, 0x00, 0x01, 0x00, 0x00, 0x00, 0x01, 0x00, 0x00, 0x00,
  0x1a, 0xd0, 0xff, 0xff, 0x04, 0x00, 0x00, 0x00, 0x0c, 0x00, 0x00, 0x00,
  0x00, 0x00, 0x00, 0x00, 0x00, 0x00, 0x00, 0x00, 0x00, 0x00, 0x00, 0x00,
  0x32, 0xd0, 0xff, 0xff, 0x04, 0x00, 0x00, 0x00, 0x0c, 0x00, 0x00, 0x00,
  0x00, 0x00, 0x00, 0x00, 0xff, 0xff, 0xff, 0xff, 0x00, 0x00, 0x00, 0x00,
  0x4a, 0xd0, 0xff, 0xff, 0x04, 0x00, 0x00, 0x00, 0x28, 0x00, 0x00, 0x00,
  0x81, 0x16, 0x88, 0x3f, 0xba, 0xbd, 0x54, 0x3f, 0x8a, 0x10, 0x02, 0x3f,
  0xa6, 0xbd, 0x81, 0x3f, 0x95, 0x72, 0x79, 0xbf, 0xaa, 0x79, 0x8e, 0x3f,
  0xcf, 0xdc, 0x00, 0x3f, 0x1c, 0x6e, 0x7f, 0x3f, 0xe2, 0xed, 0x0c, 0x3f,
  0xbf, 0x01, 0x5a, 0x3f, 0x7e, 0xd0, 0xff, 0xff, 0x04, 0x00, 0x00, 0x00,
  0x00, 0x0a, 0x00, 0x00, 0xa4, 0xf8, 0x11, 0xbd, 0x3e, 0xa7, 0x3c, 0xbe,
  0x13, 0xbe, 0x1b, 0xbe, 0x31, 0xc0, 0x58, 0xbc, 0x7a, 0x1d, 0x07, 0x3e,
  0x9b, 0xbd, 0x48, 0xbd, 0x2a, 0x5e, 0xe7, 0x3c, 0x17, 0xd7, 0x93, 0xbc,
  0x7a, 0x65, 0x85, 0xbd, 0x10, 0x6b, 0xa7, 0x3d, 0xae, 0xa7, 0x01, 0x3e,
  0x8c, 0x42, 0xae, 0xbd, 0x3a, 0xd9, 0xea, 0x3a, 0x2e, 0x14, 0xc6, 0xbd,
  0x98, 0x46, 0x39, 0x3e, 0xfe, 0x2d, 0xa9, 0xbd, 0x80, 0xa6, 0x3f, 0x3e,
  0xe4, 0xa2, 0x6a, 0x3e, 0x40, 0x9a, 0x37, 0x3e, 0x16, 0xb8, 0x93, 0x3d,
  0x8f, 0x52, 0x30, 0x3e, 0xa5, 0xf9, 0xe0, 0x3d, 0x08, 0xb9, 0x86, 0xbd,
  0x80, 0xb0, 0x11, 0xbb, 0x9a, 0x6e, 0x30, 0x3e, 0xce, 0xad, 0x89, 0x3d,
  0xe9, 0x96, 0x71, 0x3e, 0x9a, 0x09, 0x7b, 0xbe, 0x55, 0x00, 0x6e, 0x3e,
  0xec, 0xe4, 0xa2, 0x3d, 0x9e, 0x16, 0x35, 0xbd, 0x65, 0x04, 0x89, 0x3d,
  0x0b, 0xb0, 0x90, 0xbd, 0xf6, 0xd7, 0x49, 0xbd, 0xdd, 0x58, 0x9a, 0x3d,
  0xfc, 0xe5, 0x75, 0x3d, 0x99, 0x11, 0x9b, 0x3b, 0xa8, 0x03, 0xa7, 0xbc,
  0xdb, 0x27, 0x2f, 0xbc, 0xfe, 0xa3, 0x89, 0x3d, 0xc7, 0xf0, 0x02, 0xbe,
  0x9b, 0x45, 0xd6, 0xbc, 0x79, 0x48, 0x2b, 0x3e, 0xbe, 0x73, 0xf1, 0xbb,
  0x87, 0x43, 0x55, 0x3e, 0x25, 0x11, 0x3c, 0xbd, 0xb6, 0x23, 0x81, 0xbd,
  0x4c, 0xe1, 0xb1, 0xbd, 0xf3, 0xe5, 0x8b, 0x3d, 0x74, 0x6d, 0xf9, 0xbc,
  0x9a, 0x40, 0x9a, 0x3d, 0xf6, 0xa0, 0x56, 0x3e, 0x82, 0x09, 0x1e, 0x3e,
  0x5f, 0xc0, 0x3a, 0xbe, 0x23, 0x89, 0x95, 0xbc, 0xef, 0x49, 0xaf, 0x3d,
  0xa5, 0xaa, 0x5a, 0x3e, 0x3f, 0x9c, 0x12, 0xbc, 0x1b, 0xe4, 0xb7, 0x3c,
  0x8a, 0xfc, 0x29, 0xbd, 0xb8, 0x96, 0xf1, 0xbc, 0x1b, 0xb7, 0x17, 0x3e,
  0x5c, 0x8d, 0xe3, 0x3d, 0x7c, 0xd2, 0x2e, 0xbd, 0x84, 0x89, 0xe2, 0xbd,
  0xd2, 0x78, 0x0d, 0xbe, 0x0e, 0x86, 0x4c, 0xbe, 0x29, 0x04, 0x6a, 0x3e,
  0x63, 0xc4, 0xa3, 0x3d, 0x51, 0x03, 0x12, 0xbc, 0xe0, 0x17, 0x90, 0x3d,
  0x9c, 0xf9, 0x31, 0xbc, 0x22, 0x4b, 0xd5, 0xbd, 0xcc, 0x47, 0xd8, 0x3b,
  0x59, 0x6d, 0xb1, 0x3b, 0x35, 0xeb, 0xf4, 0x3c, 0xfb, 0xa8, 0x7e, 0x3e,
  0x83, 0xb0, 0xd7, 0xbc, 0xae, 0xe0, 0x70, 0xbb, 0x93, 0x66, 0x4f, 0x3e,
  0x4c, 0xc2, 0xc6, 0xbd, 0x38, 0xef, 0xd1, 0x3d, 0x2d, 0xc5, 0xbb, 0x3b,
  0x72, 0xae, 0x51, 0x3e, 0x08, 0x1b, 0xa6, 0x3d, 0x33, 0x2e, 0x07, 0x3e,
  0x76, 0x6a, 0x59, 0x3d, 0xbd, 0x8c, 0x3e, 0x3e, 0x45, 0xaa, 0x7a, 0x3e,
  0x65, 0xc7, 0x90, 0x3e, 0xce, 0x3c, 0x2e, 0xbd, 0x97, 0x87, 0x5c, 0x3d,
  0x5f, 0x29, 0x5e, 0x3c, 0x11, 0xbe, 0x24, 0x3e, 0x73, 0xa1, 0xcc, 0x3d,
  0x2a, 0x4d, 0x14, 0xbd, 0xe7, 0x77, 0x35, 0xbb, 0xb5, 0x60, 0x50, 0x3e,
  0x5a, 0x90, 0x08, 0x3e, 0x98, 0x82, 0x25, 0x3e, 0x94, 0xf4, 0x6d, 0x3c,
  0x45, 0x06, 0x08, 0xbe, 0x8e, 0x98, 0xe7, 0x3d, 0x8d, 0xbe, 0x0f, 0xbe,
  0x4f, 0xfe, 0xca, 0x3c, 0xf3, 0x3f, 0xcf, 0x3d, 0xc5, 0x25, 0x7d, 0x3c,
  0x2c, 0x0a, 0x45, 0x3e, 0x1a, 0xab, 0x28, 0xbe, 0xa9, 0x75, 0x7d, 0x3e,
  0xe5, 0x81, 0xf2, 0xbd, 0x66, 0xeb, 0x7a, 0x3e, 0x46, 0xef, 0x01, 0xbc,
  0x96, 0xfb, 0xe4, 0x3d, 0xe1, 0x16, 0x0f, 0x3e, 0xe5, 0x93, 0xc7, 0x3d,
  0x82, 0xa4, 0x0a, 0xbe, 0x8e, 0x93, 0x96, 0x3d, 0xf2, 0xe9, 0x5b, 0x3d,
  0xed, 0x95, 0x76, 0x3c, 0x4c, 0xb2, 0xc6, 0xbc, 0x69, 0x7b, 0x34, 0x3e,
  0xb7, 0x8f, 0x8f, 0x39, 0xee, 0xe4, 0x6e, 0x3e, 0x3c, 0x78, 0xbb, 0xbd,
  0xd4, 0xc6, 0x5f, 0xbe, 0x78, 0x69, 0x4a, 0xbd, 0x47, 0x8c, 0xc6, 0x3d,
  0x58, 0x5a, 0xc7, 0x3e, 0x53, 0xce, 0x84, 0x3d, 0xfa, 0x31, 0x92, 0x3c,
  0x82, 0x79, 0x05, 0xbe, 0xdb, 0x9b, 0x88, 0xbc, 0x8f, 0x15, 0x16, 0xbe,
  0x6c, 0xd4, 0xb5, 0xbe, 0x2b, 0x4f, 0x1b, 0x3d, 0x4f, 0x39, 0xca, 0x3e,
  0xb1, 0xff, 0x05, 0xbc, 0x37, 0xd3, 0xaa, 0xbc, 0xf4, 0xca, 0x83, 0x3d,
  0x06, 0xa8, 0x04, 0x3e, 0x15, 0x39, 0xee, 0x3d, 0x9f, 0xc7, 0x07, 0xbe,
  0xdb, 0x59, 0x72, 0x3e, 0x0a, 0x86, 0xc7, 0x3d, 0x29, 0xa9, 0x9f, 0xbc,
  0x66, 0x84, 0xa9, 0x3d, 0x6a, 0xab, 0x46, 0xbe, 0xee, 0x2e, 0x4f, 0x3e,
  0x5a, 0x52, 0xe1, 0xbd, 0xee, 0xa5, 0x70, 0xbd, 0xe4, 0xe8, 0xb3, 0xbd,
  0x7f, 0x29, 0x04, 0xbd, 0x6e, 0x18, 0x34, 0xbd, 0xd3, 0x3d, 0x4a, 0x3e,
  0x0e, 0x7a, 0x27, 0xbe, 0x61, 0x2f, 0x24, 0x3e, 0x44, 0x1b, 0x43, 0xbe,
  0xf3, 0x21, 0x17, 0xbe, 0xdc, 0x74, 0x0f, 0x3e, 0xba, 0xd3, 0x66, 0x3e,
  0xc7, 0x53, 0xf6, 0x3d, 0x85, 0xe7, 0x55, 0xbe, 0xed, 0x29, 0x56, 0x3d,
  0x6c, 0xa2, 0x2b, 0x3c, 0xba, 0xfa, 0x06, 0x3e, 0x37, 0x12, 0x69, 0x3d,
  0x0b, 0x07, 0x90, 0xbd, 0x25, 0x4b, 0x9b, 0xbc, 0x68, 0x3d, 0x34, 0xbb,
  0x77, 0x8d, 0x09, 0xbe, 0x0a, 0xd8, 0xc9, 0xbd, 0x22, 0x86, 0xf0, 0xbd,
  0xa7, 0x9c, 0x80, 0x3e, 0xbe, 0x10, 0xbd, 0xbd, 0x22, 0xa3, 0xee, 0x3d,
  0x8d, 0x8f, 0xae, 0xbd, 0x08, 0xb7, 0x11, 0x3e, 0x7f, 0xe4, 0x23, 0xbe,
  0x6d, 0x30, 0x13, 0xbe, 0xdc, 0x81, 0x5c, 0xbe, 0x14, 0xa2, 0x84, 0xbd,
  0x0d, 0x86, 0x45, 0x3e, 0x91, 0xaf, 0xf5, 0x3d, 0x72, 0x9d, 0x12, 0x3e,
  0xca, 0xb2, 0xa8, 0xbb, 0xcc, 0xc6, 0x7f, 0x3c, 0x4e, 0x00, 0xbb, 0xbd,
  0x39, 0x4b, 0x92, 0x3d, 0x6c, 0xd7, 0x61, 0x3e, 0x39, 0x76, 0xc4, 0xbd,
  0x14, 0xbe, 0xab, 0x3e, 0x64, 0xe2, 0xaa, 0xbd, 0xd6, 0x34, 0xee, 0x3d,
  0xfe, 0x01, 0x50, 0x3e, 0xc4, 0x55, 0x87, 0x3e, 0xdc, 0x7f, 0x77, 0x3e,
  0x20, 0x40, 0x40, 0xbc, 0x07, 0x02, 0x8a, 0x3c, 0xfc, 0x56, 0x4b, 0x3e,
  0x4a, 0x7c, 0x20, 0x3e, 0xc2, 0x4d, 0x8c, 0xbb, 0x4d, 0x05, 0x0c, 0xbd,
  0x94, 0x40, 0x54, 0x3d, 0x48, 0xee, 0xc6, 0xbd, 0x4e, 0xff, 0x0b, 0xbe,
  0x1f, 0x60, 0x8f, 0xbc, 0xbc, 0x60, 0x03, 0x3d, 0x53, 0x2e, 0xe8, 0xbd,
  0xd1, 0x58, 0xa0, 0xbd, 0xd1, 0x2b, 0x88, 0xbd, 0xf1, 0xe2, 0x00, 0x3e,
  0x1c, 0xe6, 0xe3, 0x3d, 0x83, 0x0e, 0x33, 0x3e, 0x19, 0x78, 0xc3, 0x3d,
  0xa9, 0x3d, 0xa5, 0xbe, 0x20, 0x77, 0xee, 0x3d, 0x39, 0x6e, 0x0b, 0x3e,
  0xd9, 0xdf, 0xc7, 0x3d, 0x9c, 0x98, 0xe0, 0x3c, 0x82, 0x56, 0x2d, 0x3e,
  0x08, 0x25, 0xbc, 0xbd, 0x9a, 0x0d, 0x93, 0xbe, 0xac, 0xf1, 0x97, 0xbe,
  0xde, 0xe4, 0x65, 0x3e, 0x5d, 0xe4, 0x6b, 0xbc, 0x11, 0xb7, 0x4d, 0x3e,
  0xed, 0xbb, 0xef, 0xbc, 0xa7, 0x14, 0x43, 0xbd, 0x3f, 0x49, 0xaa, 0xbe,
  0xac, 0x97, 0xd1, 0xbe, 0x19, 0x4d, 0x93, 0xbe, 0x42, 0x9a, 0x4d, 0x3d,
  0x62, 0x3f, 0xb0, 0x3b, 0xfd, 0x90, 0x23, 0x3c, 0x0a, 0xe0, 0xfc, 0xbc,
  0xa2, 0xa1, 0x4d, 0xbe, 0xec, 0x14, 0x3f, 0xbd, 0x65, 0x28, 0x00, 0x3d,
  0x56, 0xbc, 0x7f, 0xbe, 0x39, 0x0f, 0x98, 0x3d, 0x15, 0x2e, 0x64, 0x3e,
  0x27, 0x15, 0x57, 0xbe, 0xd3, 0x3a, 0xc4, 0x3d, 0x5a, 0xe8, 0xa2, 0x3d,
  0x6e, 0xe7, 0x5d, 0x3d, 0xf0, 0x0d, 0x2f, 0x3c, 0x37, 0xaa, 0x6c, 0xbe,
  0x72, 0x80, 0x5e, 0xbe, 0xeb, 0xa0, 0xe9, 0x3b, 0x40, 0xef, 0xf4, 0xbc,
  0x98, 0x8e, 0xab, 0xbd, 0xcb, 0x75, 0xd5, 0x3d, 0xa5, 0x07, 0x68, 0xbd,
  0xac, 0xe3, 0xe9, 0xbd, 0x11, 0x75, 0xfd, 0xbd, 0x8f, 0xe4, 0x83, 0xbe,
  0x24, 0x4f, 0x47, 0xbb, 0x78, 0xce, 0xbc, 0xbd, 0xa9, 0x0e, 0x00, 0x3e,
  0x7c, 0x4f, 0x13, 0xbe, 0x33, 0xdc, 0x00, 0xbc, 0x0c, 0xeb, 0x3f, 0xbe,
  0xbd, 0xcc, 0x2a, 0xbe, 0xd0, 0xf7, 0xc2, 0xba, 0xa3, 0x3c, 0x8e, 0xbe,
  0xa4, 0x1f, 0x87, 0xbe, 0x53, 0x5f, 0x50, 0xbe, 0x8f, 0xdb, 0x60, 0x3d,
  0x96, 0x02, 0xb0, 0xbe, 0x56, 0x2a, 0x39, 0xbe, 0x0d, 0xb6, 0x8a, 0xbc,
  0xe2, 0xa2, 0x6a, 0x3d, 0x61, 0x84, 0x07, 0xbe, 0xc5, 0x95, 0x08, 0xbe,
  0xb3, 0x01, 0x09, 0xbe, 0xa4, 0x45, 0x7f, 0xbe, 0x01, 0xe1, 0xbb, 0xbe,
  0xc1, 0x68, 0x41, 0xbd, 0xe8, 0xb5, 0xa4, 0xbe, 0x9a, 0x7f, 0x31, 0xbe,
  0xe5, 0x8d, 0x7f, 0xbe, 0xdc, 0x2f, 0x61, 0xbe, 0xc3, 0xa3, 0xc2, 0xbc,
  0x8d, 0xf5, 0x32, 0xbd, 0xfc, 0xfc, 0x9e, 0x3d, 0x91, 0x65, 0x0f, 0xbe,
  0xbb, 0x1d, 0x58, 0x3d, 0x29, 0x4f, 0xd8, 0xbc, 0x40, 0xbf, 0x84, 0xbe,
  0x6b, 0x7a, 0x5d, 0xbe, 0x72, 0xf8, 0x47, 0x3c, 0x9c, 0x9d, 0x48, 0xbe,
  0x66, 0x04, 0x87, 0xbe, 0x01, 0xf1, 0xb3, 0x3d, 0x93, 0x8f, 0x04, 0xbe,
  0xcf, 0x2f, 0x7f, 0xbe, 0x80, 0xd0, 0x41, 0xbe, 0x8b, 0x60, 0x0f, 0xbe,
  0xbc, 0x14, 0x37, 0xbe, 0x51, 0x2b, 0x9e, 0xbe, 0x06, 0x35, 0x6a, 0x3d,
  0x3a, 0x43, 0x1f, 0xbe, 0xaa, 0x3f, 0x7f, 0xbe, 0xc7, 0x52, 0x30, 0x3d,
  0x57, 0x5f, 0xca, 0xbe, 0xa6, 0x4f, 0xaa, 0xbe, 0x9e, 0x61, 0xc6, 0xbe,
  0x0b, 0x84, 0xa7, 0xbe, 0xdb, 0x11, 0x6b, 0xbe, 0xb7, 0x96, 0x6f, 0xbe,
  0xc0, 0xed, 0x32, 0xbe, 0x2f, 0xbb, 0xbc, 0xbd, 0x98, 0x83, 0x80, 0x3d,
  0x3d, 0xaa, 0x58, 0xbe, 0xf5, 0x09, 0x4a, 0xbe, 0x70, 0xe4, 0x7c, 0xbd,
  0x37, 0xf6, 0x42, 0x3e, 0x60, 0xc2, 0xbe, 0x3c, 0x24, 0xa7, 0xaf, 0xbd,
  0xd3, 0x2a, 0x3b, 0xbd, 0x4b, 0x64, 0x1b, 0xbc, 0xc9, 0x60, 0x88, 0xbe,
  0x50, 0x02, 0xb5, 0xbd, 0x92, 0x1a, 0xb2, 0x3c, 0x37, 0x87, 0x20, 0xbe,
  0x10, 0x4b, 0x87, 0x3d, 0x43, 0x75, 0x4b, 0x3d, 0x3b, 0x2c, 0x94, 0xbd,
  0xaa, 0x8a, 0xde, 0xbd, 0x76, 0x84, 0x2b, 0xbe, 0x85, 0x64, 0x88, 0xbe,
  0xd9, 0xc4, 0xb5, 0xbe, 0xa4, 0x3d, 0x7a, 0x3d, 0x54, 0xd3, 0x97, 0x3d,
  0x73, 0x5a, 0x15, 0xbe, 0x42, 0xb2, 0x90, 0xbe, 0x76, 0x56, 0x0c, 0xbe,
  0xee, 0xe2, 0x85, 0x3b, 0x23, 0x00, 0xdb, 0xbd, 0x31, 0xc3, 0xc2, 0xbe,
  0x5d, 0x6a, 0x2a, 0x3b, 0x5e, 0x6d, 0x38, 0xbd, 0x71, 0xa6, 0x70, 0xbe,
  0x2c, 0xff, 0x97, 0xbc, 0xd7, 0x35, 0x38, 0xbe, 0x5f, 0xa3, 0xe4, 0xbb,
  0x3d, 0x76, 0xb8, 0xbe, 0x02, 0xea, 0xd7, 0xbe, 0xf7, 0x74, 0xee, 0xbc,
  0x65, 0xce, 0xb7, 0x3d, 0xee, 0x15, 0x6d, 0x38, 0xd6, 0x16, 0xba, 0x3c,
  0xaa, 0xb5, 0xf6, 0xbd, 0x41, 0x5c, 0xdf, 0xbe, 0x91, 0x85, 0xa4, 0xbe,
  0xdb, 0xb0, 0xfa, 0xbd, 0x98, 0xc0, 0xd9, 0xbe, 0xa2, 0xb0, 0xfd, 0xbd,
  0x04, 0x6a, 0x66, 0x3d, 0xdb, 0x72, 0x0a, 0xbd, 0x70, 0xf3, 0xab, 0xbe,
  0x74, 0xfe, 0x80, 0xbe, 0xf9, 0xce, 0xa3, 0xbe, 0x1a, 0x91, 0xe2, 0xbc,
  0x71, 0x5f, 0x21, 0xbe, 0xaf, 0x56, 0x9b, 0x3d, 0xf5, 0x8c, 0xda, 0x3d,
  0x08, 0xfc, 0xa2, 0xbe, 0xfd, 0xd1, 0xec, 0xbe, 0x50, 0x8a, 0xc3, 0xbe,
  0x14, 0xcb, 0xca, 0xbe, 0x6a, 0x21, 0x9b, 0xbe, 0x0e, 0xa7, 0xaf, 0xbd,
  0x31, 0x5c, 0x08, 0x3d, 0x90, 0x65, 0x6f, 0x3d, 0xff, 0x4d, 0x6c, 0xbe,
  0xbe, 0x85, 0x07, 0xba, 0xd7, 0x50, 0x57, 0xbe, 0x73, 0xb9, 0x93, 0xbe,
  0x55, 0x48, 0x4f, 0xbc, 0xb6, 0x85, 0x89, 0xbe, 0x20, 0x2c, 0x3b, 0xbd,
  0x88, 0xa1, 0xc2, 0xbd, 0x01, 0x3d, 0xae, 0xbd, 0xe8, 0xa0, 0x1f, 0x3e,
  0x44, 0xba, 0x25, 0xbd, 0x02, 0x97, 0xf1, 0xbd, 0x55, 0x5f, 0x9d, 0x3e,
  0x63, 0x08, 0xce, 0x3d, 0x57, 0x68, 0x14, 0xbe, 0xba, 0xbb, 0xac, 0x3e,
  0x06, 0x80, 0x00, 0x3e, 0x6f, 0x54, 0xc4, 0x3d, 0x50, 0x4e, 0x24, 0xbd,
  0xc8, 0xd3, 0xfc, 0xba, 0xf5, 0x21, 0x9d, 0xbd, 0x7c, 0x89, 0x12, 0xbe,
  0x3f, 0xff, 0xec, 0x3d, 0x14, 0x83, 0x3f, 0xbd, 0xeb, 0x98, 0x94, 0xbc,
  0x02, 0xf7, 0x35, 0x3d, 0xf6, 0x0a, 0x8a, 0x3d, 0xae, 0x02, 0x02, 0xbe,
  0x38, 0x08, 0x69, 0xbd, 0xf2, 0x1c, 0xee, 0x3d, 0x14, 0xbe, 0x0b, 0x3e,
  0xe4, 0x13, 0x5b, 0xbe, 0x34, 0x33, 0xb2, 0xbe, 0xa1, 0xef, 0xb2, 0xbe,
  0x56, 0x2e, 0x1f, 0xbe, 0xd8, 0xf0, 0x49, 0xbd, 0xe4, 0x57, 0x57, 0xbd,
  0xc6, 0x92, 0x8e, 0xbd, 0xba, 0x6c, 0xc2, 0xbd, 0xf2, 0xe0, 0x4b, 0x3e,
  0x56, 0xc6, 0xbd, 0xbe, 0x82, 0x2f, 0xb4, 0xbe, 0xfa, 0xfb, 0x93, 0xbe,
  0x7f, 0x2b, 0x07, 0xbd, 0xf4, 0xba, 0x82, 0xbd, 0x3b, 0x0e, 0x47, 0xbc,
  0xe9, 0x97, 0xbb, 0xbd, 0x4e, 0x05, 0x39, 0x3e, 0x1c, 0x10, 0x87, 0xbe,
  0xf3, 0xe5, 0xde, 0xbd, 0x86, 0x1f, 0x37, 0xbe, 0x02, 0x67, 0x54, 0xbe,
  0x23, 0x02, 0x0d, 0xbd, 0x40, 0x4d, 0x92, 0x3e, 0x5d, 0x0a, 0xb8, 0x3d,
  0x25, 0x4c, 0x8e, 0x3e, 0x98, 0xc2, 0x50, 0x3c, 0x06, 0xa1, 0x33, 0x3c,
  0x86, 0x2c, 0x97, 0x3d, 0x40, 0x65, 0x84, 0xbd, 0x46, 0x48, 0x1e, 0x3d,
  0x39, 0x2f, 0x35, 0x3e, 0x19, 0x8f, 0x98, 0x3d, 0xd9, 0xdd, 0x23, 0xbe,
  0xc0, 0xe9, 0x32, 0x3e, 0x26, 0xd4, 0x73, 0x3e, 0xbd, 0x04, 0x9b, 0xbc,
  0x86, 0x6a, 0xcd, 0x3b, 0xa2, 0xfa, 0x54, 0x3e, 0xad, 0x65, 0x13, 0x3e,
  0x15, 0x03, 0x18, 0x3e, 0xac, 0x1c, 0x39, 0x3e, 0xe1, 0x08, 0x67, 0x3e,
  0x5c, 0xe2, 0x97, 0xbd, 0x8e, 0x1c, 0x28, 0x3e, 0x82, 0xb7, 0x85, 0x3d,
  0x13, 0xae, 0x97, 0x3e, 0x84, 0xf1, 0x98, 0x3e, 0xa4, 0x7f, 0x71, 0x3e,
  0x67, 0xf2, 0x9c, 0x3e, 0x69, 0xff, 0x32, 0xbc, 0x92, 0xbe, 0x3c, 0x3d,
  0x94, 0x17, 0xd7, 0x3c, 0xed, 0xdc, 0x53, 0x3e, 0x2a, 0xca, 0xc3, 0x3d,
  0x46, 0x38, 0x40, 0xbd, 0xb2, 0x0a, 0x14, 0x3e, 0x8e, 0x09, 0x79, 0x3e,
  0xa2, 0xe7, 0x13, 0x3e, 0xe7, 0x53, 0x6a, 0x3e, 0x55, 0x91, 0xa7, 0x3d,
  0x3d, 0x1d, 0x2c, 0x3d, 0x49, 0x4d, 0xbd, 0xbd, 0x3e, 0x1f, 0xee, 0xbd,
  0x82, 0xd8, 0x1b, 0xbd, 0x9b, 0x49, 0x2b, 0x3e, 0x6a, 0xfd, 0x11, 0x3e,
  0x19, 0x66, 0x19, 0x3e, 0x60, 0xac, 0xec, 0xbc, 0xe8, 0x1b, 0x81, 0x3d,
  0x48, 0xac, 0xc4, 0xbc, 0x58, 0xb7, 0x28, 0x3e, 0xd5, 0xe0, 0xde, 0xbd,
  0x8a, 0x69, 0x3a, 0xbd, 0xb0, 0xca, 0x3c, 0xbd, 0x6e, 0x94, 0x99, 0x3d,
  0x91, 0x32, 0x1f, 0x3e, 0xf1, 0xde, 0xff, 0xbd, 0x06, 0x47, 0xfd, 0xbd,
  0x3c, 0x78, 0x05, 0x3e, 0xff, 0x7e, 0x99, 0x3d, 0xd6, 0x84, 0x6f, 0xbc,
  0xe0, 0xcf, 0x3f, 0x3d, 0xf9, 0xa3, 0x18, 0x3e, 0xab, 0xc6, 0xff, 0xbb,
  0x4c, 0xb0, 0x32, 0x3e, 0x41, 0x6f, 0x3d, 0x3e, 0x09, 0x20, 0xbf, 0xbb,
  0xc7, 0x56, 0x59, 0xbc, 0x30, 0x1f, 0xb2, 0x3d, 0xa6, 0xb3, 0x23, 0x3e,
  0x9c, 0xf0, 0x8b, 0x3e, 0x2b, 0xde, 0xd3, 0x3d, 0xda, 0xa2, 0x9f, 0xbd,
  0x43, 0x97, 0xc2, 0xbd, 0xba, 0x44, 0x38, 0x3e, 0x49, 0x5e, 0x78, 0xbe,
  0xfe, 0x67, 0xda, 0xbd, 0x4b, 0x84, 0x17, 0x3e, 0x1e, 0xac, 0x2d, 0xbe,
  0xf5, 0xc0, 0xaf, 0xbc, 0x7b, 0xb4, 0x70, 0xbe, 0x21, 0x52, 0x13, 0xbe,
  0xa3, 0xb2, 0xba, 0xbd, 0xa5, 0xf2, 0x3d, 0x3e, 0x17, 0x27, 0x80, 0x3d,
  0xe4, 0x2e, 0x08, 0xbe, 0xd4, 0x7d, 0x9a, 0xbd, 0xd5, 0x36, 0x37, 0xbc,
  0x0f, 0x98, 0xe0, 0x3d, 0x85, 0xbc, 0xa2, 0x3d, 0xad, 0x44, 0xd4, 0xbd,
  0x9c, 0x8d, 0x7c, 0xbe, 0x2d, 0xef, 0x57, 0xbd, 0xdb, 0xdc, 0x04, 0xbd,
  0x1b, 0x12, 0xf6, 0xbd, 0x80, 0x9f, 0x83, 0xbe, 0xdd, 0x6b, 0xb4, 0x3d,
  0x29, 0xa9, 0x0f, 0xbe, 0xbb, 0x65, 0x8b, 0xbe, 0x45, 0xb4, 0xa7, 0x3c,
  0xc7, 0x66, 0x03, 0xbd, 0xee, 0xfd, 0x6a, 0xbe, 0x06, 0x93, 0xd2, 0xbe,
  0x26, 0xab, 0x38, 0xbe, 0x6b, 0x29, 0x8c, 0xbe, 0x3f, 0xe7, 0xba, 0x3c,
  0x9a, 0x9c, 0x34, 0xbe, 0x0d, 0x07, 0x15, 0xbe, 0x33, 0x70, 0x7d, 0xbe,
  0x3a, 0xf4, 0xa3, 0xbe, 0x2c, 0x3a, 0x6d, 0xbd, 0x90, 0xd7, 0xc5, 0xbe,
  0x2c, 0xa2, 0x6e, 0xbd, 0x84, 0xb3, 0x7c, 0xbe, 0xea, 0x46, 0x9c, 0xbe,
  0xe1, 0xd9, 0x69, 0xbe, 0x8a, 0x68, 0x43, 0x3c, 0x2a, 0x0d, 0x0c, 0xbe,
  0xf7, 0xae, 0x95, 0xbe, 0xcc, 0x6b, 0x2d, 0xba, 0x81, 0x03, 0x99, 0xbe,
  0x7a, 0x94, 0x06, 0xbe, 0xfb, 0x2d, 0xca, 0xbe, 0x14, 0xb3, 0xa3, 0xbe,
  0x6b, 0x4b, 0x1a, 0xbe, 0xda, 0x90, 0xe7, 0xbc, 0x93, 0x7b, 0x43, 0xbe,
  0xd6, 0xf3, 0x61, 0xbd, 0xe9, 0xaf, 0xf7, 0xbd, 0xc0, 0x00, 0x71, 0xbd,
  0x34, 0xd2, 0x04, 0x3c, 0x41, 0x69, 0x8c, 0xbe, 0x9d, 0xc6, 0x2f, 0xbe,
  0x43, 0x8f, 0x1c, 0xbd, 0xd8, 0x2b, 0x36, 0xbe, 0x9c, 0xcb, 0x8e, 0xbe,
  0xf0, 0x3d, 0xd0, 0xbd, 0x8e, 0x5d, 0xd3, 0xbe, 0xf8, 0xfe, 0x82, 0xbe,
  0x7b, 0x96, 0x86, 0x3d, 0xe4, 0x9b, 0x07, 0xbd, 0xdd, 0xe5, 0xc8, 0xbe,
  0x87, 0x42, 0x23, 0xbd, 0x04, 0x34, 0x36, 0xbe, 0xae, 0x0f, 0xaa, 0xbe,
  0xe1, 0xdc, 0x83, 0xbd, 0x61, 0xe7, 0xdb, 0x3d, 0xcb, 0x54, 0x27, 0x3d,
  0x2e, 0xed, 0x8d, 0xbe, 0xc5, 0x18, 0x0c, 0xbd, 0x2f, 0x76, 0x55, 0x3c,
  0x7f, 0x8c, 0x90, 0xbe, 0x38, 0x0f, 0xc8, 0xbd, 0x1c, 0x16, 0x7b, 0xbe,
  0x81, 0x4d, 0xe2, 0xbd, 0xfc, 0x23, 0x0a, 0x3e, 0xd6, 0x34, 0x95, 0x3d,
  0x95, 0xc8, 0x1e, 0xbe, 0x3f, 0x43, 0x1a, 0xbe, 0xdf, 0x86, 0xc2, 0xbe,
  0x35, 0x22, 0x2d, 0xbe, 0xd7, 0x9b, 0xc7, 0x3c, 0x97, 0x87, 0xa7, 0xbe,
  0x0b, 0xd4, 0x8e, 0xbe, 0x3a, 0x9a, 0xfa, 0xbd, 0x5b, 0x71, 0x25, 0xbe,
  0xfb, 0x33, 0x01, 0xbd, 0xb9, 0xaa, 0x40, 0xbd, 0xc2, 0xa4, 0x82, 0xbe,
  0xb9, 0xd7, 0xb8, 0xbd, 0x3c, 0x4f, 0xca, 0xbc, 0xd0, 0x90, 0x0a, 0xbe,
  0xd6, 0x95, 0x78, 0xbe, 0x33, 0xa1, 0x87, 0xbb, 0x83, 0x3b, 0xbf, 0xbe,
  0x03, 0x38, 0x51, 0xbd, 0x43, 0x34, 0xc1, 0xbd, 0x5c, 0xe3, 0x9a, 0xbe,
  0x5b, 0xe0, 0x53, 0xbe, 0x8c, 0x66, 0xab, 0xbd, 0x5b, 0x42, 0xff, 0xbd,
  0x64, 0x32, 0xfb, 0xbd, 0xcc, 0x65, 0xad, 0xbe, 0x39, 0x4f, 0xb8, 0xbe,
  0xb0, 0x0b, 0xd1, 0xbe, 0xba, 0x7b, 0xd5, 0xbe, 0x25, 0x12, 0x81, 0xbe,
  0xc3, 0x10, 0x7b, 0x3d, 0xf1, 0xc7, 0xbb, 0x3c, 0x69, 0xe8, 0x5a, 0xbd,
  0xff, 0x0a, 0xd2, 0xbc, 0x29, 0x4c, 0xe5, 0xbe, 0x2b, 0xfd, 0xb8, 0xbe,
  0x3f, 0xfe, 0xae, 0xbd, 0x62, 0x67, 0x5d, 0xbd, 0xea, 0x04, 0x75, 0xbe,
  0x59, 0x88, 0x73, 0xbe, 0x46, 0xd4, 0x10, 0xbe, 0x46, 0x13, 0x87, 0xbe,
  0x0c, 0xee, 0xae, 0xbc, 0x34, 0xda, 0xae, 0xbe, 0x51, 0x3f, 0x08, 0xbe,
  0xca, 0xc9, 0x5c, 0xbe, 0x0f, 0x57, 0x27, 0xbe, 0xf1, 0x73, 0x65, 0xbd,
  0x58, 0x88, 0x00, 0xbd, 0x47, 0x31, 0x7e, 0xbe, 0x45, 0xe9, 0xba, 0xbe,
  0x41, 0x8c, 0xaf, 0x3b, 0xb6, 0xdf, 0xc1, 0xbd, 0xbd, 0xf6, 0xb1, 0x3c,
  0x16, 0xae, 0x21, 0xbe, 0x1d, 0x77, 0x8d, 0xbe, 0x8a, 0xda, 0xff, 0xff,
  0x04, 0x00, 0x00, 0x00, 0x00, 0x0a, 0x00, 0x00, 0xf6, 0x64, 0x9c, 0xbd,
  0x61, 0xdb, 0x3b, 0xbe, 0x49, 0x4e, 0x08, 0x3e, 0x2c, 0xbb, 0x77, 0x3d,
  0xf7, 0x99, 0x56, 0x3e, 0xf6, 0xcc, 0xae, 0x3e, 0x3f, 0xd7, 0x95, 0x3b,
  0xe8, 0x31, 0x0c, 0xbe, 0x18, 0xdd, 0xf8, 0xbc, 0x18, 0xf2, 0x31, 0xbe,
  0x47, 0x4c, 0x2d, 0xbe, 0x83, 0x92, 0xcd, 0x3d, 0xb8, 0xed, 0x2e, 0x3d,
  0xa8, 0xcd, 0x23, 0x3e, 0x00, 0x42, 0x1f, 0xbe, 0x2c, 0x1a, 0x3a, 0x3d,
  0xd4, 0x05, 0x8d, 0xbe, 0xa1, 0x2c, 0xa6, 0xbd, 0x06, 0x7a, 0xfb, 0x3d,
  0x61, 0x29, 0xf1, 0x3d, 0x90, 0xcc, 0x05, 0xbe, 0x87, 0xb8, 0x2f, 0x3e,
  0xdf, 0x76, 0x53, 0xbd, 0xf3, 0x77, 0x18, 0xbe, 0x9d, 0x6c, 0xa4, 0xbd,
  0xf7, 0x4e, 0xd5, 0x3d, 0xbd, 0x07, 0x15, 0xbd, 0x40, 0xb1, 0xb0, 0xbd,
  0x11, 0x10, 0xc5, 0xbd, 0x9b, 0x9a, 0x38, 0x3c, 0x5f, 0x7c, 0xfd, 0x3d,
  0x8e, 0x57, 0x2b, 0x3e, 0x85, 0x7a, 0x3a, 0xbc, 0x39, 0xc0, 0xaf, 0xbe,
  0xf4, 0xa5, 0x03, 0x3e, 0x7b, 0x9f, 0x17, 0x3d, 0x37, 0x32, 0x86, 0x3e,
  0xb5, 0x8e, 0x24, 0x3e, 0x84, 0xb5, 0x7b, 0x3d, 0xd3, 0x30, 0xeb, 0x3c,
  0x78, 0x24, 0xac, 0x3d, 0x13, 0x90, 0xef, 0xbd, 0x7c, 0xac, 0x3f, 0xbe,
  0x3e, 0x5f, 0x31, 0xbd, 0x6b, 0x63, 0xe1, 0x3d, 0x3b, 0x10, 0x2c, 0x3e,
  0xe8, 0x9c, 0xd2, 0x3d, 0x7b, 0x67, 0x9b, 0xbd, 0x63, 0xd7, 0x19, 0xbc,
  0xc2, 0x88, 0xee, 0xbd, 0x3b, 0x6d, 0xc1, 0xbd, 0x56, 0x1a, 0x51, 0xbe,
  0xf6, 0x74, 0x69, 0xbd, 0x6d, 0xb1, 0xfe, 0xbd, 0xdc, 0x14, 0x9e, 0xbd,
  0x1f, 0x86, 0x7f, 0xbe, 0x9a, 0x15, 0x0a, 0xbd, 0xda, 0x58, 0x50, 0x3d,
  0xf2, 0xbe, 0x47, 0xbe, 0x1a, 0x4b, 0x29, 0xbe, 0x2d, 0x7e, 0x9b, 0x3d,
  0x5f, 0xfb, 0xc1, 0x3d, 0x3c, 0xc7, 0x1c, 0xbe, 0xb9, 0x78, 0xd0, 0xbd,
  0xdb, 0xfa, 0x8e, 0x3d, 0xcf, 0x5d, 0x17, 0xbe, 0x1a, 0x97, 0xc2, 0x3d,
  0xf0, 0x93, 0x44, 0xbc, 0x05, 0xf9, 0xd7, 0x3c, 0xfd, 0xd3, 0x89, 0xbd,
  0x67, 0x52, 0x8c, 0xbd, 0x9f, 0xdf, 0x01, 0x3d, 0xc3, 0xc2, 0x45, 0x3d,
  0xae, 0x6b, 0xe8, 0xbc, 0x94, 0xa5, 0x15, 0x3d, 0xef, 0x79, 0x65, 0x3d,
  0x74, 0x2e, 0x09, 0x3e, 0x2d, 0x60, 0x8d, 0x3e, 0x16, 0x89, 0x57, 0xbe,
  0xc1, 0x45, 0x27, 0xbe, 0xca, 0x39, 0x19, 0x3e, 0x1a, 0xfa, 0x75, 0x3e,
  0x38, 0x89, 0x24, 0xbe, 0xcd, 0x2f, 0x55, 0x3d, 0x0e, 0xab, 0x51, 0x3d,
  0xe4, 0x86, 0xe5, 0xbd, 0xd5, 0x2b, 0x9f, 0xbd, 0xdd, 0x82, 0x40, 0x3c,
  0xcd, 0x3e, 0xcd, 0x3d, 0xdb, 0x59, 0xc8, 0xbd, 0x80, 0x90, 0x17, 0xbe,
  0x9d, 0x09, 0x63, 0x3e, 0x19, 0x1b, 0x34, 0x3e, 0xa8, 0xaf, 0x5f, 0x3e,
  0xfd, 0xdc, 0x53, 0x3e, 0xd6, 0x14, 0x05, 0xbd, 0x7c, 0x28, 0x75, 0x3b,
  0x64, 0xba, 0xd2, 0xbd, 0x4a, 0x82, 0xe0, 0x3c, 0x4a, 0xc4, 0x2f, 0xbe,
  0xa4, 0xa9, 0xfe, 0xbd, 0x1f, 0xe3, 0xfe, 0xbc, 0xf9, 0x3d, 0x3e, 0x3e,
  0x2e, 0x17, 0x1f, 0xbe, 0xd6, 0xd7, 0x21, 0x3e, 0xb4, 0x2d, 0x64, 0xbd,
  0x95, 0xc4, 0xe3, 0xbd, 0x15, 0x77, 0x81, 0x3e, 0x98, 0x3e, 0x88, 0xbe,
  0x2c, 0xc6, 0x10, 0xbe, 0x30, 0x92, 0xb1, 0x3d, 0xc7, 0x3a, 0x81, 0xbd,
  0xae, 0x53, 0xbe, 0x3d, 0xf5, 0x59, 0xd4, 0xbc, 0x5e, 0x1f, 0xd5, 0xbd,
  0x8a, 0xbe, 0x2c, 0xbd, 0x74, 0xa1, 0xb3, 0x3c, 0x8a, 0x14, 0x1b, 0xbe,
  0x79, 0x9e, 0xdf, 0x3d, 0x9e, 0x09, 0x6d, 0xbe, 0x52, 0x69, 0x67, 0xbe,
  0xf5, 0x9c, 0x81, 0xbe, 0x1e, 0x12, 0x51, 0xbe, 0x89, 0xf2, 0x91, 0xbe,
  0xff, 0x20, 0x4e, 0xbe, 0xa6, 0xa8, 0x25, 0xbe, 0x2b, 0x3b, 0x9f, 0xbd,
  0xbe, 0xe5, 0x81, 0xbe, 0xa5, 0xd0, 0x2b, 0xbe, 0x98, 0x11, 0xbe, 0xbd,
  0x1c, 0xf2, 0xf8, 0x3d, 0xc2, 0x2e, 0x80, 0xbd, 0x2d, 0xdd, 0x2e, 0xbe,
  0xbf, 0x83, 0x6e, 0xbd, 0xc9, 0x4b, 0x40, 0xbc, 0xa2, 0xcf, 0x1f, 0xbe,
  0x3b, 0xf0, 0xc5, 0xbe, 0xdc, 0x79, 0x3f, 0xbd, 0x62, 0x12, 0xc8, 0xbd,
  0x76, 0xc8, 0x1d, 0x3c, 0xfa, 0x6b, 0xe5, 0xbd, 0xf8, 0x7f, 0xfb, 0x3d,
  0x43, 0xed, 0x98, 0x3d, 0x69, 0xb1, 0x76, 0x3d, 0xb6, 0xb6, 0x83, 0xbd,
  0x55, 0xd8, 0x17, 0xbd, 0xd8, 0x88, 0x34, 0xbe, 0x5a, 0x8c, 0x04, 0xbe,
  0x75, 0x92, 0x12, 0xbd, 0x26, 0xab, 0x71, 0xbc, 0x5b, 0xaf, 0xec, 0x3d,
  0x54, 0xef, 0x85, 0x3d, 0x95, 0x32, 0x22, 0xbd, 0x95, 0x5a, 0x92, 0x3e,
  0xa9, 0x94, 0x50, 0xbd, 0xcf, 0x82, 0xc3, 0x3d, 0xb8, 0x2f, 0x2c, 0xbc,
  0xc8, 0x37, 0xb8, 0x3e, 0xc1, 0x9a, 0xfe, 0xbd, 0x2e, 0x61, 0x54, 0x3d,
  0xdb, 0x38, 0xad, 0xbd, 0x35, 0x2e, 0x88, 0xbd, 0x4a, 0xc5, 0xf8, 0xbd,
  0x71, 0x80, 0x3d, 0xbe, 0x9b, 0xd3, 0x0d, 0x3e, 0xb6, 0x74, 0xea, 0x3a,
  0x04, 0x2f, 0x95, 0x3e, 0x79, 0x9e, 0x72, 0xbc, 0xb7, 0xfa, 0x67, 0xbe,
  0x08, 0xc2, 0x61, 0xbb, 0xdf, 0x39, 0x99, 0xbd, 0x39, 0x23, 0x8d, 0xbd,
  0x1f, 0x69, 0x3b, 0xbd, 0x54, 0x6a, 0x79, 0xbd, 0x05, 0x94, 0x5b, 0xbd,
  0xbe, 0xab, 0x25, 0xbe, 0x56, 0xda, 0x1e, 0x3d, 0x67, 0x03, 0x5a, 0xbd,
  0x96, 0xdf, 0x82, 0xbc, 0x94, 0xa0, 0x5a, 0xbd, 0x90, 0x0f, 0xc3, 0x3d,
  0x17, 0xdf, 0x57, 0x3d, 0x17, 0x88, 0x34, 0xbe, 0x89, 0xd8, 0x18, 0xbe,
  0x04, 0x7c, 0x54, 0xbe, 0x43, 0xb4, 0x17, 0x3e, 0x11, 0x93, 0xa3, 0xbd,
  0xa8, 0xf8, 0x16, 0x3d, 0xbc, 0xef, 0x98, 0xbd, 0x87, 0xab, 0x35, 0x3e,
  0xbf, 0x2d, 0x97, 0xbd, 0x24, 0x73, 0x21, 0xbe, 0x6f, 0xf5, 0xbe, 0xbd,
  0x0a, 0x49, 0xaf, 0xbd, 0xc4, 0xb7, 0x38, 0x3a, 0xbf, 0x17, 0x08, 0xbd,
  0x36, 0x18, 0x44, 0xbe, 0x54, 0xbd, 0x14, 0x3e, 0xf3, 0xe2, 0x21, 0x3e,
  0x77, 0xba, 0x1f, 0x3b, 0xb3, 0xd6, 0x9f, 0x3d, 0x2f, 0x5d, 0xe2, 0xbb,
  0x70, 0x0f, 0x81, 0xbd, 0x94, 0x1a, 0xdc, 0x3d, 0x94, 0x47, 0x78, 0xbd,
  0x4e, 0x7b, 0xfb, 0x3c, 0x1e, 0x26, 0x01, 0x3e, 0xfc, 0xbe, 0x6d, 0x3c,
  0x6f, 0xb7, 0xd2, 0xbb, 0xc2, 0xc2, 0x16, 0xbe, 0x31, 0xbe, 0x42, 0xbe,
  0x1b, 0x97, 0x6b, 0xbd, 0x07, 0x67, 0x00, 0xbe, 0x41, 0x27, 0x49, 0x3e,
  0xc0, 0xc7, 0xb1, 0xbd, 0x5e, 0x09, 0x2e, 0x3e, 0x84, 0x87, 0x3a, 0xbb,
  0x6f, 0x8d, 0x02, 0x3e, 0xc5, 0x0f, 0x05, 0xbe, 0x56, 0xac, 0x7b, 0xbd,
  0x3f, 0x43, 0x4b, 0xbd, 0x3b, 0x90, 0xdf, 0x3c, 0x67, 0xd9, 0xad, 0xbc,
  0xc6, 0x8d, 0xf3, 0x3d, 0x59, 0xa6, 0xcc, 0xbd, 0xc9, 0x25, 0x80, 0x3d,
  0xb9, 0x0e, 0xb2, 0xbd, 0xcb, 0xb9, 0x72, 0xbd, 0x97, 0xef, 0x6a, 0x3e,
  0x4d, 0x06, 0xaa, 0x3b, 0xbf, 0xf0, 0x59, 0x3d, 0x00, 0x3e, 0xe2, 0x3d,
  0xd7, 0xcf, 0x85, 0xbd, 0x91, 0xb9, 0x1e, 0x3d, 0x23, 0x96, 0x98, 0x3d,
  0xeb, 0xe7, 0x1f, 0xbe, 0x7f, 0x2e, 0x21, 0xbb, 0x13, 0x4d, 0x0c, 0x3e,
  0x18, 0xd6, 0x4c, 0xbe, 0xd4, 0xc7, 0xcc, 0x3d, 0x1b, 0xe4, 0x12, 0xbe,
  0x9c, 0x85, 0x33, 0xbe, 0xe0, 0x18, 0x6b, 0xbe, 0xf1, 0x47, 0x1b, 0xbd,
  0xfc, 0xb7, 0x92, 0x3d, 0xe3, 0xde, 0xbe, 0xbc, 0xb6, 0xad, 0x1e, 0x3e,
  0xc9, 0x26, 0xd8, 0x3c, 0x13, 0x8d, 0x88, 0xbc, 0x34, 0xb6, 0xc0, 0x3d,
  0xe6, 0xd4, 0x41, 0x3d, 0x32, 0x44, 0x1d, 0xbd, 0x7e, 0x90, 0x8e, 0x3b,
  0x47, 0x8b, 0x87, 0xbd, 0x55, 0x45, 0x98, 0x3b, 0x78, 0x99, 0x2b, 0xbe,
  0x75, 0x9b, 0xb7, 0xbb, 0xf7, 0xef, 0xdb, 0x3d, 0x5b, 0x11, 0x36, 0x3d,
  0x5b, 0x17, 0x12, 0x3e, 0xb9, 0x7e, 0xf3, 0xbd, 0x92, 0xa6, 0x6e, 0xbe,
  0x25, 0xed, 0x84, 0xbe, 0x2d, 0x1e, 0xb6, 0xbd, 0xce, 0x74, 0x42, 0x3d,
  0x53, 0x30, 0x1e, 0xbe, 0xdf, 0x6f, 0x14, 0xbe, 0x01, 0xe4, 0x27, 0xbe,
  0x54, 0x0e, 0xa6, 0x3d, 0xec, 0xb8, 0x48, 0xbe, 0xb6, 0xe8, 0xd0, 0xbd,
  0xb3, 0x64, 0x55, 0x3d, 0xc3, 0x11, 0xe7, 0x3b, 0xea, 0x65, 0x87, 0x3d,
  0x85, 0x60, 0x5e, 0xbc, 0x93, 0x0d, 0x1f, 0x3e, 0x9d, 0x32, 0x62, 0x3d,
  0xfd, 0x77, 0x3b, 0xbe, 0x5c, 0x0a, 0xf4, 0xbd, 0x19, 0xfe, 0xfd, 0xbd,
  0x77, 0x5f, 0xed, 0xbd, 0xa7, 0x94, 0xd4, 0xbd, 0x06, 0xa2, 0xc1, 0x3d,
  0x5c, 0xa0, 0xdd, 0xbd, 0xa8, 0xb7, 0xc2, 0xbd, 0x2a, 0x0f, 0x53, 0xbe,
  0x8b, 0x0c, 0x12, 0xbe, 0x63, 0x97, 0xb8, 0xbd, 0xd3, 0xde, 0x57, 0x3d,
  0x4b, 0x75, 0x55, 0x3e, 0x1a, 0x54, 0x80, 0xbe, 0x64, 0xd0, 0x07, 0xbe,
  0x44, 0xde, 0x8b, 0xbe, 0x25, 0x26, 0x33, 0xbc, 0x6a, 0x9a, 0x81, 0x3c,
  0x00, 0xe3, 0x19, 0xbd, 0x18, 0x3a, 0x85, 0xbb, 0x87, 0x52, 0xb4, 0x3d,
  0x32, 0xbf, 0x7f, 0x3e, 0xb8, 0xf9, 0x3e, 0xbe, 0xbe, 0xcb, 0x6a, 0x3c,
  0xe3, 0xa5, 0x81, 0xbd, 0x30, 0x99, 0xda, 0x3d, 0xc2, 0x70, 0x2c, 0xbe,
  0xb4, 0xab, 0x19, 0x3d, 0xf0, 0x04, 0xc3, 0x3d, 0xb9, 0xcb, 0x64, 0x3e,
  0x95, 0xdf, 0x6a, 0x3e, 0x10, 0x69, 0x60, 0xbe, 0x8a, 0x15, 0x5c, 0x3e,
  0x06, 0x9b, 0x33, 0xbe, 0xbd, 0x97, 0xac, 0x3d, 0x28, 0x3e, 0x9e, 0x3d,
  0xb1, 0x01, 0xd4, 0x3d, 0xb1, 0xa2, 0x59, 0x3e, 0x74, 0xb2, 0x3a, 0xbe,
  0x8c, 0xdd, 0x05, 0x3e, 0x9a, 0x52, 0x28, 0x3e, 0x09, 0xb2, 0x8d, 0xbd,
  0x1b, 0x53, 0xc6, 0xbd, 0x6b, 0x23, 0x4d, 0xbd, 0x97, 0x88, 0xb9, 0xbd,
  0x8d, 0xe1, 0x5d, 0xbe, 0x32, 0x3e, 0x12, 0x3e, 0x69, 0x14, 0xca, 0x3d,
  0x22, 0x41, 0x96, 0x3c, 0x7e, 0xf9, 0xed, 0xbc, 0x70, 0x37, 0x58, 0x3d,
  0xd0, 0x11, 0x18, 0xbe, 0x61, 0xd2, 0x91, 0x3d, 0xa1, 0x35, 0x38, 0x3e,
  0x22, 0xfe, 0x09, 0x3e, 0x9a, 0x29, 0x86, 0x3e, 0xc5, 0x31, 0xc0, 0xbd,
  0xb4, 0x47, 0x82, 0xbb, 0xb7, 0x33, 0x30, 0xbd, 0x28, 0xdc, 0xa0, 0xbd,
  0x46, 0x84, 0x30, 0xbe, 0xa8, 0x2b, 0x89, 0x3e, 0xbe, 0xdb, 0x7d, 0x3e,
  0x2d, 0xc3, 0x08, 0x3e, 0x08, 0x0a, 0xbf, 0x3d, 0xdb, 0xb9, 0x91, 0x3e,
  0x07, 0x86, 0x5f, 0xbd, 0x51, 0x03, 0x58, 0xbe, 0x03, 0x13, 0x41, 0x3e,
  0xfa, 0x81, 0xb9, 0x3d, 0xcd, 0x85, 0xa7, 0x3d, 0xe4, 0x7a, 0xb4, 0xbc,
  0x15, 0x8a, 0x62, 0x3e, 0xd2, 0x8e, 0x17, 0x3d, 0x7b, 0x11, 0xb2, 0x3c,
  0xda, 0x37, 0x65, 0x3c, 0x73, 0xc2, 0x87, 0x3d, 0x7c, 0x1d, 0x1c, 0xbe,
  0xfd, 0xa9, 0x2c, 0x3e, 0x69, 0xbf, 0x8a, 0xbd, 0x05, 0x8c, 0x7a, 0xbd,
  0xd3, 0x16, 0x40, 0xbe, 0xf2, 0x6b, 0x1f, 0x3e, 0xb9, 0xc5, 0x5d, 0xbe,
  0xdd, 0xe0, 0x6f, 0xbe, 0x31, 0x64, 0x08, 0x3e, 0xa9, 0x01, 0x99, 0x3d,
  0xd7, 0x6c, 0xce, 0xbc, 0xc0, 0x1c, 0x38, 0xbe, 0xac, 0x25, 0x41, 0xbe,
  0xd6, 0x6e, 0x6f, 0xbe, 0x9e, 0x36, 0x97, 0x3d, 0xd2, 0x3a, 0x44, 0x3c,
  0x28, 0x82, 0x9b, 0x3d, 0x28, 0xb2, 0xbc, 0x3d, 0x35, 0x0b, 0x6a, 0x3e,
  0x44, 0x45, 0xba, 0x3c, 0xce, 0x7c, 0x22, 0x3e, 0x9b, 0xe1, 0xbf, 0x3c,
  0x1d, 0x7b, 0x8c, 0xbe, 0xf0, 0x20, 0x2a, 0xbe, 0xbb, 0xec, 0x0f, 0xbe,
  0x94, 0x44, 0x91, 0xbd, 0x6b, 0x91, 0x33, 0xbe, 0x54, 0x99, 0x84, 0xbd,
  0x34, 0xf0, 0xe2, 0x3d, 0xf4, 0xe4, 0x45, 0xbe, 0xea, 0xdf, 0xb5, 0xbd,
  0x1b, 0x81, 0xb9, 0xbd, 0x4c, 0x68, 0xf9, 0x3c, 0xe8, 0x4f, 0x11, 0x3d,
  0x53, 0xd3, 0x84, 0xbd, 0x65, 0xc0, 0x62, 0xbe, 0x32, 0x95, 0x5d, 0xbe,
  0xf4, 0x80, 0xd2, 0x3d, 0xb2, 0x3f, 0x6f, 0xbe, 0x47, 0x63, 0x9d, 0x3d,
  0x24, 0xae, 0x37, 0xbe, 0xe5, 0x0f, 0x43, 0x3e, 0x57, 0x9e, 0x88, 0xbd,
  0xa9, 0xeb, 0xb8, 0xbd, 0x3e, 0x05, 0x15, 0x3d, 0x3e, 0x93, 0x25, 0xbd,
  0x2c, 0xda, 0x3c, 0xbd, 0x40, 0x87, 0x7c, 0xbe, 0xd1, 0x33, 0x75, 0x3e,
  0xd2, 0xa2, 0x87, 0x3d, 0x79, 0x41, 0x64, 0x3e, 0x30, 0x50, 0x03, 0x3c,
  0xdb, 0x2b, 0xe4, 0x3d, 0x87, 0x79, 0x8d, 0xbb, 0x58, 0x79, 0xe8, 0xbd,
  0x78, 0x44, 0xa0, 0xbd, 0x9d, 0xcb, 0x3d, 0xbe, 0x4d, 0x55, 0xd7, 0xbd,
  0xa9, 0xa6, 0x82, 0x3e, 0x7a, 0x75, 0x64, 0x3d, 0xb5, 0xb7, 0x74, 0x3d,
  0x8c, 0xab, 0xa8, 0x3d, 0xee, 0xf2, 0x52, 0x3e, 0x07, 0xbd, 0x35, 0xbd,
  0xf4, 0x8b, 0x14, 0xbe, 0xd9, 0x7e, 0x26, 0xbe, 0xfc, 0xd0, 0x07, 0xbe,
  0xdd, 0x09, 0xad, 0x3d, 0x17, 0xe4, 0x5a, 0x3e, 0x3b, 0x02, 0xfe, 0xbc,
  0x84, 0x5f, 0x3a, 0xbd, 0x4e, 0x7c, 0x48, 0xbe, 0xf5, 0x9c, 0xd9, 0x3d,
  0xa5, 0x9d, 0xe5, 0xbb, 0x50, 0x58, 0xc9, 0x3d, 0xed, 0x89, 0x19, 0xbe,
  0x15, 0xa6, 0xc3, 0x3d, 0x30, 0x66, 0x78, 0xbe, 0xa1, 0xf4, 0x65, 0xbd,
  0xc0, 0x0e, 0x54, 0xbd, 0xe4, 0x8e, 0x02, 0x3d, 0x25, 0xae, 0x83, 0xbe,
  0x96, 0xa0, 0x37, 0xbd, 0xbe, 0xfe, 0x60, 0xbe, 0xef, 0x72, 0xe1, 0xbd,
  0xbf, 0xfa, 0x31, 0xbe, 0xef, 0xf0, 0xde, 0xbb, 0xdf, 0x62, 0x32, 0xbe,
  0xb2, 0x7e, 0x5e, 0x3d, 0x24, 0xea, 0x93, 0xbe, 0x30, 0x00, 0xbf, 0xbe,
  0x8e, 0x09, 0x33, 0x3e, 0x79, 0xdc, 0x99, 0x3e, 0xf1, 0xb1, 0x56, 0x3d,
  0x07, 0x33, 0xef, 0x3c, 0x0f, 0x8d, 0x6a, 0x3d, 0x08, 0xb4, 0x81, 0x3d,
  0x40, 0x14, 0x70, 0xbd, 0x73, 0x72, 0x03, 0xbe, 0xd9, 0x5e, 0x90, 0x3e,
  0xc6, 0x36, 0x87, 0xbd, 0x98, 0xcb, 0xd0, 0x3b, 0x74, 0x67, 0x8f, 0x3d,
  0x8c, 0x75, 0x0f, 0xbc, 0xb7, 0xd1, 0x03, 0xbe, 0x8e, 0x5c, 0x89, 0xbe,
  0xa1, 0x01, 0x09, 0xbe, 0x07, 0x8c, 0x88, 0xbd, 0x50, 0xce, 0x4b, 0x3c,
  0xb5, 0x75, 0xab, 0x3c, 0x46, 0x95, 0x44, 0x39, 0x65, 0x8b, 0x17, 0x3d,
  0x85, 0x1b, 0xb0, 0x3d, 0x7d, 0x01, 0x1d, 0xbd, 0xf3, 0x87, 0x98, 0xbe,
  0x6e, 0x42, 0x17, 0xbe, 0xc0, 0x0d, 0x24, 0x3e, 0xf2, 0x19, 0x18, 0xbe,
  0x65, 0x37, 0xa0, 0x3d, 0xd1, 0x45, 0x37, 0x3b, 0x71, 0x7f, 0x16, 0xbe,
  0x75, 0x5f, 0x20, 0xbc, 0xbe, 0xfa, 0xf9, 0xbc, 0xcf, 0x74, 0x3c, 0xbe,
  0x40, 0x3a, 0x38, 0x3e, 0x58, 0xe0, 0xd0, 0xbd, 0x9b, 0x6d, 0x6e, 0x3e,
  0xa2, 0xa9, 0xa7, 0xbc, 0x5a, 0x8e, 0xd6, 0xbd, 0x43, 0x0a, 0xcf, 0xbd,
  0x84, 0xaa, 0xed, 0xbd, 0x43, 0x97, 0x3d, 0x3e, 0xe7, 0x21, 0xb3, 0x3d,
  0xb2, 0x44, 0xe0, 0x3d, 0x94, 0x59, 0xc3, 0xbd, 0xb2, 0x46, 0xb6, 0x3d,
  0x9c, 0x94, 0x52, 0x3e, 0x1e, 0xcd, 0xba, 0xbd, 0x0c, 0x88, 0x6d, 0xbe,
  0xf8, 0xc1, 0x0a, 0xbe, 0x0d, 0xcd, 0xef, 0xbc, 0x18, 0xe9, 0x48, 0x3e,
  0x69, 0x3f, 0x5c, 0xbe, 0x62, 0x99, 0xef, 0xbd, 0xcb, 0xfe, 0xc9, 0xbd,
  0x8d, 0xdb, 0x52, 0xbe, 0x24, 0x6a, 0x1d, 0xbe, 0x0c, 0x97, 0x8f, 0x3d,
  0x55, 0xa6, 0x48, 0xbc, 0xc2, 0xcc, 0x2b, 0x3e, 0x72, 0x6a, 0xdc, 0x3d,
  0xba, 0xa6, 0xcf, 0xbd, 0x86, 0xbc, 0x14, 0x3d, 0xfc, 0x79, 0x66, 0xbd,
  0x2e, 0x97, 0x47, 0xbe, 0x5f, 0x29, 0x6d, 0xbd, 0x1a, 0x33, 0x52, 0x3e,
  0x56, 0x08, 0x25, 0x3d, 0xfd, 0x29, 0xf7, 0xbd, 0xdb, 0xf3, 0x8d, 0x3d,
  0x29, 0xbe, 0x22, 0xbe, 0x48, 0xb7, 0xe3, 0xbd, 0x50, 0x0e, 0x83, 0xbe,
  0x2e, 0xd1, 0x0d, 0xbb, 0xca, 0x92, 0x5f, 0x3e, 0x09, 0xa0, 0xe6, 0x3d,
  0x32, 0xd1, 0x02, 0xbd, 0x07, 0xc0, 0x79, 0xbd, 0xf5, 0x21, 0x27, 0x3d,
  0x3a, 0xd3, 0x6f, 0x3c, 0xd7, 0x22, 0xe7, 0x3c, 0xe3, 0xae, 0xac, 0x3d,
  0xca, 0x66, 0x6a, 0x3d, 0x9d, 0xda, 0x3d, 0x3e, 0xf5, 0xad, 0x08, 0x3e,
  0x96, 0xf2, 0xc7, 0x3d, 0xd6, 0x49, 0x1b, 0xbe, 0x8e, 0xd4, 0xdb, 0x3d,
  0xf1, 0x60, 0x2b, 0x3e, 0xf5, 0x79, 0x23, 0x3e, 0xbb, 0x54, 0xe6, 0x3d,
  0x77, 0xe5, 0x28, 0x3e, 0x09, 0x07, 0xcc, 0x3d, 0xc4, 0xfd, 0xfe, 0xbd,
  0x3e, 0xd3, 0x37, 0x3d, 0xe3, 0x72, 0xa2, 0x3e, 0x21, 0x7a, 0x81, 0x3e,
  0x5a, 0x73, 0xa8, 0x3d, 0xc7, 0x4f, 0x53, 0x3e, 0x65, 0x8a, 0xa8, 0xbd,
  0x71, 0x4c, 0x4d, 0xbe, 0xe8, 0x43, 0xce, 0x3c, 0xe4, 0xad, 0x8a, 0x3d,
  0x1c, 0xf6, 0x32, 0xbe, 0x02, 0x2f, 0x0a, 0x3c, 0xe0, 0xcb, 0x5b, 0xbd,
  0x19, 0xa6, 0x70, 0x3e, 0xef, 0x85, 0x6d, 0xbd, 0xba, 0xb9, 0x64, 0x3d,
  0x35, 0x55, 0x14, 0x3e, 0x0e, 0xfc, 0xc1, 0xbd, 0x02, 0x21, 0x47, 0x3e,
  0xd7, 0x1b, 0x27, 0xbe, 0x2d, 0xe5, 0x30, 0x3e, 0x89, 0x64, 0x47, 0xbe,
  0x88, 0x53, 0xe8, 0xba, 0x58, 0x45, 0x68, 0xbe, 0xce, 0x13, 0x43, 0xbe,
  0xa4, 0xbd, 0x18, 0xbd, 0x9d, 0xdb, 0x25, 0xbe, 0xfb, 0x48, 0xf2, 0x3d,
  0x55, 0xee, 0x95, 0xbb, 0xf6, 0xfd, 0x31, 0xbe, 0x2b, 0x37, 0xf3, 0xbd,
  0xba, 0x36, 0x9f, 0xbd, 0xe9, 0x33, 0xf3, 0x3d, 0x4f, 0x00, 0x1f, 0xbd,
  0xa2, 0x5a, 0x6d, 0xbd, 0x40, 0x62, 0x1c, 0xbd, 0x7d, 0x32, 0x1c, 0x3e,
  0xf3, 0x44, 0x71, 0xbe, 0xbb, 0xf1, 0x17, 0x3e, 0x33, 0xb4, 0xc2, 0xbd,
  0x1e, 0x35, 0xba, 0x3d, 0x81, 0x88, 0x4c, 0xbd, 0xfd, 0xc3, 0xf6, 0xbd,
  0x0c, 0x2e, 0xfa, 0xbd, 0x41, 0xc8, 0x11, 0xbd, 0x33, 0x67, 0x9f, 0x3c,
  0x75, 0x21, 0x67, 0xbd, 0x79, 0x59, 0x83, 0x3d, 0xed, 0x84, 0xcd, 0xbd,
  0xc5, 0x30, 0xc5, 0x3c, 0xbe, 0x0f, 0x1e, 0x3e, 0x3c, 0x94, 0xcf, 0x3c,
  0x3e, 0xd5, 0x77, 0x3e, 0xcc, 0x6d, 0x53, 0x3e, 0xd1, 0xf2, 0x61, 0x3d,
  0x0a, 0x29, 0x47, 0xbe, 0xad, 0x9f, 0x2b, 0x3e, 0x5e, 0x04, 0x05, 0xbd,
  0xa8, 0xa5, 0xb4, 0xbc, 0x81, 0xc2, 0xe5, 0x3d, 0xfa, 0x16, 0x97, 0x3e,
  0x38, 0x80, 0x4b, 0xbd, 0x35, 0xda, 0x54, 0xbe, 0xd0, 0x43, 0x84, 0xbe,
  0x63, 0x1c, 0xad, 0xbd, 0x37, 0xcd, 0x13, 0xbe, 0x3c, 0xfa, 0x9e, 0x3e,
  0xa7, 0x38, 0x64, 0x3e, 0xf6, 0x74, 0x8b, 0x3e, 0xe0, 0xaf, 0xd7, 0x3d,
  0x29, 0xd2, 0xdb, 0xbd, 0x4e, 0x39, 0xf8, 0xbd, 0xd8, 0x37, 0x44, 0xbe,
  0x71, 0x9c, 0x38, 0x3e, 0xa5, 0x26, 0x18, 0xbe, 0x89, 0x85, 0xdb, 0x3d,
  0x38, 0x72, 0x25, 0xbe, 0xac, 0x08, 0x69, 0x3e, 0xa5, 0x19, 0x1f, 0x3e,
  0x22, 0xaf, 0xe9, 0xbd, 0xd6, 0x32, 0xee, 0x3d, 0x42, 0xb7, 0x11, 0x3d,
  0x00, 0xd7, 0x32, 0xbd, 0xb7, 0xec, 0x0f, 0xbe, 0x79, 0x89, 0x0e, 0x3e,
  0x8f, 0xe8, 0xc8, 0x3d, 0x29, 0x78, 0xdb, 0x3b, 0x89, 0xc0, 0x90, 0xbd,
  0x0d, 0xc7, 0xd7, 0x3c, 0x65, 0xba, 0x08, 0x3d, 0x7d, 0x27, 0x09, 0x3d,
  0x19, 0xac, 0xbc, 0xbc, 0x08, 0xa1, 0xcd, 0xbc, 0xdb, 0xd3, 0xc8, 0xbd,
  0xab, 0x2c, 0x1a, 0xbd, 0x6b, 0x96, 0x19, 0x3d, 0x0a, 0xa3, 0x5e, 0xbe,
  0xb4, 0xd4, 0xb3, 0x3d, 0x13, 0x03, 0x71, 0x3d, 0xc3, 0xce, 0x4b, 0x3c,
  0xda, 0x30, 0x2c, 0x3e, 0x1c, 0xf6, 0xa4, 0xbd, 0x15, 0x80, 0xb2, 0xbd,
  0x96, 0xe4, 0xff, 0xff, 0x04, 0x00, 0x00, 0x00, 0x00, 0x0a, 0x00, 0x00,
  0xe8, 0x77, 0x93, 0xbd, 0xf3, 0xd1, 0xcc, 0xbd, 0x44, 0x32, 0x16, 0xbc,
  0x36, 0xf1, 0x2e, 0xbb, 0x29, 0xd6, 0xc3, 0x3b, 0x44, 0x44, 0x1d, 0x3e,
  0x62, 0x3e, 0xac, 0x3d, 0xa2, 0x5d, 0x20, 0x3e, 0xfd, 0x51, 0x8f, 0x3e,
  0x5b, 0xaf, 0x00, 0xbe, 0x29, 0xd8, 0xd6, 0x3d, 0x9e, 0x3e, 0x3c, 0x3d,
  0xb1, 0x23, 0xef, 0xbd, 0x63, 0x45, 0x5e, 0xbc, 0x95, 0x6f, 0x73, 0x3d,
  0xdf, 0x08, 0xd4, 0x3d, 0x34, 0x78, 0x50, 0x3e, 0xc7, 0x28, 0x00, 0xbe,
  0xeb, 0xe0, 0x8d, 0x3e, 0x8c, 0x8f, 0x6a, 0x3e, 0x2b, 0x2b, 0x62, 0x3e,
  0xde, 0xef, 0x10, 0x3e, 0x15, 0xec, 0x53, 0x3d, 0x20, 0x10, 0x91, 0xbd,
  0xba, 0xb2, 0xa1, 0x3d, 0xb7, 0x79, 0xc4, 0x3b, 0xac, 0x1e, 0x1e, 0x3e,
  0xae, 0x58, 0x92, 0x3d, 0x39, 0x78, 0x1b, 0x3e, 0x23, 0xe2, 0xc4, 0x3d,
  0xdf, 0xc6, 0x02, 0x3e, 0xa3, 0x33, 0xf3, 0x3d, 0x74, 0x5b, 0x92, 0x3d,
  0x53, 0xde, 0x63, 0xbb, 0xbf, 0x73, 0x81, 0xbd, 0xb4, 0x7a, 0x02, 0xbe,
  0x21, 0xfd, 0x39, 0xbe, 0xe9, 0x86, 0x21, 0xbc, 0xf9, 0xee, 0x87, 0x3d,
  0x95, 0xdc, 0xdb, 0x3d, 0x8e, 0x3b, 0x65, 0xbd, 0xfe, 0x80, 0x55, 0xbb,
  0x98, 0x69, 0x89, 0xbd, 0x37, 0x35, 0xe7, 0xbd, 0x32, 0xa9, 0xd5, 0x39,
  0xc5, 0x09, 0x03, 0xbe, 0x28, 0xc4, 0x2b, 0xbe, 0xfd, 0x7d, 0x10, 0x3e,
  0xc7, 0x0a, 0xb4, 0xbd, 0xaa, 0xf4, 0x82, 0xbe, 0x53, 0xbd, 0x27, 0x3d,
  0x6c, 0x8b, 0x8b, 0x3d, 0xec, 0x7f, 0x64, 0x3d, 0x29, 0xae, 0xad, 0xbd,
  0xab, 0xf3, 0xbf, 0x3d, 0x7e, 0x22, 0x6b, 0x3d, 0xd1, 0x8f, 0xaf, 0x3d,
  0x0e, 0xf4, 0xc1, 0xbb, 0xc6, 0x04, 0x88, 0x3e, 0xee, 0x9d, 0x80, 0x3d,
  0x2e, 0x74, 0x18, 0x3e, 0x5b, 0xf8, 0x85, 0x3c, 0xb9, 0xfb, 0x6e, 0x3d,
  0xf8, 0x3c, 0xc7, 0xbd, 0x04, 0x81, 0x0d, 0xbe, 0xd9, 0x09, 0x21, 0xbe,
  0x80, 0xd0, 0xbb, 0x3d, 0xaa, 0x8a, 0xe3, 0x3d, 0x86, 0x80, 0xb9, 0x3c,
  0x96, 0x97, 0x14, 0x3c, 0x00, 0x50, 0x78, 0x3e, 0x6d, 0x48, 0x33, 0x3d,
  0x41, 0xe2, 0x2b, 0xbe, 0x2d, 0x45, 0x95, 0xbd, 0xca, 0x3e, 0x58, 0x3e,
  0x51, 0x4a, 0x93, 0xbd, 0x2f, 0x0d, 0xfe, 0x3d, 0x03, 0xef, 0x29, 0x3d,
  0x55, 0x0c, 0x80, 0x3e, 0x47, 0x0b, 0xb0, 0x3d, 0x16, 0x9f, 0x0e, 0xbd,
  0x47, 0x3b, 0xd0, 0x3d, 0xc2, 0x3c, 0x13, 0x3e, 0x82, 0x14, 0x1f, 0x3e,
  0xe1, 0x34, 0x39, 0xbc, 0xa0, 0x04, 0x65, 0x3e, 0xd6, 0x73, 0xae, 0x3c,
  0xed, 0xcf, 0x98, 0x3c, 0x7a, 0x3e, 0x14, 0x3e, 0x95, 0x92, 0x75, 0x3e,
  0x4f, 0x12, 0x3b, 0x3e, 0x87, 0x4d, 0xa3, 0x3e, 0x2a, 0xc5, 0x8b, 0x39,
  0x5a, 0x18, 0x31, 0x3e, 0x3a, 0x6b, 0x15, 0x3b, 0x83, 0x46, 0x02, 0x3d,
  0x91, 0x71, 0x44, 0x3e, 0x87, 0xa1, 0x82, 0xbd, 0x55, 0xd8, 0x69, 0xbd,
  0x71, 0xbd, 0x37, 0x3e, 0x15, 0x3c, 0x5f, 0x3e, 0x44, 0xcd, 0x40, 0x3d,
  0x89, 0xb9, 0x1d, 0xbe, 0xb7, 0xb5, 0x5e, 0x3e, 0x27, 0xdc, 0x38, 0x3e,
  0xab, 0x97, 0x73, 0xbd, 0x77, 0x2f, 0x5f, 0x3e, 0x89, 0xfb, 0x7d, 0x3e,
  0x66, 0x55, 0xcd, 0xbd, 0xc0, 0x93, 0x4a, 0x3e, 0x22, 0x36, 0x9a, 0xbd,
  0x26, 0x8a, 0xd5, 0x3c, 0xca, 0x72, 0x01, 0x3e, 0xdc, 0x96, 0x7a, 0xbd,
  0x18, 0xf5, 0x0d, 0xbe, 0xd0, 0xd5, 0xde, 0xbc, 0x02, 0x23, 0x68, 0x3d,
  0xc3, 0x96, 0x55, 0xbd, 0x07, 0x8a, 0x1e, 0xbe, 0x22, 0x24, 0x01, 0xbe,
  0xa7, 0x22, 0x2c, 0x3e, 0xa5, 0xbe, 0x39, 0x3e, 0xd1, 0xb0, 0x20, 0xbd,
  0x45, 0x31, 0xa4, 0xbd, 0x61, 0x3f, 0x68, 0xbe, 0x43, 0x8a, 0x9a, 0xbe,
  0x65, 0xd9, 0x23, 0xbe, 0xdc, 0x75, 0xe6, 0x3d, 0xc6, 0x99, 0xb7, 0xbd,
  0x1b, 0x3d, 0xca, 0x3b, 0x01, 0x63, 0x79, 0xbd, 0x70, 0x60, 0x78, 0x3c,
  0xea, 0x51, 0x86, 0xbd, 0xcb, 0x67, 0x32, 0x3d, 0xfb, 0xbd, 0x9c, 0xbe,
  0xca, 0x1b, 0x71, 0xbe, 0x8a, 0x25, 0xa1, 0x3e, 0x4c, 0xd0, 0x43, 0x3e,
  0x86, 0x09, 0xe2, 0x3d, 0x78, 0xfb, 0x1c, 0x3e, 0x02, 0xb8, 0x9d, 0xbd,
  0x7c, 0xbf, 0xfd, 0xbd, 0x0e, 0xe7, 0x28, 0xbd, 0xe6, 0xce, 0x1f, 0x3e,
  0x89, 0x94, 0x3f, 0x3d, 0x2f, 0xf6, 0xf2, 0xbd, 0xcc, 0x78, 0x38, 0x3d,
  0xb8, 0x5c, 0x50, 0x3d, 0x61, 0xd8, 0xad, 0xbd, 0xb3, 0x5c, 0x83, 0xbe,
  0xea, 0xd0, 0x24, 0x3e, 0x12, 0x5f, 0x17, 0x3c, 0xb0, 0x8a, 0x92, 0x3d,
  0xb6, 0x94, 0x3f, 0xbe, 0x21, 0xe9, 0x8f, 0xbe, 0xfd, 0xca, 0xe7, 0xbe,
  0xed, 0x78, 0xc7, 0xbe, 0x91, 0x81, 0x71, 0xbe, 0x4f, 0x7e, 0xbd, 0x3c,
  0xc8, 0x57, 0x12, 0x3e, 0xb6, 0x25, 0x10, 0x3e, 0x48, 0xd7, 0x94, 0x3e,
  0x5e, 0x18, 0x0f, 0xbe, 0x5e, 0xda, 0x87, 0x3c, 0x1c, 0x22, 0x99, 0x3d,
  0xdd, 0x1b, 0x7a, 0xbe, 0xe6, 0x73, 0x02, 0xbe, 0xf8, 0x5b, 0x0b, 0xbe,
  0x6a, 0x26, 0x88, 0x3e, 0x8e, 0xb8, 0xe1, 0xbc, 0xbd, 0xee, 0xa9, 0x3d,
  0x01, 0xd9, 0x96, 0xbd, 0x0c, 0x9c, 0x33, 0x3d, 0xc9, 0x11, 0xa3, 0xbd,
  0x62, 0xd5, 0x8b, 0xbe, 0xb8, 0x1e, 0x29, 0xbe, 0xe1, 0xf0, 0x76, 0x3c,
  0x84, 0x0a, 0xf6, 0x3d, 0x0c, 0x4a, 0x8a, 0xbe, 0x96, 0x60, 0xbf, 0xbb,
  0xef, 0xd7, 0x41, 0xbe, 0x6a, 0x14, 0x54, 0xbe, 0x18, 0xc0, 0x60, 0x3e,
  0x9b, 0x15, 0x8a, 0x3d, 0xa4, 0x5a, 0xcd, 0x3e, 0x1c, 0xcd, 0x61, 0x3e,
  0x2f, 0x96, 0x7c, 0xbd, 0x44, 0x6a, 0x24, 0xbe, 0x45, 0x44, 0xb7, 0x3d,
  0x94, 0xef, 0x44, 0xb9, 0x2a, 0xe0, 0x78, 0xbd, 0x31, 0x74, 0x28, 0xbd,
  0x95, 0x48, 0x3c, 0xbd, 0x0d, 0xaf, 0x9c, 0x3e, 0x72, 0x06, 0x3b, 0x3e,
  0x44, 0x1c, 0x06, 0x3e, 0xde, 0x80, 0xc4, 0xbc, 0x40, 0x04, 0xdc, 0x3d,
  0xaf, 0xb9, 0xc4, 0xbd, 0xea, 0x0b, 0x83, 0xbe, 0x25, 0x9f, 0xc0, 0x3d,
  0x71, 0x37, 0x1c, 0xbd, 0xbc, 0x5c, 0x10, 0x3d, 0xf3, 0x6b, 0xed, 0xbd,
  0xf0, 0x61, 0x4e, 0xbd, 0x9a, 0x54, 0xb3, 0x3d, 0x34, 0x92, 0x80, 0xbd,
  0x32, 0x2e, 0xc9, 0x3b, 0x0e, 0xff, 0xa6, 0xbd, 0x8a, 0x26, 0x75, 0x3e,
  0x2b, 0x7d, 0x18, 0x3e, 0x20, 0x54, 0x4b, 0x3d, 0x72, 0x38, 0xe6, 0x3d,
  0x7d, 0xe2, 0x93, 0xbd, 0xb0, 0x4e, 0x5a, 0xbd, 0x19, 0xa8, 0x29, 0xbe,
  0xe1, 0x44, 0x18, 0x3e, 0x3e, 0x84, 0x2a, 0xbd, 0xaa, 0x43, 0xab, 0xbd,
  0xe6, 0xb9, 0x69, 0x3d, 0x0e, 0xbf, 0xbd, 0x3d, 0x20, 0xc7, 0x81, 0xbe,
  0xf5, 0x62, 0x25, 0xbe, 0x7d, 0x80, 0x5b, 0xbd, 0xb8, 0x59, 0x27, 0x3d,
  0xe5, 0xc6, 0x15, 0x3e, 0x35, 0x4e, 0x15, 0xbd, 0x63, 0x9c, 0x19, 0x3e,
  0xd2, 0xa5, 0x72, 0xbc, 0x48, 0x9d, 0x23, 0x3c, 0x16, 0x65, 0x6e, 0xbd,
  0x8e, 0x79, 0x73, 0xbe, 0xf6, 0xab, 0x89, 0x3e, 0xfa, 0x89, 0xd0, 0xbc,
  0x8e, 0xe7, 0x15, 0xbe, 0xd1, 0x42, 0xe8, 0xba, 0xbd, 0xa0, 0x4e, 0x3d,
  0xad, 0x7c, 0x23, 0xbc, 0xab, 0x4f, 0x40, 0xbe, 0x51, 0xe5, 0x99, 0xbe,
  0x91, 0xfa, 0x22, 0xbe, 0x2f, 0xee, 0x82, 0x3e, 0xd8, 0xd1, 0x40, 0xbd,
  0x2a, 0x15, 0x4a, 0xbe, 0x81, 0xb4, 0x2a, 0xbe, 0x38, 0x89, 0x15, 0x3e,
  0xc2, 0x06, 0x06, 0xbe, 0x68, 0x84, 0x2a, 0x3e, 0x46, 0xbd, 0xb1, 0x3e,
  0x14, 0x3f, 0xad, 0xbd, 0x0c, 0x31, 0x9b, 0xbd, 0xe8, 0x87, 0x31, 0x3e,
  0x2f, 0xd3, 0x37, 0xbc, 0xf7, 0x98, 0xed, 0xbd, 0xee, 0xd3, 0x11, 0x3e,
  0xca, 0xae, 0x53, 0x3d, 0x80, 0x48, 0x09, 0x3e, 0x8c, 0x86, 0xc8, 0xbd,
  0x91, 0xd2, 0x27, 0xbe, 0x15, 0xb6, 0xf9, 0x3d, 0xd2, 0xe7, 0xe3, 0x3d,
  0x9e, 0xcd, 0x98, 0x3b, 0x1e, 0x5f, 0xd1, 0xbd, 0xde, 0xca, 0x1f, 0x3e,
  0xa9, 0x6a, 0xfe, 0xbd, 0x6f, 0xa3, 0x6c, 0x3e, 0x95, 0xfb, 0xee, 0xbd,
  0xe6, 0x27, 0x42, 0xbe, 0xe4, 0xaa, 0xe0, 0x3d, 0xba, 0x73, 0xcd, 0x3d,
  0xfd, 0x50, 0x8c, 0xbe, 0x1b, 0x5b, 0x05, 0x3e, 0xcd, 0xed, 0x38, 0xbd,
  0xe3, 0x49, 0xd9, 0x3d, 0x82, 0xdd, 0xc1, 0x3d, 0x8a, 0x86, 0x8d, 0xbe,
  0xef, 0x00, 0x0d, 0x3e, 0x6a, 0x0d, 0xc6, 0xbe, 0x42, 0x9d, 0x96, 0xbc,
  0x18, 0x8f, 0x0a, 0xbe, 0x94, 0x50, 0x02, 0xbd, 0x92, 0xd1, 0x42, 0xbb,
  0xa5, 0x20, 0xb0, 0xbe, 0x7e, 0x9b, 0x37, 0xbe, 0x0c, 0x8a, 0xb1, 0xbe,
  0x4d, 0x68, 0x8b, 0x3e, 0xd8, 0xc1, 0x09, 0x3e, 0xbb, 0x89, 0x56, 0x3e,
  0xa0, 0x6d, 0x49, 0x3e, 0xbb, 0x39, 0x47, 0xbd, 0x64, 0xc4, 0x48, 0xbd,
  0xa1, 0x42, 0x90, 0xbe, 0x0f, 0x19, 0x44, 0x3e, 0x58, 0x27, 0xb3, 0x3d,
  0xad, 0x39, 0x68, 0x3e, 0x33, 0xa7, 0xd4, 0x3d, 0x18, 0xdd, 0x74, 0xbe,
  0x52, 0xa9, 0x55, 0xbe, 0x78, 0x4c, 0x5d, 0x3d, 0x51, 0x68, 0x16, 0xbe,
  0xf3, 0x49, 0x07, 0xbe, 0x88, 0x7d, 0xf1, 0xbd, 0xe9, 0x57, 0x13, 0x3d,
  0x48, 0x3f, 0x6d, 0x3e, 0x86, 0x79, 0x28, 0xbd, 0xf1, 0xce, 0xf7, 0xbc,
  0xf4, 0x21, 0xd6, 0x3d, 0xad, 0x40, 0xac, 0xbe, 0x0d, 0x8f, 0x9b, 0xbd,
  0x3e, 0xa5, 0x56, 0xbe, 0x8b, 0x5f, 0xe6, 0xbc, 0x46, 0x08, 0xab, 0x3c,
  0x83, 0x81, 0x93, 0x3d, 0x99, 0x4f, 0x48, 0xbe, 0x1f, 0xbb, 0x0e, 0xbe,
  0x12, 0x34, 0xcf, 0x3d, 0x40, 0x67, 0x48, 0x3b, 0x6d, 0x10, 0x25, 0x3e,
  0xfe, 0x6d, 0xd3, 0x3d, 0x47, 0xa7, 0xb3, 0xbd, 0x6a, 0x85, 0xf1, 0x3d,
  0x2a, 0x0f, 0xb1, 0x3d, 0x34, 0x24, 0x10, 0xbe, 0x2f, 0xa3, 0x13, 0xbe,
  0x54, 0xb3, 0x02, 0xbe, 0x92, 0x24, 0x0f, 0x3e, 0xd3, 0x5e, 0x2b, 0xbe,
  0xe8, 0x19, 0x87, 0x3e, 0x32, 0x89, 0xb6, 0xbd, 0xce, 0xe7, 0xac, 0xbd,
  0xe1, 0xc9, 0x3f, 0xbe, 0x63, 0x2c, 0x65, 0xbe, 0x86, 0xac, 0x76, 0xbe,
  0x11, 0x27, 0x73, 0x3d, 0x36, 0xa1, 0xe0, 0xbb, 0xcb, 0x0f, 0xce, 0x3d,
  0x4a, 0xc5, 0x22, 0xbe, 0x6d, 0x27, 0x2f, 0xbc, 0x79, 0x23, 0x59, 0xbe,
  0x1f, 0x90, 0x0f, 0xbe, 0x4b, 0x17, 0x23, 0xbd, 0x18, 0x0a, 0x85, 0xbd,
  0xa7, 0xdb, 0x7b, 0x3e, 0xa5, 0x35, 0x19, 0xbd, 0xec, 0x2b, 0xcb, 0x3d,
  0x01, 0x57, 0xa7, 0x3d, 0xdd, 0x5f, 0xef, 0x3c, 0xae, 0x25, 0x44, 0xbe,
  0x07, 0x27, 0x7c, 0xbe, 0x69, 0x48, 0x35, 0x3e, 0x10, 0xa6, 0x47, 0x3e,
  0x84, 0xc3, 0xab, 0x3e, 0xa4, 0x50, 0x31, 0xbe, 0x8e, 0x10, 0x1f, 0xbe,
  0x49, 0xdf, 0xf7, 0x3c, 0x61, 0xc7, 0x42, 0x3d, 0xb7, 0xea, 0x29, 0xbe,
  0x1f, 0x16, 0x55, 0xbd, 0x13, 0x2f, 0x17, 0x3e, 0x4b, 0x0d, 0xcb, 0xbd,
  0xf5, 0x99, 0x41, 0xbe, 0xba, 0x91, 0x7f, 0xbe, 0x96, 0x25, 0x93, 0xbe,
  0x1f, 0x0a, 0x2d, 0xbd, 0x06, 0x77, 0xb8, 0x3d, 0x97, 0x0d, 0x54, 0x3e,
  0x1a, 0x65, 0xa6, 0xbd, 0x57, 0xcd, 0x08, 0xbe, 0xfb, 0xb5, 0x40, 0xbe,
  0xbb, 0xb6, 0x06, 0xbd, 0x12, 0xb0, 0x12, 0xbe, 0xbd, 0xaf, 0xbc, 0xbd,
  0xcf, 0x1f, 0xca, 0xbd, 0x01, 0x92, 0x4e, 0x3d, 0xba, 0x0c, 0x8a, 0x3d,
  0x07, 0x4f, 0x03, 0xbe, 0x4c, 0xad, 0x7b, 0xbe, 0xd8, 0xc9, 0x82, 0xbe,
  0x97, 0x76, 0x5a, 0xbe, 0xc8, 0x97, 0xe6, 0x3d, 0x13, 0x46, 0x3e, 0xbe,
  0xf2, 0x33, 0x89, 0xbd, 0x6d, 0x85, 0x76, 0xbd, 0x5a, 0xf9, 0x92, 0x3e,
  0xc3, 0xe6, 0x75, 0x3c, 0x37, 0x00, 0x3b, 0x3e, 0xac, 0x8a, 0x56, 0x3e,
  0xdb, 0x82, 0xf0, 0xbd, 0xa5, 0x87, 0x9f, 0x3d, 0x6b, 0xe2, 0x87, 0xbc,
  0x8e, 0x41, 0x62, 0x3e, 0x49, 0x5e, 0xa5, 0x3e, 0x6c, 0x8e, 0x59, 0x3d,
  0xfe, 0x2b, 0x06, 0x3e, 0xcf, 0x2b, 0x8e, 0x3d, 0xd5, 0x2f, 0xfb, 0xbd,
  0x2f, 0xac, 0x31, 0xbe, 0xd4, 0xbc, 0x4f, 0xbe, 0xf9, 0x76, 0x37, 0xbe,
  0xf4, 0xaa, 0x97, 0xbd, 0x07, 0x5f, 0xb1, 0xbc, 0xd8, 0x8e, 0x08, 0xbe,
  0x54, 0xe0, 0x43, 0x3a, 0xb2, 0x3f, 0x43, 0xbe, 0x5e, 0x3b, 0xa6, 0xbc,
  0x1e, 0xc9, 0x23, 0xbe, 0xe0, 0xd5, 0xcc, 0xbd, 0x4d, 0xfe, 0xda, 0x3d,
  0xb9, 0x32, 0x0d, 0xbd, 0x01, 0xf6, 0x57, 0xbe, 0xd1, 0x99, 0xc7, 0xbe,
  0xbe, 0xfd, 0x85, 0x3c, 0xe7, 0xa2, 0x80, 0xbe, 0x35, 0xf7, 0x65, 0xbd,
  0x15, 0x5e, 0xcc, 0xbd, 0xa1, 0x30, 0x80, 0x3e, 0x7b, 0xc2, 0xcb, 0xbe,
  0x69, 0xa9, 0x9c, 0xbe, 0x9a, 0xef, 0xcb, 0xbd, 0xaf, 0x21, 0xdc, 0xbd,
  0xfa, 0x3f, 0x33, 0x3d, 0x60, 0xd6, 0xca, 0xbd, 0xb5, 0x58, 0x0c, 0xbc,
  0xf2, 0x09, 0x34, 0x3e, 0x77, 0x00, 0x34, 0xbd, 0x74, 0x7d, 0x9c, 0xbd,
  0x74, 0xd7, 0xe3, 0x3d, 0xcb, 0x93, 0xdd, 0xbd, 0x66, 0x50, 0xa4, 0x3c,
  0x9e, 0xee, 0x80, 0x3d, 0xb1, 0x98, 0x10, 0x3d, 0xc7, 0xd5, 0x8d, 0x3d,
  0x04, 0xb7, 0x97, 0x3d, 0xa9, 0xe5, 0x93, 0x3d, 0x0d, 0x03, 0x8a, 0x3d,
  0x59, 0xe0, 0x64, 0xbe, 0xf8, 0x62, 0xa8, 0xbb, 0x37, 0x2c, 0xa6, 0x3e,
  0x9a, 0xf8, 0x35, 0x3e, 0x76, 0x13, 0x47, 0x3e, 0x44, 0x26, 0x34, 0xbd,
  0x70, 0xf4, 0xec, 0x3d, 0x7f, 0xaa, 0x53, 0xbd, 0x80, 0x3f, 0x60, 0x3e,
  0x5e, 0xec, 0x03, 0x3e, 0x82, 0x63, 0x1b, 0xbd, 0xca, 0xc3, 0x0a, 0x3e,
  0x61, 0xeb, 0xcd, 0xbc, 0x1f, 0x46, 0x0a, 0xbe, 0x59, 0x91, 0xe1, 0xbd,
  0x4f, 0x6a, 0x0c, 0xbe, 0xc2, 0x03, 0xf8, 0xbd, 0x30, 0x4e, 0xc9, 0xbd,
  0x24, 0xe7, 0x20, 0x3e, 0x92, 0x01, 0x8b, 0x3c, 0x5e, 0xa3, 0xbd, 0xbd,
  0xed, 0x10, 0x2f, 0x3d, 0x4b, 0xdf, 0x29, 0x3e, 0x22, 0x3d, 0xdd, 0x3d,
  0x67, 0x4b, 0xfe, 0x3d, 0x71, 0xa1, 0x16, 0xbb, 0xa1, 0x91, 0x79, 0xbd,
  0x07, 0x8a, 0x84, 0xbd, 0xa7, 0xa5, 0x03, 0xbe, 0xf2, 0x6a, 0x4e, 0x3e,
  0xc0, 0x34, 0x38, 0x3b, 0xfe, 0xde, 0x80, 0x3e, 0x79, 0x73, 0x12, 0x3d,
  0xa5, 0x41, 0xa8, 0x3d, 0xdf, 0x13, 0x0d, 0x3e, 0xba, 0xeb, 0x8a, 0x3b,
  0xe8, 0xd4, 0x19, 0x3e, 0x0e, 0x4c, 0x84, 0xbd, 0x57, 0x4c, 0x8f, 0x3d,
  0x74, 0x5b, 0x07, 0x3e, 0x3c, 0x4e, 0x41, 0x3e, 0x35, 0xe4, 0x42, 0x3e,
  0x71, 0xe1, 0xa8, 0xbd, 0x44, 0xec, 0x6a, 0xbd, 0x65, 0x17, 0xe2, 0xbd,
  0x3b, 0xa6, 0x39, 0x3e, 0x66, 0xf5, 0xd0, 0x3d, 0x75, 0x38, 0xfe, 0xbd,
  0x48, 0x71, 0x0f, 0xbe, 0xc9, 0x35, 0x46, 0x3e, 0x9d, 0x60, 0x49, 0x3e,
  0x23, 0x30, 0x7d, 0xbe, 0x36, 0x91, 0xcd, 0xbc, 0xaf, 0x3c, 0x64, 0x3e,
  0xed, 0x7e, 0xf9, 0xba, 0xde, 0x40, 0xa8, 0x3c, 0x6b, 0xd3, 0x76, 0x3d,
  0x61, 0xcb, 0x79, 0x3e, 0x55, 0x47, 0x0d, 0xbe, 0x68, 0x3a, 0x79, 0xbe,
  0x8a, 0x3e, 0xde, 0x3d, 0x11, 0xd4, 0x84, 0x3e, 0x34, 0x52, 0x95, 0xbd,
  0x06, 0xc4, 0x6b, 0xbd, 0xb4, 0x67, 0xc8, 0x3d, 0xfd, 0xef, 0x85, 0x3d,
  0x65, 0xda, 0x98, 0xbc, 0x6f, 0x2c, 0xcd, 0xbd, 0xd1, 0x58, 0x5a, 0x3e,
  0xbd, 0x44, 0x94, 0x3d, 0x97, 0x47, 0x32, 0x3e, 0xcd, 0x76, 0xd4, 0x3d,
  0x5f, 0x8c, 0xe1, 0xbc, 0xd9, 0xaa, 0xba, 0xbd, 0xc1, 0x5d, 0x21, 0xbe,
  0x31, 0x9d, 0x2c, 0xbe, 0x1e, 0x48, 0x07, 0xbe, 0xa2, 0x66, 0xdd, 0x3d,
  0x4f, 0x40, 0x41, 0xbe, 0xca, 0x36, 0xcd, 0x3b, 0xb5, 0x10, 0x84, 0xbd,
  0x06, 0xf8, 0x2d, 0x3e, 0x9a, 0xe6, 0xc2, 0xbd, 0xd4, 0xad, 0x4e, 0xbe,
  0x08, 0x32, 0xc0, 0xbd, 0x51, 0x9a, 0x2c, 0xbe, 0x18, 0x23, 0x05, 0xbe,
  0x7b, 0x89, 0x4d, 0xbd, 0x49, 0x0f, 0xc6, 0x3d, 0x11, 0x55, 0xa9, 0xbd,
  0xb7, 0x55, 0x03, 0x3d, 0x20, 0x64, 0xae, 0xbe, 0x85, 0x6e, 0xed, 0x3d,
  0x21, 0x0d, 0xdf, 0x3d, 0x6c, 0x90, 0xe8, 0xbd, 0x05, 0xb9, 0xd9, 0x3d,
  0x81, 0xb6, 0x53, 0x3d, 0xe7, 0xbb, 0x31, 0x3d, 0x58, 0x1f, 0x8d, 0xbe,
  0x44, 0xfb, 0x8e, 0xbe, 0x1d, 0x4c, 0x8c, 0x3d, 0x51, 0x44, 0x8c, 0x3d,
  0xc1, 0xed, 0xd7, 0x3b, 0x5f, 0x78, 0xf7, 0xbd, 0x17, 0x69, 0x3e, 0xbe,
  0xd2, 0xcf, 0x70, 0x3d, 0x3b, 0x4d, 0x03, 0x3c, 0xeb, 0xb6, 0x8a, 0xbe,
  0xc6, 0x20, 0xaf, 0x3d, 0x91, 0x2e, 0x76, 0xbe, 0x57, 0x0d, 0x36, 0x3e,
  0xc0, 0x48, 0x6d, 0xbe, 0xe0, 0x44, 0x87, 0x3d, 0x13, 0x66, 0x08, 0xbe,
  0xc2, 0x2d, 0xba, 0x3d, 0xeb, 0xbb, 0x27, 0x3e, 0xdb, 0x68, 0x3f, 0xbe,
  0xc7, 0x19, 0x1f, 0xbe, 0x57, 0x07, 0xe5, 0x3d, 0x1b, 0x49, 0xd8, 0xbd,
  0x8c, 0x30, 0x9a, 0xbe, 0x1a, 0xcf, 0x8f, 0xbe, 0x7a, 0xeb, 0xec, 0x3a,
  0x5e, 0x83, 0xcb, 0x39, 0xca, 0x99, 0x26, 0xbe, 0x01, 0x92, 0x28, 0xbe,
  0x0e, 0x71, 0xdd, 0xbd, 0xa2, 0xe4, 0xec, 0xbd, 0x8d, 0xfb, 0xd9, 0xbd,
  0x7e, 0xab, 0x25, 0xbe, 0x6a, 0xdf, 0x67, 0x3d, 0x96, 0x00, 0x35, 0xbe,
  0x28, 0xf9, 0xc2, 0x3d, 0xe8, 0x50, 0xe9, 0x3d, 0x80, 0x5e, 0xc6, 0x3b,
  0x97, 0xe6, 0x02, 0xbd, 0x76, 0xac, 0x00, 0x3e, 0x8c, 0x88, 0x85, 0xbd,
  0x88, 0xc4, 0x1b, 0xbd, 0x25, 0x76, 0x4a, 0x3e, 0x80, 0x91, 0x67, 0xbd,
  0xb7, 0x7e, 0x7d, 0x3d, 0x8c, 0x91, 0x2c, 0xbe, 0x7d, 0xce, 0x49, 0xbe,
  0xb6, 0xb2, 0x06, 0x3e, 0x40, 0x2b, 0x20, 0xbe, 0x16, 0x41, 0xe0, 0x3d,
  0x4a, 0x14, 0x9c, 0xbe, 0x42, 0xb2, 0x2e, 0x3e, 0x7b, 0x8f, 0xa8, 0xbd,
  0x1a, 0xe5, 0xf6, 0xbd, 0xcb, 0x8e, 0xc6, 0xbe, 0xe8, 0xab, 0xa4, 0x3c,
  0xba, 0xd6, 0x0c, 0xbe, 0x62, 0x3e, 0x77, 0xbd, 0x1f, 0xc5, 0x18, 0xbe,
  0xec, 0xce, 0x5d, 0x3e, 0x8f, 0x2e, 0x2e, 0x3d, 0xa8, 0xa0, 0x88, 0xbe,
  0x2c, 0x19, 0x4e, 0x3d, 0x21, 0xb6, 0x79, 0xbe, 0xe4, 0x09, 0xc2, 0xbd,
  0x34, 0x33, 0x7a, 0xbe, 0xd0, 0x6c, 0x71, 0xbe, 0x23, 0x26, 0x3e, 0xbd,
  0x75, 0xed, 0x4e, 0x3d, 0x01, 0xc2, 0x55, 0xbd, 0xfc, 0xb7, 0xcc, 0xbe,
  0x94, 0x9d, 0x55, 0x3d, 0x37, 0x1b, 0x60, 0xbe, 0x99, 0x48, 0x9a, 0x3d,
  0x61, 0x39, 0x2a, 0xbe, 0xaf, 0xb2, 0x23, 0xbd, 0x58, 0x3e, 0x72, 0x3d,
  0xbe, 0xba, 0x86, 0xbe, 0xf9, 0xf8, 0x97, 0xbe, 0xf3, 0xc6, 0x11, 0xbe,
  0xc6, 0xda, 0xe6, 0xbb, 0xf1, 0x03, 0x76, 0xbe, 0x85, 0x67, 0xaf, 0x3d,
  0x35, 0x38, 0xb5, 0xbd, 0xc4, 0x89, 0x8b, 0xbe, 0x8c, 0x55, 0xe8, 0x3d,
  0xf6, 0x0d, 0xab, 0xbe, 0x2b, 0x1f, 0x37, 0xbd, 0x1b, 0xaa, 0x9f, 0xbd,
  0xc0, 0xcd, 0x3f, 0xbe, 0xd6, 0xbe, 0xa3, 0x3d, 0xda, 0x16, 0x17, 0xbe,
  0x3a, 0x15, 0x26, 0xbe, 0xf3, 0xff, 0xbc, 0xbe, 0x5b, 0x50, 0xd7, 0xbc,
  0xbb, 0x65, 0x82, 0xbd, 0x7f, 0x91, 0x37, 0xbd, 0x84, 0xe9, 0xc4, 0xbe,
  0x6e, 0x22, 0x90, 0xbe, 0x7b, 0xd2, 0x5d, 0x3b, 0xa0, 0x5f, 0x2e, 0x3d,
  0x94, 0x98, 0xcf, 0xbd, 0xf9, 0x55, 0x9b, 0x3c, 0xf3, 0xaa, 0x1c, 0xbc,
  0x1f, 0xae, 0x0a, 0x3e, 0xb3, 0xfa, 0xae, 0x3d, 0x89, 0xaa, 0x8a, 0x3d,
  0xc6, 0xea, 0xe4, 0x3c, 0xa2, 0xee, 0xff, 0xff, 0x04, 0x00, 0x00, 0x00,
  0x00, 0x0a, 0x00, 0x00, 0x96, 0x17, 0xb4, 0xbe, 0x4d, 0x35, 0x33, 0x3e,
  0x40, 0x1f, 0xf2, 0x3c, 0x92, 0x9c, 0xe1, 0xbd, 0xc4, 0xbc, 0x9f, 0x3d,
  0x35, 0xae, 0x4d, 0xbd, 0xd3, 0x0a, 0xcf, 0xbe, 0xbc, 0x2e, 0xc5, 0xbd,
  0xa0, 0x5e, 0x54, 0xbe, 0x9a, 0x8b, 0x25, 0x3c, 0x63, 0x9b, 0xa5, 0x3d,
  0xc7, 0x8e, 0xc7, 0xbe, 0x81, 0xeb, 0x6a, 0xbe, 0x24, 0x6f, 0xbc, 0xbe,
  0xf5, 0x99, 0xc2, 0xba, 0xcd, 0xcc, 0x4c, 0xbc, 0x84, 0xad, 0x29, 0xbd,
  0xbb, 0x25, 0x5f, 0xbe, 0x6b, 0xa7, 0x77, 0xbe, 0x71, 0xde, 0x1a, 0xbe,
  0xa4, 0xb8, 0x41, 0x3e, 0x3d, 0x4c, 0x01, 0xbd, 0xb4, 0x51, 0xed, 0x3d,
  0x59, 0x76, 0x84, 0xbd, 0x81, 0x55, 0x96, 0xbe, 0xf8, 0x68, 0x15, 0x3e,
  0x25, 0xcd, 0x21, 0xbe, 0xef, 0x18, 0x33, 0xbe, 0xd4, 0xb7, 0x94, 0xbe,
  0x11, 0xf1, 0x76, 0xbe, 0xe7, 0xca, 0xb8, 0xbe, 0x98, 0xd6, 0x23, 0x3d,
  0x9a, 0x2e, 0xf4, 0x3d, 0x3f, 0x41, 0x62, 0xbe, 0x93, 0xce, 0x1c, 0xbe,
  0x66, 0xd2, 0x46, 0x3e, 0x16, 0x6b, 0x64, 0x3d, 0x47, 0xe8, 0x99, 0xbd,
  0xb1, 0x1e, 0x06, 0xbd, 0x1d, 0x04, 0x14, 0xbe, 0xa7, 0xc3, 0xc5, 0x3c,
  0x28, 0x2a, 0x1f, 0x3d, 0x34, 0xde, 0x6d, 0xbe, 0x30, 0xfc, 0x8c, 0x3c,
  0x47, 0x5c, 0x2a, 0xbe, 0xb7, 0xf6, 0xf9, 0xbd, 0x2c, 0xb8, 0xdd, 0x3d,
  0x45, 0xcb, 0x0f, 0x3e, 0x4c, 0x71, 0x24, 0x3d, 0xd3, 0xe9, 0x8a, 0xbe,
  0x19, 0x7b, 0x0c, 0x3e, 0x35, 0xc9, 0x5a, 0xbd, 0xaa, 0x93, 0x32, 0x3c,
  0x85, 0xd2, 0xb8, 0xbd, 0x85, 0x5b, 0x6b, 0x3d, 0xf2, 0x6e, 0x8e, 0x3e,
  0xcb, 0x29, 0x31, 0xbe, 0xd2, 0xf1, 0x04, 0x3e, 0x8b, 0x13, 0x42, 0x3e,
  0x1e, 0x9b, 0x6d, 0x3e, 0x62, 0x1e, 0xcb, 0xbc, 0x52, 0x0a, 0x6f, 0x3e,
  0xf5, 0xda, 0x28, 0x3e, 0x47, 0x44, 0xb1, 0x3e, 0xae, 0x58, 0x46, 0xbe,
  0x79, 0xea, 0xcc, 0x3c, 0x80, 0xf9, 0xac, 0x3d, 0x59, 0x30, 0x27, 0xbe,
  0x38, 0xd1, 0x0c, 0x3e, 0x1f, 0xc1, 0x1d, 0xbe, 0x74, 0x45, 0xec, 0xbd,
  0x00, 0x49, 0x61, 0x3e, 0xe6, 0xa3, 0x44, 0xbd, 0xde, 0xe2, 0x5f, 0xbe,
  0xa7, 0x4b, 0x85, 0xbc, 0x2e, 0xa2, 0x03, 0xbd, 0xee, 0x3f, 0x11, 0xbe,
  0x75, 0xbb, 0x17, 0x3e, 0xb9, 0xa1, 0x2e, 0xbe, 0xaa, 0x7e, 0x39, 0xbe,
  0x2f, 0x7f, 0x19, 0x3e, 0x20, 0x71, 0x9f, 0x3d, 0x2f, 0x48, 0xab, 0xbd,
  0x88, 0xfa, 0x7a, 0xbd, 0x35, 0xff, 0x19, 0xbe, 0x1a, 0xc6, 0x04, 0xbe,
  0xd3, 0x6f, 0xd2, 0xbd, 0x11, 0x1f, 0x7f, 0xbe, 0xbc, 0xb1, 0xa8, 0x3d,
  0xf8, 0xb5, 0x59, 0x3d, 0x81, 0x55, 0xb7, 0x3d, 0x40, 0xa4, 0x49, 0x3d,
  0xcb, 0x08, 0x01, 0x3e, 0x70, 0xa7, 0x63, 0xbe, 0xea, 0xfc, 0x83, 0xbd,
  0x3c, 0xe6, 0x49, 0xbe, 0x23, 0x22, 0x59, 0xbc, 0x4c, 0x4e, 0x16, 0x3e,
  0x11, 0x36, 0x39, 0xbe, 0xd5, 0xc9, 0xba, 0xbd, 0x51, 0x8d, 0x19, 0x3e,
  0x01, 0xf4, 0x22, 0xbe, 0x2e, 0x7b, 0xaf, 0xbd, 0x0d, 0x20, 0x0f, 0x3d,
  0x9b, 0x45, 0xb1, 0x3d, 0x6a, 0xb7, 0xf3, 0x3d, 0xfb, 0x17, 0x06, 0xbe,
  0xd1, 0xac, 0x7b, 0xbe, 0x0f, 0xb1, 0x64, 0x3e, 0x57, 0xe1, 0x38, 0x3e,
  0xd7, 0x70, 0x88, 0x3d, 0x56, 0xc1, 0x53, 0xbe, 0xd7, 0x84, 0xfe, 0xbd,
  0x67, 0xd2, 0x08, 0x3e, 0x36, 0xe4, 0x71, 0x3d, 0x21, 0x56, 0x3f, 0xbe,
  0xcb, 0xb2, 0x2d, 0x3c, 0xb4, 0x2d, 0x7a, 0xbd, 0xc2, 0xd0, 0x3a, 0xbe,
  0x25, 0x00, 0xd8, 0x3d, 0x4d, 0xcd, 0x56, 0x3e, 0x66, 0x07, 0x0e, 0xbd,
  0x1e, 0xc5, 0x18, 0xbe, 0x20, 0x44, 0x1f, 0xbe, 0x3d, 0x76, 0x5f, 0x3e,
  0x47, 0xf3, 0xd0, 0x3c, 0x80, 0xa9, 0x75, 0x3d, 0xc0, 0x35, 0x44, 0x3e,
  0x74, 0xe3, 0xba, 0xbd, 0x22, 0x3f, 0x4c, 0xbd, 0x7a, 0xd9, 0x11, 0x3e,
  0x16, 0x85, 0x42, 0xbe, 0xe5, 0xbd, 0x80, 0x3d, 0xb2, 0xda, 0x99, 0xbd,
  0x35, 0x67, 0x3b, 0xbe, 0x56, 0x24, 0x4a, 0x3e, 0x55, 0x1e, 0x77, 0x3d,
  0x38, 0xcb, 0xf6, 0x3d, 0x06, 0xf6, 0x58, 0x3c, 0x06, 0xe7, 0x55, 0xbe,
  0x35, 0x65, 0x93, 0x3e, 0x86, 0xa5, 0xf9, 0x3c, 0xa9, 0x4c, 0x0d, 0x3e,
  0x66, 0x0b, 0x02, 0xbc, 0x69, 0x6f, 0x56, 0xbd, 0x03, 0x7f, 0x2b, 0xbe,
  0x43, 0xc4, 0x77, 0x3d, 0x7f, 0x7e, 0x2e, 0x3d, 0x13, 0x81, 0x1d, 0xbe,
  0x8f, 0x07, 0x91, 0x3d, 0xcb, 0x6c, 0xc8, 0x3d, 0x9d, 0xa9, 0xc6, 0x3b,
  0x18, 0xc2, 0x27, 0xbe, 0x64, 0x58, 0x14, 0x3e, 0xcd, 0x54, 0xa9, 0x3d,
  0x3a, 0xf2, 0xab, 0x3e, 0xe2, 0x75, 0x15, 0xbe, 0x97, 0x81, 0x99, 0x3d,
  0xbb, 0x75, 0x8e, 0x3e, 0xa3, 0x3e, 0xd1, 0x3e, 0x32, 0xa8, 0xfa, 0xbd,
  0x73, 0xc6, 0xff, 0xbd, 0x4a, 0x1f, 0x76, 0x3d, 0x1a, 0x5d, 0x45, 0xbc,
  0x6a, 0xb4, 0x01, 0xbe, 0x9d, 0x9b, 0xbb, 0xbd, 0xdd, 0x3b, 0x33, 0x3e,
  0x74, 0x2b, 0x5a, 0xbe, 0x2e, 0xf4, 0xaf, 0xbd, 0x47, 0x21, 0x77, 0x3e,
  0xc6, 0x94, 0x91, 0x3d, 0x26, 0xe2, 0x78, 0x3e, 0x27, 0xc3, 0x25, 0x3d,
  0x63, 0x97, 0xe4, 0x3d, 0x53, 0x3b, 0x9f, 0x3b, 0x8b, 0x2d, 0xa8, 0x3e,
  0xf4, 0x61, 0x13, 0x3e, 0xad, 0x61, 0xe3, 0x3d, 0x14, 0x4f, 0xf0, 0xbc,
  0x82, 0x76, 0x4a, 0x3d, 0xb1, 0xe8, 0x23, 0x3d, 0x17, 0x73, 0x3a, 0xbe,
  0xb5, 0x89, 0x07, 0x3e, 0x71, 0x91, 0x5c, 0xbe, 0x18, 0x3b, 0x98, 0x3d,
  0xfd, 0xad, 0x5d, 0xbe, 0x99, 0x79, 0xfd, 0xbd, 0x61, 0xb9, 0x15, 0x3e,
  0x79, 0x85, 0x6b, 0x3d, 0xb9, 0xbf, 0xb7, 0xbc, 0x8a, 0x6d, 0xd4, 0x3b,
  0xea, 0xfd, 0xa7, 0xbd, 0x36, 0x92, 0xee, 0x3b, 0x4d, 0x65, 0x14, 0x3e,
  0x5d, 0x86, 0x27, 0x3d, 0x01, 0x33, 0xbf, 0xbb, 0xf8, 0xae, 0x6b, 0x3e,
  0xd8, 0x4b, 0x49, 0xbe, 0x13, 0x10, 0x43, 0xbd, 0x0b, 0xa0, 0x5b, 0x3e,
  0x74, 0x37, 0x51, 0x3e, 0xdd, 0xcf, 0x8c, 0xbd, 0xe1, 0xce, 0x50, 0xbe,
  0x8c, 0xa6, 0x9f, 0xbd, 0x85, 0xe0, 0xb6, 0xbd, 0x4a, 0xbf, 0x34, 0xbe,
  0x4a, 0x47, 0x86, 0xbe, 0x16, 0xaf, 0x1e, 0xbe, 0x64, 0x56, 0xd1, 0xbd,
  0x6f, 0x46, 0x62, 0x3d, 0x99, 0x4b, 0x37, 0x3d, 0x00, 0xc3, 0x3a, 0xbc,
  0x38, 0xa0, 0x50, 0xbe, 0x00, 0xbb, 0xca, 0xbd, 0xb3, 0x2e, 0x86, 0xbe,
  0x91, 0x4d, 0xe5, 0x3c, 0xfc, 0x40, 0x30, 0xbe, 0x12, 0x94, 0xbc, 0xbe,
  0x25, 0xac, 0x09, 0x3e, 0xbd, 0x8c, 0x42, 0xbe, 0x0e, 0xc7, 0x41, 0xbe,
  0x86, 0x04, 0x46, 0x3e, 0x81, 0x31, 0x2f, 0xbe, 0xf7, 0x32, 0x77, 0xbc,
  0xc1, 0x8a, 0x38, 0x3e, 0xf2, 0x8e, 0x18, 0xbc, 0xcf, 0xc8, 0x88, 0xbd,
  0xa3, 0xee, 0xa0, 0xbe, 0x4e, 0x7c, 0x62, 0x3d, 0x5a, 0xa7, 0x5a, 0xbe,
  0x8a, 0x43, 0x17, 0xbe, 0x3b, 0xd8, 0x81, 0xbe, 0x25, 0x67, 0x3e, 0x3e,
  0xb7, 0xb1, 0xa5, 0xba, 0xa2, 0x93, 0x65, 0x3d, 0x36, 0x9e, 0x8c, 0xba,
  0x27, 0xdc, 0x81, 0x3c, 0xad, 0x1f, 0xf0, 0xbd, 0x9d, 0x95, 0x41, 0x3a,
  0x78, 0x0a, 0xda, 0x3d, 0x82, 0x85, 0xb1, 0xbb, 0x2c, 0x9f, 0x43, 0xbe,
  0xf8, 0x5f, 0x93, 0xbe, 0xd5, 0x67, 0x9d, 0x3d, 0xf0, 0x95, 0x9a, 0xbd,
  0x27, 0x1c, 0x6e, 0xbe, 0xed, 0xfa, 0xff, 0xbd, 0x7e, 0xfa, 0xac, 0x3d,
  0xa6, 0x8f, 0x55, 0xbe, 0xb0, 0x72, 0xad, 0x3d, 0x9b, 0x03, 0xc8, 0x3d,
  0x3d, 0x10, 0x3f, 0xbe, 0x36, 0xe8, 0xbc, 0x3d, 0xb6, 0x75, 0xe9, 0x3d,
  0xa6, 0x25, 0x27, 0xbe, 0xf0, 0xc1, 0xbe, 0x3c, 0x56, 0xf9, 0x1e, 0xbe,
  0x55, 0x69, 0x44, 0x3e, 0xde, 0x25, 0xc9, 0xbd, 0x7c, 0x0d, 0xe9, 0xbd,
  0xb7, 0xa3, 0x72, 0xbe, 0xc4, 0x0b, 0x5a, 0x3d, 0x4c, 0x2a, 0xb3, 0x3c,
  0x55, 0x24, 0xdd, 0xbd, 0xf5, 0xac, 0x14, 0xbc, 0x24, 0x3a, 0x93, 0xbe,
  0xf0, 0x5a, 0x16, 0xbe, 0xc6, 0x9b, 0x68, 0xbe, 0xfe, 0x43, 0x2a, 0xbd,
  0x84, 0x1d, 0x52, 0xbe, 0xf6, 0xb4, 0x3b, 0xbe, 0xd2, 0x58, 0x99, 0x3c,
  0xd1, 0xc4, 0x32, 0x3d, 0x62, 0x63, 0x32, 0xbe, 0x7f, 0x2e, 0xc3, 0x3d,
  0x44, 0xe1, 0x73, 0xbc, 0x03, 0x19, 0x05, 0x3e, 0xba, 0x64, 0x02, 0x3c,
  0xd8, 0x20, 0x2b, 0x3e, 0x7e, 0x56, 0x24, 0x3e, 0x0a, 0xcc, 0x8f, 0xbe,
  0xaf, 0xb4, 0x17, 0xbb, 0x08, 0x2c, 0x1e, 0xbe, 0x5a, 0x4d, 0xd2, 0xbd,
  0xed, 0xde, 0x1a, 0xbe, 0x55, 0x0a, 0xa7, 0x3e, 0xad, 0x2c, 0xab, 0xbd,
  0xfd, 0xef, 0x26, 0x3e, 0x01, 0x87, 0x1e, 0x3c, 0x3e, 0xfb, 0x33, 0xbe,
  0xe9, 0x87, 0x17, 0x3e, 0xac, 0xbb, 0x4b, 0xbb, 0xd3, 0x0d, 0x10, 0x3e,
  0x5b, 0x85, 0xa4, 0x3d, 0x79, 0xef, 0xab, 0xba, 0x70, 0x65, 0xc4, 0xbd,
  0x62, 0xb8, 0x71, 0x3c, 0x5b, 0xdb, 0x14, 0x3e, 0xdb, 0x8b, 0x1f, 0xbe,
  0xe6, 0x75, 0x17, 0xbd, 0xcf, 0xca, 0x07, 0x3e, 0x3e, 0x83, 0x67, 0x3e,
  0x46, 0xef, 0xca, 0xbb, 0x09, 0xa6, 0x77, 0x3e, 0x50, 0x65, 0xac, 0xbc,
  0x62, 0xb9, 0xaf, 0xbe, 0x0b, 0xc8, 0x2d, 0x3d, 0xf6, 0x40, 0xb6, 0xbd,
  0xf8, 0x9e, 0x4c, 0x3e, 0x02, 0x49, 0x28, 0xbd, 0xe6, 0x01, 0xdc, 0x3d,
  0xf0, 0x0b, 0x29, 0x3e, 0xca, 0xde, 0x9d, 0xbc, 0x02, 0x51, 0x9d, 0xbe,
  0x74, 0xf9, 0x97, 0xbd, 0x79, 0x00, 0x3e, 0xbe, 0xcc, 0x9e, 0x2b, 0x3e,
  0xaa, 0x23, 0x24, 0x3d, 0xd4, 0x57, 0x42, 0x3d, 0xd4, 0xde, 0xc8, 0x3d,
  0xa9, 0x51, 0x94, 0x3e, 0x5b, 0x99, 0x87, 0xbe, 0xee, 0xab, 0x9b, 0xbe,
  0x0f, 0x2c, 0xa3, 0x3d, 0x22, 0x9f, 0x2f, 0xbc, 0x1a, 0xcc, 0x49, 0xbe,
  0x79, 0xfb, 0xaf, 0xbd, 0x8d, 0x31, 0x5f, 0x3c, 0xc9, 0x9a, 0x95, 0xbe,
  0x87, 0x6a, 0x25, 0xbe, 0x0c, 0x31, 0x19, 0x3e, 0xd3, 0x34, 0x73, 0xbe,
  0x87, 0xf5, 0x16, 0x3e, 0xf4, 0x50, 0x45, 0x3d, 0x01, 0xb5, 0x74, 0xbe,
  0xa1, 0x59, 0xd9, 0xbd, 0x33, 0x97, 0xfd, 0x3d, 0x7e, 0x3a, 0x6c, 0xbc,
  0x45, 0x15, 0x7d, 0x3e, 0xa2, 0x81, 0xb7, 0x3c, 0x62, 0x04, 0x35, 0xbe,
  0x55, 0x49, 0x02, 0xbe, 0x86, 0xac, 0x8c, 0x3e, 0x30, 0x09, 0x2b, 0xbd,
  0x88, 0x95, 0x09, 0xbe, 0x93, 0x32, 0x9f, 0xbd, 0x61, 0x08, 0x8f, 0x3d,
  0x63, 0x14, 0xb8, 0xbd, 0xc6, 0xba, 0x67, 0x3e, 0x3e, 0xc2, 0x94, 0xbd,
  0xe7, 0xd5, 0xff, 0x3d, 0x54, 0xca, 0x20, 0xbe, 0xd7, 0x3d, 0x94, 0xbc,
  0xa0, 0xe6, 0x9d, 0x3d, 0x1e, 0xa0, 0x0c, 0x3e, 0x5f, 0x37, 0xe5, 0xbd,
  0x69, 0x85, 0x31, 0x3c, 0x78, 0x1e, 0x81, 0xbe, 0x83, 0x3a, 0x4e, 0xbe,
  0x43, 0x51, 0x7a, 0xbe, 0x6e, 0x29, 0xf6, 0xbd, 0x15, 0x61, 0x5d, 0xbd,
  0xac, 0x3e, 0x7b, 0xbe, 0x57, 0xb2, 0x4a, 0x3e, 0x57, 0x4b, 0x01, 0x3c,
  0x65, 0x48, 0xa1, 0xbe, 0xea, 0x29, 0x9c, 0xbd, 0x99, 0x8d, 0xed, 0x3c,
  0xaa, 0x20, 0x3b, 0xbe, 0x4d, 0xc2, 0x31, 0xbe, 0x4d, 0x4b, 0xfd, 0x3d,
  0xd2, 0xb3, 0x3a, 0x3e, 0x79, 0x13, 0xf7, 0x3d, 0x9f, 0x45, 0x55, 0xbe,
  0x92, 0x45, 0xc6, 0xbd, 0x93, 0x5d, 0xd0, 0x3b, 0x43, 0x8c, 0xb8, 0x3b,
  0xad, 0x83, 0x08, 0xbe, 0x5f, 0xe8, 0x72, 0x3e, 0xac, 0x58, 0xc4, 0xbc,
  0xaf, 0x94, 0xaf, 0x3e, 0x81, 0x5c, 0x08, 0xbd, 0x97, 0x56, 0x12, 0xbe,
  0xf2, 0xc0, 0x90, 0xbe, 0xeb, 0x69, 0x56, 0x3c, 0x40, 0x89, 0x20, 0x3e,
  0xe3, 0xf4, 0x81, 0xbe, 0x7d, 0x0f, 0x8f, 0x3e, 0xbf, 0xf9, 0x2d, 0x3e,
  0x6e, 0x73, 0x75, 0xbd, 0xf4, 0x2b, 0x62, 0x3e, 0x91, 0x84, 0x2b, 0xbe,
  0x08, 0xb5, 0xd6, 0x3d, 0x12, 0x1b, 0x04, 0xbe, 0xdb, 0xcb, 0x94, 0x3d,
  0x5b, 0xd0, 0xde, 0x3d, 0xde, 0xb9, 0x46, 0x3e, 0x2b, 0x81, 0x48, 0xbe,
  0xeb, 0x68, 0x84, 0x3c, 0x85, 0x05, 0x60, 0x3e, 0x2f, 0x3e, 0x89, 0xbd,
  0xbd, 0x5d, 0x8f, 0x3e, 0x7a, 0x5e, 0x48, 0x3d, 0x5c, 0x65, 0x44, 0xbe,
  0x45, 0x2b, 0x19, 0xbd, 0xff, 0x3f, 0x09, 0xbb, 0x2d, 0x9c, 0x1d, 0xbe,
  0x91, 0xa6, 0x11, 0xbe, 0x22, 0x05, 0x71, 0xbe, 0x24, 0xbe, 0x21, 0xbe,
  0x2a, 0x5e, 0xad, 0x3d, 0xeb, 0x5b, 0x5e, 0xbe, 0x89, 0x97, 0x8f, 0x3d,
  0xc8, 0x7e, 0xf0, 0x3c, 0x00, 0x3b, 0x00, 0xbe, 0x79, 0x0a, 0x13, 0xbe,
  0x77, 0x6e, 0xcc, 0xb9, 0x5a, 0x12, 0x42, 0x3e, 0x65, 0xea, 0x54, 0x3e,
  0xe5, 0x94, 0x8b, 0x3d, 0xf2, 0x0d, 0xc3, 0x3d, 0x50, 0x77, 0x47, 0x3e,
  0x29, 0x9f, 0x18, 0xbd, 0x15, 0xcc, 0x13, 0xbe, 0x67, 0xef, 0xc8, 0x3d,
  0x56, 0x32, 0x41, 0x3d, 0xcb, 0xcd, 0xae, 0x3c, 0x67, 0xbb, 0x42, 0xbc,
  0x00, 0x75, 0xa5, 0xbd, 0x17, 0x34, 0x81, 0x3e, 0xe5, 0xca, 0x85, 0x3e,
  0x9e, 0x8c, 0x0c, 0x3e, 0x35, 0x18, 0x7b, 0xbd, 0x3a, 0x79, 0xff, 0xbc,
  0xd4, 0xbb, 0x7a, 0x3d, 0x59, 0x37, 0x8d, 0x3e, 0x80, 0xb5, 0xae, 0x3e,
  0x8d, 0xbf, 0x79, 0x3d, 0xa8, 0x86, 0x10, 0x3e, 0x1f, 0x53, 0x25, 0xbe,
  0x02, 0x7a, 0x26, 0xbe, 0xeb, 0xbf, 0x8e, 0x3e, 0xe8, 0x3a, 0x0d, 0x3e,
  0x3e, 0xe4, 0xdb, 0x3e, 0x71, 0xaa, 0x6d, 0x3d, 0x47, 0x61, 0x50, 0xbd,
  0x7d, 0xe7, 0x81, 0x3d, 0x4a, 0x24, 0x51, 0x3d, 0x89, 0x96, 0xc6, 0x3c,
  0x0a, 0xc2, 0x11, 0xbe, 0x0e, 0x1b, 0xdb, 0x3d, 0xcf, 0x36, 0x66, 0x3e,
  0x8e, 0x53, 0xce, 0x3e, 0xfe, 0x39, 0xf9, 0x3d, 0xa9, 0x49, 0x84, 0x3d,
  0xb0, 0x5f, 0x7d, 0x3e, 0xed, 0x40, 0x19, 0xbd, 0x9a, 0xe5, 0x31, 0x3d,
  0x4d, 0x13, 0x4a, 0x3c, 0xb9, 0xba, 0x97, 0xbc, 0x0d, 0x9d, 0x01, 0x3e,
  0xdb, 0xa2, 0xe6, 0xbd, 0x44, 0xcb, 0x08, 0xbe, 0x38, 0xf3, 0x53, 0x3e,
  0x66, 0x6d, 0x8e, 0x3d, 0xe9, 0x6b, 0x23, 0x3e, 0x21, 0x85, 0x13, 0x3d,
  0x52, 0xc3, 0x05, 0xbe, 0xde, 0x32, 0xca, 0xbc, 0x5c, 0xb7, 0x4e, 0x3e,
  0x8f, 0x01, 0xb9, 0xbc, 0xd8, 0x2a, 0x63, 0x3d, 0x68, 0x48, 0x20, 0x3e,
  0x94, 0x23, 0x46, 0xbe, 0xb7, 0xcf, 0x0e, 0xbe, 0xd2, 0x90, 0xb1, 0xbd,
  0x08, 0xda, 0x1a, 0x3c, 0x6a, 0xba, 0x90, 0x3d, 0x11, 0x22, 0x14, 0x3e,
  0xaa, 0xb5, 0x0f, 0x3e, 0x59, 0xd5, 0x15, 0xbe, 0x96, 0x6a, 0x19, 0xbe,
  0x2c, 0x52, 0x28, 0xbe, 0xb8, 0x19, 0x9b, 0xbe, 0xe6, 0x6b, 0x07, 0xbe,
  0xc6, 0xc2, 0xd7, 0x3c, 0x4a, 0x8e, 0xf6, 0xbd, 0x1d, 0x7f, 0xc9, 0x3d,
  0xf8, 0x2c, 0xb9, 0xbd, 0xa7, 0x14, 0x7a, 0xbe, 0x05, 0xb8, 0x04, 0xbe,
  0x4c, 0xcf, 0x83, 0xbe, 0x77, 0xaa, 0xb1, 0x3d, 0x26, 0x19, 0xfe, 0xbc,
  0xe0, 0x2d, 0x75, 0xbd, 0x80, 0x91, 0xf8, 0xbd, 0xdf, 0x50, 0x64, 0x3e,
  0x69, 0xa2, 0x1c, 0xbe, 0xd6, 0x54, 0x5c, 0x3b, 0x86, 0x20, 0xe0, 0x3c,
  0x74, 0xce, 0x38, 0xb9, 0x10, 0xb0, 0xbe, 0xbe, 0x44, 0xfa, 0x01, 0x3e,
  0xf1, 0x49, 0xc3, 0xbd, 0x35, 0x74, 0xf4, 0x3d, 0x5c, 0x71, 0x3d, 0xbc,
  0xa3, 0xc9, 0xe3, 0xbd, 0x2e, 0x4a, 0xbf, 0x3d, 0x56, 0x93, 0x8a, 0x3e,
  0xbc, 0x42, 0x58, 0x3e, 0x16, 0xaa, 0x0a, 0x3e, 0xf0, 0xb6, 0x2d, 0xbc,
  0xbd, 0x61, 0x12, 0xbd, 0xc0, 0x50, 0x02, 0xbe, 0x83, 0x7b, 0xdf, 0x3d,
  0x7b, 0xcf, 0x35, 0x3e, 0xf4, 0x26, 0x09, 0x3d, 0xfc, 0x78, 0xfd, 0x3d,
  0x2e, 0x20, 0xef, 0xbd, 0xca, 0x25, 0xf2, 0x3d, 0x71, 0x30, 0x35, 0x3d,
  0x14, 0xe6, 0x24, 0x3e, 0x7e, 0xc8, 0x3e, 0xbe, 0xc8, 0x30, 0xf6, 0x3c,
  0xb7, 0x4b, 0xba, 0x3d, 0x8e, 0xff, 0xcc, 0x3d, 0xeb, 0x61, 0x60, 0xbe,
  0xbe, 0x4c, 0xce, 0xbd, 0x24, 0x99, 0xeb, 0x3c, 0x93, 0x6c, 0xc9, 0x3c,
  0xfd, 0xa8, 0x32, 0xbe, 0xfd, 0x85, 0xde, 0xbe, 0x98, 0x8c, 0x84, 0xbd,
  0x9d, 0x21, 0x15, 0x3c, 0xbb, 0x2f, 0x53, 0x3e, 0xaf, 0x13, 0xe4, 0x3d,
  0xa1, 0x25, 0xa2, 0x3c, 0xb8, 0xba, 0x07, 0x3e, 0x76, 0xe2, 0x9f, 0xbe,
  0xee, 0x8d, 0x58, 0x3d, 0x9f, 0x79, 0x9d, 0x3d, 0x94, 0x31, 0xc9, 0x3d,
  0xcb, 0xb0, 0x55, 0xbd, 0xaf, 0x2e, 0xa4, 0xbb, 0x0b, 0xb9, 0x08, 0x3e,
  0xf3, 0x15, 0x94, 0xbe, 0xb0, 0xbd, 0x60, 0xbe, 0x04, 0x22, 0x82, 0xbc,
  0x33, 0x71, 0x6f, 0x3e, 0x5f, 0x42, 0x12, 0xbe, 0x60, 0xf5, 0x36, 0x3e,
  0x4c, 0x19, 0x42, 0x3e, 0x73, 0x0a, 0xbb, 0xbe, 0x4d, 0x44, 0x19, 0xbe,
  0x33, 0xd0, 0x9b, 0xbd, 0x5b, 0x42, 0x55, 0xbe, 0x40, 0xf2, 0x60, 0xbe,
  0x43, 0xc5, 0x42, 0x3d, 0xbe, 0xbc, 0x5a, 0xbe, 0xbb, 0xdb, 0xeb, 0xbd,
  0x32, 0xc5, 0x3e, 0xbe, 0xda, 0xbb, 0x56, 0xbb, 0x0b, 0xb1, 0x8c, 0xbe,
  0x10, 0x70, 0xf5, 0xbd, 0xfb, 0x26, 0x90, 0xbc, 0xae, 0x2d, 0x55, 0xbe,
  0xd2, 0x42, 0xf3, 0x3d, 0xbe, 0x6e, 0x6a, 0x3e, 0x92, 0x24, 0x8b, 0xbd,
  0xf6, 0x1e, 0x4f, 0xbe, 0x68, 0xf4, 0x4e, 0xbe, 0xf6, 0x1b, 0xdc, 0x3d,
  0x5b, 0x4f, 0x23, 0xbe, 0x78, 0x06, 0x4e, 0x3e, 0xdc, 0x8d, 0xd5, 0x3d,
  0x4e, 0x04, 0x21, 0xbe, 0x40, 0x24, 0x08, 0xbe, 0xbf, 0x2d, 0x9f, 0x3d,
  0x36, 0xc6, 0xb9, 0x3d, 0x2e, 0x99, 0x16, 0xbd, 0xe5, 0x0d, 0x0e, 0xbe,
  0x2e, 0xc2, 0x2a, 0xbe, 0x7a, 0xd1, 0x6f, 0xbe, 0x84, 0xa5, 0x0c, 0xbd,
  0x3d, 0xd4, 0x25, 0x3e, 0xc3, 0x6c, 0xe2, 0xbd, 0x29, 0x1c, 0x7a, 0xbe,
  0x01, 0xdc, 0xfb, 0xbd, 0x19, 0x85, 0xfa, 0xbd, 0xff, 0x22, 0xfc, 0xbd,
  0x4f, 0x65, 0x25, 0xbd, 0xc5, 0xc3, 0xb1, 0x3d, 0x35, 0x1a, 0xce, 0x3d,
  0xc8, 0x60, 0xc1, 0xbd, 0x02, 0x26, 0x80, 0xbd, 0x3c, 0x7a, 0xd5, 0xbd,
  0x0f, 0xd1, 0xc7, 0x3d, 0x57, 0x45, 0x09, 0x3e, 0x69, 0x02, 0x82, 0xbe,
  0xca, 0x78, 0x35, 0x3d, 0xc6, 0xbb, 0x3b, 0xbd, 0x2b, 0x24, 0x24, 0xbe,
  0x0d, 0x51, 0x61, 0xbe, 0x5e, 0x4a, 0x72, 0x3e, 0x89, 0x67, 0xb5, 0xbd,
  0x4a, 0xfc, 0x19, 0xbd, 0x9c, 0x3b, 0x8b, 0x3b, 0x0e, 0x94, 0x92, 0x3e,
  0x57, 0xa8, 0x40, 0xbe, 0x72, 0x5a, 0x53, 0xbe, 0x97, 0xf6, 0x9c, 0x3d,
  0x00, 0x7e, 0x8a, 0x3d, 0xf3, 0x96, 0x1d, 0x3e, 0x34, 0x06, 0x2b, 0x3e,
  0xd3, 0x7f, 0x40, 0xbd, 0xe0, 0x7b, 0x83, 0xbd, 0x6c, 0x60, 0xa8, 0xbd,
  0xfa, 0x26, 0xa2, 0xbd, 0x91, 0xed, 0x02, 0xbe, 0x88, 0x5d, 0x10, 0xbe,
  0x86, 0xd0, 0x0a, 0xbe, 0xb0, 0x1a, 0x76, 0x3e, 0xdf, 0xc9, 0xa5, 0xbd,
  0x28, 0x36, 0xf8, 0xbd, 0xbc, 0x11, 0xb4, 0xbd, 0x19, 0x38, 0x7f, 0xbe,
  0x2d, 0xe2, 0xae, 0xbe, 0x2a, 0xcb, 0x31, 0xbd, 0x74, 0x8c, 0x14, 0xbd,
  0x50, 0xd6, 0xf9, 0xbd, 0x78, 0x4d, 0x28, 0x3d, 0xd6, 0x42, 0x09, 0xbd,
  0x40, 0xbd, 0xb6, 0xbe, 0x62, 0xb2, 0x26, 0x3c, 0x43, 0xac, 0x6f, 0xbe,
  0x0e, 0x57, 0x0f, 0x3d, 0xd2, 0x45, 0x25, 0xbe, 0x51, 0x98, 0x1f, 0x3e,
  0xf6, 0xc1, 0xfd, 0x3d, 0xee, 0x89, 0x16, 0x3e, 0xae, 0xf8, 0xff, 0xff,
  0x04, 0x00, 0x00, 0x00, 0x28, 0x00, 0x00, 0x00, 0xb9, 0x98, 0x06, 0x3f,
  0xbc, 0x6c, 0xf7, 0x3e, 0x3c, 0xcb, 0xc6, 0x3e, 0x3c, 0xa8, 0xf3, 0x3e,
  0xc1, 0x57, 0x60, 0x3e, 0x00, 0x9c, 0x8a, 0x3e, 0x2c, 0x51, 0x05, 0x3f,
  0x9a, 0xbe, 0xb5, 0x3e, 0x82, 0x4d, 0x7e, 0x3e, 0x79, 0x81, 0x5c, 0x3e,
  0xe2, 0xf8, 0xff, 0xff, 0x04, 0x00, 0x00, 0x00, 0x28, 0x00, 0x00, 0x00,
  0xa6, 0x5b, 0x26, 0xbe, 0x3b, 0x5c, 0x25, 0xbe, 0x47, 0x9b, 0x4d, 0xbe,
  0x0a, 0x10, 0x00, 0xbe, 0x65, 0xac, 0xf3, 0x3c, 0xe6, 0x60, 0x33, 0x3d,
  0x7b, 0x64, 0x93, 0xbe, 0x71, 0x99, 0x19, 0xbe, 0x60, 0x02, 0xf7, 0xbc,
  0x03, 0x9f, 0x6b, 0x3b, 0x16, 0xf9, 0xff, 0xff, 0x04, 0x00, 0x00, 0x00,
  0x28, 0x00, 0x00, 0x00, 0x84, 0xde, 0xa3, 0x3f, 0x0b, 0xa5, 0xa7, 0x3f,
  0x51, 0x30, 0x8b, 0x3f, 0x93, 0xdd, 0x81, 0x3f, 0x30, 0x75, 0x85, 0x3f,
  0x7c, 0x48, 0x9b, 0x3f, 0x72, 0x4e, 0xac, 0x3f, 0xa8, 0x34, 0x9b, 0x3f,
  0x3d, 0x4e, 0x89, 0x3f, 0x06, 0xae, 0x86, 0x3f, 0x4a, 0xf9, 0xff, 0xff,
  0x04, 0x00, 0x00, 0x00, 0x28, 0x00, 0x00, 0x00, 0x98, 0x59, 0x58, 0x3e,
  0x08, 0xd0, 0x03, 0x3f, 0x9e, 0x83, 0x4b, 0x3e, 0x86, 0xad, 0xa4, 0x3e,
  0xa4, 0xef, 0x05, 0x3e, 0x37, 0xe2, 0xb5, 0x3e, 0xfd, 0x51, 0x28, 0x3e,
  0x0d, 0x60, 0xba, 0x3d, 0x68, 0x02, 0x7b, 0x3e, 0xef, 0x89, 0x41, 0x3e,
  0x7e, 0xf9, 0xff, 0xff, 0x04, 0x00, 0x00, 0x00, 0x90, 0x01, 0x00, 0x00,
  0x1a, 0x0b, 0x35, 0xbd, 0xef, 0xc1, 0xf2, 0xbe, 0x88, 0xc7, 0x0c, 0xbf,
  0xa4, 0xdd, 0x99, 0x3c, 0xcd, 0x5b, 0xfe, 0xbd, 0x27, 0x07, 0x9c, 0x3e,
  0x64, 0x16, 0x51, 0xbf, 0x7f, 0x86, 0xcc, 0xbe, 0xd9, 0xf3, 0x6f, 0x3e,
  0xbb, 0x08, 0x84, 0x3e, 0xdd, 0x84, 0xdc, 0xbe, 0x15, 0x05, 0x21, 0xbe,
  0x72, 0xc4, 0xee, 0xbe, 0x6e, 0x4f, 0xd2, 0xbe, 0xc0, 0x50, 0xfa, 0x3e,
  0xdd, 0xf7, 0xa4, 0xbe, 0x29, 0x1d, 0x2e, 0xbf, 0x80, 0x5b, 0x20, 0xbf,
  0xef, 0xe7, 0x90, 0xbe, 0x43, 0x51, 0x9f, 0xbd, 0x73, 0xa2, 0xd1, 0xbe,
  0xb4, 0x13, 0x17, 0xbf, 0xb2, 0xf9, 0x25, 0xbf, 0xa7, 0x7a, 0x03, 0xbf,
  0x47, 0x0d, 0x10, 0x3e, 0xee, 0x76, 0x35, 0x3d, 0x78, 0xa9, 0xcb, 0xbe,
  0x61, 0xcc, 0x6f, 0xbe, 0x18, 0x5d, 0x0b, 0x3e, 0xe6, 0x25, 0x12, 0xbe,
  0x75, 0x39, 0xb4, 0xbe, 0x49, 0xf0, 0xa6, 0xbe, 0x7a, 0xfb, 0x1f, 0xbf,
  0x4d, 0x83, 0x6a, 0xbc, 0x91, 0x6a, 0xb1, 0x3d, 0x33, 0xbf, 0xb2, 0x3e,
  0x31, 0x67, 0x01, 0xbf, 0x2f, 0xbe, 0x01, 0xbf, 0x02, 0x77, 0xae, 0x3d,
  0xdf, 0x18, 0x44, 0x3e, 0xea, 0xb9, 0xa1, 0xbe, 0xa9, 0xc0, 0xe7, 0xbe,
  0xe5, 0x7e, 0x6c, 0xbe, 0x22, 0xd0, 0x66, 0x3b, 0x97, 0xda, 0x84, 0xbe,
  0x18, 0x54, 0x70, 0x3d, 0x81, 0x47, 0x10, 0xbf, 0x31, 0xd4, 0x53, 0x3c,
  0x01, 0x46, 0xa3, 0xbe, 0x2c, 0x56, 0x2d, 0xbd, 0x18, 0x13, 0x29, 0x3e,
  0xc2, 0x59, 0xf5, 0xbd, 0x11, 0x91, 0x00, 0xbd, 0x01, 0x61, 0x1b, 0x3e,
  0xee, 0xfb, 0x98, 0x3a, 0x19, 0xf4, 0x90, 0xbe, 0xa3, 0x19, 0xfb, 0x3d,
  0xa5, 0xd2, 0xb3, 0x3a, 0xe8, 0xaf, 0xda, 0x3c, 0x0c, 0xb2, 0x50, 0xbe,
  0xc7, 0x08, 0xb9, 0xbe, 0xb6, 0xc7, 0x1b, 0xbf, 0x9d, 0x8c, 0x9e, 0xbe,
  0x4e, 0x1c, 0x06, 0x3e, 0x90, 0x16, 0xf4, 0xbc, 0x00, 0x46, 0x7a, 0x3e,
  0x28, 0xd1, 0xd0, 0xbe, 0xa4, 0x98, 0xdb, 0xbe, 0x4a, 0xb9, 0xef, 0xbd,
  0xeb, 0x35, 0xa8, 0xbe, 0x8f, 0x08, 0x6d, 0xbe, 0x35, 0xa1, 0xfb, 0xbe,
  0x2f, 0x94, 0x15, 0xbf, 0x2b, 0x6a, 0x30, 0x3d, 0x51, 0x8f, 0x42, 0xbe,
  0x4a, 0xfd, 0x26, 0x3e, 0x9a, 0x97, 0xd0, 0xbe, 0x38, 0x5f, 0x0e, 0x3d,
  0xe5, 0xbf, 0x9a, 0xbc, 0xb8, 0x73, 0x29, 0x3e, 0xcb, 0xf0, 0x85, 0x3c,
  0xfe, 0x2e, 0xdf, 0xbd, 0x16, 0xbd, 0xb0, 0xbe, 0x48, 0xe8, 0x43, 0xbe,
  0x19, 0x19, 0x46, 0xbd, 0xc0, 0x79, 0x24, 0x3d, 0x4a, 0x7b, 0xb6, 0xbd,
  0x84, 0x0a, 0x85, 0xbe, 0xda, 0xf2, 0xe2, 0xbd, 0x4b, 0xa4, 0x57, 0xbc,
  0x5a, 0x57, 0x7b, 0x3e, 0x16, 0x9e, 0x21, 0xbd, 0x8b, 0xf4, 0x0d, 0xbe,
  0x89, 0x30, 0x22, 0xba, 0xc5, 0x41, 0x87, 0xbd, 0x87, 0x8f, 0x43, 0x3d,
  0xd4, 0xd3, 0x8a, 0x3d, 0x88, 0x0a, 0x81, 0xbe, 0x28, 0x84, 0x82, 0xbd,
  0x0f, 0x3c, 0xff, 0xbd, 0x1a, 0xfb, 0xff, 0xff, 0x04, 0x00, 0x00, 0x00,
  0x90, 0x01, 0x00, 0x00, 0xf0, 0x07, 0x74, 0x3e, 0x89, 0xa9, 0xba, 0x3e,
  0x76, 0x09, 0xb4, 0x3e, 0xf0, 0x79, 0xb9, 0x3e, 0x50, 0xfd, 0xb1, 0xbe,
  0xfc, 0x39, 0xae, 0x3d, 0x30, 0x67, 0xa6, 0xbd, 0x4c, 0x01, 0x65, 0xbe,
  0x3f, 0x8e, 0x9b, 0x3e, 0x48, 0x66, 0x38, 0x3e, 0x6a, 0x2e, 0xe4, 0x3e,
  0x1c, 0xc5, 0x20, 0x3e, 0x67, 0x95, 0x03, 0x3f, 0x38, 0xe1, 0x4e, 0x3e,
  0xd7, 0xf7, 0x40, 0xbe, 0x40, 0x37, 0x71, 0x3e, 0x42, 0xa0, 0xec, 0xbb,
  0x06, 0x76, 0xf8, 0x3e, 0x07, 0x38, 0x00, 0x3f, 0x95, 0x30, 0x27, 0xbd,
  0x04, 0x19, 0x24, 0x3e, 0xbe, 0xe9, 0x89, 0x3e, 0x1e, 0xe8, 0x58, 0x3e,
  0x9e, 0xac, 0x68, 0x3d, 0x6a, 0x26, 0xec, 0xbe, 0xfb, 0x26, 0xa4, 0x3e,
  0x4e, 0x77, 0x1b, 0x3e, 0xbd, 0xc6, 0x92, 0x3e, 0x81, 0x63, 0xbb, 0x3e,
  0x6c, 0x21, 0xa3, 0x3d, 0x9e, 0x03, 0x2e, 0x3e, 0xf1, 0x3f, 0x5f, 0x3d,
  0x1d, 0x8a, 0xea, 0x3e, 0x08, 0xfd, 0xd4, 0x3d, 0xc3, 0xdb, 0xad, 0xbe,
  0x73, 0xa2, 0xdf, 0x3e, 0xeb, 0xbc, 0x43, 0xbd, 0x75, 0x82, 0xa6, 0xbd,
  0xe0, 0xed, 0xc5, 0x3e, 0x4b, 0x0f, 0xb8, 0x3e, 0x45, 0x35, 0x53, 0xbe,
  0xfa, 0x6c, 0x4b, 0xbd, 0x5c, 0x84, 0xa6, 0xbe, 0x65, 0x42, 0xd1, 0x3d,
  0x58, 0x24, 0x53, 0x3e, 0x7a, 0xd6, 0x47, 0xbe, 0xf9, 0xad, 0x12, 0x3e,
  0xf7, 0xe0, 0x90, 0xbd, 0xaa, 0x15, 0x94, 0xbe, 0x5d, 0x72, 0xce, 0xbe,
  0x9e, 0xb5, 0x73, 0xbc, 0xdd, 0x4b, 0x30, 0x3e, 0xab, 0x04, 0x9b, 0x3e,
  0x55, 0x11, 0x15, 0xbd, 0x0a, 0xa0, 0x99, 0xbd, 0x95, 0x78, 0x13, 0xbd,
  0x2e, 0x31, 0x0f, 0xbf, 0x2d, 0xcc, 0x7c, 0x3e, 0x38, 0x74, 0xcb, 0x3e,
  0x31, 0xea, 0xa9, 0xbd, 0x73, 0xbc, 0x99, 0x3e, 0x2c, 0x8a, 0x13, 0xbe,
  0xff, 0x29, 0x10, 0x3e, 0x71, 0xcc, 0x01, 0x3f, 0x94, 0x77, 0x1c, 0xbf,
  0x07, 0xd7, 0xaf, 0x3c, 0x68, 0x52, 0x2d, 0x3c, 0xe0, 0x14, 0x2a, 0x3d,
  0xa8, 0x76, 0xec, 0x3e, 0x59, 0x87, 0xa2, 0x3e, 0x8b, 0x1d, 0x5d, 0x3e,
  0x5a, 0xc4, 0x02, 0x3f, 0x38, 0xfa, 0x40, 0x3f, 0xb5, 0xce, 0xc2, 0x3d,
  0xb8, 0x69, 0x71, 0x3d, 0x9d, 0x9c, 0xdc, 0x3e, 0x9c, 0x67, 0x38, 0xbd,
  0xce, 0x5d, 0xa8, 0x3e, 0xdf, 0x4f, 0xb4, 0x3e, 0x4d, 0xb3, 0x61, 0x3e,
  0xd5, 0xf9, 0x7a, 0x3d, 0x6b, 0x63, 0xea, 0xbd, 0x1c, 0x34, 0xb1, 0x3e,
  0x33, 0x72, 0x2f, 0xbe, 0x60, 0x0b, 0xdc, 0xbd, 0x0f, 0xd2, 0x6f, 0x3e,
  0xe0, 0x3f, 0xa9, 0xbe, 0xab, 0xd8, 0x2e, 0x3e, 0x76, 0x72, 0x18, 0xbd,
  0xad, 0xe9, 0x66, 0x3e, 0x35, 0x64, 0xb3, 0x3d, 0x77, 0xfe, 0x95, 0x3e,
  0xac, 0x5d, 0x6f, 0x3e, 0x13, 0xa4, 0x3c, 0xbe, 0x51, 0xe4, 0xb3, 0xbe,
  0xf0, 0x94, 0xc0, 0x3e, 0x09, 0xfc, 0xc8, 0xbe, 0x07, 0x86, 0x02, 0xbd,
  0x10, 0xb5, 0x81, 0x3e, 0xd7, 0xb7, 0x5c, 0xbd, 0xb6, 0xfc, 0xff, 0xff,
  0x04, 0x00, 0x00, 0x00, 0x90, 0x01, 0x00, 0x00, 0xf3, 0x90, 0x11, 0xbf,
  0xa4, 0xf6, 0x6d, 0xbe, 0x30, 0xc0, 0x98, 0xbe, 0x35, 0x1d, 0x53, 0xbe,
  0x1d, 0xe0, 0x92, 0xbd, 0xf2, 0xb9, 0x64, 0x3e, 0x86, 0x15, 0xf9, 0xbe,
  0xbb, 0xdf, 0xba, 0xbd, 0x17, 0x41, 0xe9, 0x3e, 0x28, 0x23, 0xde, 0x3e,
  0x53, 0x8c, 0x94, 0xbe, 0x6a, 0xcd, 0xe0, 0xbe, 0x37, 0xb6, 0x8a, 0xbe,
  0x16, 0xdb, 0xbd, 0xbe, 0x18, 0xf6, 0x73, 0x3e, 0x50, 0xec, 0x95, 0xbe,
  0x62, 0x57, 0x0b, 0xbe, 0xf2, 0x90, 0xb1, 0xbe, 0xa3, 0x66, 0x41, 0xbe,
  0x6e, 0x8f, 0x59, 0xbd, 0x3b, 0xcc, 0x21, 0xbd, 0xef, 0xae, 0x92, 0xbe,
  0x41, 0x00, 0x47, 0xbe, 0x4c, 0xf5, 0xa4, 0xbe, 0x78, 0xcc, 0x38, 0x3e,
  0x0e, 0xbc, 0x53, 0x3e, 0x32, 0x58, 0x51, 0xbe, 0xf3, 0xee, 0x36, 0xbe,
  0x17, 0x5f, 0xa0, 0x3e, 0x52, 0x40, 0x44, 0xbe, 0x6e, 0x96, 0x2f, 0xbd,
  0x2f, 0x65, 0x9d, 0xbe, 0xe8, 0xfb, 0x52, 0xbd, 0x37, 0xa9, 0x0b, 0x3d,
  0xda, 0x58, 0xdc, 0xbd, 0x10, 0x29, 0x72, 0x3e, 0xe7, 0x47, 0x35, 0xbe,
  0xec, 0xd1, 0xae, 0xbd, 0xe4, 0x61, 0xce, 0x3c, 0x31, 0x93, 0xaf, 0xbd,
  0xae, 0x69, 0x5f, 0x3c, 0xbb, 0x1b, 0xa9, 0xbc, 0xfc, 0xf4, 0x67, 0xbd,
  0x6f, 0xbf, 0x14, 0xbe, 0xb4, 0x30, 0xff, 0x3d, 0x92, 0x0a, 0x6c, 0xbe,
  0xe2, 0xeb, 0x6f, 0xbe, 0x58, 0x89, 0x10, 0xbe, 0xf4, 0x4b, 0x7b, 0xbe,
  0x55, 0x71, 0x41, 0x3e, 0xc8, 0x14, 0x71, 0x3e, 0xf2, 0x16, 0xa0, 0x3e,
  0xaf, 0x68, 0xf1, 0xbd, 0x82, 0xd0, 0x1b, 0xbe, 0xfc, 0x25, 0x38, 0xbd,
  0xba, 0x80, 0x15, 0x3e, 0xbd, 0xa0, 0x9a, 0xbe, 0x5b, 0x3a, 0xb2, 0x3e,
  0xb2, 0x96, 0xac, 0xbe, 0x9b, 0xb4, 0xbc, 0xbc, 0x83, 0xf8, 0xc3, 0x3b,
  0xa5, 0x55, 0x3c, 0x3e, 0x02, 0x2f, 0x87, 0x3d, 0xf0, 0xcf, 0xad, 0xbc,
  0x4f, 0xaa, 0xa1, 0xbd, 0xe1, 0x3f, 0x42, 0xbc, 0xc6, 0x9b, 0xa9, 0xbc,
  0xb5, 0xc8, 0x38, 0x3d, 0x47, 0x5d, 0x62, 0xbd, 0xd3, 0x0d, 0x6c, 0x3d,
  0x75, 0x15, 0xdc, 0x3d, 0x1b, 0x75, 0x22, 0xbf, 0x87, 0xa9, 0x6b, 0xbe,
  0xb7, 0x1c, 0x56, 0xbe, 0x0e, 0x59, 0x7e, 0x3e, 0x63, 0x5e, 0xad, 0x3e,
  0x67, 0xde, 0xd6, 0xbe, 0x19, 0x47, 0xa5, 0xbb, 0x80, 0x3b, 0x02, 0x3e,
  0x6e, 0xbe, 0x1f, 0x3e, 0x64, 0x3c, 0xe4, 0x3d, 0xcd, 0x59, 0x10, 0x3e,
  0xa9, 0x74, 0xa6, 0x3e, 0x3d, 0x5c, 0xe3, 0xbd, 0x89, 0x35, 0x8b, 0x3d,
  0xd5, 0x2c, 0x9e, 0xbc, 0x31, 0x79, 0x9e, 0xbd, 0x0d, 0x14, 0x67, 0x3e,
  0x40, 0x76, 0x98, 0x3d, 0xfe, 0xed, 0x95, 0x3e, 0xa6, 0xa1, 0xb0, 0xbc,
  0xb6, 0xa7, 0xa3, 0xbd, 0xaa, 0x07, 0x62, 0x3d, 0xfb, 0x47, 0x53, 0x3e,
  0xbc, 0x6e, 0xb9, 0xbd, 0x98, 0xe4, 0x32, 0x3d, 0x00, 0x02, 0xa7, 0x3d,
  0x75, 0x5e, 0xde, 0xbd, 0x91, 0x0c, 0x1b, 0xbe, 0xca, 0x10, 0x88, 0x3e,
  0x52, 0xfe, 0xff, 0xff, 0x04, 0x00, 0x00, 0x00, 0x90, 0x01, 0x00, 0x00,
  0x4f, 0x6e, 0xd0, 0xbd, 0x0e, 0x40, 0xe6, 0xbe, 0x86, 0xc1, 0xa7, 0xbd,
  0x8d, 0x12, 0x84, 0xbd, 0xac, 0xff, 0x02, 0xbe, 0xa9, 0x1c, 0x8b, 0x3e,
  0x1f, 0x07, 0xe5, 0xbe, 0x95, 0x44, 0x32, 0xbe, 0x06, 0x75, 0x75, 0x3e,
  0x25, 0xba, 0xcb, 0x3e, 0xa2, 0x45, 0x25, 0x3d, 0xb4, 0xe8, 0xe7, 0xbe,
  0xba, 0xa9, 0xe0, 0x3d, 0x28, 0x17, 0x6d, 0xbe, 0x76, 0x9c, 0x07, 0x3d,
  0x8b, 0x29, 0xb6, 0xbe, 0x94, 0x92, 0xb2, 0xbe, 0x94, 0x52, 0x3c, 0xbe,
  0x38, 0xbd, 0x9d, 0x3d, 0xe5, 0xfd, 0x08, 0xbd, 0x39, 0xf7, 0xaf, 0xbe,
  0x12, 0x80, 0x11, 0xbf, 0xdc, 0xd9, 0xe3, 0xbe, 0xdb, 0x40, 0x54, 0xbe,
  0x9d, 0xfd, 0xf2, 0xbc, 0x7c, 0x91, 0xcc, 0xbd, 0x2b, 0x2b, 0x9a, 0xbe,
  0xa4, 0xde, 0xa3, 0xbe, 0x31, 0x5e, 0x97, 0x3e, 0xea, 0x5c, 0xd3, 0x3c,
  0x0a, 0xe3, 0x4f, 0xbe, 0xd6, 0x7c, 0x2f, 0xbe, 0x23, 0x9b, 0x88, 0xbe,
  0x4a, 0xb8, 0xa5, 0xbe, 0xc0, 0x65, 0x92, 0xbe, 0x85, 0x68, 0x04, 0xbe,
  0x20, 0xc6, 0xd3, 0xbe, 0x7f, 0xac, 0x01, 0xbe, 0xef, 0x45, 0x02, 0x3e,
  0x7d, 0x82, 0x91, 0x3e, 0xe0, 0xb0, 0x8d, 0xbe, 0xee, 0x5b, 0x2e, 0xbe,
  0x63, 0x48, 0x1a, 0xbf, 0xd7, 0xb0, 0xc5, 0x3e, 0xc6, 0xbc, 0x00, 0x3e,
  0x6c, 0x26, 0xe1, 0xbd, 0xab, 0xb4, 0xaf, 0xbe, 0xb3, 0xed, 0x01, 0xbe,
  0xff, 0x26, 0x25, 0xbe, 0x1c, 0xf3, 0xe5, 0x3d, 0xa9, 0xd7, 0x29, 0xbe,
  0xf9, 0xd3, 0x32, 0x3e, 0xec, 0x65, 0x1f, 0xbd, 0x0a, 0x2f, 0x95, 0x3e,
  0x45, 0x5c, 0xf9, 0x3d, 0x4c, 0xd7, 0x54, 0xbe, 0x80, 0xb8, 0xda, 0xbc,
  0x54, 0x25, 0x0c, 0xbe, 0xbd, 0x21, 0x7e, 0x3b, 0x62, 0xbb, 0x69, 0x3d,
  0x87, 0xba, 0x76, 0x3e, 0xb4, 0xb1, 0x7c, 0xbe, 0x99, 0x53, 0xd1, 0xbe,
  0xec, 0xe5, 0xcc, 0x3d, 0x41, 0x73, 0x16, 0x3e, 0x47, 0xdc, 0x1b, 0xbe,
  0x03, 0x96, 0xd4, 0x3d, 0x27, 0x7d, 0xaf, 0xbe, 0x8e, 0x5a, 0x42, 0x3d,
  0x24, 0xcd, 0xb1, 0x3d, 0x43, 0xca, 0xf3, 0xbc, 0xf6, 0xdc, 0xcc, 0xbe,
  0x7e, 0x80, 0x03, 0xbe, 0xd9, 0x36, 0x3b, 0x3e, 0xb3, 0x42, 0x2f, 0xbe,
  0x67, 0x68, 0x50, 0x3e, 0x8a, 0xa5, 0x12, 0xbe, 0x43, 0xc8, 0xc3, 0xbd,
  0x2f, 0xec, 0xdb, 0x3e, 0xad, 0x72, 0xd2, 0x3e, 0x7a, 0x98, 0x14, 0xbe,
  0xb4, 0x71, 0xdc, 0xbb, 0xb1, 0xb4, 0x38, 0xbe, 0x8b, 0xf9, 0xd5, 0xbd,
  0xb6, 0x53, 0xa1, 0x3d, 0x32, 0x9e, 0x71, 0x3e, 0x33, 0xa3, 0x60, 0xbe,
  0x5a, 0x4c, 0x8b, 0xbe, 0x64, 0xe4, 0xa7, 0xbb, 0xc2, 0xb0, 0x98, 0x3d,
  0x12, 0xca, 0xf5, 0xbc, 0x77, 0x12, 0x49, 0x3d, 0x98, 0x47, 0xb9, 0xbe,
  0x28, 0x07, 0xd5, 0x3c, 0x6e, 0xe3, 0x0f, 0x3e, 0x10, 0xe2, 0x6c, 0xbe,
  0x19, 0xab, 0xa4, 0xbe, 0xbb, 0x71, 0xd7, 0x3c, 0x86, 0x02, 0x26, 0xbe,
  0xae, 0xd6, 0x73, 0x3e, 0xee, 0xff, 0xff, 0xff, 0x04, 0x00, 0x00, 0x00,
  0x04, 0x00, 0x00, 0x00, 0x9c, 0x06, 0x00, 0xbe, 0x00, 0x00, 0x06, 0x00,
  0x08, 0x00, 0x04, 0x00, 0x06, 0x00, 0x00, 0x00, 0x04, 0x00, 0x00, 0x00,
  0x28, 0x00, 0x00, 0x00, 0x00, 0x00, 0x00, 0x00, 0x00, 0x00, 0x00, 0x00,
  0x00, 0x00, 0x00, 0x00, 0x00, 0x00, 0x00, 0x00, 0x00, 0x00, 0x00, 0x00,
  0x00, 0x00, 0x00, 0x00, 0x00, 0x00, 0x00, 0x00, 0x00, 0x00, 0x00, 0x00,
  0x00, 0x00, 0x00, 0x00, 0x00, 0x00, 0x00, 0x00, 0x70, 0xf7, 0xff, 0xff,
  0x74, 0xf7, 0xff, 0xff, 0x0f, 0x00, 0x00, 0x00, 0x4d, 0x4c, 0x49, 0x52,
  0x20, 0x43, 0x6f, 0x6e, 0x76, 0x65, 0x72, 0x74, 0x65, 0x64, 0x2e, 0x00,
  0x01, 0x00, 0x00, 0x00, 0x14, 0x00, 0x00, 0x00, 0x00, 0x00, 0x0e, 0x00,
  0x18, 0x00, 0x14, 0x00, 0x10, 0x00, 0x0c, 0x00, 0x08, 0x00, 0x04, 0x00,
  0x0e, 0x00, 0x00, 0x00, 0x14, 0x00, 0x00, 0x00, 0x1c, 0x00, 0x00, 0x00,
  0xa4, 0x01, 0x00, 0x00, 0xa8, 0x01, 0x00, 0x00, 0xac, 0x01, 0x00, 0x00,
  0x04, 0x00, 0x00, 0x00, 0x6d, 0x61, 0x69, 0x6e, 0x00, 0x00, 0x00, 0x00,
  0x04, 0x00, 0x00, 0x00, 0xec, 0x00, 0x00, 0x00, 0x7c, 0x00, 0x00, 0x00,
  0x34, 0x00, 0x00, 0x00, 0x10, 0x00, 0x00, 0x00, 0x00, 0x00, 0x0a, 0x00,
  0x10, 0x00, 0x0c, 0x00, 0x08, 0x00, 0x04, 0x00, 0x0a, 0x00, 0x00, 0x00,
  0x0c, 0x00, 0x00, 0x00, 0x10, 0x00, 0x00, 0x00, 0x03, 0x00, 0x00, 0x00,
  0x01, 0x00, 0x00, 0x00, 0x17, 0x00, 0x00, 0x00, 0x01, 0x00, 0x00, 0x00,
  0x16, 0x00, 0x00, 0x00, 0xca, 0xff, 0xff, 0xff, 0x14, 0x00, 0x00, 0x00,
  0x00, 0x00, 0x00, 0x08, 0x10, 0x00, 0x00, 0x00, 0x14, 0x00, 0x00, 0x00,
  0x02, 0x00, 0x00, 0x00, 0x20, 0xf8, 0xff, 0xff, 0x01, 0x00, 0x00, 0x00,
  0x16, 0x00, 0x00, 0x00, 0x03, 0x00, 0x00, 0x00, 0x15, 0x00, 0x00, 0x00,
  0x0f, 0x00, 0x00, 0x00, 0x02, 0x00, 0x00, 0x00, 0x00, 0x00, 0x0e, 0x00,
  0x1a, 0x00, 0x14, 0x00, 0x10, 0x00, 0x0c, 0x00, 0x0b, 0x00, 0x04, 0x00,
  0x0e, 0x00, 0x00, 0x00, 0x24, 0x00, 0x00, 0x00, 0x00, 0x00, 0x00, 0x20,
  0x2c, 0x00, 0x00, 0x00, 0x30, 0x00, 0x00, 0x00, 0x01, 0x00, 0x00, 0x00,
  0x00, 0x00, 0x0e, 0x00, 0x10, 0x00, 0x0c, 0x00, 0x08, 0x00, 0x00, 0x00,
  0x00, 0x00, 0x04, 0x00, 0x0e, 0x00, 0x00, 0x00, 0x02, 0x00, 0x00, 0x00,
  0x05, 0x00, 0x00, 0x00, 0x05, 0x00, 0x00, 0x00, 0x01, 0x00, 0x00, 0x00,
  0x15, 0x00, 0x00, 0x00, 0x04, 0x00, 0x00, 0x00, 0x14, 0x00, 0x00, 0x00,
  0x10, 0x00, 0x00, 0x00, 0x11, 0x00, 0x00, 0x00, 0x12, 0x00, 0x00, 0x00,
  0x00, 0x00, 0x16, 0x00, 0x18, 0x00, 0x00, 0x00, 0x14, 0x00, 0x10, 0x00,
  0x0f, 0x00, 0x08, 0x00, 0x00, 0x00, 0x00, 0x00, 0x00, 0x00, 0x04, 0x00,
  0x16, 0x00, 0x00, 0x00, 0x14, 0x00, 0x00, 0x00, 0x1c, 0x00, 0x00, 0x00,
  0x00, 0x00, 0x00, 0x47, 0x20, 0x00, 0x00, 0x00, 0x24, 0x00, 0x00, 0x00,
  0x00, 0x00, 0x00, 0x00, 0x08, 0x00, 0x0c, 0x00, 0x0b, 0x00, 0x04, 0x00,
  0x08, 0x00, 0x00, 0x00, 0x00, 0x00, 0x20, 0x41, 0x00, 0x00, 0x00, 0x04,
  0x01, 0x00, 0x00, 0x00, 0x14, 0x00, 0x00, 0x00, 0x18, 0x00, 0x00, 0x00,
  0x00, 0x00, 0x00, 0x00, 0x0b, 0x00, 0x00, 0x00, 0x0c, 0x00, 0x00, 0x00,
  0x0d, 0x00, 0x00, 0x00, 0x0e, 0x00, 0x00, 0x00, 0x03, 0x00, 0x00, 0x00,
  0x04, 0x00, 0x00, 0x00, 0x05, 0x00, 0x00, 0x00, 0x06, 0x00, 0x00, 0x00,
  0xff, 0xff, 0xff, 0xff, 0xff, 0xff, 0xff, 0xff, 0xff, 0xff, 0xff, 0xff,
  0x07, 0x00, 0x00, 0x00, 0x08, 0x00, 0x00, 0x00, 0x09, 0x00, 0x00, 0x00,
  0x0a, 0x00, 0x00, 0x00, 0xff, 0xff, 0xff, 0xff, 0xff, 0xff, 0xff, 0xff,
  0x01, 0x00, 0x00, 0x00, 0x13, 0x00, 0x00, 0x00, 0xff, 0xff, 0xff, 0xff,
  0xff, 0xff, 0xff, 0xff, 0xff, 0xff, 0xff, 0xff, 0xff, 0xff, 0xff, 0xff,
  0x01, 0x00, 0x00, 0x00, 0x17, 0x00, 0x00, 0x00, 0x01, 0x00, 0x00, 0x00,
  0x00, 0x00, 0x00, 0x00, 0x18, 0x00, 0x00, 0x00, 0x80, 0x06, 0x00, 0x00,
  0x24, 0x06, 0x00, 0x00, 0xb8, 0x05, 0x00, 0x00, 0x78, 0x05, 0x00, 0x00,
  0x38, 0x05, 0x00, 0x00, 0xf8, 0x04, 0x00, 0x00, 0xb8, 0x04, 0x00, 0x00,
  0x7c, 0x04, 0x00, 0x00, 0x40, 0x04, 0x00, 0x00, 0x04, 0x04, 0x00, 0x00,
  0xc8, 0x03, 0x00, 0x00, 0x88, 0x03, 0x00, 0x00, 0x48, 0x03, 0x00, 0x00,
  0x04, 0x03, 0x00, 0x00, 0xc0, 0x02, 0x00, 0x00, 0x78, 0x02, 0x00, 0x00,
  0x34, 0x02, 0x00, 0x00, 0xd8, 0x01, 0x00, 0x00, 0x94, 0x01, 0x00, 0x00,
  0x50, 0x01, 0x00, 0x00, 0xf8, 0x00, 0x00, 0x00, 0xb4, 0x00, 0x00, 0x00,
  0x50, 0x00, 0x00, 0x00, 0x04, 0x00, 0x00, 0x00, 0xf6, 0xf9, 0xff, 0xff,
  0x00, 0x00, 0x00, 0x01, 0x10, 0x00, 0x00, 0x00, 0x10, 0x00, 0x00, 0x00,
  0x18, 0x00, 0x00, 0x00, 0x28, 0x00, 0x00, 0x00, 0xe0, 0xf9, 0xff, 0xff,
  0x19, 0x00, 0x00, 0x00, 0x53, 0x74, 0x61, 0x74, 0x65, 0x66, 0x75, 0x6c,
  0x50, 0x61, 0x72, 0x74, 0x69, 0x74, 0x69, 0x6f, 0x6e, 0x65, 0x64, 0x43,
  0x61, 0x6c, 0x6c, 0x3a, 0x30, 0x00, 0x00, 0x00, 0x02, 0x00, 0x00, 0x00,
  0x01, 0x00, 0x00, 0x00, 0x01, 0x00, 0x00, 0x00, 0x3e, 0xfa, 0xff, 0xff,
  0x00, 0x00, 0x00, 0x01, 0x10, 0x00, 0x00, 0x00, 0x10, 0x00, 0x00, 0x00,
  0x17, 0x00, 0x00, 0x00, 0x40, 0x00, 0x00, 0x00, 0x28, 0xfa, 0xff, 0xff,
  0x30, 0x00, 0x00, 0x00, 0x73, 0x65, 0x71, 0x75, 0x65, 0x6e, 0x74, 0x69,
  0x61, 0x6c, 0x2f, 0x64, 0x65, 0x6e, 0x73, 0x65, 0x2f, 0x4d, 0x61, 0x74,
  0x4d, 0x75, 0x6c, 0x3b, 0x73, 0x65, 0x71, 0x75, 0x65, 0x6e, 0x74, 0x69,
  0x61, 0x6c, 0x2f, 0x64, 0x65, 0x6e, 0x73, 0x65, 0x2f, 0x42, 0x69, 0x61,
  0x73, 0x41, 0x64, 0x64, 0x00, 0x00, 0x00, 0x00, 0x02, 0x00, 0x00, 0x00,
  0x01, 0x00, 0x00, 0x00, 0x01, 0x00, 0x00, 0x00, 0x9e, 0xfa, 0xff, 0xff,
  0x00, 0x00, 0x00, 0x01, 0x10, 0x00, 0x00, 0x00, 0x10, 0x00, 0x00, 0x00,
  0x16, 0x00, 0x00, 0x00, 0x20, 0x00, 0x00, 0x00, 0x88, 0xfa, 0xff, 0xff,
  0x11, 0x00, 0x00, 0x00, 0x74, 0x66, 0x6c, 0x2e, 0x73, 0x74, 0x72, 0x69,
  0x64, 0x65, 0x64, 0x5f, 0x73, 0x6c, 0x69, 0x63, 0x65, 0x00, 0x00, 0x00,
  0x02, 0x00, 0x00, 0x00, 0x01, 0x00, 0x00, 0x00, 0x0a, 0x00, 0x00, 0x00,
  0xde, 0xfa, 0xff, 0xff, 0x00, 0x00, 0x00, 0x01, 0x10, 0x00, 0x00, 0x00,
  0x10, 0x00, 0x00, 0x00, 0x15, 0x00, 0x00, 0x00, 0x30, 0x00, 0x00, 0x00,
  0xc8, 0xfa, 0xff, 0xff, 0x20, 0x00, 0x00, 0x00, 0x74, 0x66, 0x6c, 0x2e,
  0x75, 0x6e, 0x69, 0x64, 0x69, 0x72, 0x65, 0x63, 0x74, 0x69, 0x6f, 0x6e,
  0x61, 0x6c, 0x5f, 0x73, 0x65, 0x71, 0x75, 0x65, 0x6e, 0x63, 0x65, 0x5f,
  0x6c, 0x73, 0x74, 0x6d, 0x00, 0x00, 0x00, 0x00, 0x03, 0x00, 0x00, 0x00,
  0x01, 0x00, 0x00, 0x00, 0x14, 0x00, 0x00, 0x00, 0x0a, 0x00, 0x00, 0x00,
  0x8a, 0xfb, 0xff, 0xff, 0x00, 0x00, 0x01, 0x01, 0x0c, 0x00, 0x00, 0x00,
  0x0c, 0x00, 0x00, 0x00, 0x24, 0x00, 0x00, 0x00, 0x18, 0xfb, 0xff, 0xff,
  0x16, 0x00, 0x00, 0x00, 0x73, 0x65, 0x71, 0x75, 0x65, 0x6e, 0x74, 0x69,
  0x61, 0x6c, 0x2f, 0x6c, 0x73, 0x74, 0x6d, 0x2f, 0x7a, 0x65, 0x72, 0x6f,
  0x73, 0x31, 0x00, 0x00, 0x02, 0x00, 0x00, 0x00, 0x01, 0x00, 0x00, 0x00,
  0x0a, 0x00, 0x00, 0x00, 0x7e, 0xff, 0xff, 0xff, 0x00, 0x00, 0x00, 0x01,
  0x14, 0x00, 0x00, 0x00, 0x14, 0x00, 0x00, 0x00, 0x13, 0x00, 0x00, 0x00,
  0x00, 0x00, 0x00, 0x02, 0x20, 0x00, 0x00, 0x00, 0x60, 0xfb, 0xff, 0xff,
  0x10, 0x00, 0x00, 0x00, 0x61, 0x72, 0x69, 0x74, 0x68, 0x2e, 0x63, 0x6f,
  0x6e, 0x73, 0x74, 0x61, 0x6e, 0x74, 0x31, 0x34, 0x00, 0x00, 0x00, 0x00,
  0x01, 0x00, 0x00, 0x00, 0x03, 0x00, 0x00, 0x00, 0xbe, 0xff, 0xff, 0xff,
  0x00, 0x00, 0x00, 0x01, 0x14, 0x00, 0x00, 0x00, 0x14, 0x00, 0x00, 0x00,
  0x12, 0x00, 0x00, 0x00, 0x00, 0x00, 0x00, 0x02, 0x20, 0x00, 0x00, 0x00,
  0xa0, 0xfb, 0xff, 0xff, 0x10, 0x00, 0x00, 0x00, 0x61, 0x72, 0x69, 0x74,
  0x68, 0x2e, 0x63, 0x6f, 0x6e, 0x73, 0x74, 0x61, 0x6e, 0x74, 0x31, 0x33,
  0x00, 0x00, 0x00, 0x00, 0x01, 0x00, 0x00, 0x00, 0x03, 0x00, 0x00, 0x00,
  0x00, 0x00, 0x16, 0x00, 0x1c, 0x00, 0x18, 0x00, 0x17, 0x00, 0x10, 0x00,
  0x0c, 0x00, 0x08, 0x00, 0x00, 0x00, 0x00, 0x00, 0x00, 0x00, 0x07, 0x00,
  0x16, 0x00, 0x00, 0x00, 0x00, 0x00, 0x00, 0x01, 0x14, 0x00, 0x00, 0x00,
  0x14, 0x00, 0x00, 0x00, 0x11, 0x00, 0x00, 0x00, 0x00, 0x00, 0x00, 0x02,
  0x20, 0x00, 0x00, 0x00, 0xf8, 0xfb, 0xff, 0xff, 0x10, 0x00, 0x00, 0x00,
  0x61, 0x72, 0x69, 0x74, 0x68, 0x2e, 0x63, 0x6f, 0x6e, 0x73, 0x74, 0x61,
  0x6e, 0x74, 0x31, 0x32, 0x00, 0x00, 0x00, 0x00, 0x01, 0x00, 0x00, 0x00,
  0x03, 0x00, 0x00, 0x00, 0x4a, 0xfc, 0xff, 0xff, 0x00, 0x00, 0x00, 0x01,
  0x10, 0x00, 0x00, 0x00, 0x10, 0x00, 0x00, 0x00, 0x10, 0x00, 0x00, 0x00,
  0x24, 0x00, 0x00, 0x00, 0x34, 0xfc, 0xff, 0xff, 0x17, 0x00, 0x00, 0x00,
  0x73, 0x65, 0x71, 0x75, 0x65, 0x6e, 0x74, 0x69, 0x61, 0x6c, 0x2f, 0x64,
  0x65, 0x6e, 0x73, 0x65, 0x2f, 0x4d, 0x61, 0x74, 0x4d, 0x75, 0x6c, 0x00,
  0x02, 0x00, 0x00, 0x00, 0x01, 0x00, 0x00, 0x00, 0x0a, 0x00, 0x00, 0x00,
  0x8e, 0xfc, 0xff, 0xff, 0x00, 0x00, 0x00, 0x01, 0x10, 0x00, 0x00, 0x00,
  0x10, 0x00, 0x00, 0x00, 0x0f, 0x00, 0x00, 0x00, 0x20, 0x00, 0x00, 0x00,
  0x78, 0xfc, 0xff, 0xff, 0x10, 0x00, 0x00, 0x00, 0x61, 0x72, 0x69, 0x74,
  0x68, 0x2e, 0x63, 0x6f, 0x6e, 0x73, 0x74, 0x61, 0x6e, 0x74, 0x31, 0x31,
  0x00, 0x00, 0x00, 0x00, 0x02, 0x00, 0x00, 0x00, 0x0a, 0x00, 0x00, 0x00,
  0x40, 0x00, 0x00, 0x00, 0xce, 0xfc, 0xff, 0xff, 0x00, 0x00, 0x00, 0x01,
  0x10, 0x00, 0x00, 0x00, 0x10, 0x00, 0x00, 0x00, 0x0e, 0x00, 0x00, 0x00,
  0x20, 0x00, 0x00, 0x00, 0xb8, 0xfc, 0xff, 0xff, 0x10, 0x00, 0x00, 0x00,
  0x61, 0x72, 0x69, 0x74, 0x68, 0x2e, 0x63, 0x6f, 0x6e, 0x73, 0x74, 0x61,
  0x6e, 0x74, 0x31, 0x30, 0x00, 0x00, 0x00, 0x00, 0x02, 0x00, 0x00, 0x00,
  0x0a, 0x00, 0x00, 0x00, 0x40, 0x00, 0x00, 0x00, 0x0e, 0xfd, 0xff, 0xff,
  0x00, 0x00, 0x00, 0x01, 0x10, 0x00, 0x00, 0x00, 0x10, 0x00, 0x00, 0x00,
  0x0d, 0x00, 0x00, 0x00, 0x1c, 0x00, 0x00, 0x00, 0xf8, 0xfc, 0xff, 0xff,
  0x0f, 0x00, 0x00, 0x00, 0x61, 0x72, 0x69, 0x74, 0x68, 0x2e, 0x63, 0x6f,
  0x6e, 0x73, 0x74, 0x61, 0x6e, 0x74, 0x39, 0x00, 0x02, 0x00, 0x00, 0x00,
  0x0a, 0x00, 0x00, 0x00, 0x40, 0x00, 0x00, 0x00, 0x4a, 0xfd, 0xff, 0xff,
  0x00, 0x00, 0x00, 0x01, 0x10, 0x00, 0x00, 0x00, 0x10, 0x00, 0x00, 0x00,
  0x0c, 0x00, 0x00, 0x00, 0x1c, 0x00, 0x00, 0x00, 0x34, 0xfd, 0xff, 0xff,
  0x0f, 0x00, 0x00, 0x00, 0x61, 0x72, 0x69, 0x74, 0x68, 0x2e, 0x63, 0x6f,
  0x6e, 0x73, 0x74, 0x61, 0x6e, 0x74, 0x38, 0x00, 0x02, 0x00, 0x00, 0x00,
  0x0a, 0x00, 0x00, 0x00, 0x40, 0x00, 0x00, 0x00, 0x86, 0xfd, 0xff, 0xff,
  0x00, 0x00, 0x00, 0x01, 0x10, 0x00, 0x00, 0x00, 0x10, 0x00, 0x00, 0x00,
  0x0b, 0x00, 0x00, 0x00, 0x1c, 0x00, 0x00, 0x00, 0x70, 0xfd, 0xff, 0xff,
  0x0f, 0x00, 0x00, 0x00, 0x61, 0x72, 0x69, 0x74, 0x68, 0x2e, 0x63, 0x6f,
  0x6e, 0x73, 0x74, 0x61, 0x6e, 0x74, 0x37, 0x00, 0x01, 0x00, 0x00, 0x00,
  0x0a, 0x00, 0x00, 0x00, 0xbe, 0xfd, 0xff, 0xff, 0x00, 0x00, 0x00, 0x01,
  0x10, 0x00, 0x00, 0x00, 0x10, 0x00, 0x00, 0x00, 0x0a, 0x00, 0x00, 0x00,
  0x1c, 0x00, 0x00, 0x00, 0xa8, 0xfd, 0xff, 0xff, 0x0f, 0x00, 0x00, 0x00,
  0x61, 0x72, 0x69, 0x74, 0x68, 0x2e, 0x63, 0x6f, 0x6e, 0x73, 0x74, 0x61,
  0x6e, 0x74, 0x36, 0x00, 0x01, 0x00, 0x00, 0x00, 0x0a, 0x00, 0x00, 0x00,
  0xf6, 0xfd, 0xff, 0xff, 0x00, 0x00, 0x00, 0x01, 0x10, 0x00, 0x00, 0x00,
  0x10, 0x00, 0x00, 0x00, 0x09, 0x00, 0x00, 0x00, 0x1c, 0x00, 0x00, 0x00,
  0xe0, 0xfd, 0xff, 0xff, 0x0f, 0x00, 0x00, 0x00, 0x61, 0x72, 0x69, 0x74,
  0x68, 0x2e, 0x63, 0x6f, 0x6e, 0x73, 0x74, 0x61, 0x6e, 0x74, 0x35, 0x00,
  0x01, 0x00, 0x00, 0x00, 0x0a, 0x00, 0x00, 0x00, 0x2e, 0xfe, 0xff, 0xff,
  0x00, 0x00, 0x00, 0x01, 0x10, 0x00, 0x00, 0x00, 0x10, 0x00, 0x00, 0x00,
  0x08, 0x00, 0x00, 0x00, 0x1c, 0x00, 0x00, 0x00, 0x18, 0xfe, 0xff, 0xff,
  0x0f, 0x00, 0x00, 0x00, 0x61, 0x72, 0x69, 0x74, 0x68, 0x2e, 0x63, 0x6f,
  0x6e, 0x73, 0x74, 0x61, 0x6e, 0x74, 0x34, 0x00, 0x01, 0x00, 0x00, 0x00,
  0x0a, 0x00, 0x00, 0x00, 0x66, 0xfe, 0xff, 0xff, 0x00, 0x00, 0x00, 0x01,
  0x10, 0x00, 0x00, 0x00, 0x10, 0x00, 0x00, 0x00, 0x07, 0x00, 0x00, 0x00,
  0x1c, 0x00, 0x00, 0x00, 0x50, 0xfe, 0xff, 0xff, 0x0f, 0x00, 0x00, 0x00,
  0x61, 0x72, 0x69, 0x74, 0x68, 0x2e, 0x63, 0x6f, 0x6e, 0x73, 0x74, 0x61,
  0x6e, 0x74, 0x33, 0x00, 0x02, 0x00, 0x00, 0x00, 0x0a, 0x00, 0x00, 0x00,
  0x0a, 0x00, 0x00, 0x00, 0xa2, 0xfe, 0xff, 0xff, 0x00, 0x00, 0x00, 0x01,
  0x10, 0x00, 0x00, 0x00, 0x10, 0x00, 0x00, 0x00, 0x06, 0x00, 0x00, 0x00,
  0x1c, 0x00, 0x00, 0x00, 0x8c, 0xfe, 0xff, 0xff, 0x0f, 0x00, 0x00, 0x00,
  0x61, 0x72, 0x69, 0x74, 0x68, 0x2e, 0x63, 0x6f, 0x6e, 0x73, 0x74, 0x61,
  0x6e, 0x74, 0x32, 0x00, 0x02, 0x00, 0x00, 0x00, 0x0a, 0x00, 0x00, 0x00,
  0x0a, 0x00, 0x00, 0x00, 0xde, 0xfe, 0xff, 0xff, 0x00, 0x00, 0x00, 0x01,
  0x10, 0x00, 0x00, 0x00, 0x10, 0x00, 0x00, 0x00, 0x05, 0x00, 0x00, 0x00,
  0x1c, 0x00, 0x00, 0x00, 0xc8, 0xfe, 0xff, 0xff, 0x0f, 0x00, 0x00, 0x00,
  0x61, 0x72, 0x69, 0x74, 0x68, 0x2e, 0x63, 0x6f, 0x6e, 0x73, 0x74, 0x61,
  0x6e, 0x74, 0x31, 0x00, 0x02, 0x00, 0x00, 0x00, 0x0a, 0x00, 0x00, 0x00,
  0x0a, 0x00, 0x00, 0x00, 0x1a, 0xff, 0xff, 0xff, 0x00, 0x00, 0x00, 0x01,
  0x10, 0x00, 0x00, 0x00, 0x10, 0x00, 0x00, 0x00, 0x04, 0x00, 0x00, 0x00,
  0x1c, 0x00, 0x00, 0x00, 0x04, 0xff, 0xff, 0xff, 0x0e, 0x00, 0x00, 0x00,
  0x61, 0x72, 0x69, 0x74, 0x68, 0x2e, 0x63, 0x6f, 0x6e, 0x73, 0x74, 0x61,
  0x6e, 0x74, 0x00, 0x00, 0x02, 0x00, 0x00, 0x00, 0x0a, 0x00, 0x00, 0x00,
  0x0a, 0x00, 0x00, 0x00, 0x56, 0xff, 0xff, 0xff, 0x00, 0x00, 0x00, 0x01,
  0x10, 0x00, 0x00, 0x00, 0x10, 0x00, 0x00, 0x00, 0x03, 0x00, 0x00, 0x00,
  0x34, 0x00, 0x00, 0x00, 0x40, 0xff, 0xff, 0xff, 0x27, 0x00, 0x00, 0x00,
  0x73, 0x65, 0x71, 0x75, 0x65, 0x6e, 0x74, 0x69, 0x61, 0x6c, 0x2f, 0x64,
  0x65, 0x6e, 0x73, 0x65, 0x2f, 0x42, 0x69, 0x61, 0x73, 0x41, 0x64, 0x64,
  0x2f, 0x52, 0x65, 0x61, 0x64, 0x56, 0x61, 0x72, 0x69, 0x61, 0x62, 0x6c,
  0x65, 0x4f, 0x70, 0x00, 0x01, 0x00, 0x00, 0x00, 0x01, 0x00, 0x00, 0x00,
  0x00, 0x00, 0x16, 0x00, 0x14, 0x00, 0x10, 0x00, 0x00, 0x00, 0x00, 0x00,
  0x0c, 0x00, 0x08, 0x00, 0x07, 0x00, 0x00, 0x00, 0x00, 0x00, 0x06, 0x00,
  0x16, 0x00, 0x00, 0x00, 0x00, 0x00, 0x01, 0x01, 0x0c, 0x00, 0x00, 0x00,
  0x0c, 0x00, 0x00, 0x00, 0x24, 0x00, 0x00, 0x00, 0xa4, 0xff, 0xff, 0xff,
  0x15, 0x00, 0x00, 0x00, 0x73, 0x65, 0x71, 0x75, 0x65, 0x6e, 0x74, 0x69,
  0x61, 0x6c, 0x2f, 0x6c, 0x73, 0x74, 0x6d, 0x2f, 0x7a, 0x65, 0x72, 0x6f,
  0x73, 0x00, 0x00, 0x00, 0x02, 0x00, 0x00, 0x00, 0x01, 0x00, 0x00, 0x00,
  0x0a, 0x00, 0x00, 0x00, 0x00, 0x00, 0x16, 0x00, 0x18, 0x00, 0x14, 0x00,
  0x00, 0x00, 0x10, 0x00, 0x0c, 0x00, 0x08, 0x00, 0x00, 0x00, 0x00, 0x00,
  0x00, 0x00, 0x07, 0x00, 0x16, 0x00, 0x00, 0x00, 0x00, 0x00, 0x00, 0x01,
  0x14, 0x00, 0x00, 0x00, 0x14, 0x00, 0x00, 0x00, 0x01, 0x00, 0x00, 0x00,
  0x30, 0x00, 0x00, 0x00, 0x04, 0x00, 0x04, 0x00, 0x04, 0x00, 0x00, 0x00,
  0x1c, 0x00, 0x00, 0x00, 0x73, 0x65, 0x72, 0x76, 0x69, 0x6e, 0x67, 0x5f,
  0x64, 0x65, 0x66, 0x61, 0x75, 0x6c, 0x74, 0x5f, 0x6c, 0x73, 0x74, 0x6d,
  0x5f, 0x69, 0x6e, 0x70, 0x75, 0x74, 0x3a, 0x30, 0x00, 0x00, 0x00, 0x00,
  0x03, 0x00, 0x00, 0x00, 0x01, 0x00, 0x00, 0x00, 0x14, 0x00, 0x00, 0x00,
  0x40, 0x00, 0x00, 0x00, 0x04, 0x00, 0x00, 0x00, 0x40, 0x00, 0x00, 0x00,
  0x24, 0x00, 0x00, 0x00, 0x14, 0x00, 0x00, 0x00, 0x04, 0x00, 0x00, 0x00,
  0xdc, 0xff, 0xff, 0xff, 0x0e, 0x00, 0x00, 0x00, 0x00, 0x00, 0x00, 0x0e,
  0xe8, 0xff, 0xff, 0xff, 0x09, 0x00, 0x00, 0x00, 0x00, 0x00, 0x00, 0x09,
  0xf4, 0xff, 0xff, 0xff, 0x2d, 0x00, 0x00, 0x00, 0x00, 0x00, 0x00, 0x2d,
  0x0c, 0x00, 0x0c, 0x00, 0x0b, 0x00, 0x00, 0x00, 0x00, 0x00, 0x04, 0x00,
  0x0c, 0x00, 0x00, 0x00, 0x2c, 0x00, 0x00, 0x00, 0x00, 0x00, 0x00, 0x2c};
unsigned int model_tflite_len = 15240;

unsigned char* get_model_data() {
  return (unsigned char*)g_tof_detector_model_data;
}
