/* Copyright 2019 The TensorFlow Authors. All Rights Reserved.

Licensed under the Apache License, Version 2.0 (the "License");
you may not use this file except in compliance with the License.
You may obtain a copy of the License at

    http://www.apache.org/licenses/LICENSE-2.0

Unless required by applicable law or agreed to in writing, software
distributed under the License is distributed on an "AS IS" BASIS,
WITHOUT WARRANTIES OR CONDITIONS OF ANY KIND, either express or implied.
See the License for the specific language governing permissions and
limitations under the License.
==============================================================================*/

// Automatically created from a TensorFlow Lite flatbuffer using the command:
// xxd -i magic_wand_model.tflite > magic_wand_model_data.cc
// See the README for a full description of the creation process.

// We need to keep the data array aligned on some architectures.
#ifdef __has_attribute
#define HAVE_ATTRIBUTE(x) __has_attribute(x)
#else
#define HAVE_ATTRIBUTE(x) 0
#endif
#if HAVE_ATTRIBUTE(aligned) || (defined(__GNUC__) && !defined(__clang__))
#define DATA_ALIGN_ATTRIBUTE __attribute__((aligned(4)))
#else
#define DATA_ALIGN_ATTRIBUTE
#endif

const unsigned char g_tof_detector_model_data[] DATA_ALIGN_ATTRIBUTE = {
  0x1c, 0x00, 0x00, 0x00, 0x54, 0x46, 0x4c, 0x33, 0x14, 0x00, 0x20, 0x00,
  0x1c, 0x00, 0x18, 0x00, 0x14, 0x00, 0x10, 0x00, 0x0c, 0x00, 0x00, 0x00,
  0x08, 0x00, 0x04, 0x00, 0x14, 0x00, 0x00, 0x00, 0x1c, 0x00, 0x00, 0x00,
  0x84, 0x00, 0x00, 0x00, 0xdc, 0x00, 0x00, 0x00, 0x48, 0x32, 0x00, 0x00,
  0x58, 0x32, 0x00, 0x00, 0x04, 0x3b, 0x00, 0x00, 0x03, 0x00, 0x00, 0x00,
  0x01, 0x00, 0x00, 0x00, 0x04, 0x00, 0x00, 0x00, 0x6a, 0xcd, 0xff, 0xff,
  0x0c, 0x00, 0x00, 0x00, 0x1c, 0x00, 0x00, 0x00, 0x38, 0x00, 0x00, 0x00,
  0x0f, 0x00, 0x00, 0x00, 0x73, 0x65, 0x72, 0x76, 0x69, 0x6e, 0x67, 0x5f,
  0x64, 0x65, 0x66, 0x61, 0x75, 0x6c, 0x74, 0x00, 0x01, 0x00, 0x00, 0x00,
  0x04, 0x00, 0x00, 0x00, 0x98, 0xff, 0xff, 0xff, 0x17, 0x00, 0x00, 0x00,
  0x04, 0x00, 0x00, 0x00, 0x05, 0x00, 0x00, 0x00, 0x64, 0x65, 0x6e, 0x73,
  0x65, 0x00, 0x00, 0x00, 0x01, 0x00, 0x00, 0x00, 0x04, 0x00, 0x00, 0x00,
  0x5e, 0xce, 0xff, 0xff, 0x04, 0x00, 0x00, 0x00, 0x0a, 0x00, 0x00, 0x00,
  0x6c, 0x73, 0x74, 0x6d, 0x5f, 0x69, 0x6e, 0x70, 0x75, 0x74, 0x00, 0x00,
  0x02, 0x00, 0x00, 0x00, 0x34, 0x00, 0x00, 0x00, 0x04, 0x00, 0x00, 0x00,
  0xdc, 0xff, 0xff, 0xff, 0x1a, 0x00, 0x00, 0x00, 0x04, 0x00, 0x00, 0x00,
  0x13, 0x00, 0x00, 0x00, 0x43, 0x4f, 0x4e, 0x56, 0x45, 0x52, 0x53, 0x49,
  0x4f, 0x4e, 0x5f, 0x4d, 0x45, 0x54, 0x41, 0x44, 0x41, 0x54, 0x41, 0x00,
  0x08, 0x00, 0x0c, 0x00, 0x08, 0x00, 0x04, 0x00, 0x08, 0x00, 0x00, 0x00,
  0x19, 0x00, 0x00, 0x00, 0x04, 0x00, 0x00, 0x00, 0x13, 0x00, 0x00, 0x00,
  0x6d, 0x69, 0x6e, 0x5f, 0x72, 0x75, 0x6e, 0x74, 0x69, 0x6d, 0x65, 0x5f,
  0x76, 0x65, 0x72, 0x73, 0x69, 0x6f, 0x6e, 0x00, 0x1b, 0x00, 0x00, 0x00,
  0x68, 0x31, 0x00, 0x00, 0x60, 0x31, 0x00, 0x00, 0x28, 0x31, 0x00, 0x00,
  0x0c, 0x31, 0x00, 0x00, 0x6c, 0x2f, 0x00, 0x00, 0xcc, 0x2d, 0x00, 0x00,
  0x2c, 0x2c, 0x00, 0x00, 0x8c, 0x2a, 0x00, 0x00, 0x54, 0x2a, 0x00, 0x00,
  0x1c, 0x2a, 0x00, 0x00, 0xe4, 0x29, 0x00, 0x00, 0xac, 0x29, 0x00, 0x00,
  0x9c, 0x1f, 0x00, 0x00, 0x8c, 0x15, 0x00, 0x00, 0x7c, 0x0b, 0x00, 0x00,
  0x6c, 0x01, 0x00, 0x00, 0x34, 0x01, 0x00, 0x00, 0x18, 0x01, 0x00, 0x00,
  0xfc, 0x00, 0x00, 0x00, 0xe0, 0x00, 0x00, 0x00, 0xa8, 0x00, 0x00, 0x00,
  0xa0, 0x00, 0x00, 0x00, 0x98, 0x00, 0x00, 0x00, 0x90, 0x00, 0x00, 0x00,
  0x88, 0x00, 0x00, 0x00, 0x68, 0x00, 0x00, 0x00, 0x04, 0x00, 0x00, 0x00,
  0x42, 0xcf, 0xff, 0xff, 0x04, 0x00, 0x00, 0x00, 0x54, 0x00, 0x00, 0x00,
  0x0c, 0x00, 0x00, 0x00, 0x08, 0x00, 0x0e, 0x00, 0x08, 0x00, 0x04, 0x00,
  0x08, 0x00, 0x00, 0x00, 0x10, 0x00, 0x00, 0x00, 0x24, 0x00, 0x00, 0x00,
  0x00, 0x00, 0x06, 0x00, 0x08, 0x00, 0x04, 0x00, 0x06, 0x00, 0x00, 0x00,
  0x04, 0x00, 0x00, 0x00, 0x00, 0x00, 0x00, 0x00, 0x00, 0x00, 0x0a, 0x00,
  0x10, 0x00, 0x0c, 0x00, 0x08, 0x00, 0x04, 0x00, 0x0a, 0x00, 0x00, 0x00,
  0x02, 0x00, 0x00, 0x00, 0x02, 0x00, 0x00, 0x00, 0x04, 0x00, 0x00, 0x00,
  0x06, 0x00, 0x00, 0x00, 0x32, 0x2e, 0x31, 0x35, 0x2e, 0x30, 0x00, 0x00,
  0xa2, 0xcf, 0xff, 0xff, 0x04, 0x00, 0x00, 0x00, 0x10, 0x00, 0x00, 0x00,
  0x31, 0x2e, 0x31, 0x34, 0x2e, 0x30, 0x00, 0x00, 0x00, 0x00, 0x00, 0x00,
  0x00, 0x00, 0x00, 0x00, 0xf4, 0xc6, 0xff, 0xff, 0xf8, 0xc6, 0xff, 0xff,
  0xfc, 0xc6, 0xff, 0xff, 0x00, 0xc7, 0xff, 0xff, 0xce, 0xcf, 0xff, 0xff,
  0x04, 0x00, 0x00, 0x00, 0x28, 0x00, 0x00, 0x00, 0x00, 0x00, 0x00, 0x00,
  0x00, 0x00, 0x00, 0x00, 0x00, 0x00, 0x00, 0x00, 0x00, 0x00, 0x00, 0x00,
  0x00, 0x00, 0x00, 0x00, 0x00, 0x00, 0x00, 0x00, 0x00, 0x00, 0x00, 0x00,
  0x00, 0x00, 0x00, 0x00, 0x00, 0x00, 0x00, 0x00, 0x00, 0x00, 0x00, 0x00,
  0x02, 0xd0, 0xff, 0xff, 0x04, 0x00, 0x00, 0x00, 0x0c, 0x00, 0x00, 0x00,
  0x01, 0x00, 0x00, 0x00, 0x01, 0x00, 0x00, 0x00, 0x01, 0x00, 0x00, 0x00,
  0x1a, 0xd0, 0xff, 0xff, 0x04, 0x00, 0x00, 0x00, 0x0c, 0x00, 0x00, 0x00,
  0x00, 0x00, 0x00, 0x00, 0x00, 0x00, 0x00, 0x00, 0x00, 0x00, 0x00, 0x00,
  0x32, 0xd0, 0xff, 0xff, 0x04, 0x00, 0x00, 0x00, 0x0c, 0x00, 0x00, 0x00,
  0x00, 0x00, 0x00, 0x00, 0xff, 0xff, 0xff, 0xff, 0x00, 0x00, 0x00, 0x00,
  0x4a, 0xd0, 0xff, 0xff, 0x04, 0x00, 0x00, 0x00, 0x28, 0x00, 0x00, 0x00,
  0x54, 0xe3, 0x91, 0x3f, 0xb8, 0x6d, 0x8a, 0xbe, 0x6c, 0xb9, 0x9f, 0xbf,
  0xf0, 0x61, 0x65, 0x3f, 0x0e, 0x10, 0x5a, 0xbf, 0xc1, 0x79, 0x11, 0xbe,
  0x9c, 0x32, 0x92, 0xbf, 0xfb, 0x6c, 0xbb, 0x3f, 0x00, 0x99, 0x85, 0x3f,
  0x26, 0x77, 0x18, 0xbf, 0x7e, 0xd0, 0xff, 0xff, 0x04, 0x00, 0x00, 0x00,
  0x00, 0x0a, 0x00, 0x00, 0x38, 0x9f, 0x00, 0x3e, 0x41, 0x10, 0x8e, 0x3e,
  0x49, 0x57, 0x20, 0x3e, 0xc5, 0xc7, 0x97, 0x3d, 0x13, 0x7a, 0x37, 0xbb,
  0x85, 0x59, 0x9d, 0x3d, 0xa4, 0xf8, 0xb2, 0x3d, 0xf5, 0x4e, 0xfb, 0xbd,
  0xbf, 0x67, 0xdb, 0x3c, 0xa5, 0xd2, 0x89, 0x3e, 0x3d, 0xd7, 0x23, 0xbd,
  0xed, 0x73, 0x02, 0x3e, 0x68, 0x55, 0x6c, 0x3e, 0x56, 0x46, 0x55, 0x3e,
  0x72, 0xaf, 0x4a, 0x3e, 0x2d, 0x85, 0x5c, 0xbe, 0x28, 0xde, 0x07, 0x3d,
  0x24, 0xd2, 0x6c, 0x3e, 0xb7, 0xed, 0xbb, 0xbd, 0xa5, 0xaa, 0x8a, 0x3e,
  0x38, 0x98, 0x80, 0xbd, 0xac, 0xaa, 0x38, 0xbb, 0xec, 0x2e, 0x63, 0x3e,
  0xc5, 0x37, 0x1e, 0xbd, 0x36, 0x68, 0xaa, 0xbd, 0x0f, 0x6f, 0x98, 0xbc,
  0xae, 0xc1, 0x3f, 0x3e, 0xd8, 0x30, 0x3e, 0xbd, 0x31, 0x6a, 0xfe, 0x3d,
  0x0a, 0x58, 0x84, 0x3e, 0xa6, 0xa7, 0x91, 0xbd, 0x34, 0x66, 0x9a, 0xbd,
  0x17, 0x04, 0x52, 0x3d, 0x22, 0x40, 0x86, 0x3e, 0xe3, 0x2d, 0x0d, 0x3d,
  0x6b, 0xd4, 0x68, 0xbe, 0x47, 0xfd, 0x4f, 0x3c, 0xcb, 0xa1, 0xee, 0xbd,
  0x5d, 0x90, 0x0a, 0x3e, 0x56, 0xfa, 0x86, 0xbe, 0x05, 0x59, 0x0a, 0x3e,
  0x2e, 0x42, 0x29, 0x3e, 0x85, 0x6f, 0x14, 0xbd, 0xdf, 0x4b, 0xe5, 0xbd,
  0xcd, 0xf6, 0xf0, 0xbc, 0x3d, 0x64, 0xbf, 0x3c, 0x16, 0xc6, 0xeb, 0xbc,
  0x73, 0xb5, 0x4a, 0xbd, 0x5b, 0xd9, 0x3f, 0x3e, 0x21, 0x69, 0x03, 0x3e,
  0xd3, 0xfd, 0x4e, 0x3d, 0xe8, 0xb7, 0x00, 0x3e, 0xd7, 0xc1, 0x03, 0x3c,
  0x5d, 0x9c, 0xe8, 0x3d, 0xeb, 0x79, 0xa4, 0x3d, 0x40, 0x2b, 0xb0, 0xbe,
  0x4b, 0x49, 0x53, 0xbd, 0x13, 0x7b, 0xd6, 0x3b, 0x17, 0x70, 0x01, 0x3e,
  0x48, 0xdd, 0xb1, 0x3d, 0x80, 0x7d, 0x12, 0xbe, 0x61, 0xc8, 0x89, 0xbe,
  0x10, 0x49, 0xf2, 0xbd, 0x89, 0xc6, 0x9c, 0xbe, 0x0f, 0xf7, 0x56, 0xbe,
  0x0a, 0xc0, 0x30, 0x3e, 0x3b, 0xec, 0xed, 0xbd, 0x40, 0x6e, 0x21, 0xbd,
  0xda, 0x57, 0x22, 0x3b, 0x5e, 0x20, 0x0a, 0x3e, 0x70, 0x2f, 0x96, 0x3e,
  0x9d, 0x71, 0x21, 0x3e, 0x72, 0xa5, 0xed, 0xbe, 0xc4, 0x73, 0xc0, 0x3b,
  0xeb, 0xaf, 0x92, 0xbe, 0xfb, 0x3b, 0x0f, 0x3e, 0x22, 0xc4, 0x14, 0xbe,
  0x01, 0x0c, 0xbd, 0xbd, 0xb7, 0x65, 0x47, 0x3e, 0x36, 0xd5, 0x4a, 0x3e,
  0xdb, 0x6e, 0xaa, 0xbe, 0xe9, 0xa1, 0x1e, 0xbe, 0x72, 0x59, 0xe3, 0x3d,
  0x0b, 0x3d, 0xf1, 0x3c, 0x5a, 0x4c, 0x47, 0x3e, 0xc6, 0x2c, 0x9a, 0xbe,
  0xef, 0xb7, 0x99, 0xbd, 0xa3, 0xcf, 0x69, 0xbe, 0x2d, 0xe6, 0x97, 0xbe,
  0xf0, 0x3d, 0x31, 0x3d, 0x13, 0x71, 0xf2, 0x3c, 0xe2, 0xa3, 0xc9, 0x3d,
  0xe4, 0xc1, 0x9b, 0xbe, 0x9d, 0x2a, 0x9a, 0x3e, 0x09, 0x1f, 0x4b, 0x3e,
  0x13, 0xb2, 0x35, 0x3d, 0x16, 0xfd, 0x63, 0xbe, 0xea, 0xab, 0x09, 0xbf,
  0x3b, 0xae, 0x37, 0x3a, 0xe8, 0x8f, 0x57, 0xbe, 0xbb, 0x3b, 0x35, 0x3e,
  0xb2, 0xf7, 0xec, 0xbd, 0x6b, 0xcb, 0x8d, 0x3d, 0xff, 0xdf, 0xca, 0x3d,
  0xa1, 0xb7, 0x3e, 0xbe, 0xe8, 0xfa, 0xc0, 0xbd, 0xc8, 0x2a, 0x0c, 0xbf,
  0x1a, 0x31, 0x6e, 0xbe, 0x2a, 0x58, 0x4a, 0xbe, 0xf3, 0xc1, 0xe1, 0x3d,
  0xd9, 0xfe, 0x2b, 0x3e, 0x13, 0x8e, 0xde, 0x3d, 0x44, 0xd2, 0x83, 0xbe,
  0x5e, 0x7c, 0xd6, 0xbe, 0x04, 0xb4, 0x87, 0xbe, 0x9f, 0xdc, 0x08, 0xbe,
  0x3d, 0xb4, 0x8d, 0xbd, 0x9a, 0x8d, 0x39, 0xbe, 0x2c, 0x35, 0x12, 0x3d,
  0x53, 0x35, 0x92, 0xbd, 0xba, 0xe8, 0xba, 0xbe, 0x40, 0x28, 0x7d, 0x3d,
  0x32, 0x47, 0xa1, 0xbe, 0x70, 0xd6, 0xb4, 0xbe, 0xad, 0x30, 0xc9, 0xbe,
  0xff, 0xa9, 0x9a, 0xbe, 0x01, 0x29, 0x56, 0xbe, 0x2b, 0x2a, 0x87, 0x3e,
  0xc2, 0x6e, 0xb3, 0x3d, 0x8f, 0xa0, 0x0d, 0xbe, 0xd8, 0xaa, 0xb1, 0xbd,
  0x44, 0x2d, 0x80, 0x3d, 0x7d, 0x5d, 0xdc, 0xbd, 0x11, 0x35, 0x2e, 0xbe,
  0xa0, 0xc5, 0xe9, 0xbc, 0xe0, 0x4e, 0x89, 0x3e, 0x37, 0x71, 0x42, 0x3e,
  0x8a, 0xf5, 0x2b, 0x3e, 0x04, 0x56, 0x49, 0xbe, 0xcf, 0xa5, 0x87, 0x3d,
  0xd7, 0xe9, 0x45, 0x3e, 0x31, 0xc9, 0xf8, 0x3c, 0xc5, 0xa6, 0x00, 0x3e,
  0x98, 0xec, 0xc3, 0x3d, 0x21, 0x4f, 0x0b, 0xbe, 0x53, 0x04, 0x8c, 0x3e,
  0x1d, 0x7e, 0x59, 0x3e, 0xee, 0xcc, 0x36, 0x3e, 0xaf, 0x86, 0x7e, 0x3e,
  0xf4, 0x23, 0x40, 0x3e, 0xdd, 0xb3, 0xbe, 0xbd, 0x51, 0x0e, 0x57, 0x3e,
  0xbb, 0xd4, 0xaf, 0x3d, 0xf3, 0x65, 0xfd, 0xbd, 0xd1, 0xaf, 0x4a, 0x3e,
  0xf4, 0x62, 0xaa, 0x3c, 0x3f, 0x13, 0xa3, 0x3c, 0xa4, 0xa6, 0x07, 0x3e,
  0x31, 0x42, 0x9b, 0x3d, 0x5b, 0x32, 0x15, 0x3e, 0x4e, 0x8b, 0x24, 0xbe,
  0xea, 0x1f, 0x8a, 0x3d, 0x2b, 0x4b, 0x32, 0x3e, 0x80, 0xc5, 0x0a, 0xbe,
  0x81, 0x67, 0x5c, 0x3d, 0xe0, 0x59, 0x2d, 0x3d, 0xfe, 0x9a, 0x0f, 0x3c,
  0x3e, 0x26, 0x18, 0x3e, 0x69, 0x71, 0xcc, 0x3d, 0x12, 0x2f, 0x07, 0xbe,
  0x69, 0xac, 0xa4, 0x3d, 0xd2, 0xf0, 0x1c, 0x3e, 0x71, 0xdb, 0x69, 0x3d,
  0xca, 0x54, 0x87, 0x3d, 0x21, 0x26, 0xce, 0x3d, 0x72, 0x5f, 0x06, 0xbe,
  0x2d, 0x27, 0xdf, 0xbd, 0xaf, 0xeb, 0xae, 0x3c, 0xf4, 0x39, 0xae, 0x3d,
  0xa9, 0x4c, 0x50, 0x3d, 0x0c, 0x59, 0x89, 0xbd, 0x6d, 0x67, 0x8f, 0x3d,
  0x4e, 0x1f, 0x47, 0x3d, 0x62, 0x3c, 0x29, 0x3e, 0xe2, 0xec, 0xd5, 0x3d,
  0x09, 0x3e, 0x2b, 0xbc, 0x09, 0x20, 0x91, 0xbd, 0xd0, 0x80, 0x03, 0x3d,
  0x5f, 0x11, 0x4b, 0x3d, 0x89, 0x8f, 0x15, 0xbe, 0xb6, 0xae, 0x97, 0xbd,
  0x58, 0x6e, 0x87, 0x3e, 0x5b, 0xb7, 0x81, 0xbe, 0xa8, 0x6e, 0x12, 0xbe,
  0x59, 0x4c, 0x97, 0x3d, 0x17, 0xd4, 0x0e, 0xbe, 0x4a, 0xd8, 0x8f, 0x3d,
  0xdc, 0x62, 0x14, 0x3e, 0x80, 0x01, 0xc6, 0xbd, 0x4f, 0x82, 0x10, 0x3e,
  0xed, 0xbe, 0xec, 0x3d, 0xd3, 0xd3, 0x6f, 0xbe, 0xf6, 0xb8, 0x85, 0xbe,
  0xd3, 0x3d, 0xda, 0xbd, 0x7a, 0x43, 0x8e, 0xbe, 0x81, 0xb3, 0x94, 0xbe,
  0x45, 0x81, 0x41, 0xbe, 0x49, 0xa6, 0x94, 0xbe, 0x0c, 0x78, 0x16, 0x3c,
  0xe9, 0x49, 0xc6, 0xbc, 0xe1, 0x0c, 0x6c, 0xbe, 0x9f, 0x39, 0x41, 0x3e,
  0x61, 0x7f, 0xb9, 0xbe, 0x36, 0xa2, 0x15, 0xbf, 0x16, 0xfe, 0xe0, 0xbe,
  0xbf, 0x66, 0x6f, 0xbe, 0x9d, 0xb8, 0xac, 0x3d, 0x0c, 0x87, 0x5d, 0xbe,
  0xb6, 0x88, 0xbf, 0xbd, 0x69, 0xcd, 0xdb, 0xbe, 0x4b, 0x94, 0xae, 0xbe,
  0x70, 0x22, 0xaa, 0xbe, 0xcd, 0x07, 0x63, 0xbe, 0x11, 0xb1, 0xb5, 0xbc,
  0x28, 0x9d, 0x3e, 0xbe, 0x27, 0x6c, 0x2f, 0x3d, 0xd9, 0xa0, 0xa4, 0xbe,
  0x81, 0x36, 0x11, 0xbe, 0x6f, 0x97, 0xee, 0xbc, 0x3c, 0x00, 0x5b, 0xbe,
  0xb2, 0xd7, 0xac, 0x3d, 0xae, 0xab, 0x0c, 0xbe, 0x33, 0xf4, 0x33, 0xbe,
  0xcb, 0x57, 0xf3, 0xbd, 0xbe, 0x13, 0xc1, 0xbd, 0x12, 0x00, 0x99, 0xbe,
  0xf5, 0xeb, 0x11, 0xbe, 0x65, 0x37, 0xa9, 0xbd, 0x33, 0x64, 0x36, 0xbe,
  0x8e, 0x17, 0xd5, 0x3d, 0x6f, 0xa0, 0xe0, 0xbd, 0xa2, 0x13, 0xbc, 0x3c,
  0xd6, 0x4d, 0x00, 0xbe, 0x57, 0x96, 0xa0, 0xbe, 0xb8, 0x4e, 0xb2, 0xbe,
  0x75, 0x59, 0x2e, 0xbe, 0x05, 0x8c, 0x16, 0xbe, 0x08, 0xc4, 0x44, 0x3e,
  0x91, 0xde, 0x76, 0x3e, 0xc0, 0x18, 0x8a, 0xbe, 0xf3, 0x3c, 0x9e, 0xbe,
  0xdc, 0xf8, 0x8f, 0xbd, 0xca, 0x8f, 0x29, 0xbe, 0x42, 0x5d, 0xd8, 0xbe,
  0x82, 0x0e, 0x8f, 0x3c, 0xf4, 0x90, 0x17, 0xbc, 0x72, 0xf1, 0x90, 0x3e,
  0x1b, 0xf1, 0x7a, 0x3e, 0x99, 0x1a, 0x0a, 0xbd, 0x0c, 0x45, 0x38, 0x3d,
  0x7e, 0xc1, 0x93, 0x3b, 0x32, 0xec, 0x6c, 0xbe, 0x1c, 0x25, 0xe9, 0xbd,
  0x5c, 0x11, 0xd9, 0xbd, 0x06, 0xe2, 0x74, 0x3e, 0x41, 0xdf, 0x2c, 0x3e,
  0x7e, 0x90, 0x75, 0x3d, 0x5e, 0x2b, 0x93, 0xbd, 0x6e, 0x79, 0xd3, 0xbd,
  0x13, 0x0f, 0x55, 0xbd, 0xf8, 0xea, 0x4f, 0xbe, 0xd7, 0xc6, 0x94, 0xbc,
  0x63, 0x78, 0xb5, 0xbd, 0x9c, 0x6e, 0x29, 0x3d, 0x31, 0x72, 0xb7, 0x3d,
  0x31, 0xe2, 0x42, 0xbe, 0x97, 0x52, 0x2b, 0x3e, 0xaf, 0xda, 0x52, 0xbe,
  0xbf, 0x2a, 0x9a, 0xbd, 0x63, 0x6e, 0x63, 0xbe, 0x69, 0x1f, 0x3a, 0xbc,
  0x75, 0x4f, 0x3a, 0xbd, 0x34, 0xae, 0x94, 0xbe, 0x68, 0xdc, 0x9d, 0x3d,
  0xd4, 0x4b, 0xaa, 0xbe, 0xa8, 0x08, 0x2e, 0x3e, 0x73, 0x05, 0xf9, 0x3d,
  0x85, 0xcd, 0x4c, 0x3e, 0xc4, 0xe2, 0x47, 0x3e, 0xe4, 0xdd, 0x4b, 0xbd,
  0x0b, 0xde, 0x93, 0x3d, 0xcb, 0x2e, 0x05, 0xbe, 0x38, 0x41, 0x5d, 0xbe,
  0xd8, 0x7b, 0x4c, 0xbe, 0x38, 0xdf, 0x59, 0xbd, 0x7a, 0x7c, 0x32, 0xbe,
  0x30, 0x05, 0x33, 0x3e, 0x3b, 0xe3, 0xd4, 0x3d, 0x03, 0x9c, 0x50, 0xbe,
  0x96, 0x8c, 0x8c, 0xbd, 0xa2, 0x0e, 0x1d, 0xbe, 0xa7, 0xd3, 0xb6, 0xbd,
  0xdd, 0x20, 0x28, 0x3e, 0x2a, 0x33, 0x33, 0xbe, 0xa0, 0xc7, 0x23, 0xbd,
  0x8d, 0x2d, 0xc0, 0xbd, 0x46, 0xc1, 0x97, 0xbc, 0xc1, 0x01, 0xe3, 0xbd,
  0xfc, 0x0c, 0xdd, 0x3d, 0xa6, 0x55, 0x69, 0x3e, 0xf4, 0x0a, 0x99, 0xbd,
  0x63, 0xf0, 0x25, 0xbd, 0xcd, 0xc2, 0xb0, 0x3e, 0x4f, 0x53, 0x2c, 0x3e,
  0x80, 0x25, 0xa8, 0x3e, 0xf5, 0xc9, 0xc5, 0x3d, 0x92, 0x31, 0x6b, 0x3e,
  0x81, 0xd5, 0xdc, 0xbd, 0x76, 0x5d, 0x83, 0x3c, 0xa9, 0xc5, 0x8a, 0x3e,
  0xf1, 0x5b, 0x6f, 0xbe, 0x50, 0x81, 0x98, 0xbd, 0x64, 0xf8, 0xff, 0xbd,
  0xb6, 0x31, 0xbc, 0xbe, 0x2c, 0xf4, 0xca, 0x3c, 0xe7, 0x02, 0xbd, 0xbd,
  0x02, 0x6d, 0x51, 0x3e, 0xdf, 0x12, 0xcd, 0x3d, 0xad, 0xe3, 0x03, 0xbe,
  0x86, 0x24, 0x5c, 0xbc, 0xf0, 0x34, 0x5f, 0xbe, 0x58, 0xbb, 0xfd, 0xbd,
  0x11, 0x3e, 0x87, 0xbe, 0x02, 0x9b, 0x0e, 0xbc, 0x58, 0x0b, 0x39, 0xbe,
  0xb4, 0x02, 0x6b, 0xbd, 0x5c, 0xf2, 0x20, 0xbe, 0x90, 0x99, 0x5a, 0xbc,
  0x18, 0x86, 0x99, 0xbe, 0xd9, 0xfe, 0xb6, 0xbe, 0x3d, 0x7c, 0xd8, 0xbc,
  0x8d, 0x34, 0xbb, 0xbd, 0x49, 0x2b, 0x83, 0x3d, 0xe9, 0x79, 0xdb, 0xbd,
  0x02, 0x24, 0x03, 0xbe, 0x7e, 0x21, 0x4f, 0xbe, 0xbb, 0x06, 0x24, 0x3e,
  0x4f, 0xe5, 0xe6, 0xbc, 0x9a, 0x0d, 0x11, 0x3d, 0x00, 0x83, 0xfb, 0xbd,
  0xe7, 0xad, 0x96, 0x3d, 0x80, 0x57, 0x51, 0x3c, 0xe5, 0x07, 0x9d, 0x3c,
  0xb3, 0xf1, 0xc7, 0xbe, 0xb8, 0x6c, 0x83, 0x3c, 0x30, 0x47, 0xd6, 0xbd,
  0xdc, 0xc9, 0x89, 0x3c, 0x5b, 0x95, 0xa4, 0x3d, 0xff, 0x3e, 0x1b, 0x3d,
  0x5b, 0x44, 0x10, 0x3e, 0xa9, 0xdc, 0x2b, 0xbe, 0xc9, 0x13, 0x5c, 0xbe,
  0xb0, 0x1b, 0x87, 0xbd, 0x08, 0x5a, 0x05, 0xbd, 0x1f, 0x6a, 0xa5, 0xbe,
  0xd6, 0x3b, 0x07, 0xbe, 0x3f, 0x23, 0x62, 0xbe, 0xa5, 0x95, 0x6d, 0xbd,
  0xd0, 0x12, 0x97, 0xbe, 0x00, 0xea, 0xb7, 0xbe, 0xe5, 0x4e, 0x82, 0xbe,
  0x4f, 0x10, 0xa2, 0xbe, 0xd0, 0x13, 0xb3, 0xbe, 0x9b, 0x56, 0xe2, 0xbd,
  0xca, 0xc9, 0x6a, 0xbd, 0xf2, 0x38, 0xea, 0xbc, 0x6e, 0x6e, 0x53, 0xbe,
  0x42, 0x3d, 0x9c, 0xbd, 0x45, 0x46, 0x6d, 0xbe, 0xa6, 0xcb, 0x6b, 0xbe,
  0x31, 0xa3, 0x73, 0xbe, 0xd3, 0xcc, 0xf1, 0x3d, 0x54, 0x2f, 0x29, 0xbd,
  0x6d, 0xe2, 0x01, 0x3e, 0xac, 0x7f, 0x5d, 0xbe, 0xca, 0x40, 0xf4, 0x3c,
  0xfa, 0xff, 0xd5, 0xbe, 0xf1, 0xb3, 0x4f, 0xbe, 0x59, 0x6b, 0xdf, 0xbd,
  0x23, 0x18, 0xbd, 0xbe, 0x84, 0xb9, 0x21, 0x3d, 0x8c, 0xc1, 0x12, 0x3c,
  0xa9, 0x36, 0x38, 0xbd, 0x66, 0x1c, 0x19, 0x3c, 0xc8, 0x34, 0x8f, 0xbd,
  0xd5, 0x80, 0x45, 0x3d, 0x20, 0x9f, 0x95, 0xbd, 0x38, 0x34, 0x95, 0xbe,
  0x34, 0x68, 0x66, 0xbd, 0xf3, 0x4d, 0x80, 0x3c, 0x99, 0x37, 0x47, 0xbe,
  0xe6, 0x5d, 0xb4, 0x3d, 0x50, 0x4b, 0x47, 0x3c, 0xa1, 0xb1, 0x7c, 0xbe,
  0x7c, 0x55, 0x50, 0xbe, 0x6f, 0x66, 0x69, 0x3e, 0x7d, 0x75, 0x49, 0xbd,
  0xc4, 0x4f, 0xea, 0xbd, 0x7f, 0x2a, 0xdc, 0x3b, 0xac, 0xad, 0x73, 0xbe,
  0x0a, 0x4e, 0xdc, 0x3d, 0x85, 0x8f, 0x9d, 0xbd, 0xa0, 0x47, 0xe9, 0x3c,
  0x27, 0xfb, 0x25, 0x3e, 0xe0, 0x32, 0x8b, 0x3e, 0x3c, 0x96, 0x92, 0x3e,
  0xf6, 0x48, 0xeb, 0xbd, 0x31, 0x71, 0x26, 0xbe, 0x2e, 0x70, 0x07, 0xbd,
  0x6c, 0x84, 0xa6, 0xbe, 0x0c, 0x43, 0x20, 0xbe, 0x5a, 0x91, 0x20, 0xbe,
  0xf8, 0x90, 0x5c, 0xbe, 0x69, 0xe3, 0x84, 0xbd, 0x63, 0x2a, 0x12, 0xbe,
  0x26, 0x6c, 0x0e, 0xbf, 0xa1, 0xe2, 0xca, 0xbe, 0xd9, 0x09, 0xa9, 0xbe,
  0xc1, 0xc0, 0x05, 0xbf, 0x0d, 0x76, 0x1a, 0xbe, 0xd9, 0x04, 0xa6, 0x3d,
  0x19, 0x89, 0xf5, 0xbc, 0x6c, 0x88, 0xad, 0xbe, 0x9e, 0xef, 0x99, 0xbe,
  0x19, 0x3e, 0x93, 0xbd, 0x57, 0x4a, 0xd7, 0xbe, 0x4e, 0x28, 0x67, 0xbe,
  0xa8, 0xe9, 0x01, 0xbe, 0x88, 0x28, 0x1b, 0xbe, 0x2e, 0xf4, 0xa1, 0x3d,
  0xac, 0x52, 0x0b, 0xbe, 0xe1, 0xa0, 0xe7, 0xbe, 0x81, 0x26, 0xe0, 0xbe,
  0x6d, 0xb4, 0xbe, 0xbe, 0xc2, 0xf7, 0x0e, 0xbe, 0xb1, 0xb1, 0xee, 0xbe,
  0x1c, 0x53, 0x8d, 0xbe, 0x57, 0x59, 0x79, 0x3e, 0x53, 0x3f, 0x20, 0xbd,
  0xfd, 0xf6, 0x2b, 0xbe, 0x2d, 0xa0, 0x2f, 0x3c, 0xdf, 0xe1, 0x87, 0x3d,
  0xbc, 0xa8, 0xb5, 0xbc, 0xed, 0xdc, 0x31, 0x3e, 0xd4, 0x85, 0xf0, 0x3c,
  0x2d, 0x2d, 0xa6, 0x3d, 0x2a, 0xf0, 0x2e, 0x3e, 0x3f, 0xbf, 0x93, 0x3d,
  0x0b, 0x99, 0x25, 0x3e, 0x5d, 0x1b, 0xaa, 0x3c, 0x5a, 0x53, 0x1e, 0x3d,
  0x6c, 0x2a, 0xa7, 0xbd, 0x49, 0xf5, 0xdc, 0xbb, 0x40, 0x32, 0x27, 0x3d,
  0x33, 0xab, 0x1e, 0xbe, 0xe4, 0xd0, 0x8e, 0xbd, 0x0c, 0x58, 0x0e, 0x3e,
  0x75, 0x61, 0x1e, 0x3e, 0x10, 0xe0, 0x56, 0x3d, 0xa2, 0x0c, 0xd3, 0xbc,
  0xd8, 0x2f, 0xcf, 0x3d, 0x4b, 0xd4, 0x66, 0xbe, 0x16, 0x88, 0x7b, 0xbd,
  0x88, 0x2e, 0x5c, 0x3d, 0xb4, 0x14, 0x5d, 0x3d, 0xcc, 0x7a, 0x35, 0x3d,
  0x89, 0x54, 0x2a, 0xbd, 0x56, 0xf4, 0x02, 0x3d, 0xed, 0x0c, 0x14, 0x3e,
  0x37, 0x02, 0x59, 0x3e, 0x5c, 0xac, 0xcb, 0x3d, 0x7f, 0xf3, 0x1b, 0xbc,
  0x54, 0x52, 0xdd, 0x3d, 0x1a, 0x2e, 0x15, 0x3b, 0xf7, 0x0c, 0xa2, 0xbd,
  0x25, 0x69, 0xe1, 0xbd, 0xc1, 0xa1, 0x9d, 0x3b, 0xab, 0x48, 0x3e, 0x3e,
  0x82, 0x49, 0x93, 0x3c, 0x0a, 0xf3, 0x1c, 0xbe, 0x7c, 0x6a, 0x0e, 0x3e,
  0xc6, 0xdc, 0xd5, 0xbd, 0xa3, 0x1f, 0x23, 0x3e, 0x5e, 0x11, 0x43, 0xbd,
  0x92, 0xf3, 0x4a, 0xbd, 0x7a, 0x01, 0x18, 0xbd, 0x29, 0x15, 0xbe, 0xbd,
  0x84, 0xa9, 0x24, 0xbd, 0xbc, 0x0c, 0xa9, 0x3d, 0x17, 0x45, 0xfa, 0x3c,
  0xdf, 0x06, 0x02, 0x3e, 0xa7, 0xaa, 0xa5, 0xbd, 0xa2, 0x40, 0x1d, 0x3e,
  0xf1, 0xf0, 0x54, 0xbe, 0xb3, 0xfc, 0x0a, 0x3e, 0x5e, 0x2d, 0xf1, 0x3c,
  0x08, 0xb8, 0xcc, 0xbc, 0xc5, 0xe6, 0xfb, 0xbc, 0x54, 0x3b, 0x09, 0xbe,
  0x62, 0x1b, 0xa4, 0x3d, 0x47, 0xd3, 0x3c, 0xbd, 0x6d, 0x18, 0x08, 0x3e,
  0xde, 0x7f, 0xa1, 0xbb, 0xaa, 0x64, 0x8c, 0xbd, 0x20, 0xf9, 0x86, 0xbe,
  0x4c, 0xed, 0xbc, 0xbb, 0x32, 0xce, 0x55, 0xbd, 0xbc, 0x71, 0x7e, 0x3d,
  0xeb, 0x73, 0x9a, 0x3d, 0x51, 0x88, 0xea, 0x3d, 0xc2, 0x50, 0x6e, 0xbe,
  0x11, 0xb0, 0xc0, 0x3c, 0xe9, 0x6a, 0xa5, 0xbd, 0x9b, 0xa8, 0x25, 0xbe,
  0xdb, 0x87, 0x10, 0xbe, 0x10, 0x3b, 0x94, 0xbe, 0x1d, 0x5e, 0xb1, 0x3c,
  0xcb, 0xcf, 0xdd, 0xbd, 0xc0, 0xa2, 0xaa, 0x3d, 0x4d, 0x9e, 0xa9, 0x3c,
  0xff, 0x47, 0x73, 0xbe, 0xf7, 0xde, 0xd3, 0xbe, 0xa9, 0x21, 0xb6, 0xbe,
  0x61, 0xe0, 0xf2, 0xbe, 0x7e, 0xcf, 0xee, 0x3d, 0x25, 0xae, 0x37, 0xbd,
  0x91, 0x92, 0x80, 0xbe, 0xf6, 0x56, 0x83, 0xbe, 0x4c, 0x39, 0x35, 0xbe,
  0xdd, 0x1f, 0xe2, 0xbe, 0xa5, 0xf2, 0x17, 0x3e, 0xd2, 0x5d, 0xc3, 0xbe,
  0xbf, 0xdb, 0xaf, 0xbc, 0x14, 0x88, 0xc4, 0xbd, 0xa5, 0x99, 0xa3, 0xbe,
  0xbf, 0x7a, 0x13, 0xbe, 0xc5, 0x22, 0xa4, 0xbe, 0xa2, 0x30, 0x10, 0xbd,
  0xa0, 0xe4, 0x99, 0xbe, 0x52, 0xfa, 0x86, 0xbe, 0xbf, 0x7f, 0x10, 0xbe,
  0x9b, 0xe7, 0x42, 0xbe, 0x37, 0x99, 0x6b, 0xbe, 0x27, 0x35, 0xb7, 0xbe,
  0x77, 0xd4, 0x0f, 0xbe, 0xc3, 0x76, 0x15, 0x3d, 0x5d, 0x94, 0x0d, 0xbd,
  0x68, 0x21, 0x36, 0x3d, 0x44, 0x4e, 0xb3, 0xbd, 0x06, 0x17, 0x21, 0xbd,
  0x14, 0x40, 0x50, 0xbe, 0xdb, 0xe0, 0xc0, 0xbe, 0x3f, 0x34, 0x73, 0xbe,
  0x71, 0x6d, 0x5a, 0xbe, 0xc5, 0x49, 0x93, 0xbe, 0xf6, 0x59, 0xb6, 0xbe,
  0x61, 0xc9, 0xec, 0xbd, 0x9b, 0x14, 0x06, 0x3e, 0x89, 0x11, 0xad, 0xbe,
  0xae, 0x4c, 0xf0, 0xbd, 0x49, 0x74, 0x73, 0xbd, 0x24, 0x5a, 0x91, 0xbd,
  0x33, 0x9e, 0x96, 0xbe, 0x6a, 0xc2, 0x47, 0xbe, 0x79, 0x5e, 0xc8, 0xbc,
  0x07, 0xb5, 0xd9, 0x3d, 0x06, 0xf8, 0xd2, 0x3d, 0x27, 0x4c, 0x34, 0x3d,
  0x12, 0x5b, 0xe4, 0x3d, 0xb8, 0x97, 0xb8, 0xbc, 0x0b, 0x29, 0x87, 0xbd,
  0x5a, 0x00, 0x0f, 0x3e, 0xaf, 0xce, 0x5c, 0x3e, 0x58, 0x31, 0x0e, 0x3e,
  0xce, 0xa6, 0x4b, 0xbe, 0x41, 0x5e, 0x62, 0xbd, 0xe8, 0x25, 0xb1, 0xbe,
  0x92, 0xf5, 0x7c, 0xbe, 0xb7, 0xf9, 0xe3, 0xbe, 0x51, 0xf9, 0x37, 0xbe,
  0x46, 0x20, 0x09, 0xbe, 0xaa, 0xc4, 0x2d, 0x3e, 0x4a, 0x11, 0x94, 0xbd,
  0xe2, 0xcb, 0x04, 0xbd, 0xb0, 0x66, 0xc0, 0xbe, 0x48, 0xfe, 0xc2, 0xbe,
  0x6d, 0xd1, 0xde, 0xbe, 0x59, 0xb4, 0xdd, 0xbe, 0x7e, 0xc7, 0x6b, 0xbe,
  0x83, 0x9e, 0x4f, 0xbe, 0x3d, 0xc3, 0x42, 0xbd, 0xb0, 0x90, 0x03, 0x3e,
  0xd6, 0xed, 0xa0, 0xbe, 0x39, 0x93, 0x2d, 0xbe, 0xeb, 0x70, 0xc6, 0x3c,
  0xf2, 0xbd, 0xab, 0x3d, 0x00, 0x4d, 0x84, 0xbd, 0x8b, 0x97, 0xdb, 0xbc,
  0x1e, 0x9f, 0xb1, 0xbc, 0xa9, 0x10, 0x1f, 0xbe, 0x9f, 0x8c, 0xaa, 0xbe,
  0x4c, 0x32, 0x04, 0xbf, 0xfe, 0xe9, 0x99, 0x3e, 0x12, 0x28, 0x4f, 0x3d,
  0x9e, 0x8c, 0x88, 0x3e, 0xd4, 0xfc, 0x96, 0xbd, 0x01, 0xc5, 0x24, 0xbe,
  0x40, 0xcc, 0x34, 0xbe, 0x14, 0x09, 0x43, 0xbe, 0x4c, 0x77, 0x9c, 0xbe,
  0x5f, 0xc2, 0xc0, 0xbe, 0x75, 0x69, 0x9c, 0x3c, 0x4f, 0xa1, 0x4a, 0x3e,
  0x08, 0xf6, 0x68, 0x3d, 0x20, 0x83, 0x5f, 0x3e, 0x39, 0x02, 0x0c, 0xbe,
  0x7c, 0x00, 0xa7, 0xbe, 0xc5, 0xd5, 0x6f, 0xbe, 0xeb, 0x0f, 0x8d, 0xbe,
  0xce, 0x95, 0x2d, 0xbd, 0x7f, 0x4f, 0x43, 0xba, 0x83, 0x2d, 0x3f, 0x3e,
  0x5d, 0xe7, 0x30, 0x3d, 0xa8, 0x4f, 0xf7, 0xbd, 0x43, 0x51, 0x03, 0xbe,
  0xc1, 0xff, 0x8f, 0x3e, 0xb6, 0x0b, 0xff, 0xbc, 0x71, 0xec, 0x38, 0xbe,
  0x84, 0xaf, 0x4f, 0xbe, 0x00, 0x1b, 0x88, 0x3e, 0x8a, 0xda, 0xff, 0xff,
  0x04, 0x00, 0x00, 0x00, 0x00, 0x0a, 0x00, 0x00, 0x22, 0xb8, 0xd1, 0xbd,
  0x25, 0xf7, 0xb7, 0xbd, 0x50, 0xc1, 0xa9, 0xbd, 0x2d, 0x57, 0x89, 0xbb,
  0x3d, 0x67, 0x10, 0xbe, 0x96, 0x76, 0xfc, 0x3d, 0xef, 0x37, 0x36, 0xbe,
  0xef, 0x39, 0x5c, 0x3e, 0x42, 0x53, 0xd4, 0x3b, 0x45, 0x69, 0x28, 0xbe,
  0x2d, 0x2b, 0x25, 0x3e, 0x5f, 0xb2, 0xbd, 0x3c, 0xe3, 0x01, 0x86, 0xbe,
  0xda, 0x89, 0x9c, 0xbd, 0xb0, 0xa8, 0xf5, 0xbd, 0xcb, 0x19, 0x0b, 0x3e,
  0x27, 0xd8, 0xfa, 0xbc, 0xb4, 0xf7, 0x60, 0x3e, 0xc0, 0xaa, 0x52, 0xbe,
  0x89, 0x61, 0x7e, 0x3d, 0x33, 0xca, 0xae, 0x3c, 0x15, 0xbf, 0xb5, 0x3c,
  0xfc, 0xd1, 0x53, 0x3d, 0x1d, 0xd7, 0x89, 0xbd, 0x09, 0xb3, 0xb0, 0xbd,
  0x5b, 0x6c, 0x21, 0x3e, 0x0e, 0xec, 0x4e, 0x3d, 0xd3, 0xbc, 0x27, 0xbd,
  0x6e, 0xf7, 0x84, 0x3e, 0xac, 0x18, 0x5a, 0x3d, 0x16, 0xac, 0xbd, 0xba,
  0x43, 0xfd, 0xcf, 0x3d, 0x28, 0xfe, 0x12, 0xbe, 0x6a, 0x5d, 0x24, 0xbe,
  0x99, 0x28, 0xf0, 0x3d, 0xa7, 0xa0, 0x9e, 0x3d, 0xc6, 0x44, 0x8d, 0x3e,
  0xf9, 0x4c, 0xe8, 0x3c, 0x7e, 0xac, 0x37, 0x3e, 0x10, 0x37, 0xeb, 0x38,
  0xaa, 0x79, 0x46, 0x3c, 0xf7, 0x0d, 0x42, 0xbe, 0x34, 0x7a, 0x83, 0xbc,
  0xfc, 0xb9, 0x71, 0xbc, 0xb5, 0x8d, 0x0c, 0x3e, 0x49, 0xe9, 0xd3, 0x3d,
  0xe3, 0x25, 0xf4, 0x3b, 0x2c, 0xde, 0xcb, 0x3c, 0xdc, 0xb9, 0x9d, 0x3d,
  0x6a, 0xfc, 0x4d, 0xbe, 0x12, 0xcd, 0xc7, 0x3d, 0x89, 0xca, 0xa8, 0x3c,
  0x90, 0xa5, 0x0b, 0x3e, 0x60, 0x6d, 0x96, 0x3d, 0xcb, 0x53, 0x7d, 0xbe,
  0x68, 0xdd, 0x73, 0x3d, 0xc7, 0xac, 0x80, 0xbe, 0x53, 0x15, 0x13, 0xbe,
  0xdf, 0x82, 0x20, 0xbe, 0x3d, 0xfd, 0x11, 0xbe, 0xfd, 0xe9, 0x0e, 0xbe,
  0x3d, 0x68, 0x59, 0xbe, 0x93, 0xa8, 0x84, 0xbe, 0xdf, 0xb7, 0x01, 0x3e,
  0x5b, 0xf1, 0xad, 0xbe, 0xb5, 0x39, 0x9d, 0xbd, 0x38, 0xa0, 0x2e, 0xbc,
  0x73, 0xb5, 0x72, 0xbe, 0x0e, 0x1f, 0xd7, 0xbd, 0xcf, 0xf1, 0xa4, 0xbd,
  0x37, 0x4a, 0xdd, 0xbd, 0x18, 0x53, 0x69, 0xbe, 0xb2, 0x7c, 0x85, 0xbc,
  0x67, 0x95, 0x5b, 0xbe, 0xd0, 0x6f, 0x89, 0xbb, 0x05, 0x95, 0x8b, 0x3d,
  0x7e, 0xff, 0x0b, 0xbe, 0xb9, 0x97, 0x80, 0x3d, 0x2a, 0x1e, 0x72, 0xbd,
  0x3c, 0x28, 0x61, 0x3c, 0x86, 0x3d, 0x49, 0x3c, 0x10, 0xae, 0x87, 0xbe,
  0xea, 0xbf, 0x06, 0x3e, 0xfb, 0x07, 0x05, 0xbc, 0xe3, 0x8d, 0x54, 0x3d,
  0x25, 0x7a, 0xff, 0xbb, 0x8b, 0x7f, 0xd6, 0xbe, 0x03, 0x0a, 0x8b, 0xbd,
  0x02, 0x13, 0x99, 0xbd, 0x23, 0xed, 0x3c, 0xbd, 0xd9, 0xad, 0x34, 0xbd,
  0x4d, 0x80, 0xec, 0xbd, 0x9a, 0xf7, 0x1f, 0xbe, 0x37, 0xe6, 0x87, 0x3d,
  0x07, 0xef, 0x01, 0xbe, 0x81, 0x0e, 0x3f, 0x3e, 0xd7, 0x76, 0x56, 0x3e,
  0x9c, 0x5b, 0xa3, 0xbd, 0xb7, 0xe9, 0xa7, 0xbd, 0x53, 0x53, 0x5e, 0xbe,
  0xc5, 0xfb, 0x82, 0xbe, 0xf0, 0xfc, 0x50, 0xbe, 0x00, 0xd7, 0x20, 0xbe,
  0xef, 0xa5, 0x28, 0x3e, 0xe1, 0x10, 0x8c, 0x3e, 0x4c, 0x8e, 0x35, 0xbe,
  0x45, 0xad, 0x36, 0xbc, 0xa8, 0x6e, 0x44, 0xbe, 0x98, 0xcf, 0x77, 0xbd,
  0xa5, 0x6d, 0x7e, 0xbe, 0x68, 0x21, 0x8a, 0x3e, 0xc5, 0x15, 0x1b, 0x3d,
  0xd5, 0xe5, 0x9a, 0x3c, 0xa1, 0x5f, 0x11, 0xbb, 0x1c, 0x23, 0x57, 0xbe,
  0x7a, 0xf4, 0x47, 0xbe, 0x9d, 0x3e, 0x87, 0xbe, 0x1e, 0x35, 0x77, 0xbe,
  0x62, 0xdb, 0xbb, 0x3d, 0x8d, 0xd5, 0xc4, 0x3b, 0x44, 0x37, 0x49, 0x3e,
  0xee, 0xb1, 0x30, 0x3e, 0x35, 0x4a, 0x81, 0x3e, 0x29, 0x88, 0x54, 0xbe,
  0x3f, 0xbc, 0x4c, 0xbe, 0x00, 0x49, 0x22, 0xbe, 0x0f, 0x0f, 0x45, 0x3e,
  0x60, 0x35, 0x80, 0x3e, 0x9b, 0xda, 0xe6, 0xbc, 0x02, 0xea, 0x95, 0x3c,
  0xdb, 0xa8, 0x04, 0xbe, 0xdc, 0x0d, 0x00, 0xbd, 0x3c, 0x21, 0x84, 0x3b,
  0xc5, 0x68, 0x43, 0xbe, 0x20, 0xe4, 0x77, 0xbe, 0xdd, 0x27, 0x11, 0xbd,
  0x8c, 0x1f, 0x8a, 0xbd, 0x3e, 0xb4, 0xfe, 0x3d, 0x0a, 0x5b, 0xdc, 0x3d,
  0x81, 0xa6, 0x76, 0x3e, 0x79, 0x5a, 0x62, 0x3d, 0x0d, 0xb3, 0x67, 0x3e,
  0xb0, 0xa7, 0x67, 0x3e, 0x49, 0xb4, 0xc7, 0x3d, 0xff, 0x19, 0xb0, 0x3d,
  0x13, 0xb5, 0xe3, 0x3a, 0xc7, 0x74, 0x05, 0xbd, 0xf8, 0x28, 0x9a, 0xbd,
  0x5c, 0xac, 0x99, 0x3e, 0xe7, 0x67, 0x74, 0x3c, 0x78, 0xe7, 0x04, 0xbd,
  0xcc, 0x2c, 0x15, 0x3e, 0xa7, 0xa8, 0x1e, 0xbe, 0x16, 0x0d, 0x73, 0xbd,
  0xcc, 0x43, 0xad, 0xbd, 0xe2, 0x5f, 0x0c, 0x3e, 0x47, 0x8c, 0x38, 0xbd,
  0x34, 0xe8, 0x15, 0x3d, 0x8d, 0x63, 0xb0, 0xbd, 0xb7, 0x89, 0x6c, 0xbd,
  0x19, 0xf0, 0x11, 0xbd, 0xeb, 0x7d, 0x06, 0x3e, 0x09, 0x26, 0xf8, 0x3d,
  0x60, 0x81, 0x16, 0x3e, 0x90, 0xb1, 0x03, 0x3e, 0xf5, 0xdf, 0xec, 0x3d,
  0xe3, 0x70, 0x9a, 0xbe, 0xfc, 0x8a, 0xc5, 0x3d, 0xcf, 0xca, 0x2e, 0x3e,
  0x13, 0x27, 0x5d, 0xbd, 0x50, 0x2e, 0x70, 0xbe, 0x0e, 0x2a, 0x97, 0xbd,
  0x08, 0xb1, 0x56, 0xbc, 0x65, 0xdc, 0x3e, 0x3d, 0xf8, 0xa9, 0x70, 0xbc,
  0xb1, 0x23, 0xa9, 0xbd, 0xea, 0x4f, 0xfe, 0x3d, 0x37, 0x5c, 0x0c, 0x3b,
  0x82, 0x06, 0x22, 0x3e, 0xe8, 0x46, 0xd3, 0xbc, 0x7b, 0xc5, 0xa1, 0x3d,
  0xa7, 0x4c, 0x9b, 0x3d, 0x5f, 0x56, 0xd2, 0x3d, 0xd7, 0xeb, 0x47, 0x3e,
  0xd3, 0x97, 0x9b, 0xbd, 0xe2, 0x60, 0xfc, 0xbd, 0x1a, 0x0d, 0x19, 0x3e,
  0x4d, 0x8f, 0x03, 0x3e, 0x1a, 0x97, 0x0a, 0x3c, 0xc1, 0x96, 0xb2, 0x3d,
  0xaf, 0xd0, 0xf9, 0x3d, 0xa3, 0x04, 0x87, 0x3d, 0x5b, 0xd1, 0x58, 0xbe,
  0x5f, 0x9a, 0xa2, 0xbb, 0xf8, 0xc7, 0xa9, 0x3d, 0xe7, 0xca, 0x76, 0x3d,
  0xfa, 0xc4, 0xab, 0xbd, 0x5f, 0x03, 0x99, 0x3d, 0x33, 0xbf, 0x13, 0x3e,
  0xd3, 0x32, 0x0a, 0xbd, 0x31, 0x9c, 0x09, 0x3d, 0xf9, 0xf2, 0xca, 0x3d,
  0x47, 0xe0, 0x51, 0xbe, 0x6e, 0x69, 0xb2, 0xbd, 0xe7, 0xb2, 0xa8, 0x3d,
  0xc0, 0x31, 0x69, 0x3e, 0x05, 0xa5, 0xdc, 0xbd, 0x41, 0x09, 0x1d, 0x3e,
  0x9b, 0xe4, 0x17, 0xbe, 0x08, 0xdd, 0x8d, 0x3c, 0xf3, 0xff, 0xba, 0x3c,
  0xf2, 0x65, 0x37, 0xbe, 0x75, 0x7c, 0x05, 0x3e, 0x00, 0xfa, 0x84, 0x3e,
  0xa8, 0x1b, 0xcd, 0xbc, 0x62, 0xcb, 0x28, 0x3d, 0x13, 0x25, 0x3e, 0xbd,
  0xa8, 0xf7, 0xa7, 0xbc, 0xdd, 0x74, 0x01, 0xbe, 0x70, 0x79, 0x97, 0xbd,
  0x46, 0xd9, 0xb6, 0xbc, 0x08, 0x62, 0xb4, 0xbd, 0x6b, 0x45, 0xc0, 0xbc,
  0x8c, 0x32, 0xaa, 0xbd, 0xf4, 0xef, 0x41, 0xbd, 0x80, 0x7c, 0x0b, 0xbd,
  0x9e, 0x61, 0x25, 0x3e, 0xfd, 0xeb, 0x15, 0xbd, 0x61, 0xcd, 0x17, 0xbc,
  0x18, 0xfc, 0x67, 0x3e, 0x04, 0x79, 0x7f, 0x3d, 0x57, 0xdf, 0x13, 0x3e,
  0xba, 0x6d, 0x3c, 0xbd, 0xfd, 0x75, 0x96, 0x3d, 0x4f, 0xf9, 0xb3, 0x3d,
  0x9d, 0x75, 0x37, 0x3e, 0x91, 0xca, 0x6a, 0xbb, 0x0e, 0x96, 0x9f, 0xbd,
  0xda, 0xb4, 0xdb, 0xbd, 0x90, 0xac, 0x33, 0xbe, 0x60, 0xc9, 0x8a, 0xbe,
  0xe7, 0x02, 0xdd, 0x3c, 0x3a, 0x75, 0x1a, 0x3e, 0x8c, 0x75, 0x6a, 0xbd,
  0xa7, 0xef, 0x2e, 0xbe, 0xae, 0xc3, 0x5b, 0x3c, 0x41, 0x95, 0x47, 0x3e,
  0xdb, 0xd0, 0x0f, 0xbe, 0xd2, 0xc9, 0xe8, 0xbd, 0x01, 0xa0, 0xae, 0xbd,
  0x02, 0x77, 0xe5, 0xbd, 0x4b, 0xbc, 0x98, 0xbd, 0x54, 0x26, 0x90, 0x3d,
  0x55, 0x9d, 0x35, 0x3e, 0x49, 0x96, 0xd2, 0xbd, 0xa0, 0xc7, 0xb3, 0x3d,
  0xf6, 0x7f, 0xe3, 0xbc, 0x19, 0x7c, 0xac, 0x3d, 0x0d, 0x1b, 0x23, 0x3e,
  0x54, 0xf9, 0x80, 0x3e, 0x00, 0x3c, 0x84, 0x3e, 0x59, 0xe3, 0x6b, 0xbe,
  0x4d, 0x92, 0xc1, 0xbc, 0x7f, 0x6a, 0x9b, 0xbc, 0x06, 0x32, 0x67, 0x3d,
  0xec, 0xfa, 0xe3, 0x3d, 0x8f, 0xae, 0x02, 0x3e, 0x5e, 0xbd, 0xda, 0x3d,
  0x23, 0x5a, 0x2c, 0xbe, 0x39, 0x0f, 0xce, 0x3d, 0xec, 0x98, 0x4f, 0x3d,
  0xf8, 0x62, 0x57, 0xbd, 0xbc, 0xa7, 0x29, 0x3e, 0x18, 0xdc, 0x0d, 0xbc,
  0x4c, 0x71, 0xc5, 0x3c, 0xe9, 0x75, 0xc4, 0x3d, 0x06, 0xe7, 0x31, 0x3b,
  0x20, 0xa0, 0x88, 0x3e, 0x10, 0x03, 0x59, 0x3b, 0x5a, 0xe6, 0xde, 0x3d,
  0xbf, 0x8e, 0x19, 0x3e, 0x01, 0xc5, 0x45, 0xbe, 0x04, 0x67, 0x8d, 0xbc,
  0x49, 0xe9, 0x1c, 0xbc, 0xee, 0x7f, 0xc4, 0xbd, 0xff, 0xcb, 0x4b, 0x3c,
  0x6b, 0xd4, 0xbb, 0x3d, 0x17, 0x2a, 0x8d, 0x3d, 0x10, 0xdd, 0x87, 0x3d,
  0x3b, 0x8a, 0xc4, 0x3d, 0xb6, 0x80, 0x43, 0xbe, 0x9f, 0x4e, 0x0d, 0xbc,
  0xe2, 0xd0, 0xeb, 0xbc, 0x6e, 0x2d, 0x14, 0xbb, 0xcb, 0x48, 0x8f, 0x3d,
  0xd4, 0x11, 0x3a, 0x3e, 0xcf, 0xb6, 0x75, 0xbb, 0xe2, 0xf9, 0xa5, 0x3d,
  0xb1, 0x0b, 0x38, 0x3e, 0xda, 0xb8, 0x82, 0x3d, 0x24, 0x10, 0xb4, 0xbd,
  0xb3, 0xd4, 0x9d, 0xbd, 0x40, 0x6d, 0x17, 0x3e, 0x85, 0x73, 0x9c, 0xbd,
  0xf0, 0xa7, 0xa1, 0x3d, 0xcc, 0x90, 0xea, 0xbd, 0x23, 0xf2, 0x6a, 0x3e,
  0xde, 0x50, 0x46, 0x3e, 0x60, 0xe5, 0x43, 0xbe, 0x70, 0x72, 0x33, 0x3e,
  0x0a, 0x91, 0xe0, 0x3b, 0x7d, 0x55, 0xdb, 0x3d, 0xa4, 0x93, 0x75, 0x3d,
  0x21, 0xd5, 0x44, 0x3e, 0xf7, 0xb2, 0x04, 0x3d, 0x26, 0xea, 0x08, 0xbe,
  0xff, 0xba, 0x0c, 0x3e, 0x1c, 0xbb, 0x3e, 0xbe, 0xc7, 0x0e, 0x87, 0x3d,
  0x97, 0x94, 0x7e, 0x3e, 0x8e, 0xfa, 0x9f, 0xbd, 0x8b, 0x62, 0x8d, 0xbe,
  0xd4, 0x89, 0xdd, 0xbc, 0x31, 0x70, 0x0c, 0xbe, 0x32, 0xf3, 0x45, 0xbe,
  0x9f, 0x57, 0x78, 0xbe, 0xa8, 0x8d, 0xdf, 0x3d, 0xcc, 0x7a, 0x3a, 0x3e,
  0x93, 0x47, 0x5b, 0xbe, 0x08, 0x54, 0x08, 0xbd, 0xbb, 0xdd, 0xed, 0x3d,
  0x0e, 0xff, 0x64, 0xbe, 0x3f, 0x63, 0x6b, 0x3e, 0x3b, 0x7e, 0x64, 0x3e,
  0xa0, 0x54, 0x02, 0xbb, 0x30, 0xbd, 0x2d, 0xbd, 0x7b, 0xcb, 0xfc, 0x3d,
  0x9b, 0x07, 0x38, 0x3e, 0x05, 0x7e, 0x83, 0xbd, 0x8c, 0x00, 0x8c, 0xbd,
  0x4b, 0x99, 0x54, 0x3e, 0xa5, 0x0a, 0xc4, 0xbd, 0x42, 0x71, 0x49, 0x3e,
  0x34, 0xda, 0x8f, 0x3e, 0xf7, 0x08, 0xb1, 0x3d, 0x98, 0x1d, 0xab, 0xbc,
  0xf4, 0x90, 0x91, 0xbd, 0x0c, 0x00, 0x99, 0x3e, 0xab, 0x1d, 0x1b, 0x3e,
  0x10, 0xfe, 0x9e, 0x3e, 0xb3, 0xb2, 0xef, 0xbd, 0x43, 0xe8, 0x54, 0x3d,
  0x05, 0x1a, 0x7e, 0x3d, 0x9b, 0x66, 0x80, 0x3e, 0x2d, 0x9f, 0xd8, 0xbb,
  0x71, 0x05, 0x82, 0x3d, 0xdd, 0xe0, 0x62, 0x3e, 0xb4, 0x56, 0x36, 0xbc,
  0xea, 0x38, 0x5d, 0x3e, 0xc8, 0xfe, 0xf1, 0x3d, 0x22, 0x02, 0xce, 0xbd,
  0x51, 0xa7, 0xb8, 0xbc, 0x22, 0x64, 0x77, 0x3d, 0x67, 0x27, 0xd7, 0xbd,
  0x9b, 0xb7, 0x07, 0xbe, 0x30, 0x0a, 0x89, 0x3d, 0x1e, 0x6d, 0xdb, 0xbc,
  0x73, 0xfb, 0x1d, 0xbd, 0xca, 0x44, 0x99, 0xbd, 0x4e, 0x9d, 0x0c, 0xbe,
  0x3b, 0xa9, 0x9d, 0xbd, 0x57, 0xc3, 0x4f, 0xbe, 0xb7, 0x6b, 0x42, 0xbe,
  0x39, 0xfb, 0xaf, 0x3c, 0x29, 0x8f, 0x11, 0xbd, 0x47, 0x02, 0x25, 0x3e,
  0x7b, 0x2b, 0x00, 0x3e, 0xf7, 0xb7, 0x16, 0x3e, 0xc5, 0x38, 0x0f, 0xbd,
  0x7b, 0x66, 0x78, 0xbd, 0x14, 0x38, 0x03, 0xbe, 0x35, 0xc2, 0x62, 0xbc,
  0x8f, 0xcb, 0xcf, 0x3c, 0x31, 0x21, 0x07, 0xbd, 0x3d, 0x36, 0xcb, 0x3d,
  0xd7, 0x56, 0x05, 0x3e, 0xb2, 0xbe, 0x01, 0xbd, 0xf8, 0x99, 0x20, 0xbe,
  0x4d, 0xdf, 0x28, 0xbe, 0x10, 0x8e, 0x48, 0x3c, 0x13, 0x2d, 0x14, 0xbd,
  0xb0, 0x83, 0x1b, 0xbe, 0xe9, 0x49, 0xac, 0x3e, 0x4d, 0xf6, 0x47, 0xbe,
  0x45, 0x94, 0x4c, 0xbe, 0xc6, 0x90, 0x33, 0x3e, 0x20, 0x26, 0x20, 0x3c,
  0x2f, 0x3b, 0xad, 0x3d, 0xeb, 0x4c, 0x9b, 0x3d, 0xbb, 0x38, 0x05, 0x3c,
  0xa2, 0xb0, 0x37, 0x3e, 0x48, 0xdf, 0x8d, 0x3d, 0x3f, 0xb7, 0x3a, 0xbe,
  0x87, 0x9d, 0x76, 0x3e, 0x77, 0x6b, 0xc5, 0x3c, 0x8f, 0x03, 0x40, 0x3e,
  0xd7, 0xcd, 0x9f, 0xbe, 0x22, 0xf6, 0x8a, 0x3d, 0xbe, 0x2b, 0x18, 0xbe,
  0xbe, 0x59, 0xc8, 0x3d, 0xf9, 0x13, 0xb4, 0x3d, 0x4d, 0xd9, 0xbe, 0x3d,
  0xc8, 0x7a, 0x00, 0xbe, 0x37, 0xde, 0xa0, 0x3d, 0x83, 0xe9, 0x16, 0xbc,
  0x02, 0x91, 0xaf, 0x3c, 0xcd, 0x50, 0x34, 0x3d, 0x0a, 0xf2, 0xf6, 0x3d,
  0xcc, 0xc5, 0xd8, 0x3d, 0x22, 0x57, 0x84, 0xbe, 0x65, 0x67, 0x48, 0xbc,
  0x71, 0x93, 0xb7, 0x3c, 0xd0, 0xc5, 0x23, 0x3d, 0xed, 0x6b, 0xbf, 0x3d,
  0x6e, 0x4d, 0x5e, 0x3e, 0xb1, 0x85, 0xd4, 0x3d, 0xd0, 0xf3, 0x0d, 0x3e,
  0x50, 0x27, 0x29, 0xbe, 0x94, 0x34, 0x3f, 0xbe, 0xc4, 0xd4, 0x67, 0xbe,
  0x35, 0xbb, 0x6e, 0xbe, 0x33, 0xcf, 0x46, 0x3e, 0xd3, 0x01, 0xa3, 0xbc,
  0x2b, 0x14, 0x60, 0xbe, 0x0b, 0x43, 0x75, 0xbe, 0x8f, 0x26, 0x0d, 0x3e,
  0x1d, 0x89, 0xc3, 0xbd, 0x02, 0xd5, 0x16, 0x3e, 0xcb, 0x89, 0xb2, 0xbd,
  0x61, 0x86, 0x54, 0xbd, 0x40, 0xde, 0x64, 0x3e, 0xe9, 0xfa, 0x65, 0xbe,
  0xd8, 0x10, 0xcf, 0x3a, 0x63, 0x7e, 0x81, 0xbc, 0x42, 0xde, 0x54, 0x3e,
  0x44, 0xaa, 0xe7, 0xbd, 0xc5, 0xda, 0x3b, 0x3e, 0x35, 0x81, 0x13, 0x3e,
  0xb9, 0xa3, 0x8e, 0xbc, 0x59, 0x0b, 0x74, 0x3e, 0x78, 0x8e, 0x6b, 0x3e,
  0x44, 0x63, 0xb7, 0x3d, 0xcc, 0xde, 0x7a, 0xbe, 0x69, 0x15, 0xf8, 0xbd,
  0x1f, 0xbf, 0xd7, 0xbc, 0xb4, 0x00, 0xeb, 0xbd, 0xc1, 0x31, 0x4f, 0xbe,
  0x3d, 0x9e, 0xb7, 0xbc, 0xf7, 0x2b, 0x89, 0xbe, 0x1d, 0xc8, 0x57, 0xbe,
  0x11, 0xc3, 0x44, 0xbe, 0x5f, 0x76, 0x53, 0xbe, 0xbc, 0x4e, 0xde, 0xbc,
  0xb6, 0x57, 0x61, 0x3b, 0x87, 0xe6, 0x45, 0x3e, 0xeb, 0x21, 0x1e, 0xbe,
  0xac, 0x31, 0xa7, 0x3d, 0x20, 0xb5, 0x1b, 0xbe, 0xfb, 0xa6, 0x28, 0xbe,
  0xeb, 0xce, 0xe9, 0x3d, 0xf9, 0xc0, 0x22, 0x3e, 0x62, 0x91, 0xdf, 0x3d,
  0xe7, 0x8a, 0xaf, 0xbc, 0x5f, 0xf5, 0xbc, 0x3d, 0xc4, 0x54, 0x72, 0xbe,
  0x70, 0x42, 0x87, 0xbe, 0x45, 0x49, 0x9a, 0x3d, 0x8d, 0xe5, 0xfa, 0x3c,
  0x00, 0xe4, 0x85, 0x3d, 0x84, 0x80, 0x89, 0xbd, 0x3c, 0x94, 0x31, 0x3d,
  0xb4, 0xfd, 0x73, 0xbc, 0x83, 0x62, 0xa9, 0xbd, 0x15, 0x2a, 0x48, 0x3d,
  0x4e, 0xe9, 0x98, 0x3d, 0xb0, 0xc3, 0x17, 0xbe, 0x2f, 0x28, 0x00, 0x3e,
  0xca, 0xfd, 0xc0, 0xbd, 0x54, 0x21, 0x80, 0xbe, 0xe8, 0xbc, 0x21, 0x3c,
  0xa9, 0x3f, 0x34, 0xbe, 0x4a, 0x01, 0x1e, 0x3e, 0xec, 0x4c, 0x97, 0xbe,
  0xa0, 0xc3, 0x20, 0x3e, 0x93, 0xe0, 0x13, 0xbe, 0x8d, 0x19, 0x4a, 0xbe,
  0x2f, 0xa6, 0xce, 0xbc, 0x4a, 0x29, 0x06, 0xbe, 0x58, 0x64, 0x28, 0x3d,
  0xe4, 0xa7, 0xab, 0x3d, 0x3c, 0xc5, 0x27, 0x3e, 0xa2, 0x11, 0xd4, 0x3d,
  0x7f, 0x3a, 0x2a, 0x3e, 0xd9, 0x05, 0xff, 0x3d, 0x9e, 0xe5, 0x8b, 0xbe,
  0x76, 0x19, 0xb4, 0xbd, 0x94, 0x59, 0x2b, 0xbe, 0x1b, 0x93, 0x22, 0x3e,
  0x93, 0xe5, 0xa5, 0xbe, 0x00, 0xc1, 0x80, 0xbe, 0xd8, 0x47, 0x90, 0x3d,
  0xbc, 0x18, 0x88, 0xbc, 0x17, 0x57, 0x64, 0xbe, 0x87, 0x06, 0x8d, 0x3d,
  0x9b, 0xee, 0xe4, 0xbd, 0x6a, 0x0e, 0x9b, 0x3d, 0x85, 0x83, 0xdf, 0x3d,
  0x6c, 0x69, 0x37, 0x3d, 0x80, 0xc1, 0x74, 0x3e, 0x92, 0xfd, 0x4c, 0x3e,
  0xa2, 0xc3, 0x33, 0xbe, 0x9e, 0x28, 0x45, 0x3c, 0x4c, 0xcb, 0xbc, 0x3c,
  0xf2, 0x84, 0x7b, 0x3e, 0x8a, 0xa3, 0x44, 0x3e, 0x5c, 0x60, 0xc1, 0x3d,
  0x7e, 0xa1, 0x72, 0x3d, 0x65, 0xc2, 0x29, 0xbe, 0x18, 0x1c, 0x67, 0xbe,
  0x93, 0x38, 0x6d, 0x3e, 0x32, 0x90, 0x30, 0x3e, 0x2b, 0x08, 0x8a, 0x3d,
  0xe5, 0xe2, 0x49, 0x3e, 0xe2, 0x08, 0x0d, 0x3d, 0x25, 0xef, 0x8c, 0x3e,
  0x1f, 0x05, 0x37, 0x3e, 0x7d, 0xe9, 0x58, 0xbd, 0x5b, 0x17, 0x62, 0x3e,
  0xc4, 0x0e, 0x7a, 0xbd, 0x7d, 0xdc, 0x97, 0x3e, 0x0d, 0x31, 0x14, 0xbd,
  0x89, 0x80, 0x75, 0xbc, 0x53, 0x16, 0xd7, 0x3d, 0xc5, 0xbc, 0x0b, 0xbc,
  0x63, 0x04, 0x5e, 0x3c, 0x29, 0xdd, 0x67, 0xbe, 0x45, 0xa8, 0xa9, 0xbd,
  0x06, 0xb6, 0x30, 0xbd, 0x85, 0x7c, 0x5c, 0x3d, 0x28, 0x2b, 0x09, 0xbe,
  0xe4, 0xe9, 0x66, 0xbd, 0xd1, 0xb1, 0x31, 0x3e, 0xfc, 0x9a, 0x32, 0xbe,
  0xec, 0xb1, 0x3b, 0x3d, 0x51, 0x82, 0xae, 0xbd, 0x2d, 0x0d, 0x56, 0xbd,
  0xcb, 0x23, 0x67, 0x3d, 0x7b, 0x71, 0x05, 0x3e, 0x23, 0xac, 0xe9, 0x3d,
  0x43, 0xce, 0xb3, 0xbd, 0xc1, 0x16, 0xc0, 0x3d, 0x75, 0x23, 0x90, 0xbe,
  0xd5, 0xd0, 0x07, 0xbc, 0x45, 0x6e, 0x3b, 0xbe, 0x69, 0x09, 0x24, 0xbc,
  0xd6, 0x54, 0xe3, 0x3b, 0x1f, 0x89, 0x79, 0x3c, 0x05, 0xac, 0x4c, 0xbe,
  0x71, 0xcf, 0xa2, 0x3d, 0x17, 0x84, 0x44, 0xbe, 0xe0, 0x4a, 0x03, 0x3e,
  0xd9, 0x59, 0x40, 0xbe, 0x59, 0x11, 0x29, 0xbc, 0xae, 0xc5, 0x33, 0x3d,
  0xba, 0xdf, 0x79, 0xbe, 0x0c, 0x8d, 0xed, 0xbd, 0xcb, 0xbe, 0xf9, 0xbc,
  0x17, 0x2e, 0xca, 0x3b, 0xa5, 0xf3, 0x51, 0x3d, 0x34, 0x56, 0x0b, 0xbe,
  0x77, 0xde, 0x30, 0x3e, 0x78, 0xb7, 0x0b, 0xbe, 0x4c, 0x58, 0xa0, 0x3d,
  0x60, 0x87, 0xb6, 0xbc, 0x77, 0xc0, 0x92, 0x3d, 0xfb, 0xa0, 0x1c, 0xbe,
  0x74, 0xc6, 0x2d, 0xbe, 0xcc, 0xbf, 0xfb, 0x3d, 0xe3, 0x1b, 0x65, 0xbe,
  0x3b, 0xfc, 0xa6, 0xbc, 0xb6, 0x53, 0xd0, 0xbd, 0xc3, 0x00, 0x96, 0xbc,
  0xb4, 0x27, 0x93, 0x3d, 0x49, 0xd8, 0xc0, 0xbc, 0xb4, 0xad, 0x17, 0xbd,
  0x23, 0xbe, 0x1f, 0xbd, 0xaa, 0x36, 0x40, 0xbe, 0x6d, 0xbd, 0xa0, 0xbe,
  0x5b, 0x62, 0x5f, 0xbe, 0xd7, 0x1f, 0xf1, 0xbd, 0xf9, 0xd5, 0x97, 0x3d,
  0xd6, 0x70, 0x6b, 0xbd, 0x88, 0x3c, 0x19, 0xbe, 0xa0, 0xd5, 0x4c, 0xbe,
  0xdc, 0x75, 0x2c, 0xbd, 0x1b, 0xd5, 0xf8, 0xbd, 0x25, 0x49, 0x7c, 0xbe,
  0x92, 0x09, 0xbc, 0x3c, 0x30, 0x6b, 0x56, 0x3e, 0x54, 0x27, 0x85, 0xbd,
  0xa5, 0x51, 0x68, 0xbe, 0x9c, 0x12, 0x27, 0x3e, 0x2d, 0x2e, 0x09, 0xbe,
  0xac, 0xa0, 0x92, 0xbe, 0x5d, 0x2a, 0xb8, 0xbd, 0x76, 0x89, 0x25, 0xbe,
  0x4f, 0x54, 0x4c, 0x3e, 0xc4, 0x53, 0x55, 0x3c, 0x40, 0x8d, 0x38, 0x3e,
  0xb3, 0x4e, 0x13, 0x3d, 0xc1, 0x99, 0x92, 0x3d, 0x40, 0x36, 0x5b, 0xbd,
  0xb5, 0x52, 0x30, 0xbb, 0x10, 0xbb, 0x4c, 0x3e, 0xf1, 0x5b, 0xa4, 0x3e,
  0xd4, 0x13, 0xcb, 0xbd, 0xac, 0x22, 0xb0, 0x3d, 0xd5, 0x86, 0x19, 0x3e,
  0xb0, 0x10, 0x74, 0x3d, 0xf0, 0x84, 0x43, 0x3e, 0x10, 0x6e, 0x0b, 0x3e,
  0xca, 0x56, 0x27, 0x3d, 0x95, 0x19, 0xb2, 0x3d, 0x61, 0x1a, 0xcc, 0x3d,
  0x6c, 0x77, 0xb2, 0x3d, 0x8b, 0x22, 0x91, 0xbc, 0xf4, 0x10, 0x59, 0x3e,
  0x14, 0xc6, 0x31, 0xbe, 0xba, 0xd5, 0xeb, 0xbd, 0x32, 0xf9, 0x97, 0x3d,
  0x96, 0xe4, 0xff, 0xff, 0x04, 0x00, 0x00, 0x00, 0x00, 0x0a, 0x00, 0x00,
  0x19, 0x7d, 0x89, 0xbd, 0xc5, 0xc3, 0x8e, 0xbd, 0xcb, 0xbb, 0xe9, 0x3e,
  0xf9, 0xdf, 0x80, 0x3c, 0xb9, 0x3d, 0x12, 0x3e, 0xd7, 0xa5, 0x52, 0x3e,
  0xde, 0x92, 0x18, 0xbd, 0xf0, 0x76, 0x0d, 0xbd, 0x79, 0x3b, 0x26, 0x3d,
  0xd2, 0x15, 0x33, 0x3e, 0xe3, 0x15, 0x0f, 0xbe, 0xba, 0xf9, 0x8a, 0x3c,
  0x17, 0xe2, 0xe5, 0x3d, 0x00, 0xdf, 0x01, 0xbe, 0x24, 0xfb, 0xc4, 0xbb,
  0x3e, 0xde, 0xa2, 0xbe, 0x84, 0xb4, 0x08, 0x3e, 0xd0, 0x6f, 0x2c, 0x3e,
  0x45, 0xb4, 0xae, 0xbb, 0x9a, 0xe6, 0x6d, 0x3e, 0xf3, 0x73, 0xaf, 0xbb,
  0xb7, 0x60, 0x73, 0xbd, 0xf4, 0xd5, 0x15, 0x3e, 0x8e, 0xf1, 0xb5, 0x3d,
  0x67, 0x08, 0xc6, 0x3d, 0xf6, 0x5a, 0xf6, 0x3c, 0xba, 0xe3, 0xd9, 0x3c,
  0x36, 0x0c, 0xa1, 0x3d, 0x2a, 0xc2, 0xe7, 0x3c, 0x7e, 0x25, 0x77, 0x3e,
  0xa0, 0xaa, 0x9b, 0xbd, 0x86, 0x7f, 0xe3, 0xbd, 0xfe, 0x63, 0x5c, 0x3e,
  0x5f, 0x6e, 0x25, 0x3e, 0x28, 0xf4, 0xda, 0x3d, 0x22, 0xad, 0x10, 0x3e,
  0xb9, 0x34, 0x59, 0xbd, 0x49, 0x4d, 0x34, 0x3e, 0x97, 0x10, 0xd1, 0xbd,
  0x97, 0x9c, 0xdb, 0xbd, 0x85, 0x89, 0xf1, 0xbd, 0x8f, 0xa6, 0xae, 0xbd,
  0xf6, 0x3a, 0xac, 0x3c, 0xc9, 0x13, 0xc8, 0xbd, 0xb2, 0x48, 0x99, 0xbe,
  0x4a, 0xf0, 0x4d, 0x3e, 0x8d, 0x60, 0x13, 0x3e, 0xb0, 0x9b, 0x12, 0x3e,
  0xb4, 0x22, 0xc8, 0xbc, 0x25, 0x5c, 0x55, 0x3e, 0x40, 0xbd, 0x4f, 0xbd,
  0x07, 0xb1, 0x17, 0xbe, 0x0a, 0xa8, 0x60, 0xbc, 0x33, 0xf2, 0x18, 0xbe,
  0xbb, 0x18, 0x03, 0xbe, 0x89, 0x95, 0x35, 0xbe, 0xf6, 0x6b, 0x4b, 0x3e,
  0xf8, 0xf9, 0xf7, 0x3d, 0xbd, 0xd2, 0x52, 0xbd, 0xee, 0xa0, 0x5f, 0xbd,
  0x96, 0xc7, 0x9e, 0xbd, 0x31, 0x2a, 0xdb, 0x3c, 0x83, 0x3e, 0xa7, 0x3d,
  0xea, 0x5f, 0xf0, 0xbd, 0x76, 0x51, 0x34, 0xbb, 0x25, 0x4e, 0xdb, 0xbd,
  0x50, 0xbc, 0xe5, 0x3d, 0x71, 0x0d, 0x34, 0xbe, 0xff, 0x1a, 0x35, 0x3e,
  0x04, 0xac, 0x25, 0x3e, 0xbd, 0x47, 0x72, 0x3e, 0x15, 0xae, 0x04, 0x3e,
  0x7a, 0x14, 0x14, 0xbe, 0xa4, 0x9f, 0x9e, 0x3d, 0xd1, 0xed, 0x3b, 0xbe,
  0x48, 0x96, 0x8f, 0xbe, 0xc4, 0x36, 0x2e, 0xbe, 0x62, 0xad, 0x1d, 0xbe,
  0x73, 0x53, 0x3b, 0xbe, 0x96, 0xec, 0x1f, 0x3e, 0x9f, 0x98, 0x2c, 0xbe,
  0xf8, 0x9a, 0xac, 0xbe, 0xe8, 0xb3, 0x78, 0x3d, 0x3a, 0xff, 0x84, 0x3c,
  0xf0, 0x5b, 0x41, 0x3d, 0xc6, 0x86, 0xa7, 0x3c, 0xe4, 0x74, 0x47, 0x3d,
  0x62, 0xa7, 0x47, 0xbe, 0x2b, 0xc7, 0x0d, 0x3e, 0x51, 0xee, 0x7f, 0x3d,
  0x22, 0x7f, 0xa1, 0xbe, 0x22, 0x79, 0x17, 0xbe, 0x1e, 0xd1, 0xbd, 0x3d,
  0xc8, 0x3b, 0x35, 0x3c, 0xc4, 0xcb, 0x85, 0xbe, 0x3d, 0xd3, 0xa3, 0x3d,
  0xb5, 0x18, 0x58, 0xbe, 0xaa, 0x5d, 0x25, 0xbe, 0xe0, 0x97, 0xf2, 0xbd,
  0x45, 0xb7, 0x9e, 0xbd, 0x87, 0x64, 0xee, 0xbd, 0xc8, 0x11, 0x4f, 0x3e,
  0x2c, 0x6d, 0x12, 0xbd, 0xf6, 0x31, 0x1d, 0xbe, 0x41, 0x82, 0xc5, 0xbe,
  0x6d, 0x89, 0x8b, 0xbe, 0x3b, 0xc4, 0x88, 0xbe, 0xde, 0x76, 0x05, 0xbe,
  0xf5, 0xe2, 0x4c, 0x3e, 0x6e, 0x2b, 0x25, 0xbc, 0x67, 0xec, 0xf2, 0xbd,
  0xbe, 0xf5, 0x11, 0x3e, 0x70, 0xfd, 0xb1, 0xbe, 0x4d, 0x2a, 0xc8, 0xbe,
  0xff, 0x5a, 0x5e, 0xbd, 0xd1, 0xde, 0x4c, 0xbe, 0x40, 0x37, 0xe0, 0x3c,
  0x0b, 0x80, 0x8a, 0x3c, 0xc1, 0xe6, 0x19, 0x3e, 0xe6, 0x7b, 0xdd, 0x3d,
  0xeb, 0xb8, 0x2a, 0xbe, 0x19, 0x35, 0x11, 0xbe, 0xc4, 0x7a, 0x9d, 0x3c,
  0xe9, 0x8f, 0x0d, 0xbe, 0x60, 0x87, 0xfe, 0xbd, 0xbe, 0x28, 0xed, 0x3d,
  0x4a, 0x1a, 0x7d, 0x3c, 0x83, 0x94, 0xda, 0xbd, 0x74, 0xe1, 0x30, 0xbe,
  0xac, 0xb5, 0xd0, 0xbd, 0x01, 0xe0, 0x1b, 0x3e, 0x77, 0x2a, 0x2e, 0xbc,
  0x44, 0x0b, 0x8d, 0x3e, 0x16, 0x7b, 0x3e, 0xbe, 0x7f, 0xd2, 0x31, 0xbd,
  0x15, 0x0b, 0xa4, 0x3d, 0x3a, 0x09, 0x88, 0x3e, 0x9d, 0x87, 0xca, 0xbc,
  0x0c, 0xc5, 0xd5, 0xbd, 0xab, 0x19, 0x41, 0x3d, 0xbe, 0x3d, 0x92, 0xbc,
  0x0e, 0x07, 0x80, 0xbe, 0xb3, 0xd6, 0x99, 0x3e, 0x9a, 0xcb, 0x37, 0x3e,
  0x23, 0x29, 0x4c, 0x3e, 0x52, 0x6b, 0x48, 0x3e, 0x58, 0x0b, 0x92, 0x3e,
  0x4f, 0x5b, 0x47, 0x3d, 0x42, 0xf4, 0x94, 0x3d, 0xdf, 0xd9, 0x26, 0xbe,
  0xd5, 0xbf, 0x0b, 0x3b, 0x20, 0xd9, 0x01, 0x3e, 0x12, 0xd9, 0xac, 0x3d,
  0x61, 0x5f, 0x30, 0x3e, 0xbd, 0x0a, 0x91, 0x3e, 0x55, 0x7a, 0xfb, 0x3d,
  0x3e, 0x7b, 0xeb, 0x3d, 0x2b, 0x52, 0x80, 0x3d, 0x44, 0x2e, 0x2c, 0xbd,
  0x46, 0xf0, 0xd8, 0xbd, 0xdc, 0x64, 0xf2, 0x3d, 0x08, 0x7e, 0x8a, 0x3e,
  0xd6, 0x6c, 0x7b, 0x3c, 0xbf, 0x2e, 0x27, 0x3e, 0x72, 0xeb, 0xa5, 0x3e,
  0x6a, 0xf0, 0x85, 0xbc, 0x24, 0xe6, 0x40, 0xbe, 0x95, 0x8c, 0x5e, 0xbc,
  0xb6, 0x5a, 0xdb, 0xbd, 0x1a, 0xa0, 0x61, 0xbc, 0x80, 0xc1, 0x5e, 0xbd,
  0x67, 0x27, 0x5c, 0xbd, 0x6e, 0x3f, 0x3f, 0x3e, 0xfa, 0x6e, 0x7f, 0x3c,
  0xfa, 0xe2, 0x0f, 0xbe, 0x94, 0x46, 0x9f, 0x3d, 0xae, 0xe5, 0xe4, 0xbc,
  0xca, 0xc8, 0x1e, 0xbd, 0xf6, 0x9e, 0x4c, 0x3c, 0xe5, 0x4e, 0x18, 0x3d,
  0x94, 0xa0, 0x0e, 0x3d, 0xd7, 0x2a, 0x26, 0xbd, 0x6f, 0xc1, 0x60, 0xbe,
  0x11, 0x0c, 0x3c, 0x3e, 0xa2, 0x81, 0x95, 0x3e, 0x0e, 0x9a, 0xfc, 0x3d,
  0x62, 0x47, 0x67, 0x3e, 0x50, 0x95, 0xf8, 0xbd, 0x88, 0xd4, 0xd2, 0xbd,
  0x33, 0xda, 0x7c, 0xbe, 0xb2, 0x4b, 0x83, 0xbc, 0xf7, 0xf2, 0x02, 0x3e,
  0xe9, 0x55, 0x4b, 0x3e, 0x0f, 0x63, 0x85, 0x3d, 0x7b, 0x87, 0x3d, 0x3e,
  0x17, 0x3a, 0x22, 0x3e, 0xf1, 0xa8, 0x42, 0xbe, 0x48, 0x79, 0x8e, 0xbe,
  0x42, 0x1c, 0x05, 0x3e, 0x28, 0xf7, 0xba, 0xbd, 0xc0, 0xf1, 0xd4, 0x3d,
  0x8c, 0xb0, 0x14, 0x3d, 0x9d, 0xe9, 0xba, 0xbd, 0x7a, 0x74, 0xff, 0x3d,
  0xf9, 0x90, 0xf8, 0xbd, 0x77, 0x01, 0xa9, 0xbe, 0x11, 0x26, 0x51, 0xbe,
  0xfa, 0x43, 0xeb, 0xbd, 0xd8, 0x15, 0xe9, 0xbd, 0xf1, 0x7a, 0xa1, 0xbd,
  0xd6, 0x7e, 0xf7, 0x3d, 0x24, 0x23, 0xfe, 0x3d, 0x3d, 0x82, 0xb7, 0x3c,
  0x68, 0xbc, 0x74, 0xbe, 0x78, 0x56, 0x09, 0x3e, 0xc0, 0x86, 0xcb, 0x3d,
  0x18, 0xa1, 0xd7, 0xbd, 0x45, 0x59, 0xde, 0xbd, 0x6c, 0xba, 0x1d, 0x3e,
  0x5c, 0xe6, 0x10, 0xbe, 0x3a, 0x10, 0x11, 0xbe, 0xa8, 0x78, 0x83, 0xbd,
  0x76, 0xad, 0x55, 0x3e, 0x83, 0xe0, 0x17, 0xbc, 0x74, 0x06, 0x01, 0x3e,
  0xa9, 0xb4, 0x1d, 0xbe, 0xfb, 0x36, 0x03, 0xbe, 0xe0, 0x5b, 0x04, 0xbe,
  0x99, 0xef, 0x0c, 0xbd, 0xbf, 0x6f, 0x5e, 0xbc, 0x7e, 0xcd, 0xf2, 0x3d,
  0x14, 0x04, 0x06, 0x3e, 0x53, 0x75, 0xa3, 0x3d, 0xab, 0x8b, 0xc9, 0x3c,
  0x28, 0xdc, 0x1b, 0xbe, 0x01, 0xac, 0x20, 0xbe, 0x67, 0x77, 0x8c, 0xbe,
  0xe4, 0x0c, 0xcc, 0xbd, 0x2f, 0x6b, 0x1f, 0xbe, 0xaa, 0x34, 0x4f, 0x3a,
  0xf4, 0x59, 0xa8, 0x3d, 0x7a, 0x1a, 0x5d, 0x3d, 0xb1, 0x69, 0x20, 0xbe,
  0x3b, 0x5f, 0x2c, 0x3d, 0x25, 0xd4, 0xe7, 0xbc, 0xb3, 0x22, 0x6a, 0xbe,
  0x51, 0x27, 0xac, 0xbd, 0x20, 0xa9, 0x0d, 0x3d, 0x0c, 0x27, 0x16, 0x3e,
  0x88, 0x72, 0x6e, 0x3c, 0x32, 0xe7, 0x15, 0x3e, 0x2f, 0x61, 0x99, 0xbd,
  0x34, 0xce, 0xc4, 0x3c, 0x09, 0x39, 0x49, 0x3e, 0x63, 0xbe, 0x48, 0x3e,
  0x7d, 0xe3, 0x99, 0x3e, 0xf7, 0x5a, 0x1f, 0x3e, 0x94, 0xec, 0xd7, 0x3d,
  0xa6, 0xb2, 0xf4, 0x3d, 0xca, 0xc4, 0x0b, 0xbe, 0x73, 0x76, 0x42, 0x3e,
  0x46, 0xc7, 0x85, 0xbe, 0xe6, 0xea, 0xff, 0xbd, 0x34, 0x66, 0x65, 0xbe,
  0x43, 0x00, 0xad, 0x3e, 0x35, 0x7d, 0x99, 0x3c, 0xf8, 0x3d, 0xf9, 0x3c,
  0xc4, 0x59, 0xe4, 0xbd, 0x68, 0x32, 0x8e, 0x3d, 0x07, 0x93, 0x97, 0x3d,
  0x07, 0x71, 0xb1, 0xbe, 0x75, 0xa8, 0xf5, 0xbd, 0xdf, 0x30, 0x47, 0x3e,
  0xbb, 0x68, 0x04, 0x3e, 0x23, 0x23, 0x23, 0x3e, 0x33, 0xdf, 0x27, 0x3d,
  0x67, 0xb2, 0x1a, 0xbb, 0x89, 0xd0, 0xbc, 0xbd, 0xa1, 0xbd, 0x6b, 0xbe,
  0x3d, 0x4b, 0x04, 0xbe, 0xe8, 0x6a, 0x85, 0x3e, 0x2f, 0x97, 0x2b, 0xbd,
  0x75, 0x93, 0x4c, 0xbe, 0x29, 0x5c, 0xc9, 0xbd, 0x34, 0x42, 0xc4, 0xbd,
  0x14, 0xf2, 0x8b, 0x3d, 0xe5, 0x20, 0x13, 0x3e, 0x11, 0x23, 0x2b, 0x3e,
  0x0d, 0x8e, 0xfb, 0x3d, 0x50, 0x56, 0xa5, 0x3e, 0x50, 0x8d, 0x83, 0xbb,
  0x1d, 0x4c, 0x28, 0x3d, 0xc5, 0xd0, 0x7d, 0xbe, 0xeb, 0xd6, 0x5b, 0xbd,
  0xb6, 0x3a, 0x82, 0xbe, 0x4d, 0x35, 0x2d, 0xbe, 0x7b, 0x05, 0x40, 0x3e,
  0x49, 0x87, 0x9b, 0x3c, 0x6d, 0x58, 0x1d, 0x3d, 0x78, 0xa2, 0xa5, 0xbd,
  0xa2, 0xd7, 0x4c, 0xbe, 0x47, 0x18, 0x86, 0x3d, 0x84, 0xb8, 0x28, 0x3e,
  0xdc, 0xc5, 0x87, 0x3d, 0x4b, 0xde, 0x32, 0xbd, 0x5c, 0xa4, 0x24, 0xbd,
  0x30, 0xb5, 0x83, 0xbd, 0xa0, 0x4e, 0xed, 0xbc, 0xc6, 0x71, 0x71, 0xbe,
  0x4b, 0xd0, 0x62, 0xbe, 0x3c, 0x2c, 0x20, 0xbe, 0x85, 0x38, 0x00, 0xbd,
  0xde, 0xbc, 0x3e, 0x3c, 0x25, 0x39, 0x87, 0x3e, 0x9e, 0xc7, 0x98, 0x3e,
  0x19, 0xaa, 0xa3, 0x3b, 0xf0, 0x93, 0x22, 0x3e, 0x8d, 0x38, 0xcc, 0x3d,
  0xb5, 0x0d, 0x8c, 0x3d, 0x14, 0x77, 0x10, 0xbe, 0x0f, 0xeb, 0x17, 0xbe,
  0x8a, 0xb6, 0x80, 0xbe, 0xdb, 0xc2, 0x1f, 0x3b, 0x92, 0xf3, 0x84, 0xbe,
  0x30, 0x34, 0x81, 0xbe, 0xc0, 0xb6, 0x17, 0xbe, 0x17, 0xc8, 0x48, 0x3d,
  0x4b, 0xaf, 0x89, 0xbe, 0x41, 0xaf, 0xac, 0x3d, 0x6b, 0x66, 0x1a, 0x3d,
  0xc8, 0x23, 0x13, 0xbe, 0xf0, 0x04, 0x39, 0x3d, 0x92, 0xd9, 0x26, 0xbd,
  0x8f, 0x51, 0xd5, 0xbc, 0xbc, 0x9a, 0x98, 0xbe, 0x29, 0x4d, 0xb8, 0x3c,
  0xfd, 0x3d, 0xa7, 0x3d, 0xf2, 0x59, 0xe0, 0x3b, 0x65, 0x88, 0x8e, 0x3d,
  0x7c, 0x3f, 0x1e, 0xbc, 0x3a, 0xac, 0x1c, 0xbe, 0x95, 0x4c, 0x3e, 0x3d,
  0xb8, 0x7d, 0xd7, 0xbe, 0xee, 0x86, 0x4f, 0xbe, 0xb2, 0xb5, 0x86, 0xbe,
  0x13, 0x3a, 0x88, 0x3d, 0x76, 0x38, 0x70, 0xbe, 0xda, 0xa5, 0xea, 0xbd,
  0xce, 0xde, 0xc9, 0x3d, 0x5c, 0xbe, 0x4b, 0xbe, 0xb5, 0xe5, 0xb3, 0x3c,
  0x05, 0x18, 0x21, 0xbe, 0xc8, 0x6e, 0x8b, 0xbe, 0x8d, 0x6e, 0x96, 0x3d,
  0x40, 0x25, 0x21, 0x3e, 0x1b, 0x6e, 0x4c, 0xbe, 0x15, 0xbd, 0x4c, 0xbe,
  0x45, 0xc3, 0x8d, 0xbe, 0x42, 0xcb, 0x11, 0xbd, 0x0e, 0x97, 0x7c, 0x3c,
  0x9a, 0xbe, 0xeb, 0x3d, 0xa3, 0xe2, 0x1d, 0xbe, 0xa9, 0x6b, 0x1f, 0xbe,
  0x36, 0x1f, 0x83, 0xbe, 0x51, 0x50, 0x9e, 0x3d, 0x93, 0x5c, 0xd4, 0xbd,
  0x6e, 0xec, 0xa6, 0x3d, 0x5d, 0x5e, 0x4a, 0xbb, 0x90, 0x8d, 0xe5, 0xbd,
  0xb7, 0x34, 0x9b, 0x3d, 0xad, 0x69, 0x2c, 0x3e, 0x2a, 0xdb, 0x39, 0xbe,
  0x41, 0x20, 0xcd, 0xbc, 0xc3, 0xf3, 0x69, 0xbd, 0x21, 0xf2, 0x5c, 0x3c,
  0x4d, 0xdf, 0x9a, 0xbe, 0x66, 0xa4, 0xbb, 0xbd, 0x72, 0x90, 0x16, 0x3e,
  0x6b, 0xa1, 0x20, 0xbe, 0x5f, 0x86, 0x35, 0xbe, 0xcf, 0x57, 0xe1, 0xbd,
  0xdf, 0xd5, 0xaa, 0xbe, 0x03, 0x94, 0xdc, 0xbe, 0xc9, 0xb0, 0x5f, 0xbe,
  0xa9, 0x9b, 0x8d, 0x3d, 0x4b, 0xd6, 0x86, 0xbe, 0x1d, 0x51, 0x3d, 0x3d,
  0xed, 0x5c, 0xa9, 0xbd, 0x29, 0x3a, 0x60, 0xbd, 0x4e, 0xb8, 0x43, 0x3e,
  0xba, 0xa0, 0x86, 0xbe, 0x12, 0xd8, 0x8c, 0x3e, 0xd0, 0x3f, 0x7a, 0x3c,
  0x93, 0xf6, 0x32, 0xbd, 0x29, 0xfb, 0x59, 0xbd, 0xf2, 0xa3, 0x57, 0xbe,
  0x4b, 0x45, 0xbe, 0xbb, 0xf3, 0x5a, 0x98, 0xbc, 0x57, 0x9a, 0x52, 0x3d,
  0xe3, 0xfb, 0xdf, 0xbc, 0xe9, 0x2c, 0x3e, 0x3e, 0x22, 0xbc, 0x3d, 0x3d,
  0xd9, 0x4a, 0x68, 0x3d, 0x08, 0x96, 0x8c, 0x3d, 0xdd, 0xf6, 0x16, 0x3d,
  0x58, 0xd3, 0xf5, 0xbd, 0x6e, 0x7c, 0x1a, 0x3d, 0x9d, 0x6e, 0x19, 0x3d,
  0xca, 0xa1, 0x27, 0x3d, 0x3a, 0x14, 0x1e, 0x3e, 0xe2, 0xde, 0x2a, 0xbc,
  0x44, 0x8d, 0x13, 0xbe, 0x2f, 0x85, 0x56, 0x3e, 0x97, 0x73, 0x01, 0x3e,
  0xf9, 0x8f, 0x3f, 0x3d, 0x78, 0xf9, 0x24, 0x3e, 0x2f, 0xfc, 0x90, 0xbc,
  0xfc, 0x8e, 0xc1, 0xbc, 0x7d, 0x4e, 0x0d, 0xbe, 0x22, 0x9e, 0xb9, 0xbc,
  0xbe, 0xcf, 0xd8, 0xbc, 0xea, 0x4a, 0xe6, 0xbd, 0xd0, 0xb9, 0x6f, 0x3e,
  0x96, 0x49, 0x00, 0x3e, 0xa4, 0x4a, 0x7d, 0xbc, 0x1a, 0x02, 0x42, 0xbe,
  0xc2, 0x31, 0x6b, 0xbe, 0xdf, 0xe4, 0xd4, 0x3d, 0x2d, 0xfe, 0x9a, 0xbd,
  0x28, 0x9b, 0xb9, 0xbd, 0x91, 0x7a, 0xf2, 0xbc, 0xb4, 0xa6, 0x86, 0x3e,
  0xf5, 0x61, 0x46, 0xbe, 0x98, 0x10, 0x87, 0x3d, 0x84, 0x13, 0x84, 0x3d,
  0xf1, 0xf1, 0x2a, 0x3e, 0x6d, 0x6a, 0x15, 0xbc, 0x53, 0xd2, 0x99, 0xbe,
  0xb5, 0x95, 0x54, 0x3e, 0xc4, 0x2b, 0x2c, 0x3e, 0xef, 0x56, 0x15, 0x3e,
  0x6c, 0x58, 0xf3, 0xbc, 0xd3, 0x35, 0x33, 0xbe, 0xc8, 0x2c, 0x08, 0xbd,
  0x13, 0x2f, 0x18, 0x3e, 0x00, 0x94, 0x31, 0xbe, 0xe5, 0xc8, 0x12, 0xbd,
  0x0f, 0xf6, 0x4b, 0x3e, 0xfc, 0x68, 0x5a, 0xbe, 0xf7, 0xfc, 0x84, 0xbc,
  0x7c, 0x7b, 0x93, 0x3e, 0x29, 0xd5, 0xf8, 0x3d, 0xd8, 0x39, 0x7d, 0x3e,
  0x63, 0xce, 0x0a, 0xbe, 0xe7, 0x33, 0xd6, 0xbd, 0xd6, 0x3f, 0x31, 0xbd,
  0x09, 0x66, 0x95, 0x3e, 0xcb, 0x28, 0x0d, 0x3e, 0xdb, 0x89, 0x04, 0x3c,
  0x4c, 0xf0, 0x80, 0xbd, 0x6a, 0xd6, 0xc6, 0x3d, 0xd0, 0x03, 0xbb, 0xbd,
  0x9d, 0x16, 0x53, 0xbd, 0x30, 0xa2, 0xa4, 0xbc, 0x11, 0x6e, 0xb9, 0x3d,
  0x7c, 0x84, 0x0b, 0xbe, 0x15, 0xf6, 0x8e, 0x3c, 0xf0, 0xbe, 0xa9, 0x3e,
  0x5a, 0x24, 0x40, 0x3e, 0xe2, 0x5f, 0x7c, 0x3d, 0x15, 0xec, 0xa6, 0x3d,
  0x10, 0xe9, 0xa8, 0xbd, 0x09, 0xcb, 0xac, 0x3d, 0x0d, 0x85, 0xa6, 0xbc,
  0x3a, 0x29, 0x93, 0x3c, 0x9c, 0x37, 0x19, 0xbd, 0xc4, 0x15, 0x15, 0x3e,
  0xbd, 0x83, 0xa5, 0xbc, 0x01, 0x08, 0x3f, 0xbd, 0xd6, 0xbf, 0xe6, 0x3d,
  0x1b, 0x16, 0x4f, 0x3e, 0x4e, 0xaf, 0xc9, 0x3d, 0x09, 0x45, 0x75, 0x3d,
  0x82, 0x1d, 0x38, 0x3b, 0x78, 0x13, 0x20, 0xbe, 0x19, 0xbd, 0x03, 0xbe,
  0xee, 0xcf, 0x08, 0xbd, 0x56, 0x34, 0x04, 0x3e, 0x1a, 0x63, 0xd7, 0x3d,
  0xc8, 0x29, 0x10, 0xbd, 0x50, 0x1d, 0x40, 0xbc, 0x3d, 0x89, 0x06, 0x3e,
  0x7b, 0x40, 0x52, 0xbe, 0x12, 0x3b, 0xd2, 0xbc, 0xda, 0xac, 0xe7, 0xbb,
  0x3a, 0x8d, 0xae, 0x3d, 0x52, 0x60, 0x30, 0x3d, 0x9b, 0x72, 0xd3, 0xbd,
  0xa5, 0x3b, 0x80, 0xbb, 0xe9, 0x14, 0x9b, 0x3d, 0xfe, 0x22, 0x07, 0xbe,
  0x28, 0xb5, 0x0f, 0x3d, 0xf6, 0x50, 0x24, 0x3e, 0x5c, 0x28, 0xef, 0x3d,
  0x54, 0x44, 0xb9, 0x3e, 0xff, 0x36, 0x60, 0x3d, 0xbb, 0x83, 0x0f, 0xbb,
  0xf3, 0x0e, 0x54, 0x3e, 0xbe, 0xe7, 0x34, 0xbc, 0x2d, 0xa0, 0x72, 0xbd,
  0x13, 0xe0, 0x06, 0xbe, 0x2b, 0x73, 0x0c, 0xbe, 0x2a, 0xc4, 0x0d, 0x3e,
  0x0e, 0xf3, 0x2e, 0xbe, 0x01, 0x23, 0x80, 0xbe, 0xad, 0x55, 0x87, 0xbe,
  0x22, 0x40, 0x26, 0xbe, 0x7e, 0x6d, 0xdc, 0xbd, 0x15, 0x2e, 0x87, 0xbd,
  0xb0, 0x65, 0x8e, 0x3d, 0x8d, 0x9a, 0x36, 0xbe, 0x9c, 0xbb, 0x99, 0xbe,
  0xc0, 0xf3, 0xeb, 0x3c, 0x1e, 0x54, 0x5d, 0xbe, 0x3c, 0x7f, 0x01, 0xbf,
  0x71, 0x7d, 0x49, 0xbe, 0xc3, 0x9e, 0x53, 0x3d, 0x07, 0x48, 0x1a, 0x3e,
  0xaa, 0xdf, 0x45, 0xbe, 0x9d, 0x6f, 0x0d, 0x3e, 0x28, 0xea, 0xa5, 0xbd,
  0xfe, 0x06, 0x89, 0xbe, 0x20, 0x03, 0xac, 0xbd, 0xba, 0xaa, 0x75, 0x3e,
  0x97, 0x38, 0xb9, 0x3d, 0xc9, 0x21, 0x17, 0xbe, 0x3a, 0x1f, 0x50, 0xbe,
  0xf6, 0xbf, 0x93, 0xbe, 0x40, 0xc4, 0x8f, 0xbe, 0x5a, 0xac, 0x7f, 0xba,
  0xc2, 0xb9, 0x3d, 0x3e, 0xc8, 0x98, 0x91, 0xbd, 0x0e, 0x4f, 0x65, 0xbd,
  0xb0, 0x99, 0xcf, 0xbd, 0xa2, 0x7c, 0x11, 0xbd, 0xa3, 0x7d, 0xda, 0x3d,
  0xc9, 0x10, 0x3e, 0xbe, 0xb3, 0x5f, 0xe8, 0xbd, 0xb1, 0x6d, 0x5b, 0x3e,
  0xe6, 0xd1, 0x7f, 0xbc, 0xae, 0x2d, 0xb9, 0x3e, 0x59, 0xc1, 0x75, 0x3e,
  0x98, 0x66, 0x14, 0x3d, 0x2a, 0x60, 0x1b, 0x3e, 0x83, 0x79, 0x3e, 0x3d,
  0xfe, 0x27, 0x61, 0xbe, 0x97, 0xb9, 0xfc, 0xbd, 0x81, 0xae, 0x09, 0xbe,
  0x86, 0x13, 0x16, 0x3b, 0xb7, 0xa6, 0xf4, 0x3c, 0xc8, 0x9a, 0xa3, 0x3d,
  0x6f, 0x3a, 0xf7, 0x3c, 0x8a, 0x76, 0xd6, 0xbd, 0xb1, 0x64, 0xc1, 0xbd,
  0xf5, 0xb4, 0x11, 0x3e, 0xfe, 0x73, 0x38, 0xbe, 0x44, 0x54, 0x31, 0x3a,
  0xa2, 0x8c, 0x3b, 0xbe, 0xc5, 0x51, 0xf3, 0x3b, 0x2a, 0x60, 0xa2, 0xbe,
  0x8c, 0x8b, 0x81, 0xbe, 0x44, 0x1c, 0x7d, 0xbe, 0x54, 0x4a, 0xee, 0xbd,
  0x99, 0x67, 0x1b, 0x3e, 0x0a, 0x95, 0xfe, 0x3c, 0x53, 0x93, 0x4a, 0xbe,
  0x54, 0x4d, 0x07, 0x3c, 0xaf, 0x08, 0xc3, 0x3d, 0x8d, 0x68, 0xc3, 0xbd,
  0xc6, 0x0c, 0x89, 0xbe, 0xee, 0x12, 0x34, 0xbe, 0xd7, 0xbc, 0x87, 0xbc,
  0x1c, 0x19, 0xfc, 0x3b, 0x50, 0x2e, 0x86, 0x3e, 0x64, 0xb3, 0xf6, 0x3d,
  0xe9, 0x87, 0x5e, 0x3d, 0xdb, 0x95, 0x3e, 0x3d, 0x4e, 0x38, 0x26, 0x3b,
  0x9d, 0x33, 0x98, 0xbe, 0x26, 0x91, 0xde, 0x3c, 0xba, 0xcf, 0x64, 0xbe,
  0x57, 0x30, 0xc7, 0x3e, 0x84, 0x28, 0x10, 0xbe, 0xf9, 0xec, 0x98, 0xbd,
  0x3a, 0x27, 0x01, 0xbe, 0x75, 0x45, 0xac, 0x3d, 0x72, 0x4f, 0x36, 0xbd,
  0x15, 0x0e, 0x44, 0xbe, 0x71, 0xa9, 0x1c, 0x3e, 0xe9, 0x81, 0xbd, 0x3e,
  0xaf, 0x32, 0x35, 0x3d, 0x60, 0x71, 0x0e, 0xbe, 0xcc, 0x30, 0xaf, 0xbe,
  0x14, 0xd9, 0x68, 0xbd, 0x66, 0xb4, 0x90, 0x3c, 0xc4, 0xee, 0x80, 0x3e,
  0x4c, 0x95, 0x63, 0xbd, 0x74, 0xbc, 0x7b, 0x3c, 0xc5, 0xc8, 0x33, 0x3d,
  0x69, 0x3d, 0xcd, 0xbd, 0xe5, 0xe7, 0x96, 0xbe, 0x1e, 0xb0, 0xd7, 0xbd,
  0x1a, 0x07, 0xc8, 0xbd, 0x04, 0xac, 0xcd, 0xbd, 0x4c, 0xbe, 0x8f, 0xb9,
  0x64, 0xb1, 0xb8, 0x3c, 0xda, 0x90, 0x77, 0xbb, 0xe1, 0x3e, 0x9b, 0x3d,
  0x85, 0xda, 0xaf, 0xbd, 0xab, 0x17, 0x7a, 0xbe, 0xd3, 0xbb, 0x77, 0xbd,
  0x55, 0x49, 0x5a, 0x3e, 0x1c, 0x78, 0xab, 0x3d, 0xba, 0xb4, 0xbf, 0x3c,
  0xcd, 0x5e, 0x6c, 0xbd, 0x7a, 0x7d, 0x68, 0xbd, 0x0f, 0x13, 0x2b, 0x3e,
  0x48, 0x8b, 0x68, 0xba, 0x18, 0x1e, 0xeb, 0x3a, 0x44, 0x68, 0x95, 0xbd,
  0x48, 0x69, 0xab, 0xbd, 0x86, 0xbd, 0x1d, 0xbd, 0x85, 0xd1, 0x3c, 0x3e,
  0xb4, 0x0f, 0xa2, 0xbd, 0x8a, 0x50, 0x4a, 0x3d, 0x71, 0x86, 0xa7, 0xbd,
  0x06, 0xf1, 0x10, 0xbe, 0x66, 0x4c, 0x07, 0xbe, 0x7e, 0x89, 0xb4, 0xbd,
  0xa4, 0x37, 0x1f, 0x3e, 0xa2, 0xee, 0xff, 0xff, 0x04, 0x00, 0x00, 0x00,
  0x00, 0x0a, 0x00, 0x00, 0x9f, 0xf0, 0x1f, 0xbe, 0x07, 0x4f, 0x71, 0x3e,
  0x55, 0x28, 0x53, 0x3d, 0x3a, 0x27, 0xa4, 0x3c, 0x52, 0x77, 0x3f, 0x3d,
  0x7a, 0x46, 0xad, 0x3e, 0x68, 0x6f, 0xc4, 0x3d, 0x73, 0x91, 0x8b, 0x3b,
  0x2f, 0x9f, 0xd6, 0xbd, 0x65, 0x18, 0x82, 0x3d, 0xf1, 0xf0, 0x18, 0xbe,
  0xc8, 0x26, 0x01, 0x3e, 0x88, 0xb0, 0xfc, 0xbc, 0x33, 0x68, 0x6c, 0xbd,
  0xf9, 0x92, 0x2e, 0x3e, 0x7a, 0x45, 0x97, 0xbd, 0xd8, 0x99, 0x4b, 0x3e,
  0x84, 0x47, 0xc8, 0xbd, 0x46, 0xfd, 0x19, 0x3e, 0x64, 0x2f, 0x55, 0xbe,
  0x07, 0xb0, 0x6e, 0xbe, 0x35, 0xe9, 0x3e, 0xbe, 0xb4, 0xed, 0xe5, 0x3d,
  0xc9, 0x5d, 0xe1, 0xbd, 0x81, 0xa4, 0xb4, 0xbc, 0x6d, 0x1a, 0xe0, 0xbd,
  0xd6, 0xbf, 0x99, 0xbd, 0x81, 0x58, 0x00, 0xbe, 0x5e, 0xe9, 0x90, 0xbc,
  0xa4, 0x29, 0x1c, 0x3e, 0x22, 0xe5, 0x37, 0xbe, 0x8e, 0x53, 0x70, 0x3d,
  0x1c, 0x46, 0x53, 0x3d, 0xe9, 0xd2, 0x80, 0xbd, 0x6a, 0xb8, 0x3e, 0xbe,
  0x01, 0x04, 0x2d, 0xbe, 0xe4, 0x6a, 0x61, 0xbe, 0xec, 0x0c, 0x9e, 0xbe,
  0xc3, 0x34, 0xf1, 0xbc, 0x99, 0x50, 0x6c, 0x3c, 0x6f, 0x28, 0x9f, 0x3e,
  0xc7, 0xc6, 0x50, 0x3d, 0xe5, 0xd2, 0x42, 0x3e, 0xc7, 0x32, 0x07, 0x3d,
  0xaa, 0x36, 0x86, 0x3d, 0x03, 0x28, 0x35, 0xbe, 0x99, 0x4f, 0x53, 0xbe,
  0x00, 0x25, 0xae, 0x3d, 0xa3, 0xfc, 0xcb, 0x3e, 0xab, 0xa5, 0x84, 0x3e,
  0xb9, 0xf9, 0x93, 0x3e, 0x2e, 0xc2, 0xb2, 0x3e, 0xe2, 0x21, 0x28, 0xbe,
  0xf1, 0xb6, 0xb5, 0xba, 0x60, 0xd1, 0x39, 0xbd, 0xcb, 0x21, 0x70, 0xbe,
  0x99, 0xcd, 0x12, 0xbe, 0xad, 0xd7, 0x9c, 0x3e, 0xc0, 0xf5, 0x5a, 0x3d,
  0xca, 0x28, 0x5b, 0xbd, 0x8a, 0xfb, 0x9d, 0xbd, 0x39, 0x7f, 0xb9, 0x3c,
  0xa5, 0x19, 0x4e, 0xbe, 0x92, 0x0e, 0x5b, 0xbe, 0x24, 0x20, 0xcc, 0xbb,
  0x9f, 0x23, 0x60, 0x3e, 0x36, 0xb7, 0x6d, 0xbe, 0x1e, 0x17, 0x5b, 0xbe,
  0x6a, 0x26, 0xa2, 0xbc, 0xc9, 0xb2, 0x04, 0x3e, 0x33, 0x28, 0x49, 0xbe,
  0x69, 0x5a, 0x7d, 0x3e, 0xaf, 0x1a, 0x28, 0xbe, 0xfd, 0xa3, 0xd2, 0xbc,
  0x25, 0x3f, 0x8f, 0x3e, 0x53, 0x19, 0x4b, 0xbe, 0x88, 0x62, 0x34, 0x3d,
  0x61, 0xd2, 0xf7, 0x3d, 0x13, 0xe5, 0x26, 0x3d, 0x46, 0xe1, 0x57, 0x3e,
  0xff, 0xf5, 0x70, 0x3c, 0xfc, 0xcc, 0x50, 0x3e, 0x67, 0x54, 0x2b, 0xbd,
  0x08, 0x4b, 0xd7, 0xbd, 0x8f, 0x82, 0x0a, 0xbe, 0x4e, 0x70, 0x83, 0x3e,
  0xc6, 0x6e, 0xd8, 0x3c, 0x0c, 0xff, 0xeb, 0x3d, 0x94, 0x25, 0x05, 0x3c,
  0x7c, 0xfd, 0xcd, 0x3d, 0x00, 0xac, 0xcb, 0x3d, 0x13, 0x97, 0xed, 0xbd,
  0x5c, 0xc9, 0xea, 0x3b, 0x9f, 0xd3, 0xba, 0xbd, 0x30, 0xe7, 0x5e, 0xbd,
  0xe6, 0xea, 0xe1, 0x3d, 0x28, 0xf6, 0x23, 0x3e, 0x8d, 0xc0, 0x0e, 0xbe,
  0x8d, 0x10, 0x54, 0x3b, 0xef, 0xa2, 0x58, 0x3e, 0x37, 0xef, 0x6d, 0x3d,
  0xcb, 0x19, 0x10, 0x3e, 0xc3, 0x12, 0x31, 0x3e, 0x83, 0xcd, 0xfb, 0x3c,
  0x57, 0x5d, 0x0c, 0xbe, 0x62, 0xdc, 0xf4, 0xbd, 0x6a, 0x03, 0xa1, 0x3c,
  0x68, 0xca, 0xbb, 0xbd, 0x9c, 0xe6, 0xda, 0xbb, 0x01, 0x7a, 0x96, 0x3e,
  0x6b, 0xb4, 0xff, 0x3b, 0x5c, 0x3f, 0xc8, 0xbd, 0xa4, 0x25, 0xa5, 0x3d,
  0x78, 0x7a, 0xb8, 0xbd, 0x70, 0xae, 0x9c, 0x3e, 0xa1, 0x46, 0x0f, 0xbc,
  0x68, 0xe1, 0x0e, 0x3e, 0x7b, 0x23, 0x0b, 0x3d, 0x9c, 0x64, 0xc8, 0xbb,
  0xf2, 0xe4, 0xcb, 0x3c, 0xbf, 0xad, 0x27, 0x3d, 0x11, 0xaf, 0x8f, 0x3e,
  0xa9, 0xae, 0x87, 0x3e, 0x4b, 0xa1, 0xb7, 0x3e, 0x8b, 0xbc, 0x0e, 0x3e,
  0xdc, 0xb8, 0x36, 0xbe, 0xab, 0x32, 0x4a, 0x3d, 0x5f, 0xcb, 0xd8, 0xbd,
  0x85, 0xa7, 0x12, 0xbe, 0x8c, 0x4c, 0xcb, 0xbd, 0xde, 0x42, 0x2e, 0xbe,
  0xec, 0x27, 0xc6, 0xbc, 0x2d, 0x31, 0x68, 0xbd, 0xa1, 0xb7, 0x68, 0x3e,
  0x64, 0xa9, 0x99, 0xbd, 0xf2, 0x48, 0x0d, 0x3d, 0x8f, 0x0e, 0xab, 0xbd,
  0x1f, 0xc6, 0xed, 0xbc, 0x5e, 0x78, 0x16, 0xbe, 0x12, 0x6f, 0xac, 0xbe,
  0x49, 0x4d, 0x39, 0x3e, 0x69, 0xbf, 0x9b, 0xbe, 0x07, 0xda, 0x95, 0xbc,
  0xe4, 0x38, 0x93, 0x3d, 0x21, 0x87, 0x42, 0x3e, 0x68, 0xe8, 0x19, 0xbe,
  0x31, 0xae, 0x10, 0xbd, 0xa8, 0x0d, 0x41, 0xbe, 0x1c, 0x32, 0x85, 0xbd,
  0xe9, 0x85, 0x84, 0x3c, 0x5d, 0xbc, 0xdf, 0x3d, 0xdc, 0xf3, 0xac, 0xbd,
  0xba, 0x1b, 0x2b, 0x3c, 0x59, 0xed, 0x1b, 0xbd, 0x5b, 0x65, 0x1b, 0x3e,
  0xdc, 0x74, 0x20, 0xbd, 0x4c, 0x64, 0xcb, 0x3d, 0x6a, 0x5a, 0x0f, 0x3e,
  0xc7, 0xc7, 0x07, 0x3e, 0xf3, 0x57, 0x05, 0xbe, 0xab, 0x31, 0x71, 0xbd,
  0xa2, 0x28, 0xc0, 0x3d, 0x89, 0xf3, 0x61, 0xbd, 0xe4, 0x58, 0xec, 0xbd,
  0x70, 0xfb, 0xb7, 0xbd, 0x26, 0x84, 0x0e, 0x3d, 0x35, 0x8f, 0xad, 0xbd,
  0xc3, 0x52, 0x7d, 0x3e, 0x43, 0x67, 0x3b, 0xbe, 0x70, 0x3f, 0x15, 0xbe,
  0x1f, 0x8d, 0x2c, 0xbd, 0x50, 0xa0, 0x36, 0xbe, 0xe6, 0x53, 0x0f, 0x3e,
  0x9b, 0x5e, 0x87, 0xbe, 0x22, 0xe6, 0x7a, 0xbe, 0x83, 0x05, 0xed, 0xbd,
  0xd0, 0x0a, 0x36, 0xbd, 0x79, 0x40, 0x77, 0x3d, 0xed, 0x76, 0xb5, 0x3d,
  0xc0, 0xaa, 0x49, 0x3e, 0x8d, 0x0f, 0x90, 0xbd, 0xc6, 0x6b, 0xd0, 0xbd,
  0x7f, 0x43, 0xad, 0x3c, 0x62, 0x42, 0x1e, 0xbe, 0x61, 0xad, 0x92, 0xbd,
  0x80, 0x0b, 0x9b, 0xbe, 0xe1, 0x96, 0x2e, 0x3e, 0x03, 0xd3, 0xcc, 0xbd,
  0x7b, 0x13, 0x9e, 0x3d, 0xb4, 0xed, 0xa9, 0x3d, 0xf4, 0x8e, 0x79, 0x3e,
  0xf2, 0x29, 0x87, 0x3e, 0x08, 0x71, 0x06, 0x3c, 0x2b, 0xae, 0x67, 0x3c,
  0x5c, 0x4b, 0xbe, 0xbd, 0xcc, 0xc6, 0x78, 0xbd, 0x2e, 0x3a, 0x2f, 0xbd,
  0xda, 0xbb, 0x5e, 0xbd, 0xf9, 0xf1, 0x55, 0xbe, 0x1b, 0xa0, 0x69, 0x3d,
  0xe3, 0x31, 0x9d, 0x3d, 0xae, 0xb0, 0x1d, 0xbc, 0x0e, 0x3e, 0x8d, 0xbd,
  0xe6, 0xa3, 0x6e, 0xbd, 0xe9, 0x76, 0xe6, 0xbe, 0xd3, 0x43, 0x87, 0x3c,
  0xf6, 0x82, 0x00, 0xbe, 0x2c, 0x1b, 0xc9, 0x3d, 0x21, 0xc1, 0x0b, 0xbe,
  0x10, 0x46, 0xcf, 0xbd, 0xd2, 0xc4, 0x8b, 0xbe, 0x44, 0x0c, 0x2c, 0xbe,
  0x06, 0xde, 0xef, 0xbd, 0x75, 0x7e, 0x05, 0xbe, 0x91, 0xa6, 0x98, 0xbe,
  0xdb, 0x02, 0x8c, 0x3d, 0x9d, 0x64, 0x0b, 0xbd, 0x83, 0xad, 0x58, 0xbe,
  0x4b, 0x08, 0xf2, 0xbd, 0x7f, 0xa2, 0x91, 0xbc, 0xd2, 0x88, 0x98, 0xbe,
  0x24, 0xfb, 0xe1, 0xbe, 0x42, 0x7e, 0x9e, 0xbe, 0xad, 0x35, 0x33, 0xbe,
  0x7b, 0x25, 0x9c, 0x3d, 0xa5, 0xc7, 0xa6, 0xbc, 0xfc, 0x8c, 0x7c, 0xbe,
  0xe3, 0xe5, 0x3b, 0xbe, 0x76, 0x3e, 0x38, 0xbe, 0x46, 0xe7, 0x36, 0xbc,
  0x53, 0xfc, 0xbf, 0xbd, 0xa9, 0xba, 0xa6, 0xbc, 0xee, 0x73, 0x9a, 0x3d,
  0xd3, 0x4c, 0x7c, 0xbe, 0x3a, 0x93, 0x12, 0xbd, 0x34, 0xd6, 0xc2, 0xbd,
  0x7c, 0xfa, 0x4a, 0x3d, 0xd0, 0xf9, 0x3c, 0x3e, 0xcd, 0x74, 0x1e, 0xbe,
  0xb6, 0x16, 0x55, 0xbe, 0xf0, 0x2f, 0x2f, 0x3e, 0xf8, 0x90, 0x8d, 0xbe,
  0x9b, 0xd8, 0xc9, 0xbd, 0xa2, 0xa0, 0xe5, 0x3d, 0xc0, 0x85, 0x99, 0xbe,
  0x58, 0x7d, 0xd1, 0xbc, 0x36, 0x2f, 0xae, 0x3d, 0x51, 0xa9, 0xd5, 0x3d,
  0x7c, 0x48, 0x36, 0xbe, 0xec, 0x6c, 0x45, 0x3c, 0xad, 0x3c, 0x1a, 0xbe,
  0x78, 0x48, 0xd5, 0x3d, 0xb5, 0x5e, 0x5c, 0xbe, 0xbf, 0xdb, 0x3a, 0xbe,
  0xb0, 0x2c, 0x27, 0xbe, 0xd9, 0x9c, 0x07, 0x3e, 0x72, 0x1b, 0xe6, 0x3c,
  0xb9, 0x8f, 0x41, 0x3c, 0x2c, 0x18, 0x02, 0x3e, 0x19, 0xa5, 0xd3, 0x3c,
  0xe5, 0xdc, 0xd3, 0xbd, 0xba, 0xc4, 0x89, 0xbe, 0xa0, 0x5f, 0x64, 0xbe,
  0xc4, 0x6a, 0x1b, 0x3e, 0xe0, 0x28, 0x17, 0xbe, 0xea, 0xa0, 0xa0, 0x3d,
  0x07, 0xe3, 0x5f, 0xbc, 0xb6, 0x2f, 0x6d, 0xbe, 0x60, 0x8b, 0x85, 0xbe,
  0x49, 0xcd, 0xf1, 0x3c, 0x82, 0x92, 0x8b, 0x3d, 0xce, 0x13, 0x0a, 0xbe,
  0x93, 0x24, 0xb3, 0x3d, 0xa0, 0xff, 0xae, 0xbd, 0x99, 0x2b, 0x5e, 0x3e,
  0x74, 0x76, 0xbb, 0x3d, 0xc3, 0xc2, 0xac, 0xbd, 0x6c, 0xfb, 0xe6, 0xbd,
  0xe6, 0x57, 0x60, 0xbe, 0x45, 0x3b, 0x66, 0xbe, 0x45, 0xc7, 0xaa, 0xbd,
  0xb5, 0x7f, 0xb7, 0xbd, 0xc6, 0xd7, 0x91, 0x3c, 0xe4, 0x8d, 0x20, 0x3e,
  0x40, 0xf5, 0x8a, 0xbd, 0x59, 0x89, 0x6a, 0xbe, 0x82, 0x50, 0x82, 0x3e,
  0xb5, 0x0d, 0x8c, 0xbc, 0x00, 0x86, 0x02, 0xbe, 0xba, 0x3b, 0x4d, 0xbe,
  0x39, 0x35, 0x1e, 0xbe, 0xcd, 0x75, 0x16, 0xbe, 0x44, 0x31, 0x49, 0xbe,
  0x80, 0x6b, 0x7f, 0x3c, 0x19, 0x28, 0x1b, 0x3e, 0x0d, 0x05, 0x72, 0x3e,
  0xa7, 0x17, 0x20, 0xbd, 0x8e, 0x78, 0x8e, 0xbe, 0x30, 0x2d, 0xa3, 0xbd,
  0x6c, 0x3e, 0x2f, 0xbe, 0x57, 0xd3, 0xa3, 0xbc, 0x8b, 0x8e, 0x2d, 0xbd,
  0xab, 0xc2, 0x1f, 0xbd, 0xdb, 0xc2, 0xea, 0x3d, 0xbe, 0xcd, 0xa9, 0x3c,
  0x82, 0x54, 0x8f, 0x3d, 0xd3, 0xa8, 0x44, 0xbe, 0x57, 0x8c, 0xd8, 0x3c,
  0xd1, 0x8e, 0xa8, 0xbd, 0xee, 0xfa, 0x0a, 0x3e, 0xfc, 0x8f, 0x23, 0xbe,
  0x47, 0xf9, 0x25, 0xbe, 0x9f, 0x14, 0x2a, 0xbd, 0xc6, 0x50, 0x4d, 0x3c,
  0x41, 0xc2, 0x6f, 0x3e, 0xed, 0xd3, 0x2d, 0x3e, 0xbd, 0x17, 0x3c, 0xbd,
  0x33, 0x91, 0x5f, 0x3e, 0xd7, 0x73, 0xb8, 0x3e, 0x74, 0x6a, 0xe9, 0x3e,
  0x3f, 0xe0, 0x4f, 0xbe, 0x28, 0x2c, 0xa3, 0xbd, 0x6b, 0xb1, 0x81, 0xbe,
  0xb4, 0xf4, 0x1b, 0xbe, 0xfe, 0x31, 0x15, 0x3e, 0x6a, 0x9f, 0x96, 0xbc,
  0xc6, 0x3b, 0xf8, 0x3d, 0xd2, 0xaa, 0x38, 0x3e, 0xf0, 0xb7, 0x04, 0xbe,
  0xca, 0x76, 0xa6, 0xbd, 0x5d, 0x92, 0x08, 0xbe, 0x64, 0x87, 0xe0, 0x3d,
  0xc3, 0xbc, 0x66, 0xbe, 0x47, 0x95, 0xb0, 0xbd, 0x60, 0xae, 0x24, 0x3d,
  0x55, 0xd5, 0x5d, 0x3e, 0x7d, 0x68, 0xbd, 0x3b, 0x34, 0x11, 0x32, 0xbe,
  0x29, 0x49, 0x2d, 0x3e, 0xc5, 0xc4, 0x90, 0x3d, 0x40, 0x70, 0x74, 0xbe,
  0xb9, 0x75, 0x2b, 0xbe, 0x54, 0x5e, 0x93, 0xbe, 0x48, 0xbd, 0x72, 0x3e,
  0xee, 0x47, 0xa3, 0xbb, 0x36, 0x24, 0x91, 0x3e, 0x88, 0x9d, 0x05, 0x3e,
  0x39, 0x06, 0x10, 0xbe, 0x2b, 0x2a, 0x60, 0xbe, 0x92, 0x3c, 0xbb, 0xbd,
  0xdf, 0x91, 0x62, 0x3e, 0x74, 0x94, 0x68, 0xbd, 0x0b, 0xdf, 0x98, 0xbc,
  0x33, 0xaa, 0xa7, 0xbd, 0xa4, 0x87, 0xaa, 0xbd, 0x64, 0x19, 0x37, 0x3c,
  0x9e, 0xe8, 0x62, 0x3e, 0x47, 0x73, 0x0c, 0xbe, 0x4c, 0x4a, 0xd3, 0x3d,
  0x92, 0x8d, 0x2f, 0xbe, 0xf4, 0x32, 0x75, 0x3e, 0xc3, 0x3c, 0xc3, 0x3d,
  0xb0, 0x18, 0x3f, 0xbe, 0x20, 0xae, 0x50, 0x3e, 0x23, 0x98, 0x54, 0x3d,
  0x27, 0x87, 0x2a, 0xbe, 0xc1, 0xf0, 0xd3, 0x3c, 0x22, 0x20, 0xa1, 0x3b,
  0x2e, 0x5e, 0x1b, 0x3d, 0x7a, 0x33, 0xf8, 0xbc, 0x95, 0x7d, 0x5f, 0xbe,
  0xc8, 0x40, 0x02, 0x3d, 0xad, 0x6b, 0x61, 0xbe, 0x63, 0xb4, 0xf7, 0xbd,
  0x0c, 0x75, 0x19, 0x3e, 0xca, 0x33, 0xab, 0x3d, 0x21, 0xee, 0xca, 0xbe,
  0x12, 0x3c, 0xf4, 0xbe, 0x0d, 0xb5, 0xa4, 0x3d, 0x94, 0x18, 0x8a, 0x3c,
  0x43, 0x42, 0x38, 0xbd, 0x56, 0x79, 0x91, 0x3e, 0x2d, 0xa5, 0x64, 0x3e,
  0x3f, 0x96, 0x20, 0xbe, 0x6d, 0xba, 0x85, 0x3d, 0xe7, 0xa9, 0x12, 0x3d,
  0xfe, 0x2b, 0x3a, 0xbe, 0x75, 0x99, 0xfd, 0x3b, 0x4e, 0xf7, 0xdc, 0xbd,
  0xfe, 0xe9, 0x84, 0x3b, 0x9c, 0xfe, 0xb6, 0x3d, 0x82, 0xa1, 0x53, 0xbe,
  0x29, 0x59, 0x48, 0xbe, 0xe6, 0xc2, 0xe3, 0xbe, 0x76, 0x0a, 0x40, 0xbe,
  0x0a, 0x1f, 0x1c, 0x3c, 0xba, 0x2c, 0xa9, 0xbd, 0xb9, 0xd6, 0x2f, 0x3c,
  0x89, 0xea, 0x0d, 0x3e, 0xe2, 0xef, 0x7b, 0xbe, 0x8a, 0xad, 0x94, 0xbd,
  0xe5, 0x91, 0xa3, 0xbe, 0xd5, 0xf6, 0x30, 0xbb, 0x45, 0xe1, 0x26, 0xbd,
  0x57, 0x40, 0xd7, 0xbe, 0xc2, 0x4a, 0x34, 0x3e, 0x95, 0xe9, 0x59, 0x3d,
  0xc6, 0x83, 0x80, 0x3e, 0x28, 0xeb, 0xa5, 0xbd, 0x89, 0xa5, 0xe8, 0x3c,
  0xf3, 0x62, 0x5d, 0xbe, 0x32, 0x1f, 0xe1, 0xbd, 0x31, 0x0b, 0xcc, 0x3c,
  0x29, 0x78, 0x33, 0x3e, 0xce, 0x99, 0x4e, 0x3e, 0xf2, 0x82, 0x2b, 0xbc,
  0xe3, 0x1c, 0xcd, 0xbe, 0xd2, 0xee, 0xf8, 0xbd, 0x61, 0x7a, 0xdc, 0xbd,
  0x76, 0xef, 0xbb, 0xbe, 0xea, 0x9d, 0x55, 0xbe, 0xf1, 0x4d, 0x3f, 0xbe,
  0x7e, 0x72, 0x02, 0xbe, 0x59, 0xfa, 0x8e, 0xbd, 0xc2, 0xd3, 0x17, 0xbe,
  0x49, 0x66, 0x9f, 0xbe, 0xc9, 0xb5, 0xf4, 0xbe, 0xd4, 0x17, 0x80, 0x3c,
  0x35, 0x51, 0xb8, 0xbe, 0x31, 0xee, 0xf6, 0xbd, 0xf7, 0x2a, 0x4e, 0xbe,
  0x8e, 0xf2, 0x11, 0xbe, 0xb2, 0x7d, 0xd1, 0xbe, 0x66, 0xd7, 0x75, 0xbe,
  0x1a, 0x9b, 0x65, 0xbd, 0xe0, 0x51, 0x4f, 0x3d, 0xeb, 0xda, 0xd8, 0xbd,
  0xed, 0xb8, 0x80, 0xbe, 0xa8, 0x89, 0x17, 0x3e, 0x69, 0xd3, 0x46, 0xbd,
  0xf5, 0x41, 0x06, 0xbd, 0x77, 0xa0, 0xef, 0xbe, 0xd6, 0xff, 0xc5, 0xbc,
  0x00, 0xa6, 0x12, 0xbe, 0xf7, 0xb5, 0x2b, 0xbe, 0xf0, 0x63, 0xb1, 0xbd,
  0xd6, 0x9f, 0x11, 0xbd, 0x47, 0x84, 0x82, 0x3e, 0x39, 0x80, 0x5c, 0x3d,
  0x4a, 0x96, 0xa8, 0xbe, 0x7a, 0x10, 0x8e, 0xbe, 0x20, 0x57, 0xb1, 0xbd,
  0xc4, 0xbd, 0x88, 0x3c, 0x86, 0xfe, 0xac, 0x3e, 0x33, 0x40, 0x1e, 0xbd,
  0xf9, 0x7d, 0x15, 0xbc, 0x6b, 0x7b, 0x81, 0x3d, 0x5e, 0xa1, 0x6f, 0xbe,
  0x39, 0x15, 0x50, 0xbe, 0xe9, 0xce, 0x84, 0x3e, 0x2d, 0xb4, 0x0d, 0xba,
  0xab, 0x34, 0x39, 0x3d, 0x94, 0xa0, 0x89, 0x3d, 0x13, 0xdc, 0x8d, 0xbc,
  0x61, 0x34, 0x5c, 0xbe, 0x34, 0x29, 0x88, 0xbe, 0x88, 0xaf, 0xf0, 0x3d,
  0x6f, 0x25, 0x1e, 0xbe, 0xd4, 0x04, 0x16, 0xbe, 0x0c, 0x10, 0x74, 0xbe,
  0x31, 0xa9, 0xf5, 0xbd, 0x43, 0x05, 0x1a, 0xbe, 0xf4, 0x3b, 0xa7, 0xbe,
  0xe8, 0x71, 0x28, 0xbe, 0x7b, 0xd9, 0x3a, 0x3e, 0xaf, 0x01, 0x42, 0xbc,
  0xec, 0x5c, 0x7a, 0xbd, 0xac, 0xde, 0x1d, 0x3e, 0x5f, 0x28, 0xbe, 0xbc,
  0x14, 0xba, 0x36, 0x3e, 0x93, 0xb7, 0xff, 0xbd, 0x9c, 0xaf, 0xf8, 0xbd,
  0x5b, 0x52, 0x39, 0x3e, 0xe0, 0x6e, 0x8e, 0xbd, 0xe6, 0xcf, 0x83, 0xbe,
  0x06, 0x19, 0x67, 0xbe, 0xcf, 0x83, 0x35, 0xbe, 0x52, 0x27, 0x28, 0xbd,
  0x5a, 0x90, 0x8d, 0xbd, 0xfd, 0x3c, 0xdc, 0xbc, 0xf9, 0x8b, 0x80, 0x3d,
  0xa6, 0x83, 0x5a, 0xbe, 0x2b, 0xa6, 0x03, 0x3e, 0xb0, 0x69, 0x9e, 0x3d,
  0xda, 0xca, 0xe9, 0x3d, 0x74, 0xf2, 0x49, 0xbd, 0x03, 0xeb, 0xa6, 0xbe,
  0xc1, 0x0a, 0xeb, 0xbd, 0xaa, 0x63, 0x1d, 0x3d, 0x26, 0x0b, 0xb7, 0xbe,
  0x50, 0xa7, 0xbb, 0x3c, 0x6c, 0x13, 0x5c, 0xbe, 0x1c, 0xf5, 0x78, 0x3e,
  0xf3, 0x6a, 0x26, 0x3e, 0x83, 0x0f, 0x24, 0xbe, 0x67, 0x44, 0x2c, 0x3e,
  0xca, 0x9a, 0x6a, 0xbd, 0xa9, 0xd8, 0x02, 0xbd, 0x13, 0xe6, 0xa6, 0x3e,
  0x63, 0x26, 0x09, 0x3f, 0x3d, 0x46, 0x72, 0x3c, 0x56, 0xe6, 0x2e, 0x3e,
  0xfb, 0xd8, 0x12, 0xbe, 0x27, 0xbe, 0x5c, 0xbd, 0xaf, 0xb3, 0x39, 0x3d,
  0xba, 0x7b, 0xa6, 0xbe, 0xb5, 0xd2, 0x21, 0xbd, 0x21, 0xa7, 0x57, 0x3e,
  0xab, 0x32, 0x64, 0xbd, 0x9d, 0x81, 0x0a, 0xbe, 0xd5, 0x56, 0xa8, 0xbe,
  0x6f, 0xd6, 0x3e, 0xbe, 0xe3, 0x9f, 0x32, 0xbe, 0x19, 0x4e, 0x80, 0xbd,
  0xa0, 0x97, 0xbe, 0xbd, 0xa0, 0xdf, 0x3a, 0x3d, 0xa8, 0xad, 0xa4, 0xbd,
  0x7c, 0xdf, 0x3e, 0x3e, 0x5a, 0x29, 0xa0, 0x3d, 0x95, 0x42, 0xa5, 0xbd,
  0xc0, 0x09, 0x10, 0xbe, 0x67, 0x5e, 0xc9, 0x3d, 0xa9, 0x10, 0x0d, 0x3c,
  0xd9, 0xa1, 0x87, 0x3e, 0x25, 0x66, 0x96, 0x3e, 0x1c, 0xa1, 0xd4, 0x3d,
  0x24, 0x34, 0x09, 0x3d, 0x50, 0xc7, 0x76, 0xbd, 0x46, 0x20, 0x81, 0xbe,
  0x6d, 0x3d, 0x95, 0x3e, 0xb2, 0x72, 0x4f, 0x3e, 0xdd, 0x9b, 0x81, 0x3e,
  0xf3, 0xbd, 0xb7, 0xbd, 0x0e, 0x18, 0x3b, 0x3d, 0x91, 0x9e, 0x3e, 0xbd,
  0x90, 0xd2, 0x09, 0xbe, 0x50, 0xfd, 0x32, 0xbe, 0xe6, 0x5d, 0x52, 0xbe,
  0x09, 0x03, 0x03, 0xbd, 0x5d, 0x48, 0xf4, 0xbc, 0xaa, 0xc3, 0x30, 0xbd,
  0x61, 0x29, 0x80, 0x3e, 0xb1, 0xe0, 0xfb, 0xbd, 0xe2, 0xd1, 0x8d, 0xbe,
  0xcf, 0x41, 0x66, 0xbd, 0x93, 0x1b, 0x3e, 0xbe, 0x3e, 0x76, 0x20, 0x3e,
  0x59, 0x42, 0xaf, 0xbb, 0xe7, 0x33, 0xf2, 0x3d, 0x42, 0xb9, 0xdf, 0xbd,
  0x74, 0xe8, 0x37, 0x3d, 0x66, 0xbe, 0xa0, 0xbe, 0x22, 0x63, 0x8a, 0xbe,
  0xc6, 0xb7, 0x11, 0x3d, 0x1b, 0xe3, 0x4c, 0xbe, 0x4e, 0x28, 0xa6, 0x3d,
  0x7c, 0xfd, 0x24, 0xbe, 0x45, 0xde, 0x5c, 0x3e, 0xcd, 0xb4, 0x20, 0xbe,
  0xb9, 0x12, 0x59, 0xbd, 0xfe, 0xf8, 0x1b, 0xbe, 0xf8, 0x2f, 0x9b, 0xbd,
  0xfb, 0xff, 0x8d, 0xbc, 0x93, 0x3b, 0xa4, 0xbd, 0xce, 0x2e, 0x91, 0xbc,
  0xb8, 0x44, 0x06, 0x3e, 0xb9, 0xe9, 0x08, 0x3d, 0x13, 0x36, 0xc2, 0xbd,
  0x70, 0x99, 0xc7, 0xbe, 0x34, 0xb6, 0xa1, 0xbb, 0x3c, 0xd8, 0x37, 0xbd,
  0x31, 0x99, 0xf3, 0xbd, 0x93, 0x59, 0x80, 0x3e, 0x9b, 0xf4, 0xee, 0x3b,
  0x9e, 0x39, 0x90, 0xbe, 0xba, 0xb6, 0x85, 0xbd, 0x9f, 0x4f, 0x37, 0x3d,
  0xe3, 0x0a, 0x8b, 0xbe, 0xaf, 0xe0, 0x85, 0xbe, 0x5d, 0xc2, 0xd7, 0xbd,
  0x71, 0xcd, 0x8b, 0x3c, 0xdd, 0xa5, 0x26, 0x3e, 0x8c, 0x47, 0x05, 0x3e,
  0x78, 0xc3, 0xc8, 0x3c, 0x5b, 0x1e, 0x01, 0x3e, 0xf9, 0x4a, 0x71, 0xbe,
  0x7a, 0xe9, 0x23, 0x3a, 0xbb, 0x50, 0xb5, 0x3d, 0xc4, 0xe2, 0x34, 0x3e,
  0xcd, 0x19, 0xa3, 0x3d, 0x3d, 0xfa, 0x50, 0xbe, 0x18, 0xdd, 0xe5, 0x3c,
  0x38, 0x44, 0xb9, 0xbe, 0xa6, 0xca, 0xfa, 0x3d, 0x59, 0x38, 0xa7, 0xbb,
  0x73, 0x60, 0xd4, 0x3c, 0xfd, 0x07, 0x65, 0x3e, 0x3f, 0x91, 0xf9, 0x3c,
  0xe5, 0x15, 0x81, 0xbd, 0x6a, 0xbd, 0xfe, 0xbd, 0xba, 0x87, 0xec, 0xbb,
  0xcf, 0x68, 0x91, 0xbe, 0xb5, 0x61, 0x89, 0x3d, 0x94, 0xc1, 0x34, 0xbc,
  0xdf, 0xbd, 0x71, 0x3c, 0x4b, 0xb8, 0x64, 0xbd, 0x21, 0x35, 0x1a, 0x3d,
  0xec, 0xd7, 0x1e, 0xbe, 0x1f, 0xd7, 0x2a, 0xbe, 0xb6, 0x31, 0x9e, 0x3b,
  0x17, 0xac, 0xf9, 0xbd, 0x11, 0xed, 0xdb, 0x3d, 0x29, 0x8f, 0x17, 0x3e,
  0xc5, 0xf9, 0x33, 0x3c, 0x16, 0x08, 0x4e, 0xbd, 0xae, 0xe0, 0x9c, 0xbe,
  0x6d, 0x53, 0xa5, 0xbe, 0x0e, 0x43, 0xa3, 0xbc, 0x8f, 0x22, 0x53, 0x3c,
  0xdd, 0xc8, 0xe9, 0x3d, 0xd2, 0xad, 0xb6, 0xbd, 0x44, 0x25, 0x38, 0xbe,
  0xb8, 0x44, 0xc7, 0x3d, 0xa2, 0x55, 0x6d, 0xbd, 0x4f, 0x3f, 0x74, 0x3d,
  0x1b, 0x16, 0xba, 0x3d, 0x24, 0x91, 0x77, 0x3d, 0xbc, 0xff, 0x9d, 0x3d,
  0xe8, 0x2b, 0xb3, 0xbd, 0xdb, 0x1f, 0x54, 0x3d, 0xae, 0xf8, 0xff, 0xff,
  0x04, 0x00, 0x00, 0x00, 0x28, 0x00, 0x00, 0x00, 0xb9, 0xde, 0x01, 0x3f,
  0xe8, 0x02, 0xab, 0x3e, 0x27, 0xb1, 0x39, 0x3f, 0x28, 0x59, 0xaa, 0x3e,
  0xc9, 0xfa, 0xfb, 0x3e, 0x8b, 0x56, 0x80, 0x3e, 0x8d, 0x13, 0xd6, 0x3e,
  0x87, 0xe8, 0x24, 0x3f, 0x86, 0xff, 0x3f, 0x3e, 0x5b, 0x47, 0x8e, 0x3e,
  0xe2, 0xf8, 0xff, 0xff, 0x04, 0x00, 0x00, 0x00, 0x28, 0x00, 0x00, 0x00,
  0x8b, 0xbe, 0x29, 0xbe, 0xc2, 0x33, 0xf8, 0xbc, 0x68, 0xd6, 0x7d, 0x3e,
  0x37, 0x2b, 0x35, 0xbd, 0xa5, 0xbb, 0x1c, 0x3e, 0x39, 0xd2, 0x0e, 0x3d,
  0x19, 0x9a, 0xc5, 0x3d, 0xb5, 0xbc, 0x6f, 0xbe, 0xfb, 0x0a, 0x83, 0x3d,
  0xfb, 0x1e, 0x0b, 0xbc, 0x16, 0xf9, 0xff, 0xff, 0x04, 0x00, 0x00, 0x00,
  0x28, 0x00, 0x00, 0x00, 0xb3, 0xce, 0x93, 0x3f, 0x0c, 0x79, 0x86, 0x3f,
  0xa8, 0xeb, 0xa7, 0x3f, 0xa5, 0xd5, 0x87, 0x3f, 0x38, 0xee, 0x9b, 0x3f,
  0x60, 0x62, 0x88, 0x3f, 0x90, 0x7c, 0x9a, 0x3f, 0xfe, 0x3d, 0x96, 0x3f,
  0xaa, 0x23, 0x96, 0x3f, 0x41, 0x69, 0x95, 0x3f, 0x4a, 0xf9, 0xff, 0xff,
  0x04, 0x00, 0x00, 0x00, 0x28, 0x00, 0x00, 0x00, 0xc4, 0x1b, 0xbf, 0x3e,
  0x59, 0x54, 0x5c, 0x3e, 0xff, 0x1d, 0x1a, 0x3f, 0x72, 0xd3, 0x9f, 0x3e,
  0x4b, 0x35, 0xc0, 0x3e, 0xd2, 0xef, 0x7c, 0x3d, 0x17, 0xd7, 0xb5, 0x3e,
  0x1d, 0xfa, 0xa8, 0x3e, 0x49, 0x2c, 0x95, 0x3e, 0xb1, 0x34, 0x51, 0x3e,
  0x7e, 0xf9, 0xff, 0xff, 0x04, 0x00, 0x00, 0x00, 0x90, 0x01, 0x00, 0x00,
  0xa7, 0x9b, 0x90, 0xbe, 0x05, 0xef, 0x11, 0xbe, 0x97, 0x5b, 0x23, 0x3e,
  0x76, 0xa1, 0xa5, 0xbd, 0x76, 0x80, 0xc3, 0x3e, 0x0c, 0x62, 0xce, 0xbe,
  0xfb, 0xa1, 0x5a, 0xbe, 0xfe, 0x53, 0x48, 0xbe, 0x7c, 0x92, 0x0c, 0xba,
  0x50, 0x26, 0x04, 0x3e, 0x17, 0xc4, 0x9d, 0xbc, 0x9c, 0x0d, 0x3c, 0x3e,
  0xd2, 0x03, 0xf2, 0xbb, 0xa1, 0x80, 0x53, 0xbe, 0x53, 0x9c, 0x4e, 0xbe,
  0xa9, 0x4a, 0xd3, 0xbd, 0x4f, 0x17, 0x8e, 0xbe, 0x1c, 0x1d, 0xe2, 0x3d,
  0xb5, 0xf8, 0xb1, 0xbd, 0xb8, 0xe8, 0x0c, 0x3d, 0xfa, 0xe2, 0x71, 0x3c,
  0x85, 0xe0, 0x14, 0x3e, 0x53, 0xb6, 0x0f, 0x3f, 0x5a, 0x63, 0x54, 0xbe,
  0xd2, 0xc5, 0x1f, 0x3f, 0xa8, 0xbf, 0xb8, 0xbe, 0x62, 0x06, 0xcb, 0x3e,
  0x70, 0xc4, 0x99, 0xbe, 0x54, 0x91, 0xd0, 0xbb, 0xe4, 0x2a, 0x0a, 0x3f,
  0xdf, 0x89, 0x4f, 0xbd, 0x74, 0x2f, 0x0a, 0xbe, 0x07, 0xbe, 0xc0, 0x3e,
  0xcb, 0x96, 0x15, 0xbf, 0xc3, 0x4e, 0x5d, 0x3e, 0x9e, 0xbb, 0x0e, 0xbe,
  0xb6, 0xa1, 0x47, 0x3d, 0x01, 0x41, 0x26, 0xbd, 0xca, 0xdd, 0x66, 0xbe,
  0xa1, 0x75, 0xd3, 0xbc, 0x84, 0x4b, 0x05, 0xbf, 0xdf, 0xa0, 0x44, 0xbe,
  0x7a, 0x1a, 0x3b, 0x3f, 0xb0, 0x14, 0x74, 0xbe, 0x4f, 0x86, 0x6e, 0x3e,
  0xd8, 0xe2, 0xa0, 0x3e, 0x1d, 0x87, 0xd0, 0xbd, 0xbf, 0x64, 0xa2, 0xbe,
  0x06, 0xbc, 0x53, 0x3e, 0x5a, 0xcd, 0x28, 0xbe, 0x46, 0xcf, 0x6c, 0x3c,
  0x0c, 0xf7, 0xbd, 0x3e, 0x13, 0x05, 0x3e, 0x3e, 0x4a, 0xcc, 0x61, 0xbd,
  0x28, 0x1c, 0xb5, 0xbc, 0xe5, 0x82, 0x1f, 0xbe, 0x45, 0x44, 0x38, 0xbd,
  0x3c, 0xf7, 0x2c, 0xbf, 0x60, 0x1d, 0x87, 0x3e, 0x88, 0x81, 0x7d, 0xbe,
  0xfe, 0x62, 0x6b, 0xbc, 0xfc, 0x9f, 0x38, 0xbe, 0xeb, 0xe6, 0x0b, 0x3f,
  0x25, 0xf8, 0x92, 0xbe, 0xaa, 0x75, 0x8c, 0xbe, 0x63, 0x56, 0x9a, 0xbe,
  0x6c, 0x6a, 0x82, 0x3d, 0x91, 0x17, 0xc3, 0xbc, 0x37, 0x63, 0xd9, 0x3c,
  0xcc, 0x17, 0xba, 0x3e, 0xc8, 0x8f, 0x52, 0xbe, 0xb8, 0x47, 0x1b, 0xbf,
  0x8b, 0x07, 0xe1, 0x3e, 0x99, 0xea, 0xb1, 0x3e, 0xc7, 0xc1, 0x12, 0x3f,
  0xd6, 0x42, 0xb4, 0xbe, 0x3f, 0x07, 0x93, 0xbe, 0xc2, 0x54, 0xff, 0xbe,
  0x51, 0x37, 0x1f, 0x3e, 0xef, 0x4a, 0x4a, 0xbe, 0x36, 0x2e, 0x02, 0xbd,
  0x52, 0xad, 0x0a, 0x3e, 0x55, 0x23, 0x19, 0x3e, 0x5c, 0xc5, 0x12, 0xbe,
  0x95, 0x4b, 0x81, 0x3e, 0x57, 0x76, 0x88, 0xbd, 0xda, 0x99, 0xa8, 0xbe,
  0x9c, 0xca, 0x93, 0x3e, 0x0e, 0x80, 0x06, 0xbd, 0x37, 0xdc, 0x3c, 0x3d,
  0x03, 0x5e, 0x6d, 0xbe, 0xeb, 0xaf, 0x8a, 0x3d, 0xcd, 0x0f, 0x0f, 0x3f,
  0x6e, 0x6b, 0x6a, 0xbe, 0x43, 0xb3, 0xc3, 0x3e, 0x1a, 0x24, 0x50, 0x3e,
  0xfa, 0xd3, 0x11, 0x3e, 0xb4, 0x39, 0x8f, 0x3d, 0x1d, 0x09, 0x47, 0xbd,
  0xa3, 0x22, 0x00, 0xbe, 0x1a, 0xfb, 0xff, 0xff, 0x04, 0x00, 0x00, 0x00,
  0x90, 0x01, 0x00, 0x00, 0x8a, 0x14, 0x0b, 0x3e, 0x41, 0x78, 0x17, 0xbf,
  0x15, 0x7e, 0x4e, 0x3e, 0x0a, 0xb2, 0xbf, 0x3e, 0xbb, 0x2f, 0xda, 0xbd,
  0xf8, 0x4b, 0xc4, 0x3d, 0x31, 0x2f, 0x9c, 0xbe, 0x4b, 0x32, 0x8c, 0x3e,
  0xed, 0x29, 0x84, 0x3e, 0xae, 0x89, 0xbb, 0xbe, 0x48, 0xb0, 0x79, 0xbd,
  0x23, 0xf1, 0xa1, 0x3d, 0x77, 0x79, 0x3c, 0x3c, 0xd3, 0x6b, 0xef, 0xbb,
  0x43, 0x4a, 0x92, 0x3d, 0x8f, 0x81, 0x4e, 0xbe, 0x64, 0x6d, 0xc7, 0x3d,
  0xd8, 0x2f, 0x0d, 0xbe, 0x43, 0xbb, 0x7f, 0xbe, 0xf6, 0xa3, 0xf2, 0x3d,
  0xf3, 0x41, 0x1c, 0xbf, 0x6c, 0x3d, 0x9b, 0x3e, 0x6a, 0x11, 0xf9, 0x3d,
  0xb8, 0x58, 0xcc, 0xbe, 0x0d, 0x07, 0xd6, 0x3d, 0xad, 0xe4, 0x9a, 0xbe,
  0x61, 0x51, 0xc9, 0x3e, 0xd4, 0x81, 0x88, 0xbe, 0x87, 0xce, 0xa5, 0xbd,
  0x6c, 0x42, 0x90, 0x3e, 0x96, 0xe7, 0xd2, 0x3e, 0x31, 0xbf, 0x1a, 0xbf,
  0xd6, 0x53, 0x99, 0x3d, 0xb8, 0x2b, 0x5f, 0xbc, 0xec, 0x00, 0x57, 0xbe,
  0x42, 0x22, 0x41, 0x3e, 0xb2, 0x98, 0x37, 0x3e, 0xb3, 0xe1, 0x83, 0x3e,
  0xdc, 0xee, 0xae, 0x3e, 0xbf, 0x3f, 0xcb, 0xbe, 0xf4, 0xc6, 0xf3, 0xbd,
  0xc4, 0x50, 0xad, 0x3e, 0x3b, 0xd0, 0xc3, 0x3e, 0x5d, 0xfe, 0x3f, 0xbd,
  0x88, 0xe9, 0x8c, 0x3e, 0x4b, 0x10, 0xd9, 0xbe, 0xf1, 0x1c, 0x7a, 0x3e,
  0xc9, 0x0f, 0x8c, 0xbe, 0x72, 0xaf, 0x9a, 0xbe, 0x4b, 0x90, 0xaf, 0x3e,
  0xc8, 0xfc, 0xa4, 0xbe, 0xcc, 0xb9, 0x36, 0x3e, 0x86, 0x28, 0x23, 0xbe,
  0x71, 0x1d, 0x12, 0xbe, 0x0c, 0x07, 0xbd, 0x3b, 0x8c, 0xb3, 0xb3, 0x3c,
  0x40, 0x54, 0xc3, 0x3d, 0x32, 0xdf, 0x0d, 0x3e, 0x5b, 0xc5, 0x15, 0x3c,
  0x06, 0xf5, 0x7c, 0xbc, 0xc1, 0xec, 0x92, 0x3d, 0xa1, 0x82, 0xf0, 0x3e,
  0x76, 0x85, 0xa8, 0xbd, 0x5e, 0x56, 0xf3, 0xbe, 0x38, 0xfb, 0x2a, 0xbd,
  0x84, 0xf9, 0xba, 0xbe, 0xaa, 0x00, 0xe6, 0xbc, 0xf5, 0x0b, 0x4e, 0xbe,
  0x54, 0xd1, 0x8a, 0xbe, 0xda, 0xff, 0xfc, 0x3e, 0x5e, 0xac, 0x8b, 0x3e,
  0xbd, 0xef, 0x13, 0xbf, 0x66, 0xa5, 0xb8, 0xbe, 0xe3, 0x0f, 0xb0, 0x3e,
  0x7e, 0x17, 0x40, 0xbe, 0xa9, 0x89, 0x19, 0x3f, 0x4d, 0x93, 0xf2, 0xbe,
  0x0a, 0x50, 0x0a, 0xbe, 0x61, 0xf4, 0xdc, 0xbd, 0xac, 0x53, 0x9d, 0xbe,
  0x39, 0x57, 0x92, 0x3d, 0x36, 0x7e, 0x84, 0xbe, 0x28, 0x19, 0xd4, 0x3d,
  0x4a, 0x69, 0x03, 0xbe, 0xd6, 0xf5, 0x43, 0xbe, 0x29, 0x80, 0xe6, 0x3e,
  0x9e, 0x2e, 0xd7, 0x3c, 0xcd, 0xef, 0x91, 0xbc, 0x29, 0x9c, 0x03, 0x3e,
  0x59, 0x4d, 0x62, 0xbe, 0x18, 0x6a, 0x0c, 0xbc, 0x09, 0x4e, 0x35, 0x3e,
  0x95, 0xe7, 0x93, 0xbd, 0x79, 0x7c, 0xea, 0xbc, 0xdb, 0x3a, 0xbe, 0x3e,
  0x32, 0x4a, 0xac, 0xbe, 0x07, 0xa0, 0x68, 0x3d, 0xad, 0x3d, 0x17, 0xbe,
  0x72, 0xc6, 0x14, 0xbc, 0x35, 0xf3, 0x37, 0x3e, 0xb6, 0xfc, 0xff, 0xff,
  0x04, 0x00, 0x00, 0x00, 0x90, 0x01, 0x00, 0x00, 0x6f, 0xf8, 0x50, 0xbd,
  0x19, 0xa8, 0x61, 0xbd, 0x79, 0x4a, 0x67, 0x3e, 0x83, 0xe0, 0x76, 0xbe,
  0xf7, 0x96, 0x99, 0x3e, 0x1b, 0xa8, 0xd3, 0xbc, 0x00, 0x38, 0x33, 0x3c,
  0x72, 0x67, 0xb8, 0xbd, 0xd5, 0xc5, 0x00, 0x3e, 0xb8, 0x5d, 0x27, 0xbe,
  0x48, 0xa1, 0xe4, 0xbd, 0x4e, 0xf4, 0xaf, 0xbd, 0x24, 0x0b, 0xb3, 0xbe,
  0x53, 0x74, 0x13, 0x3e, 0xbf, 0x76, 0x3a, 0x3e, 0xa4, 0x9d, 0xe4, 0x3d,
  0xa7, 0xde, 0x50, 0x3d, 0x8a, 0xae, 0x68, 0x3e, 0x22, 0x8e, 0x50, 0xbd,
  0xd0, 0x0a, 0x51, 0xbd, 0xbf, 0xc1, 0xa4, 0xbe, 0x7e, 0xc7, 0x8a, 0xbe,
  0x67, 0xfc, 0xd3, 0x3d, 0x97, 0x0e, 0xbd, 0xbd, 0x93, 0xb6, 0xd6, 0x3e,
  0x80, 0x9e, 0x01, 0xbc, 0xe5, 0x8d, 0x2e, 0x3e, 0x6a, 0x5e, 0x84, 0x3d,
  0x2c, 0x2a, 0xa0, 0x3e, 0x06, 0xa3, 0xdd, 0x3e, 0x9f, 0xf9, 0x04, 0x3e,
  0xab, 0x6f, 0x31, 0xbd, 0x20, 0x03, 0x04, 0x3e, 0x2f, 0xe8, 0xaa, 0xbd,
  0x46, 0x7c, 0x2e, 0x3e, 0xeb, 0x31, 0x86, 0x3e, 0x80, 0x31, 0xab, 0x3c,
  0xc8, 0x2e, 0x0c, 0x3d, 0x35, 0x6c, 0x83, 0xbd, 0x60, 0xbc, 0x06, 0x3d,
  0xe0, 0x42, 0xcd, 0xbd, 0x8e, 0x89, 0xdd, 0x3d, 0x99, 0x2e, 0x3b, 0xbd,
  0xbb, 0x02, 0x6e, 0xbd, 0xf5, 0x09, 0x3d, 0x3e, 0x23, 0x64, 0x06, 0xbd,
  0xb4, 0xf2, 0x08, 0x3e, 0x19, 0xee, 0xf7, 0x3d, 0x59, 0x5c, 0x95, 0xbd,
  0x57, 0xb5, 0x8a, 0xbe, 0xa7, 0x94, 0x68, 0xbd, 0x40, 0x4a, 0x1b, 0x3e,
  0x32, 0xb8, 0x7c, 0xbd, 0x32, 0x35, 0x58, 0x3e, 0xa3, 0x3d, 0xdd, 0xbc,
  0x44, 0x9c, 0x0f, 0xbd, 0x56, 0x7e, 0x2f, 0x3d, 0x9c, 0x01, 0x1b, 0x3d,
  0x8d, 0x47, 0x9d, 0x3c, 0x95, 0xd5, 0x46, 0xbe, 0x9e, 0x21, 0x72, 0xbc,
  0x41, 0x58, 0x53, 0xbe, 0xa7, 0x98, 0x57, 0x3d, 0xb2, 0x67, 0xa0, 0xbe,
  0x36, 0xa9, 0xc5, 0xbd, 0xaa, 0x44, 0xad, 0xbd, 0x2f, 0x44, 0x67, 0xbd,
  0xa0, 0x92, 0x43, 0x3d, 0xf2, 0x2a, 0xf4, 0x3c, 0xad, 0x55, 0x5a, 0xbc,
  0x4e, 0x6e, 0xa7, 0x3c, 0xc4, 0x93, 0xa0, 0xbe, 0xde, 0x2e, 0x8c, 0xbd,
  0xd9, 0x34, 0xd4, 0x3d, 0x74, 0xc8, 0x05, 0x3e, 0x18, 0xc3, 0x07, 0xbc,
  0x15, 0xd4, 0x41, 0x3d, 0x88, 0x77, 0x96, 0xbd, 0x69, 0x2a, 0x9d, 0x3e,
  0x8b, 0xde, 0xe2, 0x3b, 0x0e, 0x8a, 0x7a, 0xbe, 0xaa, 0xea, 0xf4, 0x3c,
  0x63, 0xbf, 0x21, 0x3e, 0xd4, 0xa8, 0xb0, 0xbe, 0x79, 0x3c, 0x27, 0xbe,
  0xe1, 0x72, 0xb5, 0x3e, 0x23, 0x60, 0x3b, 0x3e, 0x5e, 0x69, 0x3d, 0xbe,
  0x6d, 0xdf, 0x83, 0x3e, 0x68, 0x8e, 0x28, 0xbe, 0x60, 0xc3, 0x4b, 0xbd,
  0x80, 0x6d, 0x02, 0x3e, 0xd3, 0x23, 0x0d, 0xbe, 0x05, 0xe8, 0xfc, 0xbd,
  0xaf, 0x28, 0xd0, 0xbd, 0x5d, 0xaa, 0xda, 0x3e, 0x61, 0xf6, 0x78, 0x3e,
  0x8d, 0xdb, 0x3f, 0xbe, 0xac, 0x6f, 0x31, 0x3e, 0x1f, 0x4c, 0x4c, 0xbe,
  0x52, 0xfe, 0xff, 0xff, 0x04, 0x00, 0x00, 0x00, 0x90, 0x01, 0x00, 0x00,
  0x50, 0x26, 0x12, 0xbe, 0x45, 0x0a, 0x8a, 0xbe, 0x42, 0xfc, 0x27, 0x3e,
  0x71, 0x83, 0x3b, 0x3d, 0xc4, 0x31, 0x33, 0x3f, 0x6b, 0xb9, 0x83, 0x3e,
  0xdc, 0xff, 0x65, 0xbe, 0x5c, 0x06, 0x21, 0xbe, 0x56, 0x1e, 0x92, 0x3e,
  0xa2, 0x6e, 0x84, 0xbe, 0x0b, 0x78, 0xa1, 0xbc, 0xe9, 0x90, 0x8e, 0xbd,
  0xab, 0x35, 0xe4, 0xbe, 0xfd, 0xfd, 0x4a, 0x3e, 0x83, 0xaf, 0x81, 0x3e,
  0x60, 0xee, 0x9d, 0xbe, 0xe9, 0x37, 0xdf, 0xbd, 0x61, 0xbd, 0x68, 0xbe,
  0x26, 0x50, 0xba, 0xbd, 0x85, 0x32, 0x52, 0x3e, 0xf8, 0x87, 0x2d, 0xbe,
  0x2d, 0x0f, 0x37, 0xbc, 0x3c, 0xb5, 0x42, 0x3f, 0x6c, 0x86, 0x20, 0x3c,
  0x70, 0x1d, 0x80, 0x3e, 0x27, 0xe5, 0x0e, 0xbe, 0x2f, 0x2b, 0xc5, 0x3d,
  0xe5, 0x75, 0xaf, 0xbc, 0x6d, 0x52, 0x8e, 0x3e, 0x8a, 0x4f, 0xa5, 0xbe,
  0xbb, 0x21, 0x59, 0xbd, 0x81, 0x0c, 0xa1, 0x3e, 0x82, 0x1a, 0x6a, 0xbc,
  0x7f, 0xac, 0xd8, 0x3c, 0xbd, 0x6e, 0x8c, 0x3e, 0x5f, 0x4c, 0x31, 0xbd,
  0x11, 0xc7, 0x9a, 0x3c, 0xf9, 0xc2, 0xde, 0xb9, 0xb9, 0xa8, 0x78, 0x3c,
  0x7e, 0x42, 0x98, 0x3e, 0x10, 0x8f, 0x0d, 0x3e, 0x12, 0x13, 0xa7, 0xbe,
  0x32, 0xda, 0x1c, 0x3f, 0x49, 0x96, 0x55, 0xbc, 0x44, 0xcc, 0xe6, 0xbc,
  0xd1, 0xfd, 0x0d, 0xbd, 0x1e, 0x4d, 0x09, 0x3f, 0xf6, 0xed, 0xf1, 0xbe,
  0x53, 0x93, 0xb4, 0x3e, 0xb2, 0xd1, 0xad, 0xbd, 0xe5, 0x20, 0xa3, 0xbe,
  0xde, 0x47, 0x65, 0x3e, 0x11, 0xb6, 0x3a, 0xbd, 0xeb, 0xb0, 0xe7, 0x3d,
  0xbb, 0x76, 0x95, 0x3d, 0x2a, 0xbe, 0x5e, 0xbb, 0x52, 0xe2, 0x87, 0x3e,
  0x2a, 0x5e, 0x9e, 0x3c, 0x15, 0x75, 0xc0, 0xbc, 0x68, 0x9c, 0x08, 0x3d,
  0x59, 0x00, 0x63, 0x3e, 0xe1, 0x53, 0xef, 0xbc, 0xd2, 0x6b, 0xf9, 0xbd,
  0xa9, 0x9c, 0x9f, 0xbe, 0xb3, 0x51, 0x1f, 0x3e, 0x9e, 0xc3, 0xfb, 0xbd,
  0xf9, 0x02, 0xca, 0xbd, 0x19, 0xb2, 0x1b, 0xbe, 0xeb, 0xc3, 0xca, 0x3d,
  0x76, 0x26, 0x31, 0xbe, 0x68, 0x0e, 0x18, 0xbe, 0xac, 0x0c, 0xd5, 0xbe,
  0xe0, 0x49, 0x07, 0x3f, 0xcb, 0x42, 0x9a, 0x3e, 0x0f, 0x24, 0x58, 0xbb,
  0x79, 0x8c, 0xe0, 0xbd, 0xf9, 0x0b, 0x8d, 0xbe, 0xd7, 0x04, 0x2a, 0xbe,
  0x1f, 0xcd, 0xf4, 0x3d, 0x9f, 0x32, 0x86, 0xbe, 0xdb, 0x59, 0x45, 0xbe,
  0x9b, 0x58, 0x9c, 0xbd, 0xb2, 0xac, 0x0a, 0xbc, 0x40, 0xa4, 0x02, 0x3e,
  0x14, 0x2c, 0x20, 0x3d, 0xd1, 0x6b, 0x77, 0xbe, 0xf3, 0x47, 0x50, 0x3e,
  0x10, 0x7e, 0xa9, 0xbe, 0x0d, 0x62, 0xe3, 0xbd, 0xd2, 0x76, 0x81, 0x3d,
  0x8d, 0xd1, 0x9b, 0xbe, 0x55, 0x15, 0xa9, 0x3e, 0xbd, 0xdc, 0xb9, 0x3d,
  0xa2, 0x22, 0xd8, 0xbd, 0x99, 0x48, 0xc8, 0x3e, 0xf3, 0xe0, 0xf0, 0xbc,
  0x52, 0xbe, 0xb5, 0x3c, 0xc6, 0xec, 0xf2, 0xbe, 0x62, 0xc5, 0xa9, 0x3e,
  0x68, 0x3c, 0xb6, 0xbc, 0xee, 0xff, 0xff, 0xff, 0x04, 0x00, 0x00, 0x00,
  0x04, 0x00, 0x00, 0x00, 0x41, 0x0c, 0x4e, 0xbe, 0x00, 0x00, 0x06, 0x00,
  0x08, 0x00, 0x04, 0x00, 0x06, 0x00, 0x00, 0x00, 0x04, 0x00, 0x00, 0x00,
  0x28, 0x00, 0x00, 0x00, 0x00, 0x00, 0x00, 0x00, 0x00, 0x00, 0x00, 0x00,
  0x00, 0x00, 0x00, 0x00, 0x00, 0x00, 0x00, 0x00, 0x00, 0x00, 0x00, 0x00,
  0x00, 0x00, 0x00, 0x00, 0x00, 0x00, 0x00, 0x00, 0x00, 0x00, 0x00, 0x00,
  0x00, 0x00, 0x00, 0x00, 0x00, 0x00, 0x00, 0x00, 0x70, 0xf7, 0xff, 0xff,
  0x74, 0xf7, 0xff, 0xff, 0x0f, 0x00, 0x00, 0x00, 0x4d, 0x4c, 0x49, 0x52,
  0x20, 0x43, 0x6f, 0x6e, 0x76, 0x65, 0x72, 0x74, 0x65, 0x64, 0x2e, 0x00,
  0x01, 0x00, 0x00, 0x00, 0x14, 0x00, 0x00, 0x00, 0x00, 0x00, 0x0e, 0x00,
  0x18, 0x00, 0x14, 0x00, 0x10, 0x00, 0x0c, 0x00, 0x08, 0x00, 0x04, 0x00,
  0x0e, 0x00, 0x00, 0x00, 0x14, 0x00, 0x00, 0x00, 0x1c, 0x00, 0x00, 0x00,
  0xa4, 0x01, 0x00, 0x00, 0xa8, 0x01, 0x00, 0x00, 0xac, 0x01, 0x00, 0x00,
  0x04, 0x00, 0x00, 0x00, 0x6d, 0x61, 0x69, 0x6e, 0x00, 0x00, 0x00, 0x00,
  0x04, 0x00, 0x00, 0x00, 0xec, 0x00, 0x00, 0x00, 0x7c, 0x00, 0x00, 0x00,
  0x34, 0x00, 0x00, 0x00, 0x10, 0x00, 0x00, 0x00, 0x00, 0x00, 0x0a, 0x00,
  0x10, 0x00, 0x0c, 0x00, 0x08, 0x00, 0x04, 0x00, 0x0a, 0x00, 0x00, 0x00,
  0x0c, 0x00, 0x00, 0x00, 0x10, 0x00, 0x00, 0x00, 0x03, 0x00, 0x00, 0x00,
  0x01, 0x00, 0x00, 0x00, 0x17, 0x00, 0x00, 0x00, 0x01, 0x00, 0x00, 0x00,
  0x16, 0x00, 0x00, 0x00, 0xca, 0xff, 0xff, 0xff, 0x14, 0x00, 0x00, 0x00,
  0x00, 0x00, 0x00, 0x08, 0x10, 0x00, 0x00, 0x00, 0x14, 0x00, 0x00, 0x00,
  0x02, 0x00, 0x00, 0x00, 0x20, 0xf8, 0xff, 0xff, 0x01, 0x00, 0x00, 0x00,
  0x16, 0x00, 0x00, 0x00, 0x03, 0x00, 0x00, 0x00, 0x15, 0x00, 0x00, 0x00,
  0x0f, 0x00, 0x00, 0x00, 0x02, 0x00, 0x00, 0x00, 0x00, 0x00, 0x0e, 0x00,
  0x1a, 0x00, 0x14, 0x00, 0x10, 0x00, 0x0c, 0x00, 0x0b, 0x00, 0x04, 0x00,
  0x0e, 0x00, 0x00, 0x00, 0x24, 0x00, 0x00, 0x00, 0x00, 0x00, 0x00, 0x20,
  0x2c, 0x00, 0x00, 0x00, 0x30, 0x00, 0x00, 0x00, 0x01, 0x00, 0x00, 0x00,
  0x00, 0x00, 0x0e, 0x00, 0x10, 0x00, 0x0c, 0x00, 0x08, 0x00, 0x00, 0x00,
  0x00, 0x00, 0x04, 0x00, 0x0e, 0x00, 0x00, 0x00, 0x02, 0x00, 0x00, 0x00,
  0x05, 0x00, 0x00, 0x00, 0x05, 0x00, 0x00, 0x00, 0x01, 0x00, 0x00, 0x00,
  0x15, 0x00, 0x00, 0x00, 0x04, 0x00, 0x00, 0x00, 0x14, 0x00, 0x00, 0x00,
  0x10, 0x00, 0x00, 0x00, 0x11, 0x00, 0x00, 0x00, 0x12, 0x00, 0x00, 0x00,
  0x00, 0x00, 0x16, 0x00, 0x18, 0x00, 0x00, 0x00, 0x14, 0x00, 0x10, 0x00,
  0x0f, 0x00, 0x08, 0x00, 0x00, 0x00, 0x00, 0x00, 0x00, 0x00, 0x04, 0x00,
  0x16, 0x00, 0x00, 0x00, 0x14, 0x00, 0x00, 0x00, 0x1c, 0x00, 0x00, 0x00,
  0x00, 0x00, 0x00, 0x47, 0x20, 0x00, 0x00, 0x00, 0x24, 0x00, 0x00, 0x00,
  0x00, 0x00, 0x00, 0x00, 0x08, 0x00, 0x0c, 0x00, 0x0b, 0x00, 0x04, 0x00,
  0x08, 0x00, 0x00, 0x00, 0x00, 0x00, 0x20, 0x41, 0x00, 0x00, 0x00, 0x04,
  0x01, 0x00, 0x00, 0x00, 0x14, 0x00, 0x00, 0x00, 0x18, 0x00, 0x00, 0x00,
  0x00, 0x00, 0x00, 0x00, 0x0b, 0x00, 0x00, 0x00, 0x0c, 0x00, 0x00, 0x00,
  0x0d, 0x00, 0x00, 0x00, 0x0e, 0x00, 0x00, 0x00, 0x03, 0x00, 0x00, 0x00,
  0x04, 0x00, 0x00, 0x00, 0x05, 0x00, 0x00, 0x00, 0x06, 0x00, 0x00, 0x00,
  0xff, 0xff, 0xff, 0xff, 0xff, 0xff, 0xff, 0xff, 0xff, 0xff, 0xff, 0xff,
  0x07, 0x00, 0x00, 0x00, 0x08, 0x00, 0x00, 0x00, 0x09, 0x00, 0x00, 0x00,
  0x0a, 0x00, 0x00, 0x00, 0xff, 0xff, 0xff, 0xff, 0xff, 0xff, 0xff, 0xff,
  0x01, 0x00, 0x00, 0x00, 0x13, 0x00, 0x00, 0x00, 0xff, 0xff, 0xff, 0xff,
  0xff, 0xff, 0xff, 0xff, 0xff, 0xff, 0xff, 0xff, 0xff, 0xff, 0xff, 0xff,
  0x01, 0x00, 0x00, 0x00, 0x17, 0x00, 0x00, 0x00, 0x01, 0x00, 0x00, 0x00,
  0x00, 0x00, 0x00, 0x00, 0x18, 0x00, 0x00, 0x00, 0x80, 0x06, 0x00, 0x00,
  0x24, 0x06, 0x00, 0x00, 0xb8, 0x05, 0x00, 0x00, 0x78, 0x05, 0x00, 0x00,
  0x38, 0x05, 0x00, 0x00, 0xf8, 0x04, 0x00, 0x00, 0xb8, 0x04, 0x00, 0x00,
  0x7c, 0x04, 0x00, 0x00, 0x40, 0x04, 0x00, 0x00, 0x04, 0x04, 0x00, 0x00,
  0xc8, 0x03, 0x00, 0x00, 0x88, 0x03, 0x00, 0x00, 0x48, 0x03, 0x00, 0x00,
  0x04, 0x03, 0x00, 0x00, 0xc0, 0x02, 0x00, 0x00, 0x78, 0x02, 0x00, 0x00,
  0x34, 0x02, 0x00, 0x00, 0xd8, 0x01, 0x00, 0x00, 0x94, 0x01, 0x00, 0x00,
  0x50, 0x01, 0x00, 0x00, 0xf8, 0x00, 0x00, 0x00, 0xb4, 0x00, 0x00, 0x00,
  0x50, 0x00, 0x00, 0x00, 0x04, 0x00, 0x00, 0x00, 0xf6, 0xf9, 0xff, 0xff,
  0x00, 0x00, 0x00, 0x01, 0x10, 0x00, 0x00, 0x00, 0x10, 0x00, 0x00, 0x00,
  0x18, 0x00, 0x00, 0x00, 0x28, 0x00, 0x00, 0x00, 0xe0, 0xf9, 0xff, 0xff,
  0x19, 0x00, 0x00, 0x00, 0x53, 0x74, 0x61, 0x74, 0x65, 0x66, 0x75, 0x6c,
  0x50, 0x61, 0x72, 0x74, 0x69, 0x74, 0x69, 0x6f, 0x6e, 0x65, 0x64, 0x43,
  0x61, 0x6c, 0x6c, 0x3a, 0x30, 0x00, 0x00, 0x00, 0x02, 0x00, 0x00, 0x00,
  0x01, 0x00, 0x00, 0x00, 0x01, 0x00, 0x00, 0x00, 0x3e, 0xfa, 0xff, 0xff,
  0x00, 0x00, 0x00, 0x01, 0x10, 0x00, 0x00, 0x00, 0x10, 0x00, 0x00, 0x00,
  0x17, 0x00, 0x00, 0x00, 0x40, 0x00, 0x00, 0x00, 0x28, 0xfa, 0xff, 0xff,
  0x30, 0x00, 0x00, 0x00, 0x73, 0x65, 0x71, 0x75, 0x65, 0x6e, 0x74, 0x69,
  0x61, 0x6c, 0x2f, 0x64, 0x65, 0x6e, 0x73, 0x65, 0x2f, 0x4d, 0x61, 0x74,
  0x4d, 0x75, 0x6c, 0x3b, 0x73, 0x65, 0x71, 0x75, 0x65, 0x6e, 0x74, 0x69,
  0x61, 0x6c, 0x2f, 0x64, 0x65, 0x6e, 0x73, 0x65, 0x2f, 0x42, 0x69, 0x61,
  0x73, 0x41, 0x64, 0x64, 0x00, 0x00, 0x00, 0x00, 0x02, 0x00, 0x00, 0x00,
  0x01, 0x00, 0x00, 0x00, 0x01, 0x00, 0x00, 0x00, 0x9e, 0xfa, 0xff, 0xff,
  0x00, 0x00, 0x00, 0x01, 0x10, 0x00, 0x00, 0x00, 0x10, 0x00, 0x00, 0x00,
  0x16, 0x00, 0x00, 0x00, 0x20, 0x00, 0x00, 0x00, 0x88, 0xfa, 0xff, 0xff,
  0x11, 0x00, 0x00, 0x00, 0x74, 0x66, 0x6c, 0x2e, 0x73, 0x74, 0x72, 0x69,
  0x64, 0x65, 0x64, 0x5f, 0x73, 0x6c, 0x69, 0x63, 0x65, 0x00, 0x00, 0x00,
  0x02, 0x00, 0x00, 0x00, 0x01, 0x00, 0x00, 0x00, 0x0a, 0x00, 0x00, 0x00,
  0xde, 0xfa, 0xff, 0xff, 0x00, 0x00, 0x00, 0x01, 0x10, 0x00, 0x00, 0x00,
  0x10, 0x00, 0x00, 0x00, 0x15, 0x00, 0x00, 0x00, 0x30, 0x00, 0x00, 0x00,
  0xc8, 0xfa, 0xff, 0xff, 0x20, 0x00, 0x00, 0x00, 0x74, 0x66, 0x6c, 0x2e,
  0x75, 0x6e, 0x69, 0x64, 0x69, 0x72, 0x65, 0x63, 0x74, 0x69, 0x6f, 0x6e,
  0x61, 0x6c, 0x5f, 0x73, 0x65, 0x71, 0x75, 0x65, 0x6e, 0x63, 0x65, 0x5f,
  0x6c, 0x73, 0x74, 0x6d, 0x00, 0x00, 0x00, 0x00, 0x03, 0x00, 0x00, 0x00,
  0x01, 0x00, 0x00, 0x00, 0x14, 0x00, 0x00, 0x00, 0x0a, 0x00, 0x00, 0x00,
  0x8a, 0xfb, 0xff, 0xff, 0x00, 0x00, 0x01, 0x01, 0x0c, 0x00, 0x00, 0x00,
  0x0c, 0x00, 0x00, 0x00, 0x24, 0x00, 0x00, 0x00, 0x18, 0xfb, 0xff, 0xff,
  0x16, 0x00, 0x00, 0x00, 0x73, 0x65, 0x71, 0x75, 0x65, 0x6e, 0x74, 0x69,
  0x61, 0x6c, 0x2f, 0x6c, 0x73, 0x74, 0x6d, 0x2f, 0x7a, 0x65, 0x72, 0x6f,
  0x73, 0x31, 0x00, 0x00, 0x02, 0x00, 0x00, 0x00, 0x01, 0x00, 0x00, 0x00,
  0x0a, 0x00, 0x00, 0x00, 0x7e, 0xff, 0xff, 0xff, 0x00, 0x00, 0x00, 0x01,
  0x14, 0x00, 0x00, 0x00, 0x14, 0x00, 0x00, 0x00, 0x13, 0x00, 0x00, 0x00,
  0x00, 0x00, 0x00, 0x02, 0x20, 0x00, 0x00, 0x00, 0x60, 0xfb, 0xff, 0xff,
  0x10, 0x00, 0x00, 0x00, 0x61, 0x72, 0x69, 0x74, 0x68, 0x2e, 0x63, 0x6f,
  0x6e, 0x73, 0x74, 0x61, 0x6e, 0x74, 0x31, 0x34, 0x00, 0x00, 0x00, 0x00,
  0x01, 0x00, 0x00, 0x00, 0x03, 0x00, 0x00, 0x00, 0xbe, 0xff, 0xff, 0xff,
  0x00, 0x00, 0x00, 0x01, 0x14, 0x00, 0x00, 0x00, 0x14, 0x00, 0x00, 0x00,
  0x12, 0x00, 0x00, 0x00, 0x00, 0x00, 0x00, 0x02, 0x20, 0x00, 0x00, 0x00,
  0xa0, 0xfb, 0xff, 0xff, 0x10, 0x00, 0x00, 0x00, 0x61, 0x72, 0x69, 0x74,
  0x68, 0x2e, 0x63, 0x6f, 0x6e, 0x73, 0x74, 0x61, 0x6e, 0x74, 0x31, 0x33,
  0x00, 0x00, 0x00, 0x00, 0x01, 0x00, 0x00, 0x00, 0x03, 0x00, 0x00, 0x00,
  0x00, 0x00, 0x16, 0x00, 0x1c, 0x00, 0x18, 0x00, 0x17, 0x00, 0x10, 0x00,
  0x0c, 0x00, 0x08, 0x00, 0x00, 0x00, 0x00, 0x00, 0x00, 0x00, 0x07, 0x00,
  0x16, 0x00, 0x00, 0x00, 0x00, 0x00, 0x00, 0x01, 0x14, 0x00, 0x00, 0x00,
  0x14, 0x00, 0x00, 0x00, 0x11, 0x00, 0x00, 0x00, 0x00, 0x00, 0x00, 0x02,
  0x20, 0x00, 0x00, 0x00, 0xf8, 0xfb, 0xff, 0xff, 0x10, 0x00, 0x00, 0x00,
  0x61, 0x72, 0x69, 0x74, 0x68, 0x2e, 0x63, 0x6f, 0x6e, 0x73, 0x74, 0x61,
  0x6e, 0x74, 0x31, 0x32, 0x00, 0x00, 0x00, 0x00, 0x01, 0x00, 0x00, 0x00,
  0x03, 0x00, 0x00, 0x00, 0x4a, 0xfc, 0xff, 0xff, 0x00, 0x00, 0x00, 0x01,
  0x10, 0x00, 0x00, 0x00, 0x10, 0x00, 0x00, 0x00, 0x10, 0x00, 0x00, 0x00,
  0x24, 0x00, 0x00, 0x00, 0x34, 0xfc, 0xff, 0xff, 0x17, 0x00, 0x00, 0x00,
  0x73, 0x65, 0x71, 0x75, 0x65, 0x6e, 0x74, 0x69, 0x61, 0x6c, 0x2f, 0x64,
  0x65, 0x6e, 0x73, 0x65, 0x2f, 0x4d, 0x61, 0x74, 0x4d, 0x75, 0x6c, 0x00,
  0x02, 0x00, 0x00, 0x00, 0x01, 0x00, 0x00, 0x00, 0x0a, 0x00, 0x00, 0x00,
  0x8e, 0xfc, 0xff, 0xff, 0x00, 0x00, 0x00, 0x01, 0x10, 0x00, 0x00, 0x00,
  0x10, 0x00, 0x00, 0x00, 0x0f, 0x00, 0x00, 0x00, 0x20, 0x00, 0x00, 0x00,
  0x78, 0xfc, 0xff, 0xff, 0x10, 0x00, 0x00, 0x00, 0x61, 0x72, 0x69, 0x74,
  0x68, 0x2e, 0x63, 0x6f, 0x6e, 0x73, 0x74, 0x61, 0x6e, 0x74, 0x31, 0x31,
  0x00, 0x00, 0x00, 0x00, 0x02, 0x00, 0x00, 0x00, 0x0a, 0x00, 0x00, 0x00,
  0x40, 0x00, 0x00, 0x00, 0xce, 0xfc, 0xff, 0xff, 0x00, 0x00, 0x00, 0x01,
  0x10, 0x00, 0x00, 0x00, 0x10, 0x00, 0x00, 0x00, 0x0e, 0x00, 0x00, 0x00,
  0x20, 0x00, 0x00, 0x00, 0xb8, 0xfc, 0xff, 0xff, 0x10, 0x00, 0x00, 0x00,
  0x61, 0x72, 0x69, 0x74, 0x68, 0x2e, 0x63, 0x6f, 0x6e, 0x73, 0x74, 0x61,
  0x6e, 0x74, 0x31, 0x30, 0x00, 0x00, 0x00, 0x00, 0x02, 0x00, 0x00, 0x00,
  0x0a, 0x00, 0x00, 0x00, 0x40, 0x00, 0x00, 0x00, 0x0e, 0xfd, 0xff, 0xff,
  0x00, 0x00, 0x00, 0x01, 0x10, 0x00, 0x00, 0x00, 0x10, 0x00, 0x00, 0x00,
  0x0d, 0x00, 0x00, 0x00, 0x1c, 0x00, 0x00, 0x00, 0xf8, 0xfc, 0xff, 0xff,
  0x0f, 0x00, 0x00, 0x00, 0x61, 0x72, 0x69, 0x74, 0x68, 0x2e, 0x63, 0x6f,
  0x6e, 0x73, 0x74, 0x61, 0x6e, 0x74, 0x39, 0x00, 0x02, 0x00, 0x00, 0x00,
  0x0a, 0x00, 0x00, 0x00, 0x40, 0x00, 0x00, 0x00, 0x4a, 0xfd, 0xff, 0xff,
  0x00, 0x00, 0x00, 0x01, 0x10, 0x00, 0x00, 0x00, 0x10, 0x00, 0x00, 0x00,
  0x0c, 0x00, 0x00, 0x00, 0x1c, 0x00, 0x00, 0x00, 0x34, 0xfd, 0xff, 0xff,
  0x0f, 0x00, 0x00, 0x00, 0x61, 0x72, 0x69, 0x74, 0x68, 0x2e, 0x63, 0x6f,
  0x6e, 0x73, 0x74, 0x61, 0x6e, 0x74, 0x38, 0x00, 0x02, 0x00, 0x00, 0x00,
  0x0a, 0x00, 0x00, 0x00, 0x40, 0x00, 0x00, 0x00, 0x86, 0xfd, 0xff, 0xff,
  0x00, 0x00, 0x00, 0x01, 0x10, 0x00, 0x00, 0x00, 0x10, 0x00, 0x00, 0x00,
  0x0b, 0x00, 0x00, 0x00, 0x1c, 0x00, 0x00, 0x00, 0x70, 0xfd, 0xff, 0xff,
  0x0f, 0x00, 0x00, 0x00, 0x61, 0x72, 0x69, 0x74, 0x68, 0x2e, 0x63, 0x6f,
  0x6e, 0x73, 0x74, 0x61, 0x6e, 0x74, 0x37, 0x00, 0x01, 0x00, 0x00, 0x00,
  0x0a, 0x00, 0x00, 0x00, 0xbe, 0xfd, 0xff, 0xff, 0x00, 0x00, 0x00, 0x01,
  0x10, 0x00, 0x00, 0x00, 0x10, 0x00, 0x00, 0x00, 0x0a, 0x00, 0x00, 0x00,
  0x1c, 0x00, 0x00, 0x00, 0xa8, 0xfd, 0xff, 0xff, 0x0f, 0x00, 0x00, 0x00,
  0x61, 0x72, 0x69, 0x74, 0x68, 0x2e, 0x63, 0x6f, 0x6e, 0x73, 0x74, 0x61,
  0x6e, 0x74, 0x36, 0x00, 0x01, 0x00, 0x00, 0x00, 0x0a, 0x00, 0x00, 0x00,
  0xf6, 0xfd, 0xff, 0xff, 0x00, 0x00, 0x00, 0x01, 0x10, 0x00, 0x00, 0x00,
  0x10, 0x00, 0x00, 0x00, 0x09, 0x00, 0x00, 0x00, 0x1c, 0x00, 0x00, 0x00,
  0xe0, 0xfd, 0xff, 0xff, 0x0f, 0x00, 0x00, 0x00, 0x61, 0x72, 0x69, 0x74,
  0x68, 0x2e, 0x63, 0x6f, 0x6e, 0x73, 0x74, 0x61, 0x6e, 0x74, 0x35, 0x00,
  0x01, 0x00, 0x00, 0x00, 0x0a, 0x00, 0x00, 0x00, 0x2e, 0xfe, 0xff, 0xff,
  0x00, 0x00, 0x00, 0x01, 0x10, 0x00, 0x00, 0x00, 0x10, 0x00, 0x00, 0x00,
  0x08, 0x00, 0x00, 0x00, 0x1c, 0x00, 0x00, 0x00, 0x18, 0xfe, 0xff, 0xff,
  0x0f, 0x00, 0x00, 0x00, 0x61, 0x72, 0x69, 0x74, 0x68, 0x2e, 0x63, 0x6f,
  0x6e, 0x73, 0x74, 0x61, 0x6e, 0x74, 0x34, 0x00, 0x01, 0x00, 0x00, 0x00,
  0x0a, 0x00, 0x00, 0x00, 0x66, 0xfe, 0xff, 0xff, 0x00, 0x00, 0x00, 0x01,
  0x10, 0x00, 0x00, 0x00, 0x10, 0x00, 0x00, 0x00, 0x07, 0x00, 0x00, 0x00,
  0x1c, 0x00, 0x00, 0x00, 0x50, 0xfe, 0xff, 0xff, 0x0f, 0x00, 0x00, 0x00,
  0x61, 0x72, 0x69, 0x74, 0x68, 0x2e, 0x63, 0x6f, 0x6e, 0x73, 0x74, 0x61,
  0x6e, 0x74, 0x33, 0x00, 0x02, 0x00, 0x00, 0x00, 0x0a, 0x00, 0x00, 0x00,
  0x0a, 0x00, 0x00, 0x00, 0xa2, 0xfe, 0xff, 0xff, 0x00, 0x00, 0x00, 0x01,
  0x10, 0x00, 0x00, 0x00, 0x10, 0x00, 0x00, 0x00, 0x06, 0x00, 0x00, 0x00,
  0x1c, 0x00, 0x00, 0x00, 0x8c, 0xfe, 0xff, 0xff, 0x0f, 0x00, 0x00, 0x00,
  0x61, 0x72, 0x69, 0x74, 0x68, 0x2e, 0x63, 0x6f, 0x6e, 0x73, 0x74, 0x61,
  0x6e, 0x74, 0x32, 0x00, 0x02, 0x00, 0x00, 0x00, 0x0a, 0x00, 0x00, 0x00,
  0x0a, 0x00, 0x00, 0x00, 0xde, 0xfe, 0xff, 0xff, 0x00, 0x00, 0x00, 0x01,
  0x10, 0x00, 0x00, 0x00, 0x10, 0x00, 0x00, 0x00, 0x05, 0x00, 0x00, 0x00,
  0x1c, 0x00, 0x00, 0x00, 0xc8, 0xfe, 0xff, 0xff, 0x0f, 0x00, 0x00, 0x00,
  0x61, 0x72, 0x69, 0x74, 0x68, 0x2e, 0x63, 0x6f, 0x6e, 0x73, 0x74, 0x61,
  0x6e, 0x74, 0x31, 0x00, 0x02, 0x00, 0x00, 0x00, 0x0a, 0x00, 0x00, 0x00,
  0x0a, 0x00, 0x00, 0x00, 0x1a, 0xff, 0xff, 0xff, 0x00, 0x00, 0x00, 0x01,
  0x10, 0x00, 0x00, 0x00, 0x10, 0x00, 0x00, 0x00, 0x04, 0x00, 0x00, 0x00,
  0x1c, 0x00, 0x00, 0x00, 0x04, 0xff, 0xff, 0xff, 0x0e, 0x00, 0x00, 0x00,
  0x61, 0x72, 0x69, 0x74, 0x68, 0x2e, 0x63, 0x6f, 0x6e, 0x73, 0x74, 0x61,
  0x6e, 0x74, 0x00, 0x00, 0x02, 0x00, 0x00, 0x00, 0x0a, 0x00, 0x00, 0x00,
  0x0a, 0x00, 0x00, 0x00, 0x56, 0xff, 0xff, 0xff, 0x00, 0x00, 0x00, 0x01,
  0x10, 0x00, 0x00, 0x00, 0x10, 0x00, 0x00, 0x00, 0x03, 0x00, 0x00, 0x00,
  0x34, 0x00, 0x00, 0x00, 0x40, 0xff, 0xff, 0xff, 0x27, 0x00, 0x00, 0x00,
  0x73, 0x65, 0x71, 0x75, 0x65, 0x6e, 0x74, 0x69, 0x61, 0x6c, 0x2f, 0x64,
  0x65, 0x6e, 0x73, 0x65, 0x2f, 0x42, 0x69, 0x61, 0x73, 0x41, 0x64, 0x64,
  0x2f, 0x52, 0x65, 0x61, 0x64, 0x56, 0x61, 0x72, 0x69, 0x61, 0x62, 0x6c,
  0x65, 0x4f, 0x70, 0x00, 0x01, 0x00, 0x00, 0x00, 0x01, 0x00, 0x00, 0x00,
  0x00, 0x00, 0x16, 0x00, 0x14, 0x00, 0x10, 0x00, 0x00, 0x00, 0x00, 0x00,
  0x0c, 0x00, 0x08, 0x00, 0x07, 0x00, 0x00, 0x00, 0x00, 0x00, 0x06, 0x00,
  0x16, 0x00, 0x00, 0x00, 0x00, 0x00, 0x01, 0x01, 0x0c, 0x00, 0x00, 0x00,
  0x0c, 0x00, 0x00, 0x00, 0x24, 0x00, 0x00, 0x00, 0xa4, 0xff, 0xff, 0xff,
  0x15, 0x00, 0x00, 0x00, 0x73, 0x65, 0x71, 0x75, 0x65, 0x6e, 0x74, 0x69,
  0x61, 0x6c, 0x2f, 0x6c, 0x73, 0x74, 0x6d, 0x2f, 0x7a, 0x65, 0x72, 0x6f,
  0x73, 0x00, 0x00, 0x00, 0x02, 0x00, 0x00, 0x00, 0x01, 0x00, 0x00, 0x00,
  0x0a, 0x00, 0x00, 0x00, 0x00, 0x00, 0x16, 0x00, 0x18, 0x00, 0x14, 0x00,
  0x00, 0x00, 0x10, 0x00, 0x0c, 0x00, 0x08, 0x00, 0x00, 0x00, 0x00, 0x00,
  0x00, 0x00, 0x07, 0x00, 0x16, 0x00, 0x00, 0x00, 0x00, 0x00, 0x00, 0x01,
  0x14, 0x00, 0x00, 0x00, 0x14, 0x00, 0x00, 0x00, 0x01, 0x00, 0x00, 0x00,
  0x30, 0x00, 0x00, 0x00, 0x04, 0x00, 0x04, 0x00, 0x04, 0x00, 0x00, 0x00,
  0x1c, 0x00, 0x00, 0x00, 0x73, 0x65, 0x72, 0x76, 0x69, 0x6e, 0x67, 0x5f,
  0x64, 0x65, 0x66, 0x61, 0x75, 0x6c, 0x74, 0x5f, 0x6c, 0x73, 0x74, 0x6d,
  0x5f, 0x69, 0x6e, 0x70, 0x75, 0x74, 0x3a, 0x30, 0x00, 0x00, 0x00, 0x00,
  0x03, 0x00, 0x00, 0x00, 0x01, 0x00, 0x00, 0x00, 0x14, 0x00, 0x00, 0x00,
  0x40, 0x00, 0x00, 0x00, 0x04, 0x00, 0x00, 0x00, 0x40, 0x00, 0x00, 0x00,
  0x24, 0x00, 0x00, 0x00, 0x14, 0x00, 0x00, 0x00, 0x04, 0x00, 0x00, 0x00,
  0xdc, 0xff, 0xff, 0xff, 0x0e, 0x00, 0x00, 0x00, 0x00, 0x00, 0x00, 0x0e,
  0xe8, 0xff, 0xff, 0xff, 0x09, 0x00, 0x00, 0x00, 0x00, 0x00, 0x00, 0x09,
  0xf4, 0xff, 0xff, 0xff, 0x2d, 0x00, 0x00, 0x00, 0x00, 0x00, 0x00, 0x2d,
  0x0c, 0x00, 0x0c, 0x00, 0x0b, 0x00, 0x00, 0x00, 0x00, 0x00, 0x04, 0x00,
  0x0c, 0x00, 0x00, 0x00, 0x2c, 0x00, 0x00, 0x00, 0x00, 0x00, 0x00, 0x2c};
unsigned int model_tflite_len = 15240;

unsigned char* get_model_data() {
  return (unsigned char*)g_tof_detector_model_data;
}
