/* Copyright 2019 The TensorFlow Authors. All Rights Reserved.

Licensed under the Apache License, Version 2.0 (the "License");
you may not use this file except in compliance with the License.
You may obtain a copy of the License at

    http://www.apache.org/licenses/LICENSE-2.0

Unless required by applicable law or agreed to in writing, software
distributed under the License is distributed on an "AS IS" BASIS,
WITHOUT WARRANTIES OR CONDITIONS OF ANY KIND, either express or implied.
See the License for the specific language governing permissions and
limitations under the License.
==============================================================================*/

// Automatically created from a TensorFlow Lite flatbuffer using the command:
// xxd -i magic_wand_model.tflite > magic_wand_model_data.cc
// See the README for a full description of the creation process.

// We need to keep the data array aligned on some architectures.
#ifdef __has_attribute
#define HAVE_ATTRIBUTE(x) __has_attribute(x)
#else
#define HAVE_ATTRIBUTE(x) 0
#endif
#if HAVE_ATTRIBUTE(aligned) || (defined(__GNUC__) && !defined(__clang__))
#define DATA_ALIGN_ATTRIBUTE __attribute__((aligned(4)))
#else
#define DATA_ALIGN_ATTRIBUTE
#endif

const unsigned char g_tof_detector_model_data[] DATA_ALIGN_ATTRIBUTE = {
  0x1c, 0x00, 0x00, 0x00, 0x54, 0x46, 0x4c, 0x33, 0x14, 0x00, 0x20, 0x00,
  0x1c, 0x00, 0x18, 0x00, 0x14, 0x00, 0x10, 0x00, 0x0c, 0x00, 0x00, 0x00,
  0x08, 0x00, 0x04, 0x00, 0x14, 0x00, 0x00, 0x00, 0x1c, 0x00, 0x00, 0x00,
  0x84, 0x00, 0x00, 0x00, 0xdc, 0x00, 0x00, 0x00, 0x48, 0x32, 0x00, 0x00,
  0x58, 0x32, 0x00, 0x00, 0x04, 0x3b, 0x00, 0x00, 0x03, 0x00, 0x00, 0x00,
  0x01, 0x00, 0x00, 0x00, 0x04, 0x00, 0x00, 0x00, 0x6a, 0xcd, 0xff, 0xff,
  0x0c, 0x00, 0x00, 0x00, 0x1c, 0x00, 0x00, 0x00, 0x38, 0x00, 0x00, 0x00,
  0x0f, 0x00, 0x00, 0x00, 0x73, 0x65, 0x72, 0x76, 0x69, 0x6e, 0x67, 0x5f,
  0x64, 0x65, 0x66, 0x61, 0x75, 0x6c, 0x74, 0x00, 0x01, 0x00, 0x00, 0x00,
  0x04, 0x00, 0x00, 0x00, 0x98, 0xff, 0xff, 0xff, 0x17, 0x00, 0x00, 0x00,
  0x04, 0x00, 0x00, 0x00, 0x05, 0x00, 0x00, 0x00, 0x64, 0x65, 0x6e, 0x73,
  0x65, 0x00, 0x00, 0x00, 0x01, 0x00, 0x00, 0x00, 0x04, 0x00, 0x00, 0x00,
  0x5e, 0xce, 0xff, 0xff, 0x04, 0x00, 0x00, 0x00, 0x0a, 0x00, 0x00, 0x00,
  0x6c, 0x73, 0x74, 0x6d, 0x5f, 0x69, 0x6e, 0x70, 0x75, 0x74, 0x00, 0x00,
  0x02, 0x00, 0x00, 0x00, 0x34, 0x00, 0x00, 0x00, 0x04, 0x00, 0x00, 0x00,
  0xdc, 0xff, 0xff, 0xff, 0x1a, 0x00, 0x00, 0x00, 0x04, 0x00, 0x00, 0x00,
  0x13, 0x00, 0x00, 0x00, 0x43, 0x4f, 0x4e, 0x56, 0x45, 0x52, 0x53, 0x49,
  0x4f, 0x4e, 0x5f, 0x4d, 0x45, 0x54, 0x41, 0x44, 0x41, 0x54, 0x41, 0x00,
  0x08, 0x00, 0x0c, 0x00, 0x08, 0x00, 0x04, 0x00, 0x08, 0x00, 0x00, 0x00,
  0x19, 0x00, 0x00, 0x00, 0x04, 0x00, 0x00, 0x00, 0x13, 0x00, 0x00, 0x00,
  0x6d, 0x69, 0x6e, 0x5f, 0x72, 0x75, 0x6e, 0x74, 0x69, 0x6d, 0x65, 0x5f,
  0x76, 0x65, 0x72, 0x73, 0x69, 0x6f, 0x6e, 0x00, 0x1b, 0x00, 0x00, 0x00,
  0x68, 0x31, 0x00, 0x00, 0x60, 0x31, 0x00, 0x00, 0x28, 0x31, 0x00, 0x00,
  0x0c, 0x31, 0x00, 0x00, 0x6c, 0x2f, 0x00, 0x00, 0xcc, 0x2d, 0x00, 0x00,
  0x2c, 0x2c, 0x00, 0x00, 0x8c, 0x2a, 0x00, 0x00, 0x54, 0x2a, 0x00, 0x00,
  0x1c, 0x2a, 0x00, 0x00, 0xe4, 0x29, 0x00, 0x00, 0xac, 0x29, 0x00, 0x00,
  0x9c, 0x1f, 0x00, 0x00, 0x8c, 0x15, 0x00, 0x00, 0x7c, 0x0b, 0x00, 0x00,
  0x6c, 0x01, 0x00, 0x00, 0x34, 0x01, 0x00, 0x00, 0x18, 0x01, 0x00, 0x00,
  0xfc, 0x00, 0x00, 0x00, 0xe0, 0x00, 0x00, 0x00, 0xa8, 0x00, 0x00, 0x00,
  0xa0, 0x00, 0x00, 0x00, 0x98, 0x00, 0x00, 0x00, 0x90, 0x00, 0x00, 0x00,
  0x88, 0x00, 0x00, 0x00, 0x68, 0x00, 0x00, 0x00, 0x04, 0x00, 0x00, 0x00,
  0x42, 0xcf, 0xff, 0xff, 0x04, 0x00, 0x00, 0x00, 0x54, 0x00, 0x00, 0x00,
  0x0c, 0x00, 0x00, 0x00, 0x08, 0x00, 0x0e, 0x00, 0x08, 0x00, 0x04, 0x00,
  0x08, 0x00, 0x00, 0x00, 0x10, 0x00, 0x00, 0x00, 0x24, 0x00, 0x00, 0x00,
  0x00, 0x00, 0x06, 0x00, 0x08, 0x00, 0x04, 0x00, 0x06, 0x00, 0x00, 0x00,
  0x04, 0x00, 0x00, 0x00, 0x00, 0x00, 0x00, 0x00, 0x00, 0x00, 0x0a, 0x00,
  0x10, 0x00, 0x0c, 0x00, 0x08, 0x00, 0x04, 0x00, 0x0a, 0x00, 0x00, 0x00,
  0x02, 0x00, 0x00, 0x00, 0x02, 0x00, 0x00, 0x00, 0x04, 0x00, 0x00, 0x00,
  0x06, 0x00, 0x00, 0x00, 0x32, 0x2e, 0x31, 0x35, 0x2e, 0x30, 0x00, 0x00,
  0xa2, 0xcf, 0xff, 0xff, 0x04, 0x00, 0x00, 0x00, 0x10, 0x00, 0x00, 0x00,
  0x31, 0x2e, 0x31, 0x34, 0x2e, 0x30, 0x00, 0x00, 0x00, 0x00, 0x00, 0x00,
  0x00, 0x00, 0x00, 0x00, 0xf4, 0xc6, 0xff, 0xff, 0xf8, 0xc6, 0xff, 0xff,
  0xfc, 0xc6, 0xff, 0xff, 0x00, 0xc7, 0xff, 0xff, 0xce, 0xcf, 0xff, 0xff,
  0x04, 0x00, 0x00, 0x00, 0x28, 0x00, 0x00, 0x00, 0x00, 0x00, 0x00, 0x00,
  0x00, 0x00, 0x00, 0x00, 0x00, 0x00, 0x00, 0x00, 0x00, 0x00, 0x00, 0x00,
  0x00, 0x00, 0x00, 0x00, 0x00, 0x00, 0x00, 0x00, 0x00, 0x00, 0x00, 0x00,
  0x00, 0x00, 0x00, 0x00, 0x00, 0x00, 0x00, 0x00, 0x00, 0x00, 0x00, 0x00,
  0x02, 0xd0, 0xff, 0xff, 0x04, 0x00, 0x00, 0x00, 0x0c, 0x00, 0x00, 0x00,
  0x01, 0x00, 0x00, 0x00, 0x01, 0x00, 0x00, 0x00, 0x01, 0x00, 0x00, 0x00,
  0x1a, 0xd0, 0xff, 0xff, 0x04, 0x00, 0x00, 0x00, 0x0c, 0x00, 0x00, 0x00,
  0x00, 0x00, 0x00, 0x00, 0x00, 0x00, 0x00, 0x00, 0x00, 0x00, 0x00, 0x00,
  0x32, 0xd0, 0xff, 0xff, 0x04, 0x00, 0x00, 0x00, 0x0c, 0x00, 0x00, 0x00,
  0x00, 0x00, 0x00, 0x00, 0xff, 0xff, 0xff, 0xff, 0x00, 0x00, 0x00, 0x00,
  0x4a, 0xd0, 0xff, 0xff, 0x04, 0x00, 0x00, 0x00, 0x28, 0x00, 0x00, 0x00,
  0xc7, 0x91, 0x91, 0x3f, 0x68, 0x2b, 0x68, 0x3f, 0x05, 0xce, 0xad, 0xbf,
  0x3d, 0x55, 0xa1, 0xbf, 0xc1, 0x08, 0x8a, 0x3f, 0x70, 0xf5, 0xdf, 0xbe,
  0x48, 0xbe, 0x23, 0x3f, 0x3c, 0x83, 0x52, 0x3f, 0x9a, 0x77, 0x94, 0xbf,
  0xd3, 0x94, 0x93, 0x3f, 0x7e, 0xd0, 0xff, 0xff, 0x04, 0x00, 0x00, 0x00,
  0x00, 0x0a, 0x00, 0x00, 0x9d, 0x47, 0xe2, 0x3e, 0xe7, 0x2a, 0x95, 0xbc,
  0x5f, 0xda, 0x8f, 0x3e, 0x7e, 0xd5, 0xaa, 0x3e, 0x3a, 0x3e, 0x1d, 0xbd,
  0x71, 0x7a, 0x2b, 0x3e, 0xf6, 0x98, 0xe8, 0x3e, 0x96, 0x0e, 0xd4, 0x3e,
  0x32, 0x9b, 0xcc, 0x3e, 0xa4, 0xa8, 0x48, 0x3e, 0x8d, 0xc6, 0x86, 0x3d,
  0x2e, 0x00, 0xe0, 0x3c, 0x45, 0x08, 0x29, 0x3e, 0xe5, 0x50, 0xd4, 0x3d,
  0x1a, 0xbc, 0x03, 0x3f, 0xc9, 0x7e, 0x33, 0x3e, 0xb3, 0x50, 0xba, 0x3e,
  0xb9, 0x51, 0x64, 0x3e, 0x0b, 0x0f, 0x39, 0xbe, 0xf8, 0x19, 0x7d, 0x3e,
  0x0f, 0xfd, 0xf9, 0x3d, 0x05, 0x0a, 0x03, 0x3e, 0xc1, 0x3a, 0x3c, 0x3e,
  0xda, 0x1c, 0x00, 0x3f, 0x59, 0x05, 0x95, 0x3d, 0xf6, 0x22, 0x81, 0xbe,
  0xc6, 0x8a, 0x02, 0x3e, 0x0c, 0x30, 0xde, 0x3e, 0x52, 0x95, 0x8d, 0x3e,
  0xda, 0xbc, 0x02, 0xbc, 0xeb, 0xab, 0x20, 0xbe, 0x74, 0xb0, 0xc0, 0x3e,
  0xb2, 0xe1, 0x07, 0x3e, 0x01, 0xb3, 0x42, 0xbe, 0x86, 0x03, 0x2a, 0x3e,
  0x12, 0xc4, 0xac, 0xbd, 0xcd, 0xd8, 0x67, 0x3e, 0x33, 0x6a, 0x90, 0x3e,
  0x0e, 0x7f, 0x91, 0x3d, 0xf2, 0xfc, 0x3f, 0x3d, 0x41, 0x71, 0x29, 0x3e,
  0x6a, 0x07, 0x98, 0x3d, 0x1c, 0x77, 0xe9, 0x3d, 0x9a, 0xaf, 0x95, 0x3d,
  0x6d, 0x34, 0xa3, 0x3e, 0x05, 0xc2, 0x40, 0x3e, 0x11, 0xd6, 0x3f, 0x3e,
  0x33, 0x93, 0xde, 0x3e, 0x16, 0x68, 0xbb, 0x3e, 0x3f, 0xc7, 0x1f, 0x3e,
  0x2c, 0x4e, 0x0e, 0xbe, 0xbd, 0x69, 0x80, 0x3e, 0x65, 0x31, 0xa2, 0x3e,
  0x12, 0x67, 0x65, 0x3e, 0x53, 0xd7, 0xd4, 0x3e, 0x82, 0xd8, 0xe5, 0x3d,
  0x0e, 0x3d, 0x6d, 0x3e, 0x9d, 0xae, 0xa7, 0x3e, 0x35, 0xe0, 0xd3, 0xbd,
  0xd2, 0x51, 0x1b, 0x3e, 0xbf, 0x4d, 0x88, 0x3e, 0x49, 0xf0, 0xa4, 0x3e,
  0xb8, 0xff, 0x2e, 0x3e, 0xe9, 0x99, 0xe0, 0x3e, 0x6c, 0x9c, 0x76, 0x3e,
  0x15, 0x9a, 0xac, 0x3e, 0x07, 0x27, 0x36, 0x3d, 0x99, 0xf3, 0xc6, 0x3e,
  0xc4, 0x14, 0xca, 0x3e, 0xab, 0x77, 0xa3, 0x3e, 0x28, 0xfd, 0x04, 0xbd,
  0x41, 0xa8, 0xb2, 0xbd, 0xe2, 0x44, 0x8d, 0x3e, 0x35, 0xdf, 0x86, 0x3d,
  0x92, 0x54, 0x7b, 0xbe, 0xd8, 0xd5, 0x46, 0xbe, 0x5e, 0xa0, 0xa3, 0xbd,
  0x82, 0x42, 0x68, 0xbd, 0xec, 0x36, 0x13, 0x3d, 0x7a, 0xd2, 0x6f, 0xbd,
  0x9d, 0x26, 0x37, 0xbd, 0xfb, 0x44, 0x45, 0x3e, 0x8a, 0x53, 0xe5, 0x3d,
  0x2f, 0x71, 0xcb, 0x3c, 0x9b, 0x31, 0x98, 0xbe, 0xc1, 0x15, 0x26, 0xbe,
  0xc9, 0x47, 0x51, 0xbe, 0x9f, 0xfe, 0x78, 0x3e, 0xc7, 0xe1, 0x9e, 0x3e,
  0x12, 0xe5, 0x1e, 0xbe, 0x10, 0xc3, 0xf3, 0x3d, 0x93, 0x45, 0x27, 0xbe,
  0xae, 0xb1, 0x8f, 0xbe, 0xfa, 0x4c, 0xee, 0xbd, 0xf6, 0x7d, 0x70, 0xbe,
  0x68, 0xa3, 0xd1, 0xbd, 0x78, 0x16, 0x1a, 0x3b, 0x36, 0x5c, 0x18, 0xbd,
  0x86, 0xf1, 0xbb, 0x3d, 0x69, 0x9f, 0x18, 0xbe, 0x36, 0x8c, 0xed, 0xbd,
  0xe1, 0x53, 0x2c, 0x3e, 0xea, 0xf0, 0x29, 0x3e, 0x08, 0xce, 0xad, 0x3e,
  0xd1, 0x44, 0xd5, 0x3c, 0x07, 0xb4, 0xa3, 0xbd, 0x56, 0xa2, 0xb5, 0xba,
  0xdb, 0xb1, 0x85, 0xbd, 0xd9, 0x94, 0x94, 0xbe, 0x0a, 0x07, 0x08, 0xbe,
  0x54, 0x6a, 0x4d, 0xbe, 0xac, 0x73, 0xac, 0xbd, 0xfa, 0x75, 0xf5, 0xbd,
  0x4e, 0x3f, 0x53, 0x3d, 0x20, 0x26, 0xda, 0x3d, 0x82, 0x5c, 0xf8, 0x3b,
  0x4f, 0x46, 0xa6, 0xbd, 0x6e, 0x21, 0x8b, 0x3e, 0x80, 0xa1, 0x12, 0x3d,
  0x58, 0x98, 0x26, 0x3e, 0x1f, 0x82, 0x4b, 0x3e, 0xcc, 0xc4, 0x98, 0x3e,
  0x3b, 0x90, 0xe1, 0x3e, 0xd5, 0x88, 0xed, 0x3c, 0xe8, 0xba, 0x84, 0x3e,
  0x1e, 0xa0, 0x01, 0x3d, 0xec, 0xaf, 0xc8, 0x3e, 0xca, 0x88, 0x2b, 0xbb,
  0xb5, 0xe0, 0xd4, 0x3e, 0xad, 0x0f, 0x18, 0x3e, 0xc9, 0xc0, 0x15, 0x3f,
  0x9d, 0xe7, 0x80, 0x3e, 0x84, 0x3e, 0x94, 0x3d, 0xb7, 0x31, 0xb5, 0x3e,
  0x4c, 0xfb, 0xcc, 0x3e, 0xa3, 0xb7, 0xef, 0x3e, 0x0f, 0x8c, 0x05, 0x3e,
  0x2b, 0x7e, 0xa6, 0x3e, 0x50, 0x3f, 0xb3, 0x3e, 0x75, 0x62, 0xd4, 0x3e,
  0x62, 0x6d, 0x7e, 0x3e, 0x2d, 0xca, 0x8f, 0x3d, 0x7c, 0x80, 0x94, 0x3e,
  0xe1, 0x5e, 0x4b, 0xbc, 0xcb, 0x83, 0xce, 0x3b, 0x26, 0xf5, 0x55, 0x3e,
  0x57, 0xff, 0x29, 0x3d, 0xa5, 0x1e, 0xb4, 0x3e, 0x33, 0x48, 0x20, 0x3e,
  0xb4, 0xae, 0xa0, 0x3e, 0xb1, 0x0c, 0x69, 0x3e, 0x16, 0x7a, 0x08, 0x3d,
  0x84, 0xda, 0x81, 0x3e, 0x8e, 0x07, 0x40, 0x3e, 0xa2, 0xfb, 0x69, 0x3d,
  0x47, 0xd1, 0x7d, 0x3e, 0xa8, 0x3b, 0x5e, 0x3e, 0x52, 0xa7, 0x9f, 0x3e,
  0x0a, 0xb9, 0xe4, 0xba, 0xc5, 0x3a, 0x35, 0x3e, 0x02, 0xb1, 0x57, 0xba,
  0x14, 0x49, 0xb0, 0x3e, 0x31, 0xc8, 0x7a, 0x3e, 0xa9, 0xfe, 0x2e, 0x3c,
  0x22, 0x8f, 0x51, 0x3d, 0x50, 0x5f, 0xbb, 0xbd, 0x42, 0x63, 0xda, 0x3e,
  0xc3, 0x8e, 0x40, 0x3e, 0xed, 0x3a, 0x7f, 0x3e, 0x83, 0x47, 0x08, 0x3e,
  0x03, 0x91, 0x0f, 0x3e, 0x4d, 0x92, 0x12, 0x3c, 0xb4, 0x9c, 0xb1, 0x3d,
  0xa2, 0xfe, 0x70, 0x3e, 0x7f, 0x39, 0x0e, 0x3e, 0xcf, 0x07, 0x2e, 0x3e,
  0x17, 0xdf, 0xa2, 0x3e, 0xe4, 0xbb, 0x24, 0x3c, 0x78, 0xa3, 0x6d, 0x3e,
  0x4e, 0x93, 0x25, 0xbd, 0xd8, 0x75, 0x7b, 0x3e, 0xd6, 0x76, 0x6a, 0x3e,
  0xe7, 0xcd, 0xa7, 0x3e, 0x0c, 0xc3, 0x01, 0x3e, 0x7e, 0x55, 0x88, 0x3e,
  0x7f, 0x34, 0xe7, 0x3b, 0x5b, 0x1b, 0xa7, 0x3e, 0x81, 0x42, 0x9a, 0x3e,
  0xe0, 0xd7, 0x8f, 0x3e, 0x6d, 0x60, 0x68, 0x3e, 0xc7, 0xac, 0xfa, 0x3e,
  0xc1, 0xa7, 0x6a, 0x3e, 0x41, 0xdc, 0x01, 0x3d, 0x66, 0xcf, 0xf5, 0x3e,
  0x8e, 0x61, 0xc3, 0x3e, 0xe0, 0x93, 0xe3, 0x3e, 0x37, 0x45, 0x28, 0x3e,
  0xff, 0x09, 0x60, 0x3e, 0xac, 0x5d, 0xf3, 0x3e, 0x07, 0xe7, 0x7f, 0x3e,
  0xb2, 0x7f, 0x2b, 0x3e, 0xff, 0x18, 0xdc, 0x3e, 0x78, 0xc8, 0x84, 0x3e,
  0xec, 0xea, 0x08, 0x3e, 0xd0, 0x51, 0xdf, 0x3e, 0x9e, 0xe9, 0x3e, 0x3d,
  0x07, 0x55, 0xb6, 0x3e, 0x8f, 0x6e, 0xa5, 0x3d, 0xb9, 0x74, 0x09, 0x3f,
  0x53, 0xb9, 0xd3, 0x3e, 0x36, 0x49, 0x95, 0x3c, 0x41, 0xff, 0x0b, 0xbd,
  0x9e, 0x69, 0xc1, 0x3e, 0x7a, 0x0d, 0xa7, 0x3d, 0xcd, 0xff, 0x0a, 0x3e,
  0xc3, 0x3a, 0x63, 0xbd, 0xf8, 0x36, 0xcc, 0x3e, 0xc3, 0xd0, 0xd8, 0x3d,
  0xc1, 0x7d, 0x01, 0xbe, 0xcc, 0x5c, 0x8c, 0x3c, 0x8b, 0xc2, 0x43, 0x3e,
  0x35, 0xb6, 0x60, 0x3e, 0x35, 0x04, 0x5d, 0xbc, 0x93, 0x00, 0x51, 0x3e,
  0x88, 0x35, 0xb2, 0x3e, 0xd6, 0x1e, 0x01, 0x3e, 0x4a, 0xfa, 0xa0, 0x3e,
  0x65, 0xc6, 0x0c, 0x3d, 0x53, 0xf2, 0x86, 0xbd, 0xfb, 0xe2, 0xe9, 0x3d,
  0x44, 0x72, 0x35, 0x3e, 0xcc, 0xda, 0x06, 0xbe, 0x08, 0x77, 0x1a, 0x3e,
  0x46, 0x16, 0x24, 0xbd, 0x83, 0x30, 0xb5, 0x3d, 0x71, 0x05, 0x1b, 0x3e,
  0x49, 0x1b, 0x70, 0x3e, 0xdf, 0xd0, 0x1a, 0xbe, 0x40, 0x7e, 0x4a, 0x3e,
  0x0c, 0xfa, 0x69, 0x3e, 0x4b, 0x60, 0x5d, 0x3d, 0xf0, 0x66, 0x98, 0x3e,
  0xcd, 0xe7, 0x71, 0x3e, 0x47, 0x69, 0x94, 0x3d, 0x22, 0xe2, 0xe3, 0xbd,
  0x4c, 0xbd, 0x5a, 0xba, 0x89, 0x61, 0x6c, 0x3e, 0x2a, 0xa5, 0xd5, 0x3e,
  0x68, 0x1e, 0x46, 0x3d, 0x86, 0xf4, 0x13, 0xbe, 0x08, 0xd1, 0xd4, 0x3d,
  0x0a, 0xdc, 0xd2, 0x3c, 0xba, 0xf8, 0xb6, 0xbd, 0xc6, 0xf7, 0xa0, 0xbb,
  0xbb, 0xc3, 0x56, 0xbb, 0x48, 0x5e, 0x9c, 0x3e, 0xe8, 0xbc, 0x19, 0x3f,
  0x80, 0xfd, 0xd5, 0x3e, 0xb5, 0xd8, 0x93, 0x3e, 0x3b, 0xe3, 0x0d, 0x3f,
  0x85, 0xce, 0xe1, 0x3e, 0x8f, 0xf7, 0xf3, 0x3e, 0x19, 0x5b, 0xdb, 0x3e,
  0xff, 0x59, 0x9c, 0x3e, 0x64, 0xb6, 0xff, 0x3e, 0x8b, 0x29, 0xdb, 0x3e,
  0x82, 0x23, 0x9e, 0x3e, 0xa1, 0xf1, 0xed, 0x3d, 0x40, 0xb6, 0x5a, 0xbe,
  0x5d, 0xf0, 0x36, 0xbe, 0x09, 0x01, 0x6b, 0xbd, 0x08, 0xaf, 0xbe, 0xbc,
  0x04, 0xa3, 0xd1, 0x3d, 0x3d, 0x07, 0x96, 0xbd, 0x4a, 0x93, 0x86, 0xbd,
  0x1b, 0xe8, 0x19, 0x3d, 0x39, 0x2f, 0xbf, 0xbe, 0x40, 0xfb, 0x5f, 0xbe,
  0x31, 0x99, 0x9e, 0xbe, 0xdd, 0x56, 0xbd, 0xbc, 0xe7, 0x55, 0x62, 0x3e,
  0xa0, 0xc9, 0x1a, 0xbe, 0x58, 0x30, 0x66, 0x3e, 0x0f, 0xad, 0x23, 0x3e,
  0x64, 0x95, 0x90, 0x3c, 0xcf, 0x0f, 0x93, 0xbe, 0xef, 0x3e, 0xc7, 0xbd,
  0xc5, 0xa4, 0x92, 0xbe, 0x85, 0xbb, 0x8b, 0x3e, 0x8a, 0x5c, 0xf5, 0xbd,
  0xc7, 0x43, 0x86, 0x3d, 0xf2, 0x15, 0x8b, 0x3e, 0x73, 0xfd, 0x8f, 0xbe,
  0xd9, 0xa4, 0x0a, 0x3e, 0xfd, 0x65, 0x25, 0x3d, 0x2b, 0x5a, 0x52, 0xbe,
  0xf9, 0x82, 0xc0, 0x3e, 0xe7, 0x01, 0xec, 0x3d, 0xa1, 0x3a, 0x22, 0xbe,
  0xf8, 0x58, 0x44, 0xbd, 0xb7, 0xc0, 0xab, 0xbe, 0xe5, 0x57, 0xdb, 0xbc,
  0xaf, 0x09, 0x53, 0xbd, 0x80, 0x7f, 0xab, 0xbe, 0xd5, 0x00, 0xa9, 0x3e,
  0x5f, 0x25, 0xe4, 0x3c, 0x99, 0x9c, 0x39, 0xbd, 0xe9, 0x76, 0xf5, 0x3d,
  0x32, 0x21, 0x3e, 0xbe, 0x11, 0x00, 0x10, 0xbe, 0x20, 0xf6, 0xae, 0xbe,
  0x13, 0x6c, 0x64, 0xbc, 0x74, 0x84, 0x95, 0x3e, 0x4f, 0xcd, 0x78, 0xbe,
  0x85, 0xbe, 0x1a, 0x3b, 0x6c, 0x69, 0x50, 0xbe, 0x55, 0x34, 0x1e, 0xbe,
  0x19, 0x86, 0x52, 0x3e, 0x88, 0x37, 0x77, 0xbe, 0x6d, 0xb7, 0xf4, 0x3d,
  0xd6, 0x70, 0x53, 0x3e, 0xae, 0x27, 0x67, 0xbe, 0xf3, 0xc1, 0xa9, 0x3d,
  0x53, 0x52, 0x87, 0x3d, 0xb2, 0x99, 0x58, 0xbe, 0xa1, 0xef, 0xb3, 0xbd,
  0xba, 0x88, 0xcf, 0xbd, 0x37, 0x18, 0x0c, 0xbe, 0x00, 0x47, 0x82, 0x36,
  0x19, 0x8d, 0x93, 0x3d, 0x95, 0xf1, 0x2a, 0xbe, 0x09, 0x7f, 0x65, 0x3e,
  0x05, 0x4c, 0x1b, 0x3e, 0x97, 0xc2, 0x2b, 0x3d, 0x46, 0xbc, 0xb8, 0xbd,
  0x5c, 0x2c, 0xa7, 0x3c, 0x4b, 0xac, 0x89, 0xbd, 0x4e, 0xa5, 0xe2, 0xbc,
  0x9a, 0x16, 0x45, 0xbe, 0x5f, 0x54, 0x50, 0xbe, 0x83, 0xa8, 0xf5, 0xbd,
  0x1b, 0x00, 0x53, 0x3e, 0x72, 0x64, 0x04, 0x3e, 0x01, 0x02, 0x51, 0x3e,
  0x1d, 0x08, 0x5d, 0x3d, 0x1d, 0xf7, 0x84, 0x3c, 0xc1, 0x53, 0x7d, 0xbe,
  0x4e, 0x0c, 0xd3, 0x3c, 0x2e, 0x04, 0x80, 0xbd, 0x36, 0x30, 0x0c, 0x3e,
  0x3f, 0x12, 0xf5, 0x3d, 0xfe, 0x93, 0xbc, 0x3d, 0xc9, 0xb2, 0x33, 0xbc,
  0x43, 0xa9, 0xee, 0xbe, 0xcd, 0xe2, 0xaa, 0xbd, 0x12, 0x9b, 0x07, 0xbe,
  0x60, 0x6b, 0x71, 0x3e, 0x72, 0x3d, 0x23, 0xbe, 0xa6, 0xf5, 0x95, 0x3d,
  0xe6, 0x5e, 0x20, 0x3e, 0xb1, 0xc3, 0xac, 0xbd, 0xd6, 0x0a, 0x53, 0xbe,
  0x5f, 0x58, 0x44, 0xbe, 0x06, 0x9b, 0xe2, 0xbd, 0x96, 0x94, 0xa8, 0x3d,
  0xe1, 0xae, 0x71, 0x3e, 0x99, 0x74, 0x47, 0x3e, 0x64, 0x90, 0x6e, 0x3e,
  0x02, 0x2c, 0x4a, 0xbe, 0x2b, 0x98, 0x8e, 0xbe, 0x77, 0xdb, 0x20, 0x3e,
  0x5c, 0x5f, 0x3c, 0x3e, 0x55, 0xc3, 0x0d, 0xbe, 0xc6, 0x09, 0x9b, 0x3e,
  0x03, 0x2e, 0x64, 0x3e, 0xaf, 0x61, 0x56, 0x3e, 0x44, 0xa8, 0x40, 0xbd,
  0xd4, 0x6c, 0xf1, 0xbd, 0x27, 0x85, 0x58, 0xbe, 0x54, 0x72, 0xaf, 0x3e,
  0xc4, 0xec, 0x12, 0xbe, 0x5f, 0x07, 0xff, 0x3c, 0xaa, 0xb6, 0x6a, 0xbd,
  0x02, 0x0b, 0x06, 0x3f, 0x9a, 0xc9, 0xf5, 0xbd, 0x92, 0x88, 0x60, 0xbe,
  0x0a, 0x07, 0x5b, 0x3e, 0x7d, 0xd3, 0xc3, 0xbd, 0xb3, 0xe7, 0x08, 0x3e,
  0x9a, 0x6c, 0xdc, 0x3e, 0x24, 0x84, 0xb9, 0x3e, 0xd6, 0xe4, 0xb9, 0x3e,
  0x04, 0xfb, 0x6b, 0xbe, 0xc9, 0x70, 0x34, 0xbe, 0x7a, 0x3d, 0xa1, 0xbe,
  0x7c, 0xd9, 0x3a, 0xbe, 0x0b, 0x41, 0x7c, 0xbe, 0x34, 0x80, 0xc2, 0xbe,
  0xe1, 0x8f, 0xcf, 0xbb, 0xf2, 0x71, 0xc6, 0x3e, 0x82, 0xe4, 0x05, 0xbe,
  0x61, 0x14, 0x64, 0xbe, 0xa9, 0x31, 0xed, 0xbe, 0x8a, 0x29, 0x9b, 0xbd,
  0xc0, 0x30, 0xd0, 0x3d, 0x88, 0x7b, 0x65, 0xbe, 0x08, 0x4a, 0xbe, 0xbc,
  0x47, 0x02, 0xbe, 0x3b, 0x2d, 0xa5, 0xbc, 0xbe, 0x7a, 0x82, 0xb8, 0xbe,
  0x65, 0xb1, 0x90, 0xbe, 0xb2, 0xa8, 0x81, 0xbe, 0x5e, 0x82, 0x50, 0x3d,
  0xe1, 0xc3, 0xd8, 0xbd, 0x0a, 0x7d, 0x23, 0xbd, 0x95, 0x6c, 0x70, 0x3d,
  0x70, 0x42, 0x94, 0xbe, 0xe1, 0x22, 0x6e, 0xbe, 0x88, 0x8e, 0x8a, 0xbe,
  0xbd, 0xc2, 0x31, 0xbd, 0x92, 0xef, 0x12, 0x3e, 0x8a, 0x4e, 0xa8, 0x3b,
  0x50, 0xd1, 0x33, 0xbd, 0x83, 0xa0, 0xaf, 0xbd, 0xc3, 0x90, 0x29, 0xbe,
  0x14, 0x00, 0x7f, 0xbe, 0x5c, 0x64, 0x7f, 0x3d, 0x24, 0x8a, 0x4f, 0xbe,
  0xb6, 0xdb, 0x78, 0x3d, 0x1a, 0xa2, 0x82, 0x3d, 0x29, 0x76, 0x27, 0x3e,
  0x38, 0xcf, 0xaa, 0x3d, 0xfa, 0xd8, 0x31, 0x3d, 0x1c, 0xca, 0xc8, 0xbe,
  0x35, 0x9c, 0x9c, 0xbe, 0x6f, 0x39, 0x56, 0xbe, 0x6c, 0x6d, 0xbb, 0xbe,
  0x52, 0x73, 0xbd, 0x3b, 0xb9, 0xb4, 0x64, 0x3e, 0xd3, 0xe9, 0x60, 0x3e,
  0x0b, 0x8a, 0x25, 0xbd, 0xbc, 0x92, 0xcd, 0xbd, 0xe1, 0xa7, 0xe4, 0xbe,
  0xf4, 0x23, 0x43, 0xbd, 0xe4, 0xd5, 0x3a, 0x3c, 0xe5, 0x4e, 0x54, 0x3e,
  0x22, 0x98, 0x80, 0xbe, 0x28, 0xf8, 0xa7, 0x3e, 0x86, 0x0d, 0xb8, 0x3e,
  0x1b, 0x08, 0x68, 0x3e, 0x37, 0xc5, 0xde, 0x3e, 0xe4, 0xae, 0xba, 0x3e,
  0xe4, 0xa7, 0x0a, 0xbd, 0x6e, 0x34, 0xca, 0x3c, 0x36, 0x6e, 0x23, 0x3e,
  0x6d, 0x51, 0xe5, 0x3c, 0xce, 0x11, 0xe7, 0x3c, 0x61, 0x4d, 0x12, 0x3e,
  0x62, 0x44, 0xa0, 0x3d, 0xd9, 0x7c, 0xa1, 0x3e, 0x00, 0x16, 0x34, 0xbc,
  0x25, 0x50, 0x11, 0xbe, 0x04, 0x35, 0x78, 0xbe, 0x30, 0x3a, 0x9e, 0xbc,
  0xf1, 0xc9, 0x52, 0xbd, 0x55, 0x33, 0x73, 0x3e, 0xce, 0xd7, 0xa1, 0x3e,
  0x59, 0xea, 0x4f, 0xbb, 0x34, 0x2a, 0x35, 0x3d, 0x66, 0x77, 0x84, 0x3d,
  0xde, 0x91, 0x22, 0xbd, 0xec, 0x84, 0x33, 0x3e, 0x96, 0x2a, 0x8f, 0x3e,
  0x8a, 0x1a, 0x82, 0x3a, 0x82, 0x85, 0x8c, 0x3e, 0x6f, 0x57, 0x9b, 0xbd,
  0x4b, 0xe9, 0xb9, 0x3e, 0x5e, 0x99, 0x4d, 0x3d, 0xf8, 0x08, 0x86, 0xbd,
  0xec, 0x65, 0x8d, 0xbb, 0x66, 0xd3, 0xbc, 0x3e, 0x39, 0xc6, 0x49, 0x3e,
  0xb3, 0x76, 0x08, 0x3e, 0x73, 0x84, 0xca, 0x3e, 0x97, 0xaf, 0xf4, 0x3e,
  0xb0, 0x80, 0x4c, 0x3e, 0xfe, 0x0c, 0xa1, 0x3e, 0x0b, 0x34, 0xf9, 0x3d,
  0x70, 0x80, 0x89, 0xbc, 0x60, 0x4c, 0x35, 0x3e, 0x53, 0xea, 0x26, 0x3e,
  0x01, 0x8e, 0x95, 0xbd, 0xbf, 0xcf, 0xaa, 0x3e, 0x07, 0xc0, 0xa6, 0x3d,
  0xc3, 0x33, 0x05, 0x3e, 0x12, 0x68, 0x9c, 0x3e, 0x51, 0x15, 0x81, 0x3e,
  0x2f, 0xab, 0x3c, 0x3e, 0x20, 0x29, 0x9e, 0x3d, 0x96, 0xc4, 0x88, 0x3e,
  0x78, 0x30, 0xa4, 0xbd, 0x59, 0xc4, 0xa3, 0x3d, 0x57, 0x71, 0xfd, 0x3d,
  0x29, 0xd0, 0x09, 0x3f, 0x28, 0x26, 0xc4, 0x3e, 0x63, 0x96, 0xaf, 0x3d,
  0x9b, 0x5e, 0x26, 0x3e, 0x43, 0x88, 0xd0, 0x3d, 0x7b, 0xd9, 0x01, 0x3e,
  0xd7, 0xc4, 0xce, 0x3e, 0x5e, 0x5d, 0x62, 0x3e, 0x2f, 0x57, 0x51, 0x3e,
  0x68, 0xd7, 0xda, 0xbc, 0x88, 0x6d, 0x61, 0xbc, 0xbe, 0x66, 0x13, 0x3c,
  0xc3, 0xe4, 0x69, 0x3d, 0x8a, 0x21, 0x84, 0xbe, 0x05, 0x18, 0x17, 0x3e,
  0xb9, 0x14, 0x85, 0x3e, 0xc4, 0xb7, 0x9f, 0x3c, 0x71, 0x69, 0xf5, 0x3d,
  0xa9, 0x00, 0xec, 0xbd, 0xd4, 0x09, 0x8e, 0x3d, 0x54, 0x92, 0x6f, 0xbd,
  0x79, 0x8f, 0x17, 0x3e, 0x57, 0x44, 0x0d, 0x3e, 0x2e, 0x4a, 0x26, 0xbd,
  0x2e, 0xd5, 0xa7, 0xbc, 0x16, 0x8e, 0x2b, 0x3e, 0xf0, 0x99, 0x12, 0x3d,
  0xfa, 0x74, 0x82, 0x3c, 0xa3, 0x53, 0x06, 0x3e, 0xc7, 0xa5, 0xe3, 0xbc,
  0x9f, 0xaf, 0x81, 0xbe, 0x0f, 0xb7, 0x8b, 0xbd, 0x57, 0x60, 0x8d, 0x3e,
  0xe2, 0x78, 0x19, 0xbe, 0x70, 0x49, 0x85, 0x3d, 0x33, 0xac, 0x33, 0x3d,
  0xec, 0x9d, 0x74, 0x3e, 0xeb, 0xf7, 0x79, 0x3e, 0xd2, 0x16, 0xa4, 0x3d,
  0xed, 0x2b, 0x76, 0x3e, 0x29, 0xe3, 0x46, 0x3d, 0x30, 0x23, 0x2d, 0x3e,
  0xe7, 0x95, 0xca, 0x3d, 0x7c, 0x2e, 0x96, 0x3e, 0xa9, 0xeb, 0xd9, 0x3c,
  0x74, 0x94, 0xa9, 0x3e, 0xb9, 0x2f, 0x66, 0xbd, 0x99, 0x9a, 0x2d, 0xbe,
  0xef, 0x96, 0x6f, 0x3e, 0x1b, 0xa3, 0x93, 0xbe, 0x3f, 0x7d, 0xd0, 0x3e,
  0x58, 0x3e, 0x3e, 0x3e, 0x99, 0xff, 0x4f, 0x3e, 0xbd, 0xf1, 0x95, 0x3e,
  0x5f, 0x0b, 0xae, 0x3e, 0xc7, 0x22, 0x30, 0x3e, 0x15, 0x6b, 0x03, 0x3f,
  0xc0, 0x90, 0x03, 0xbe, 0xc7, 0x30, 0x2c, 0x3d, 0x74, 0xa7, 0x9a, 0x3e,
  0xc4, 0xaf, 0x3a, 0xbc, 0xbc, 0x92, 0xbf, 0xbd, 0x61, 0xa3, 0xa0, 0x3e,
  0x9e, 0x30, 0x78, 0x3e, 0xdd, 0x41, 0x98, 0x3e, 0x7f, 0x6d, 0xe2, 0xbd,
  0x5a, 0xfb, 0x68, 0x3e, 0x8d, 0x54, 0xe1, 0x3d, 0x1e, 0x68, 0x25, 0x3e,
  0x07, 0xe7, 0xbe, 0x3e, 0xd2, 0x68, 0x7e, 0x3e, 0x53, 0x52, 0x84, 0x3e,
  0x9e, 0x90, 0xc7, 0x3e, 0x76, 0xd0, 0x52, 0x3e, 0x53, 0x97, 0x8a, 0x3e,
  0x41, 0x91, 0x6c, 0x3e, 0xbe, 0x6d, 0xe4, 0x3e, 0x90, 0x92, 0x21, 0x3e,
  0xfb, 0xd0, 0xee, 0x3c, 0x8e, 0xdc, 0x82, 0x3e, 0x5e, 0xda, 0x92, 0x3c,
  0xf1, 0x7a, 0xd3, 0x3e, 0x80, 0xfc, 0x36, 0x3d, 0xcc, 0xaf, 0x94, 0x3a,
  0x5b, 0x33, 0x59, 0x3e, 0x69, 0xa3, 0x8c, 0x3e, 0x15, 0xa6, 0x66, 0x3e,
  0x97, 0x8b, 0x74, 0x3e, 0xbf, 0x0a, 0x0c, 0x3e, 0x6d, 0x08, 0xca, 0x3e,
  0x46, 0x52, 0x43, 0x3e, 0x71, 0xee, 0xa5, 0x3d, 0xaa, 0x0e, 0x4d, 0xbd,
  0xa5, 0xbe, 0xef, 0x3d, 0x8e, 0x39, 0xb8, 0x3e, 0x97, 0xd4, 0x40, 0x3e,
  0x61, 0x11, 0xb5, 0x3b, 0x79, 0x08, 0x47, 0xbc, 0xf0, 0x43, 0x4b, 0xbc,
  0x9a, 0xd6, 0x13, 0xbd, 0x7f, 0xd6, 0xb7, 0x3e, 0xca, 0x6a, 0xdd, 0xbd,
  0x71, 0x62, 0x6a, 0x3c, 0x5d, 0x7e, 0x43, 0x3e, 0xee, 0x32, 0x90, 0x3e,
  0x16, 0xdf, 0x19, 0x3e, 0x5f, 0x37, 0xc5, 0x3d, 0x23, 0xfa, 0x9b, 0x3e,
  0x3a, 0x86, 0x49, 0xbd, 0x2d, 0x4d, 0xa8, 0x3d, 0xac, 0x52, 0x31, 0x3e,
  0x48, 0x70, 0xe4, 0x3e, 0x33, 0x04, 0xe8, 0x3e, 0xf9, 0x43, 0x5e, 0x3e,
  0x79, 0x6d, 0x61, 0x3e, 0xff, 0x1f, 0x03, 0x3e, 0xbd, 0x3f, 0x20, 0xbd,
  0xc9, 0x09, 0xdb, 0x3d, 0xa0, 0x24, 0x2d, 0x3e, 0x68, 0xd2, 0x18, 0x3e,
  0x3b, 0x77, 0xa2, 0x3e, 0xe8, 0x23, 0x26, 0x3e, 0x2c, 0x21, 0xb2, 0xbb,
  0x93, 0xa6, 0x7b, 0xbe, 0xae, 0xfd, 0x79, 0x3c, 0x2b, 0x6c, 0xa1, 0xbd,
  0xf6, 0x18, 0xba, 0x3e, 0x1e, 0x58, 0x24, 0x3d, 0x2d, 0x46, 0x59, 0x3e,
  0xfd, 0xda, 0xdf, 0x3c, 0x8b, 0x87, 0x2c, 0xbb, 0x6b, 0x4f, 0xf2, 0xbb,
  0x5f, 0x72, 0x01, 0xbe, 0xb4, 0xf8, 0x83, 0x3e, 0xa7, 0x80, 0xc9, 0x3c,
  0x96, 0x80, 0xdf, 0x3e, 0xef, 0x0d, 0xa5, 0x3e, 0x8a, 0xda, 0xff, 0xff,
  0x04, 0x00, 0x00, 0x00, 0x00, 0x0a, 0x00, 0x00, 0xb6, 0x22, 0x6e, 0x3e,
  0xbc, 0xa2, 0x66, 0xbe, 0x47, 0x26, 0xaf, 0xbd, 0xe8, 0x13, 0x08, 0x3e,
  0x9e, 0x45, 0x40, 0xbe, 0xe6, 0x83, 0x8b, 0xbc, 0x84, 0x14, 0x2d, 0x3e,
  0xf2, 0xfc, 0x77, 0x3d, 0xd0, 0xb2, 0x02, 0xbe, 0xa7, 0x1e, 0x40, 0xbe,
  0x07, 0x59, 0x79, 0xbe, 0xd9, 0x51, 0x5c, 0x3d, 0x52, 0xb6, 0xbe, 0xbd,
  0x11, 0x8a, 0xfb, 0x3c, 0xc8, 0xf2, 0xd2, 0xbc, 0x49, 0xbc, 0x03, 0xbe,
  0xc6, 0xd2, 0xb8, 0x3e, 0x8e, 0x06, 0xe3, 0x3a, 0x1c, 0x6b, 0x4a, 0x3c,
  0x34, 0xc1, 0xd9, 0x3d, 0x78, 0xa1, 0xbd, 0x3d, 0xbd, 0xea, 0x73, 0x3e,
  0x35, 0x71, 0x15, 0x3e, 0xcb, 0x54, 0x67, 0xbd, 0x7e, 0xd7, 0x09, 0x3d,
  0xe6, 0x9c, 0x81, 0x3e, 0xdb, 0xbb, 0x72, 0xbe, 0x79, 0x86, 0x32, 0xbe,
  0xed, 0x73, 0xc5, 0xbc, 0x34, 0x56, 0x7c, 0x3c, 0xdb, 0x1b, 0x00, 0x3e,
  0xfe, 0xa5, 0xfa, 0x3c, 0xe3, 0xb1, 0x6f, 0x3d, 0xe2, 0x15, 0xa7, 0xbd,
  0x94, 0x1b, 0x60, 0xbb, 0x4d, 0xd1, 0x9a, 0x3c, 0xa8, 0xa0, 0xda, 0x3d,
  0x92, 0xb1, 0x6b, 0x3e, 0x73, 0xe9, 0x4d, 0x3e, 0x63, 0xb9, 0x39, 0x3e,
  0x2f, 0x8f, 0x43, 0x3e, 0x2e, 0xbb, 0x9b, 0x3e, 0xbf, 0x98, 0xd5, 0x3c,
  0x88, 0xe0, 0x11, 0xbe, 0x39, 0xcb, 0x58, 0xbc, 0x17, 0xe1, 0x1a, 0x3e,
  0x6f, 0xb8, 0x93, 0xbd, 0x7a, 0x0c, 0xc2, 0x3d, 0x81, 0x3d, 0x84, 0xbd,
  0x09, 0x8e, 0x56, 0xbe, 0xc1, 0x6f, 0x62, 0x3d, 0xa6, 0x5f, 0x58, 0xbd,
  0x65, 0x9c, 0x3d, 0xbe, 0x2c, 0xaf, 0xa2, 0xbc, 0x41, 0x32, 0x85, 0xbe,
  0x41, 0x2a, 0x5e, 0xbe, 0xc8, 0x8e, 0x54, 0x3e, 0xcd, 0x77, 0x73, 0x3d,
  0xe4, 0x60, 0xe6, 0xbc, 0x31, 0x3c, 0x64, 0x3e, 0x8f, 0x0a, 0x26, 0x3e,
  0xbb, 0xc0, 0x1f, 0x3e, 0x90, 0x1c, 0x42, 0xbd, 0xc4, 0x77, 0xe5, 0x3d,
  0xd0, 0xfa, 0xe3, 0xbd, 0xc6, 0xcb, 0xac, 0xbe, 0xb2, 0xf3, 0xef, 0xbd,
  0x2a, 0xc2, 0x57, 0xbe, 0x98, 0xfb, 0x8e, 0x3a, 0x95, 0x20, 0x47, 0x3c,
  0x05, 0xbe, 0xf5, 0xbc, 0x03, 0x47, 0xb7, 0xbc, 0x52, 0x77, 0xad, 0xbe,
  0x74, 0xc0, 0x67, 0xbe, 0x39, 0xf3, 0xc7, 0x3d, 0x9c, 0x15, 0x5f, 0xbe,
  0xeb, 0xb0, 0x65, 0x3c, 0xfd, 0x8e, 0x31, 0x3e, 0xc1, 0xb5, 0x28, 0xbe,
  0xf3, 0x95, 0x1d, 0xbe, 0x67, 0x80, 0xb3, 0xbe, 0x05, 0x95, 0x25, 0x3b,
  0xdd, 0x2e, 0x9f, 0xbd, 0x9f, 0x1e, 0x84, 0xbe, 0x03, 0x07, 0x56, 0x3d,
  0x70, 0xa3, 0x89, 0xbe, 0xea, 0x8a, 0xfb, 0x3c, 0x3f, 0xec, 0x07, 0x3e,
  0xee, 0x40, 0xad, 0xbd, 0x58, 0x9d, 0x95, 0x3c, 0x50, 0xc6, 0x7f, 0x3c,
  0xca, 0x6c, 0xc9, 0x3c, 0x2b, 0x39, 0x0c, 0x3e, 0xd2, 0x3f, 0x87, 0xbc,
  0x8d, 0xef, 0x24, 0x3d, 0xa9, 0x24, 0x47, 0x3e, 0x18, 0x9b, 0x66, 0xbe,
  0x51, 0xa6, 0x08, 0xbe, 0x16, 0xba, 0x9d, 0xbc, 0xa8, 0x8a, 0x3c, 0x3c,
  0xbf, 0x52, 0x59, 0x3e, 0x54, 0xf6, 0x2a, 0x3e, 0x64, 0xc5, 0x43, 0xbe,
  0x91, 0x0b, 0x85, 0x3d, 0xe6, 0x49, 0x49, 0xbe, 0xed, 0x34, 0x98, 0xbd,
  0x76, 0x3b, 0xb1, 0xbd, 0x0a, 0xcb, 0x94, 0xbe, 0xbd, 0x89, 0x56, 0xbe,
  0x00, 0xaa, 0x46, 0xbe, 0x46, 0xfc, 0x6f, 0xbe, 0x11, 0xed, 0x91, 0xbe,
  0x57, 0x38, 0x7b, 0x3d, 0xa9, 0xfb, 0xdd, 0xbd, 0xfa, 0xb4, 0x9d, 0xbe,
  0x05, 0x03, 0x60, 0xbe, 0x25, 0xab, 0x96, 0xbe, 0x77, 0x60, 0xd8, 0x3d,
  0x2b, 0xaf, 0x21, 0xbc, 0x52, 0x45, 0xea, 0xbd, 0x56, 0x48, 0x51, 0xbe,
  0x4f, 0xc9, 0x21, 0x3d, 0xd8, 0x33, 0x5f, 0xbe, 0x5a, 0x2e, 0x3e, 0x3e,
  0x03, 0x19, 0x3a, 0x3e, 0xeb, 0x49, 0xf4, 0x3d, 0x41, 0x21, 0x0f, 0xbd,
  0xda, 0x36, 0xe7, 0xbd, 0xd3, 0x1c, 0xbd, 0x3c, 0xfc, 0x84, 0x8c, 0xbd,
  0x33, 0x7b, 0xac, 0xbd, 0x5c, 0x26, 0xcb, 0xbc, 0xc5, 0xc3, 0xe2, 0x3d,
  0x48, 0xd3, 0x28, 0xbe, 0x90, 0x07, 0xa7, 0x3d, 0xe1, 0xb1, 0x6b, 0xbe,
  0x25, 0x99, 0x8d, 0xbd, 0xcf, 0x7c, 0xa9, 0x3e, 0x69, 0x8c, 0xf1, 0xbb,
  0x7e, 0xe4, 0xb8, 0x3e, 0xda, 0xe3, 0xb9, 0x3d, 0x41, 0xe8, 0x37, 0x3e,
  0xee, 0x37, 0x80, 0xbd, 0x1d, 0xe8, 0x95, 0x3d, 0xac, 0x70, 0xda, 0xbc,
  0x20, 0xbf, 0x83, 0xbd, 0x07, 0x9b, 0x4c, 0x3e, 0x53, 0x84, 0x87, 0x3e,
  0x3c, 0x3b, 0x87, 0x3e, 0xfd, 0x2c, 0xa9, 0xbc, 0x0a, 0xa0, 0x1b, 0xbe,
  0xf5, 0xca, 0x28, 0x3e, 0xb0, 0x7d, 0x2c, 0x3e, 0x77, 0xe8, 0x99, 0x3e,
  0xa8, 0x9d, 0xad, 0xbd, 0x13, 0x2b, 0x8b, 0x3e, 0x48, 0xed, 0xc2, 0x3c,
  0x77, 0x53, 0x95, 0x3e, 0x0c, 0x03, 0xb8, 0x3d, 0x1b, 0xf5, 0xf4, 0xbd,
  0x13, 0x7e, 0xbc, 0xbd, 0x45, 0x48, 0xf2, 0x3d, 0xae, 0x01, 0xfe, 0xbc,
  0x20, 0x1c, 0x23, 0x3d, 0x12, 0x5d, 0x7e, 0xbe, 0x19, 0x68, 0x1b, 0x3d,
  0xf6, 0x32, 0x3b, 0xbe, 0x38, 0xc9, 0x56, 0x3e, 0x96, 0x6d, 0x4c, 0xbe,
  0x04, 0x1a, 0xce, 0xbd, 0x5c, 0xfe, 0x0d, 0xbe, 0x62, 0x15, 0x19, 0xbd,
  0xaa, 0xbd, 0x3b, 0x3e, 0x08, 0xa7, 0x2a, 0x3e, 0xff, 0x0f, 0x93, 0xbe,
  0xd8, 0x71, 0x9c, 0xbd, 0x53, 0x06, 0xab, 0x3c, 0x1b, 0x33, 0x08, 0xbe,
  0xb9, 0xca, 0x26, 0x3c, 0x73, 0x6f, 0x90, 0xbe, 0xed, 0xf4, 0xb9, 0xbd,
  0x27, 0x50, 0xbd, 0x3d, 0x5e, 0x63, 0x41, 0x3e, 0x5a, 0xca, 0xd3, 0xbd,
  0x83, 0x5f, 0xfb, 0x3d, 0xa7, 0xc3, 0xae, 0x3d, 0x3f, 0x3a, 0xae, 0x3d,
  0xe5, 0xee, 0x43, 0x3e, 0x5b, 0x91, 0xc7, 0x3d, 0x57, 0xdb, 0xd1, 0xbd,
  0xae, 0xfa, 0x90, 0x3d, 0x9d, 0x3d, 0x9b, 0x3e, 0xa8, 0x34, 0x5e, 0x3d,
  0x39, 0x30, 0x4c, 0x3e, 0x84, 0x08, 0xc7, 0x3d, 0x79, 0xd9, 0x8e, 0xbd,
  0xb6, 0x42, 0x0a, 0x3e, 0xd9, 0x1d, 0x2d, 0xbd, 0xc4, 0xfd, 0x8b, 0xbd,
  0x5d, 0xab, 0x44, 0xbc, 0x15, 0xb4, 0x82, 0x3d, 0x03, 0xf2, 0x01, 0x3e,
  0xaa, 0xea, 0x15, 0xbe, 0x85, 0xab, 0xfd, 0xbd, 0x31, 0x27, 0x02, 0x3e,
  0x49, 0x35, 0x2f, 0xbd, 0xc0, 0x28, 0xa9, 0xbe, 0x51, 0x12, 0x07, 0x3e,
  0xd5, 0xe4, 0x36, 0x3e, 0xdc, 0x0e, 0xd1, 0x3d, 0x4d, 0x1a, 0x43, 0xbd,
  0xe5, 0x90, 0x64, 0xbe, 0xa5, 0x94, 0x1d, 0xbd, 0xec, 0xdd, 0x28, 0xbe,
  0x6a, 0xa4, 0xa5, 0xbe, 0x62, 0x18, 0x39, 0x3e, 0x4e, 0x82, 0xc2, 0x3d,
  0x91, 0xf6, 0x88, 0xbe, 0xc4, 0xed, 0x94, 0xbd, 0xdc, 0x61, 0x0d, 0xbe,
  0xef, 0x94, 0x8a, 0x3d, 0xef, 0x69, 0x5e, 0x3d, 0x9d, 0xff, 0x25, 0xbe,
  0x3d, 0x29, 0x46, 0xbe, 0x08, 0x4d, 0x07, 0x3e, 0xf4, 0xdd, 0xed, 0x3d,
  0xf0, 0x84, 0xd9, 0x3d, 0xef, 0x40, 0xc2, 0x3d, 0xfc, 0x6f, 0xbb, 0xbe,
  0x7c, 0x4a, 0x54, 0xbd, 0xa4, 0x00, 0xfb, 0xbd, 0x55, 0x24, 0xaa, 0xbd,
  0x11, 0x76, 0x76, 0x3e, 0x01, 0x62, 0xc7, 0x3d, 0x27, 0x9e, 0x34, 0x3d,
  0x57, 0x9c, 0x94, 0x3d, 0xa6, 0xe7, 0xf4, 0x3d, 0x91, 0x82, 0xd1, 0x3c,
  0xbb, 0x7f, 0xeb, 0x3d, 0x60, 0x38, 0xd9, 0x3d, 0xc9, 0x53, 0x33, 0xbd,
  0x72, 0x88, 0x1f, 0xbd, 0xe4, 0xa4, 0x14, 0x3e, 0xd2, 0x42, 0x84, 0x3d,
  0xb8, 0xc1, 0x1c, 0x3e, 0x08, 0xec, 0xc1, 0xbc, 0x23, 0x4b, 0xb8, 0x3d,
  0xdc, 0x27, 0xbc, 0x3d, 0xf3, 0x0b, 0xa9, 0xbd, 0xf5, 0x5c, 0x6d, 0x3e,
  0x15, 0xee, 0x99, 0xbc, 0xd1, 0x55, 0x81, 0xbd, 0x49, 0x0b, 0x85, 0x3e,
  0xcb, 0xe7, 0x16, 0xbe, 0x6d, 0x1d, 0xfd, 0xbd, 0xa9, 0x57, 0x38, 0xbe,
  0x63, 0xcf, 0xc1, 0x3d, 0x2a, 0x69, 0x96, 0xbe, 0x54, 0x8b, 0x37, 0xbe,
  0x2e, 0x63, 0x05, 0x3d, 0x49, 0xee, 0x11, 0xbb, 0x81, 0xc9, 0xdb, 0x3c,
  0xc2, 0xf2, 0x3e, 0x3e, 0xa8, 0x7a, 0xa0, 0x3e, 0x26, 0x04, 0x9e, 0xbe,
  0xab, 0xb8, 0x3f, 0x3e, 0x99, 0xe0, 0xa2, 0xbe, 0x26, 0x73, 0x98, 0xbd,
  0xc6, 0x49, 0x85, 0xbc, 0x27, 0x54, 0x47, 0x3e, 0x64, 0x1e, 0xa9, 0x3e,
  0x27, 0x79, 0x5a, 0x3e, 0x23, 0x1b, 0x21, 0xbe, 0x79, 0xfd, 0xb4, 0x3d,
  0x9e, 0x40, 0x1d, 0x3e, 0x9a, 0xb6, 0xc8, 0x3d, 0xcc, 0xb0, 0x4a, 0xbd,
  0x64, 0x79, 0xd2, 0xbd, 0xa1, 0xd9, 0x85, 0x3e, 0xfc, 0xcb, 0x43, 0x3c,
  0x54, 0x18, 0x4e, 0xbe, 0xaa, 0x65, 0x6e, 0x3e, 0x86, 0xf6, 0xd2, 0xbd,
  0x4c, 0x7b, 0x44, 0x3d, 0xad, 0xcd, 0xf6, 0x3d, 0x5b, 0x9f, 0x88, 0x3e,
  0xa1, 0xd6, 0xc1, 0x3b, 0x2c, 0x5a, 0x8a, 0x3e, 0x0e, 0xd3, 0x43, 0xbe,
  0x31, 0x8a, 0x0e, 0x3e, 0xb5, 0x15, 0x41, 0xbd, 0xee, 0x27, 0x3b, 0x3e,
  0xae, 0xe6, 0xcf, 0x3d, 0x6f, 0x04, 0x56, 0x3e, 0xf1, 0x50, 0x7a, 0x3e,
  0x25, 0xbe, 0x4a, 0x3e, 0xcd, 0x7b, 0x1c, 0xbd, 0x87, 0x67, 0x05, 0xbe,
  0x56, 0x43, 0x45, 0x3e, 0x2c, 0x5c, 0x1f, 0x3d, 0x9a, 0x27, 0xef, 0xbc,
  0xa3, 0x69, 0xf3, 0x3c, 0x6d, 0x21, 0x0e, 0x3e, 0x9d, 0x2e, 0x7c, 0x3e,
  0xe7, 0x4a, 0x79, 0xbe, 0x64, 0x54, 0xac, 0xbc, 0x3f, 0x9d, 0x03, 0xbc,
  0x42, 0x19, 0x0b, 0x3e, 0x9b, 0x04, 0xb0, 0xbc, 0xc5, 0x4b, 0x50, 0x3e,
  0x46, 0xe5, 0x61, 0x3e, 0xf8, 0xb9, 0x69, 0x3b, 0x42, 0xdd, 0x32, 0xbe,
  0x18, 0x46, 0x0d, 0xbe, 0x55, 0x1d, 0x1b, 0xbe, 0xfe, 0x12, 0x9f, 0x3e,
  0xea, 0xf6, 0xa4, 0xbd, 0x2c, 0xee, 0xa5, 0x3e, 0xc3, 0xcc, 0xa5, 0x3b,
  0xfc, 0x7a, 0xdf, 0x3d, 0x0c, 0xbd, 0x67, 0x3d, 0x79, 0xcf, 0x04, 0xbe,
  0x0a, 0x79, 0xa6, 0x3d, 0x2a, 0xed, 0x97, 0xbd, 0x6d, 0xb3, 0x86, 0x3e,
  0x3b, 0x3a, 0x45, 0xbb, 0xb3, 0x17, 0x64, 0xbe, 0x6d, 0x03, 0x1a, 0x3e,
  0x97, 0xc8, 0x42, 0x3e, 0x4c, 0xc4, 0xf9, 0xbe, 0x18, 0x91, 0x3b, 0xbe,
  0x7e, 0x03, 0x1c, 0x3e, 0x55, 0x1e, 0xd7, 0xbd, 0xd6, 0x02, 0x59, 0xbe,
  0xf9, 0x80, 0x11, 0xbe, 0x4d, 0x72, 0x2e, 0xbb, 0x3a, 0xb6, 0x8b, 0xbe,
  0x8e, 0x07, 0x07, 0xbe, 0x61, 0x00, 0x3c, 0x3e, 0x46, 0x0a, 0x9d, 0xbc,
  0xd5, 0xd2, 0xaa, 0xbe, 0xad, 0xa5, 0x47, 0xbd, 0xaf, 0xae, 0x69, 0x3d,
  0x09, 0xe1, 0x39, 0x3e, 0x94, 0x35, 0xcf, 0x3d, 0x39, 0xb7, 0xda, 0xbd,
  0x5e, 0xf5, 0xaf, 0x3c, 0xea, 0x90, 0x9e, 0xbe, 0x15, 0xfd, 0x97, 0x3d,
  0x68, 0x30, 0x67, 0xbe, 0xd1, 0xf6, 0x1f, 0x3e, 0xdf, 0xed, 0xca, 0xbd,
  0x64, 0x70, 0x62, 0x3e, 0x72, 0x5d, 0xf0, 0xbd, 0x11, 0x70, 0x97, 0xbe,
  0x9f, 0x1f, 0x61, 0xbe, 0x78, 0x1b, 0xa0, 0xbe, 0xf3, 0x16, 0x05, 0xbe,
  0x19, 0x20, 0xcf, 0xbc, 0x31, 0x5e, 0x86, 0x3e, 0x3b, 0xe2, 0xf2, 0x3d,
  0xbc, 0x1d, 0xe0, 0xbd, 0xe1, 0x34, 0xea, 0x3a, 0x27, 0x41, 0x97, 0xbd,
  0xe8, 0x30, 0xe3, 0x3d, 0x1c, 0xc9, 0x37, 0xbe, 0x6b, 0xb6, 0x62, 0x3e,
  0xa6, 0x16, 0x96, 0x3e, 0x46, 0xad, 0x9d, 0x3d, 0x3b, 0x99, 0x40, 0xbe,
  0xcf, 0xb7, 0x2e, 0xbd, 0x72, 0x17, 0x18, 0xbe, 0xf4, 0xce, 0x8e, 0x3e,
  0xca, 0x54, 0xb9, 0xbd, 0x54, 0xe3, 0x80, 0x3d, 0x77, 0xb8, 0x50, 0x3e,
  0x7e, 0x00, 0x94, 0x3e, 0x2d, 0xdc, 0x46, 0x3d, 0x03, 0xad, 0x0c, 0x3e,
  0x51, 0x64, 0x85, 0xbe, 0x43, 0x2c, 0xa9, 0xbe, 0x38, 0x9b, 0x97, 0x3c,
  0xe5, 0x6c, 0xd3, 0xbd, 0xf3, 0xa5, 0x83, 0x3e, 0x9a, 0xb0, 0xe9, 0xbc,
  0x49, 0x0a, 0x40, 0xbe, 0xe4, 0xc8, 0x14, 0x3e, 0xa4, 0x63, 0xab, 0x3d,
  0x22, 0xda, 0xfc, 0xbb, 0xcf, 0xb8, 0x87, 0x3d, 0xe0, 0x2b, 0x5d, 0xbe,
  0x74, 0x2d, 0xdc, 0xbd, 0x01, 0x43, 0xa0, 0xbd, 0xa2, 0x2a, 0xac, 0x3d,
  0xf2, 0xf1, 0xfb, 0xbd, 0x8b, 0xff, 0x6f, 0x3d, 0x09, 0x66, 0x8d, 0x3d,
  0x49, 0xec, 0x87, 0x3d, 0x94, 0x15, 0xbe, 0xbd, 0xa3, 0x3b, 0xfa, 0x3d,
  0x56, 0x97, 0x86, 0x3e, 0x21, 0xac, 0x84, 0x3e, 0x24, 0x3d, 0x25, 0x3e,
  0x3a, 0x27, 0x43, 0x3e, 0xd6, 0xde, 0xac, 0xbc, 0x5f, 0xbc, 0x38, 0x3e,
  0x00, 0x2d, 0xd9, 0x3e, 0x63, 0xfc, 0x4e, 0xbd, 0x34, 0x8d, 0x73, 0x3e,
  0xc9, 0x4b, 0xcb, 0x3e, 0x11, 0x75, 0x2f, 0xbd, 0xfc, 0xe3, 0xb2, 0x3e,
  0x2d, 0x40, 0x44, 0x3d, 0x28, 0x1b, 0xd1, 0x3d, 0x51, 0xb1, 0x8c, 0x3e,
  0xa5, 0x05, 0xeb, 0x3c, 0x13, 0x77, 0xa8, 0x3c, 0xba, 0x62, 0x2d, 0xbe,
  0xe7, 0x07, 0x4e, 0x3e, 0x94, 0x26, 0x00, 0x3d, 0x8d, 0x1f, 0xa2, 0x3e,
  0xb6, 0xb8, 0x1d, 0x3e, 0x1e, 0x61, 0x78, 0xbe, 0x4a, 0xa1, 0xd5, 0xbd,
  0x60, 0x9f, 0x9a, 0xbe, 0xd0, 0xc1, 0x68, 0x3e, 0x00, 0x0f, 0x80, 0xbd,
  0xfc, 0xbe, 0xd9, 0xbd, 0x60, 0xf7, 0x17, 0xbe, 0x92, 0x4c, 0x32, 0x3d,
  0x1b, 0x1b, 0x42, 0xbe, 0x32, 0x1a, 0xa3, 0xbd, 0xcc, 0xa8, 0x6c, 0xbe,
  0xfb, 0x5d, 0x84, 0x3e, 0x42, 0xdb, 0xc8, 0x3e, 0x9e, 0xaa, 0xbf, 0x3e,
  0x81, 0x22, 0xdd, 0x3d, 0xff, 0xcf, 0x38, 0x3e, 0xed, 0x28, 0x9e, 0x3b,
  0x6d, 0x6b, 0xc7, 0x3b, 0x26, 0xbf, 0x27, 0xbe, 0xcf, 0x6c, 0x80, 0xbd,
  0xd1, 0xe0, 0x86, 0x3d, 0x60, 0x63, 0xbc, 0xbd, 0x11, 0xf7, 0xfd, 0x3c,
  0x09, 0x11, 0xd5, 0x3d, 0x37, 0x5c, 0x38, 0x3d, 0x14, 0xf1, 0x6f, 0x3d,
  0x32, 0xd1, 0x98, 0xbd, 0x0e, 0x60, 0x0b, 0xbc, 0xc4, 0x8e, 0x37, 0x3e,
  0x33, 0x9b, 0x77, 0xbe, 0x2b, 0x5a, 0x01, 0x3e, 0x65, 0x4e, 0x81, 0x3e,
  0x5a, 0x57, 0x3d, 0x3e, 0x7b, 0x4f, 0xaf, 0x3e, 0x44, 0x37, 0x17, 0x3d,
  0x9a, 0x4d, 0x08, 0xbe, 0xb8, 0x6a, 0x45, 0xbe, 0xc9, 0xb8, 0xec, 0xbd,
  0x43, 0x91, 0xe5, 0xbd, 0x81, 0xdc, 0x8b, 0xbe, 0x8d, 0x5f, 0x1f, 0xbd,
  0xad, 0xf5, 0x86, 0x3d, 0x1a, 0x99, 0x20, 0x3e, 0xc2, 0xee, 0x20, 0xbd,
  0x93, 0xc7, 0x7a, 0x3e, 0x90, 0xe2, 0x4f, 0x3c, 0x84, 0xce, 0x2b, 0x3e,
  0xfc, 0x38, 0x01, 0xbe, 0x69, 0x1f, 0x60, 0xbc, 0x4e, 0x6b, 0x4b, 0x3e,
  0xa0, 0xaf, 0x7f, 0xbe, 0xf5, 0xa5, 0x04, 0xbd, 0x62, 0x24, 0x3d, 0x3e,
  0xb7, 0x78, 0x31, 0xbd, 0xdd, 0x19, 0x23, 0xbd, 0x9d, 0xc1, 0xa5, 0xbd,
  0x5a, 0xb8, 0x8f, 0x3d, 0x8d, 0xf3, 0x86, 0xbd, 0xf2, 0x05, 0x34, 0x3e,
  0x20, 0x7b, 0xa4, 0xbc, 0xd0, 0xb3, 0xd4, 0xbd, 0xa0, 0xf6, 0x07, 0xbe,
  0xc1, 0x0a, 0x40, 0x3e, 0xe3, 0x04, 0x3b, 0x3e, 0x62, 0x53, 0x5c, 0x3d,
  0xc3, 0x28, 0x8a, 0xbe, 0xde, 0x1f, 0x2f, 0xbe, 0x30, 0xd1, 0x01, 0xbe,
  0x07, 0x97, 0x91, 0x3e, 0xe4, 0x5c, 0xba, 0x3d, 0x31, 0x16, 0x31, 0xbe,
  0x99, 0xff, 0x18, 0xbe, 0x2a, 0xa5, 0x62, 0x3e, 0xff, 0x14, 0x30, 0xbe,
  0xd7, 0xd7, 0xa8, 0x3e, 0xce, 0x02, 0xec, 0xbd, 0x79, 0x03, 0xa4, 0x3e,
  0x5d, 0x64, 0x31, 0x3e, 0x7c, 0xdc, 0x1a, 0xbc, 0x97, 0x19, 0x24, 0xbe,
  0xa8, 0x77, 0x18, 0xbe, 0x03, 0xb4, 0x8d, 0x3a, 0xe4, 0x6b, 0x32, 0xbe,
  0x23, 0xb9, 0xed, 0xbc, 0x3e, 0xf2, 0xf0, 0x3d, 0xf9, 0x29, 0x36, 0x3e,
  0x96, 0xe8, 0xa5, 0xbd, 0xa3, 0xd0, 0xe9, 0x3c, 0x75, 0x41, 0xe0, 0xbd,
  0x60, 0xcf, 0x46, 0xbd, 0x22, 0x68, 0x9a, 0x3e, 0x8d, 0xea, 0x66, 0xbe,
  0xbd, 0x2a, 0x01, 0x3e, 0x1e, 0x6e, 0xd7, 0xba, 0x6d, 0x74, 0x4d, 0xbe,
  0x14, 0x86, 0xbe, 0x3a, 0xa1, 0x60, 0x14, 0xbe, 0xff, 0x18, 0x54, 0xbe,
  0x56, 0x3a, 0x42, 0x3e, 0x73, 0xd6, 0xec, 0x3d, 0xef, 0x34, 0x42, 0xbe,
  0x09, 0x4f, 0xcd, 0xbd, 0xca, 0x76, 0x8f, 0xbe, 0xb2, 0xb0, 0x3b, 0xbe,
  0x2f, 0x9d, 0xde, 0x3c, 0x90, 0xe3, 0xc5, 0x3d, 0x96, 0x49, 0x16, 0xbe,
  0x00, 0xa9, 0x21, 0xbe, 0xf8, 0xd2, 0x37, 0xbe, 0x95, 0x4c, 0x83, 0xbe,
  0x65, 0xf4, 0x9a, 0xbd, 0xb0, 0x3c, 0x3d, 0xbe, 0xbd, 0x8e, 0xfd, 0x3d,
  0xb9, 0x5a, 0x9a, 0x3d, 0xb0, 0x82, 0xdd, 0xbd, 0x59, 0x9b, 0xf2, 0xbd,
  0x6e, 0xec, 0x83, 0x3d, 0x8f, 0x83, 0x4d, 0x3d, 0x3f, 0x37, 0x9d, 0x3c,
  0xbd, 0x77, 0x65, 0xbe, 0x0b, 0xc0, 0xc2, 0x3d, 0x4c, 0x20, 0xe5, 0x3d,
  0x3d, 0xd1, 0x48, 0x3b, 0xae, 0x74, 0x12, 0x3e, 0xb1, 0x78, 0x57, 0xbe,
  0x2c, 0xce, 0x51, 0x3c, 0xb3, 0xd3, 0x74, 0xbe, 0xd2, 0x6f, 0x74, 0x3d,
  0xfd, 0x0a, 0xd1, 0xbd, 0x38, 0xaf, 0xe5, 0xbd, 0x30, 0x66, 0x1b, 0x3e,
  0xfb, 0xda, 0x26, 0x3e, 0x26, 0x09, 0xe2, 0xbd, 0x1b, 0xcd, 0x21, 0xbe,
  0xd5, 0xe5, 0xb1, 0x3d, 0xe3, 0x0e, 0x29, 0x3e, 0xad, 0xa9, 0x8a, 0xbe,
  0xff, 0x83, 0xec, 0x3d, 0xf1, 0x56, 0xf7, 0xbd, 0xd3, 0xa6, 0x17, 0x3e,
  0x2d, 0x72, 0x6c, 0xbe, 0x3e, 0xca, 0xf2, 0x3c, 0xbb, 0x50, 0x86, 0x3e,
  0xe6, 0x69, 0x70, 0xbd, 0xd8, 0xfa, 0x34, 0x3e, 0xeb, 0x85, 0xb7, 0x3e,
  0x0b, 0x30, 0x13, 0xbb, 0xd3, 0x70, 0x77, 0xbe, 0x2f, 0x60, 0x25, 0xbd,
  0xab, 0x87, 0x56, 0xbe, 0xa2, 0x8b, 0x17, 0x3e, 0xb2, 0x43, 0x89, 0xbc,
  0x8f, 0x2e, 0x09, 0x3e, 0x1e, 0x0e, 0x96, 0x3e, 0x8d, 0x8c, 0x6a, 0xbe,
  0x80, 0x8a, 0x56, 0x3d, 0x8b, 0xb1, 0xec, 0xbc, 0x6d, 0x3f, 0x80, 0xbc,
  0x94, 0xc0, 0x08, 0xbd, 0x1c, 0x94, 0x71, 0xbd, 0xd7, 0xe8, 0xb0, 0xbd,
  0xd5, 0x29, 0x82, 0xbd, 0x5c, 0x52, 0xc5, 0xbd, 0xb5, 0x43, 0x06, 0x3c,
  0x0c, 0xb7, 0x29, 0x3e, 0x4b, 0xed, 0x84, 0x3d, 0xe7, 0xa7, 0x89, 0x3d,
  0x34, 0x36, 0xbb, 0x3d, 0xd6, 0x3c, 0x0a, 0xbd, 0x82, 0x39, 0x33, 0x3c,
  0x9f, 0xc3, 0x95, 0x3e, 0xfd, 0xeb, 0x1f, 0x3e, 0x48, 0x29, 0xaa, 0x3c,
  0xb8, 0xea, 0x4f, 0xbe, 0xf9, 0x2b, 0x0f, 0xbe, 0xb1, 0x3c, 0x09, 0x3d,
  0xe0, 0x00, 0x23, 0xbd, 0x59, 0xcc, 0xfb, 0xbd, 0xec, 0x87, 0x66, 0x3e,
  0x48, 0x04, 0xf7, 0xbd, 0xb1, 0x46, 0xb4, 0x3d, 0xc9, 0x7f, 0xc2, 0x3c,
  0x85, 0x5f, 0x3c, 0xbe, 0x93, 0x19, 0xc5, 0xbd, 0x88, 0xa3, 0x36, 0xbe,
  0xf7, 0xfc, 0x1d, 0x3e, 0x81, 0x96, 0x28, 0xbd, 0x41, 0x1c, 0x16, 0x3e,
  0x09, 0x9f, 0x21, 0x3e, 0x3c, 0x3d, 0x24, 0xbe, 0x67, 0xe2, 0xfa, 0xbd,
  0x8f, 0xf5, 0x00, 0x3d, 0x7c, 0x9b, 0x07, 0xbd, 0x34, 0x27, 0xcf, 0xbd,
  0xe7, 0xb7, 0xb3, 0xbe, 0x19, 0xe9, 0x42, 0xbe, 0x97, 0xb0, 0x4b, 0x3e,
  0xdd, 0xab, 0x47, 0xbe, 0xa8, 0x7e, 0x62, 0xbe, 0xf8, 0x6b, 0xf6, 0x3d,
  0x85, 0xa0, 0x72, 0x3e, 0x6a, 0x78, 0x44, 0xbd, 0x8f, 0xf1, 0x7d, 0xbe,
  0x24, 0x3a, 0x9d, 0xbc, 0x1f, 0xf0, 0x53, 0xbe, 0xec, 0x5d, 0xb5, 0xbd,
  0x6a, 0x5d, 0x97, 0x3d, 0x0b, 0xfe, 0x93, 0xbe, 0x0e, 0xf0, 0x84, 0xbe,
  0x35, 0x78, 0xd6, 0xbd, 0xed, 0x0e, 0xa1, 0xbc, 0xd0, 0xeb, 0x3d, 0xbe,
  0xf5, 0xb0, 0x28, 0xbe, 0x86, 0x89, 0x73, 0x3d, 0xac, 0x4c, 0x48, 0xbe,
  0x5d, 0x4f, 0x82, 0x3c, 0x7b, 0xdd, 0x84, 0xbe, 0x5e, 0x91, 0x12, 0xbe,
  0x96, 0xe4, 0xff, 0xff, 0x04, 0x00, 0x00, 0x00, 0x00, 0x0a, 0x00, 0x00,
  0x80, 0x7a, 0x8c, 0x3d, 0xf8, 0xb8, 0x8a, 0x3e, 0x01, 0xf5, 0xff, 0x3e,
  0x90, 0x6e, 0xa3, 0x3d, 0xdd, 0x77, 0xf1, 0xbb, 0xf5, 0x1f, 0x0a, 0xbe,
  0xa6, 0x02, 0xf8, 0xbb, 0x5a, 0x47, 0x56, 0xbe, 0x45, 0xdd, 0x66, 0x3e,
  0x6d, 0x80, 0x9f, 0xbb, 0xf3, 0xea, 0x82, 0x3e, 0xe5, 0x9e, 0xf4, 0x3d,
  0x13, 0x5b, 0x52, 0x3d, 0x34, 0x2a, 0xd2, 0x3e, 0xc9, 0x08, 0xce, 0xbd,
  0x9b, 0x11, 0xbe, 0x3d, 0x2a, 0x64, 0xb8, 0x3e, 0xe2, 0x27, 0x12, 0x3e,
  0x58, 0xcc, 0xa6, 0x3e, 0x25, 0xd1, 0x81, 0x3b, 0x04, 0x78, 0x92, 0x3e,
  0x61, 0x52, 0x36, 0x3d, 0xde, 0x0f, 0x44, 0x3d, 0x48, 0x4c, 0xe2, 0x3e,
  0x08, 0x2c, 0x38, 0xbe, 0xc6, 0xb5, 0x04, 0xbe, 0xe4, 0xca, 0x1d, 0x3d,
  0xc2, 0xf8, 0xa7, 0x3e, 0x23, 0x31, 0x65, 0x3e, 0xd5, 0x90, 0x04, 0x3e,
  0x7d, 0x0d, 0xa5, 0xbd, 0x41, 0x1f, 0x8b, 0x3d, 0xbb, 0x99, 0x50, 0x3e,
  0x8f, 0xba, 0xdb, 0xbd, 0x26, 0x24, 0xca, 0x3d, 0x92, 0x4e, 0x1c, 0x3e,
  0x4b, 0x96, 0x82, 0x3d, 0x61, 0x98, 0x58, 0x3e, 0x35, 0x09, 0x57, 0x3d,
  0xc8, 0x81, 0xb0, 0x3e, 0x83, 0xd3, 0x98, 0x3d, 0x68, 0x33, 0xee, 0xbd,
  0x95, 0x39, 0x18, 0x3e, 0x18, 0x45, 0x64, 0x3c, 0x66, 0x3c, 0x84, 0x3e,
  0x55, 0xe7, 0x38, 0x3e, 0xbc, 0x14, 0x71, 0x3e, 0x7b, 0xb0, 0x47, 0x3e,
  0x33, 0xdd, 0x2d, 0x3d, 0x0e, 0x24, 0xab, 0x3e, 0x92, 0x17, 0xe4, 0x3e,
  0x09, 0xe7, 0x84, 0x3e, 0x09, 0x72, 0x26, 0x3e, 0xc8, 0x61, 0x23, 0x3e,
  0x0e, 0xbd, 0x0e, 0xbe, 0xdc, 0xc3, 0x9d, 0x3d, 0x88, 0xf9, 0xb6, 0x3e,
  0x5f, 0x6e, 0x54, 0x3e, 0xf2, 0x5f, 0x37, 0x3e, 0xbe, 0xc9, 0xc9, 0x3c,
  0xdd, 0x3f, 0xa6, 0x3e, 0x30, 0xc9, 0x0a, 0xbe, 0x23, 0x20, 0xcc, 0xbd,
  0xf1, 0xbb, 0x65, 0x3d, 0x2b, 0x47, 0xe4, 0xbd, 0x8b, 0x22, 0x37, 0x3e,
  0xf9, 0x97, 0x0a, 0x3e, 0xd2, 0xa4, 0x51, 0xbd, 0xeb, 0x4e, 0x59, 0x3e,
  0x67, 0x1d, 0x52, 0xbe, 0x15, 0xb8, 0x04, 0x3e, 0xee, 0x2e, 0xda, 0x3d,
  0x66, 0x72, 0x7f, 0x3e, 0x6b, 0xbe, 0x2a, 0xbe, 0x19, 0x44, 0xe8, 0xbc,
  0x80, 0x0a, 0xbc, 0x3c, 0xc5, 0xb4, 0x91, 0x3d, 0xc1, 0x92, 0x67, 0xbe,
  0xb2, 0x63, 0xd7, 0x3c, 0xa0, 0xe7, 0x0f, 0xbe, 0xe1, 0xe5, 0xb4, 0xbd,
  0x45, 0xe0, 0x2f, 0xbe, 0x14, 0xa5, 0x10, 0xbe, 0x7f, 0x54, 0x0c, 0xbb,
  0x6d, 0x01, 0x8c, 0x3d, 0x4a, 0x48, 0x4b, 0xbe, 0xca, 0x32, 0xd1, 0x3c,
  0x58, 0xc0, 0xd4, 0x3d, 0xb7, 0x0c, 0x75, 0x3d, 0xcf, 0xc3, 0xea, 0x3d,
  0x65, 0xc6, 0x91, 0xbd, 0x62, 0x33, 0x67, 0xbc, 0xbc, 0xe7, 0xc5, 0x3a,
  0xb5, 0xc4, 0x9b, 0xbe, 0xd4, 0xe3, 0xac, 0xbe, 0x40, 0xdf, 0x48, 0xbe,
  0x0c, 0xab, 0x40, 0x3e, 0x19, 0xe6, 0xbf, 0x3e, 0xcf, 0x2f, 0x3f, 0x3d,
  0xc8, 0x46, 0xee, 0x3d, 0x8b, 0x9b, 0xc2, 0xbe, 0x60, 0xce, 0x57, 0xbe,
  0xc8, 0x57, 0xdb, 0x3d, 0x1f, 0x48, 0x18, 0xbd, 0x75, 0x9f, 0x94, 0x3d,
  0x74, 0xc5, 0x3f, 0x3e, 0x44, 0xcb, 0x9f, 0xbd, 0xc9, 0x9d, 0xc3, 0x3d,
  0xc1, 0x7c, 0x2c, 0x3e, 0xcb, 0xf8, 0xab, 0xbe, 0xe0, 0x50, 0x95, 0xbe,
  0x3e, 0xa9, 0xce, 0x3c, 0xe7, 0x23, 0x8c, 0x3c, 0xcc, 0x8a, 0x8c, 0x3e,
  0x50, 0x07, 0x02, 0x3e, 0x59, 0x11, 0x8e, 0x3d, 0xa7, 0x78, 0x71, 0x3d,
  0xed, 0x25, 0x97, 0xbc, 0xa9, 0xf7, 0x29, 0x3d, 0x4e, 0x77, 0xc9, 0x3b,
  0xbc, 0x56, 0x0c, 0x3e, 0x90, 0xd3, 0xfa, 0xbd, 0x0c, 0x31, 0xbe, 0x3e,
  0x8c, 0xb5, 0xa1, 0xbe, 0x84, 0x04, 0x58, 0x3d, 0xa4, 0xb0, 0xc5, 0xbc,
  0x31, 0xfa, 0xb4, 0x3d, 0x86, 0xe4, 0xa3, 0xbe, 0x3e, 0x63, 0x44, 0x3e,
  0x37, 0x64, 0xb4, 0x3d, 0x21, 0x48, 0x03, 0x3f, 0x0a, 0xcd, 0x98, 0x3d,
  0x5e, 0xd2, 0xa1, 0x3e, 0xc2, 0x40, 0x11, 0x3c, 0xc9, 0xef, 0x67, 0x3d,
  0xc4, 0x57, 0xea, 0xbc, 0x37, 0x62, 0xd3, 0x3d, 0x8e, 0xe2, 0xd6, 0x3e,
  0xbf, 0xdb, 0x8c, 0x3e, 0x61, 0x91, 0x94, 0x3e, 0xa0, 0x1b, 0xbf, 0x3e,
  0xf1, 0x94, 0x0e, 0x3c, 0x7e, 0xf3, 0x0e, 0x3e, 0x18, 0x9a, 0xd7, 0x3d,
  0x2b, 0xca, 0x8d, 0x3e, 0x97, 0x58, 0xf8, 0x3e, 0x82, 0xd9, 0xa2, 0x3e,
  0xf8, 0x9d, 0x80, 0x3e, 0x9d, 0x95, 0x11, 0x3f, 0x8f, 0x08, 0x4f, 0x3e,
  0x8e, 0xd9, 0x55, 0xbe, 0x03, 0xf2, 0x2e, 0x3e, 0xc5, 0x56, 0x13, 0x3f,
  0xd7, 0x5c, 0xac, 0x3e, 0x47, 0x96, 0x0a, 0x3f, 0x34, 0x17, 0x88, 0x3d,
  0x71, 0xf3, 0x4a, 0x3e, 0x2c, 0x98, 0x84, 0x3e, 0x39, 0xc9, 0xad, 0xbc,
  0x8c, 0x1e, 0x2f, 0x3e, 0xab, 0xca, 0x4c, 0x3e, 0x89, 0x98, 0x76, 0x3e,
  0x0e, 0x12, 0x1f, 0x3e, 0xdc, 0x03, 0x14, 0x3e, 0xbc, 0xaa, 0x54, 0x3e,
  0xcd, 0xae, 0xcd, 0x3d, 0xfd, 0x23, 0x05, 0x3e, 0x2c, 0xd4, 0x51, 0x3e,
  0xf5, 0x6b, 0x1f, 0x3e, 0x90, 0x99, 0x01, 0x3e, 0xff, 0x7d, 0x01, 0x3d,
  0x36, 0xa2, 0x77, 0x3e, 0x5e, 0x42, 0x45, 0x3e, 0x9e, 0x15, 0x33, 0xbe,
  0xd6, 0xd0, 0x60, 0xbe, 0x33, 0x48, 0x3f, 0x3e, 0x92, 0xf4, 0xc7, 0x3e,
  0xe6, 0xf4, 0xaa, 0x3e, 0xe5, 0x86, 0x0c, 0x3d, 0xe4, 0x24, 0xc6, 0xbd,
  0xbc, 0x23, 0x9f, 0x3e, 0x78, 0x5c, 0x80, 0xbd, 0x61, 0x6a, 0x4e, 0x3e,
  0x20, 0xed, 0x50, 0x3d, 0xfd, 0xf7, 0xfd, 0x3e, 0xbb, 0xc9, 0x03, 0x3f,
  0x4a, 0x06, 0xce, 0x3e, 0x38, 0xa3, 0x6c, 0x3e, 0x7f, 0xb7, 0x58, 0x3e,
  0xd9, 0x0e, 0x18, 0x3e, 0xb6, 0xfe, 0x39, 0x3e, 0x16, 0x4e, 0x62, 0xbd,
  0x86, 0xaa, 0x75, 0x3e, 0xb6, 0x34, 0xc1, 0x3e, 0x36, 0x3c, 0x5b, 0x3d,
  0x99, 0x06, 0x01, 0xbd, 0xc5, 0xbf, 0x30, 0x3e, 0x2f, 0x09, 0x28, 0x3e,
  0xd5, 0xb5, 0xc7, 0xbd, 0x40, 0xd6, 0xb3, 0x3e, 0x9d, 0xb2, 0x7a, 0xbd,
  0x19, 0xf7, 0xae, 0x3d, 0xd6, 0x3d, 0x8b, 0x3d, 0x16, 0xe2, 0x10, 0xbe,
  0x6a, 0x5a, 0x84, 0x3e, 0x41, 0x73, 0x18, 0x3d, 0x0b, 0xdd, 0x00, 0xbe,
  0xf4, 0xb0, 0x5c, 0x3d, 0x6c, 0x48, 0xae, 0xbd, 0xe2, 0xa5, 0xd5, 0x3e,
  0x72, 0x4c, 0x34, 0x3e, 0x25, 0x24, 0x4b, 0x3e, 0xf1, 0x95, 0x71, 0x3e,
  0x70, 0x25, 0x8d, 0x3e, 0x2a, 0xcc, 0xa5, 0x3d, 0xf9, 0xbe, 0xcc, 0xbd,
  0x4b, 0x14, 0x82, 0x3c, 0x66, 0x30, 0xea, 0xbd, 0xc3, 0xd7, 0xc7, 0x3d,
  0x12, 0xf0, 0x7c, 0x3d, 0xcf, 0xd3, 0xf3, 0x39, 0xac, 0x17, 0xfb, 0x3d,
  0x6d, 0x6d, 0x94, 0x3d, 0xf9, 0x0a, 0x54, 0x3e, 0x30, 0x22, 0x80, 0x3e,
  0x26, 0x48, 0xe6, 0x3d, 0x66, 0x58, 0x86, 0x3e, 0x3b, 0x1e, 0x13, 0x3e,
  0x28, 0x3e, 0x4e, 0xbe, 0xed, 0x37, 0x4f, 0x3d, 0x3a, 0x7a, 0x9e, 0x3e,
  0xa4, 0xa5, 0x08, 0x3e, 0x62, 0x3e, 0x5a, 0x3e, 0x35, 0x12, 0x5e, 0x3d,
  0xfe, 0x71, 0x27, 0x3e, 0x17, 0x61, 0xdf, 0xbb, 0x4a, 0xf0, 0x36, 0x3c,
  0x3f, 0x0d, 0x62, 0x3e, 0x03, 0x0f, 0xd1, 0xbd, 0x11, 0x2b, 0xe7, 0xbd,
  0x43, 0x1f, 0xf7, 0xbb, 0xdd, 0xc5, 0x84, 0x3d, 0x65, 0x08, 0x90, 0xbd,
  0x21, 0xf4, 0x22, 0x3e, 0x33, 0x13, 0x49, 0x3e, 0x4e, 0x0e, 0xb7, 0x3e,
  0x65, 0xb2, 0x91, 0x3e, 0x0d, 0xb2, 0x4a, 0x3e, 0x9e, 0xc7, 0xb7, 0x3e,
  0x95, 0xa5, 0xaf, 0x3e, 0x27, 0xaf, 0x01, 0xbd, 0xd4, 0x17, 0xab, 0x3e,
  0xf9, 0xc6, 0xc9, 0x3d, 0x9a, 0x32, 0x48, 0x3e, 0x2b, 0xce, 0x1d, 0xbe,
  0x28, 0x3f, 0x42, 0x3e, 0x1b, 0x24, 0x39, 0x3e, 0xa9, 0x56, 0xfd, 0x3c,
  0xff, 0xa7, 0x3b, 0x3e, 0xa5, 0x57, 0x0e, 0xbc, 0x52, 0xb6, 0x3f, 0xbd,
  0x09, 0x7b, 0xe8, 0x3d, 0xbd, 0x95, 0x98, 0x3d, 0x9e, 0x15, 0xa2, 0x3d,
  0x96, 0x08, 0x91, 0xbe, 0x39, 0xfc, 0x1b, 0xbd, 0xa3, 0xff, 0x35, 0xbe,
  0x8c, 0x2b, 0xc5, 0xbd, 0x32, 0x56, 0x02, 0xbf, 0x1a, 0x4c, 0x03, 0xbf,
  0x4e, 0xb7, 0x07, 0xbf, 0xd0, 0x2b, 0x9e, 0xbd, 0x81, 0x04, 0x4d, 0xbe,
  0x07, 0x58, 0x3b, 0xbc, 0x5b, 0x17, 0xc3, 0xbe, 0x26, 0x5f, 0xac, 0xbc,
  0x1a, 0x12, 0x70, 0xbe, 0xf7, 0x4a, 0x32, 0xbe, 0x65, 0xaf, 0xb1, 0xbe,
  0x63, 0xdc, 0xf8, 0xbe, 0x6f, 0x2f, 0x04, 0xbb, 0xc3, 0xea, 0x26, 0xbd,
  0x48, 0x18, 0x37, 0xbe, 0xbc, 0x9b, 0x2a, 0xbe, 0x17, 0x9a, 0xce, 0xbe,
  0x4a, 0xda, 0xd5, 0xbd, 0xe1, 0xcf, 0xfe, 0xbe, 0x5d, 0x40, 0x0a, 0x3e,
  0xa7, 0xe7, 0x9f, 0xbe, 0x9c, 0xa2, 0xa5, 0xbd, 0xb7, 0x28, 0x56, 0xbe,
  0xde, 0xc0, 0xc8, 0x3d, 0xdf, 0xc9, 0x08, 0xbe, 0xc1, 0xb9, 0x6d, 0x3e,
  0x41, 0xe8, 0x1c, 0xbe, 0xd4, 0x5d, 0xfa, 0xbd, 0x4b, 0x5e, 0x62, 0x3b,
  0xc2, 0xc9, 0x27, 0xbd, 0xec, 0xa6, 0xa9, 0xbd, 0x90, 0xdc, 0x17, 0xbe,
  0x3e, 0x1d, 0x84, 0xbe, 0xf0, 0x63, 0x0c, 0xbd, 0x3a, 0x4b, 0x59, 0x3d,
  0x1f, 0x84, 0xdf, 0xbe, 0xf9, 0x40, 0x79, 0xbe, 0x14, 0x0f, 0x83, 0xbe,
  0x9b, 0xca, 0xde, 0xbe, 0x16, 0xa7, 0xbb, 0xbe, 0xfe, 0x58, 0x26, 0xbd,
  0xc3, 0x6a, 0xce, 0xbd, 0x2c, 0x8c, 0x4b, 0xbe, 0x04, 0xdc, 0x88, 0x3d,
  0x2a, 0x10, 0x0e, 0x3e, 0xbf, 0x64, 0xa7, 0x3d, 0xb9, 0xc6, 0x19, 0xbe,
  0xac, 0xc4, 0x9d, 0xbe, 0x78, 0x33, 0x9e, 0xbe, 0x17, 0xdb, 0xbc, 0x3d,
  0xa5, 0x56, 0x1a, 0xbd, 0xde, 0x63, 0x32, 0x3e, 0x8c, 0x29, 0xbe, 0xbd,
  0xea, 0x92, 0xe8, 0xbe, 0xf7, 0x8f, 0x66, 0xbd, 0xd5, 0xdf, 0x0c, 0x3e,
  0x7a, 0xbf, 0x19, 0xbd, 0x09, 0x59, 0x15, 0xbe, 0x82, 0xa1, 0x26, 0x3e,
  0x2d, 0x48, 0x07, 0xbe, 0x02, 0xb2, 0xd7, 0xbd, 0x3c, 0x79, 0x4e, 0x3b,
  0x82, 0xdf, 0x90, 0xbc, 0xfc, 0x5b, 0x43, 0xbe, 0x34, 0x03, 0x1f, 0xbe,
  0x3f, 0xd0, 0x05, 0xbe, 0x7b, 0x48, 0xc2, 0x3d, 0xe4, 0x64, 0x4e, 0xbd,
  0x71, 0xd3, 0x9a, 0xbe, 0x23, 0x17, 0xce, 0xbe, 0x98, 0xf4, 0xb6, 0xbd,
  0x7c, 0x96, 0xe3, 0xbd, 0xf9, 0x3f, 0x31, 0x3e, 0x73, 0x2b, 0x76, 0xbd,
  0x24, 0xfc, 0xb3, 0x3e, 0x72, 0xef, 0x64, 0x3e, 0x57, 0x60, 0x10, 0xbf,
  0x5c, 0x99, 0xce, 0xbe, 0x15, 0x18, 0x2e, 0xbe, 0x78, 0x9d, 0xcc, 0xbc,
  0xfd, 0x12, 0xfc, 0x3c, 0x6d, 0x33, 0xc9, 0x3d, 0x80, 0x4a, 0x50, 0xbd,
  0xce, 0xec, 0x13, 0xbd, 0x18, 0x8b, 0xb2, 0xbe, 0x4b, 0x79, 0x89, 0xbe,
  0x5d, 0x91, 0x1e, 0xbe, 0xd8, 0xf5, 0x05, 0x3d, 0x20, 0xb5, 0x74, 0xbe,
  0x90, 0x2c, 0x22, 0xbe, 0x9f, 0xe0, 0xa2, 0x3d, 0xc7, 0x02, 0x61, 0x3e,
  0x38, 0x4b, 0xae, 0xbe, 0xd1, 0x75, 0xbb, 0xbe, 0x7d, 0x62, 0x8b, 0xbe,
  0xf8, 0xd7, 0x83, 0xbe, 0xd6, 0x28, 0x6d, 0xbe, 0xa0, 0xc6, 0x89, 0xbd,
  0xa4, 0xc8, 0x82, 0xbe, 0x66, 0x2d, 0x40, 0xbe, 0x82, 0x01, 0xca, 0xbe,
  0xe9, 0x27, 0xaa, 0xbe, 0x73, 0x54, 0xff, 0xbc, 0xba, 0xee, 0xfc, 0xbd,
  0xe1, 0x37, 0x91, 0xbe, 0x56, 0xb6, 0x73, 0x3d, 0x0f, 0xd5, 0x2d, 0x3e,
  0xa7, 0xc8, 0x82, 0x3e, 0x48, 0x43, 0xff, 0xbd, 0xc4, 0x83, 0x75, 0xbe,
  0x6e, 0xf5, 0x05, 0xbe, 0x41, 0xc1, 0x0c, 0xbd, 0x00, 0x07, 0x80, 0x3d,
  0x0e, 0xf4, 0xe7, 0x3c, 0x76, 0xd3, 0x0b, 0x3e, 0xfd, 0x70, 0x89, 0x3d,
  0x80, 0xa5, 0x6e, 0x3e, 0x87, 0xf3, 0x9b, 0xbe, 0xd4, 0x8f, 0x35, 0x3e,
  0x20, 0xe4, 0xb8, 0x3d, 0x5a, 0xeb, 0x26, 0xbd, 0x2c, 0xaf, 0x08, 0xbe,
  0x34, 0xb4, 0x2f, 0x3d, 0x12, 0x9c, 0xb0, 0x3e, 0x94, 0x90, 0x80, 0xbe,
  0xa6, 0x9e, 0xb1, 0xbe, 0x6f, 0x49, 0x62, 0xbe, 0xec, 0x43, 0x07, 0x3e,
  0x90, 0x01, 0x88, 0xbd, 0x4a, 0xb9, 0x79, 0xbe, 0xfb, 0xc3, 0x7b, 0xbe,
  0x44, 0xf8, 0x34, 0xbd, 0xc9, 0xbf, 0x94, 0xbe, 0xb7, 0x1a, 0x15, 0xbf,
  0x7f, 0x17, 0x51, 0xbd, 0x66, 0xeb, 0x93, 0xbd, 0x1e, 0xc3, 0x01, 0x3d,
  0x32, 0x73, 0xb1, 0xbe, 0xad, 0x4f, 0x9c, 0x3e, 0x26, 0xb9, 0x30, 0xbe,
  0x46, 0x0d, 0x82, 0xbe, 0xb6, 0x24, 0x5b, 0xbe, 0xf7, 0x72, 0x3a, 0xbe,
  0x68, 0x54, 0x9e, 0xbe, 0x1d, 0xf8, 0x56, 0xbe, 0xa4, 0xf6, 0xae, 0xbc,
  0x99, 0xb5, 0x9d, 0xbe, 0x96, 0xd0, 0x52, 0xbe, 0x6c, 0x2a, 0xac, 0xbe,
  0xe8, 0xca, 0xb6, 0xbe, 0x5d, 0x52, 0x9e, 0xbe, 0x04, 0xfd, 0xb8, 0xbd,
  0x2b, 0x09, 0xc5, 0xbd, 0x61, 0x65, 0xa2, 0x3d, 0xb7, 0xfb, 0x8a, 0xbe,
  0xfe, 0x9d, 0x01, 0x3d, 0xdf, 0x02, 0xfe, 0xbe, 0x7d, 0x4f, 0x88, 0xbe,
  0xd0, 0x38, 0xe0, 0xbe, 0x14, 0xa5, 0xf3, 0xbe, 0x06, 0xc6, 0xbb, 0xbe,
  0x71, 0xcf, 0x12, 0xbe, 0x02, 0x2b, 0xaf, 0xbd, 0x92, 0xf5, 0xda, 0x3d,
  0x79, 0xad, 0x07, 0xbf, 0x9e, 0x26, 0x72, 0xbe, 0xd1, 0x8b, 0x86, 0xbe,
  0xe0, 0xf1, 0x10, 0xbe, 0x68, 0x4d, 0xbf, 0xbe, 0x77, 0x05, 0x02, 0x3e,
  0xd5, 0xd7, 0x98, 0x3e, 0xfb, 0xc1, 0x05, 0xbe, 0xd2, 0x8f, 0x03, 0xbf,
  0xb9, 0xb9, 0xaa, 0xbc, 0x3e, 0x68, 0x84, 0xbe, 0xca, 0xfe, 0x4a, 0xbe,
  0x14, 0xb5, 0x42, 0xbe, 0x21, 0xba, 0x4a, 0xbc, 0x41, 0x58, 0x85, 0xbd,
  0xe5, 0x58, 0xe1, 0x3e, 0x20, 0xa1, 0x83, 0xbe, 0xfe, 0x29, 0x6f, 0xbe,
  0xdc, 0x5f, 0x7d, 0xbe, 0x17, 0x89, 0x7d, 0x3e, 0xc5, 0xd8, 0x38, 0x3e,
  0x61, 0x3e, 0x8e, 0x3d, 0xd3, 0x2a, 0x96, 0xbe, 0x3e, 0x3b, 0xa1, 0xbd,
  0x38, 0x87, 0xf6, 0xbd, 0x19, 0x67, 0x2d, 0x3d, 0xb9, 0xaa, 0x04, 0x3e,
  0x77, 0xff, 0xfc, 0xbd, 0x85, 0x2b, 0x42, 0x3e, 0xaf, 0x24, 0xa7, 0x3d,
  0x82, 0xce, 0xd1, 0x3d, 0x60, 0x7c, 0x41, 0x3e, 0x34, 0x97, 0x25, 0x3d,
  0x12, 0x39, 0xb4, 0xbc, 0xaf, 0x98, 0x88, 0x3d, 0x7f, 0x88, 0x4b, 0x3d,
  0x40, 0x97, 0x27, 0x3e, 0x77, 0xea, 0x34, 0x3e, 0x89, 0xe3, 0x36, 0x3e,
  0xbc, 0xce, 0x6f, 0x3d, 0x67, 0x58, 0xc3, 0xbc, 0xb5, 0x8e, 0xdd, 0xbc,
  0xa1, 0x57, 0x04, 0xbe, 0xe6, 0x9c, 0x84, 0x3d, 0xd8, 0xdb, 0xd8, 0x3e,
  0x16, 0x6f, 0x62, 0x3e, 0xb1, 0x3f, 0x70, 0xbe, 0x05, 0x8b, 0xb6, 0x3e,
  0x13, 0x8d, 0x02, 0xbe, 0x9a, 0xeb, 0x77, 0x3e, 0x1a, 0xf8, 0xbd, 0xbc,
  0xd8, 0x16, 0xef, 0x3d, 0x5c, 0x20, 0xb6, 0x3e, 0x84, 0xa3, 0x4d, 0xbd,
  0x42, 0x8c, 0x4a, 0x3d, 0xb1, 0x79, 0x9d, 0x3e, 0xf7, 0x92, 0xb7, 0xbe,
  0xca, 0xe9, 0x05, 0x3e, 0xd5, 0x9d, 0x8d, 0xbe, 0xd9, 0x17, 0xc2, 0x3d,
  0x35, 0x6c, 0xc2, 0xbd, 0xc4, 0x3a, 0x56, 0xbd, 0x5d, 0x64, 0xac, 0x3d,
  0x70, 0xcf, 0xda, 0x3e, 0x05, 0x73, 0xe0, 0xbc, 0x84, 0xbb, 0xee, 0x3b,
  0x95, 0xbc, 0x16, 0xbe, 0xcf, 0xb8, 0x8e, 0x3c, 0x00, 0x91, 0x80, 0xbd,
  0x34, 0x29, 0x82, 0x3e, 0x7e, 0xf6, 0xdd, 0x3e, 0x9c, 0xe7, 0xce, 0x3e,
  0xd9, 0xcc, 0x05, 0x3f, 0x01, 0x75, 0x1c, 0x3e, 0x50, 0x57, 0x91, 0x3e,
  0x25, 0x92, 0x3e, 0xbc, 0x32, 0x4b, 0x99, 0x3e, 0x36, 0x2d, 0xb5, 0x3e,
  0x87, 0x63, 0x87, 0x3e, 0xfb, 0x7e, 0x0a, 0x3e, 0x4c, 0xb7, 0x3c, 0xbe,
  0x93, 0x08, 0xb1, 0xbc, 0xf5, 0xde, 0x19, 0x3e, 0xe5, 0xf9, 0x86, 0xbe,
  0xe5, 0x5e, 0x2c, 0x3e, 0x8c, 0x04, 0x4a, 0x3e, 0x42, 0x69, 0xa1, 0x3e,
  0x8a, 0x62, 0x2c, 0x3d, 0xe4, 0x2f, 0xfa, 0x3d, 0x46, 0xaa, 0xb2, 0xbd,
  0x77, 0x8a, 0x32, 0xbe, 0xb9, 0xe4, 0xeb, 0xbd, 0x9c, 0x34, 0xd5, 0x3d,
  0x0d, 0x00, 0x8f, 0x3e, 0x78, 0x4b, 0x3a, 0x3e, 0x78, 0xbb, 0x98, 0x3e,
  0xa9, 0x0f, 0x54, 0xbe, 0x14, 0xda, 0xb2, 0xbd, 0x79, 0x25, 0x59, 0x3e,
  0x18, 0x31, 0x06, 0x3e, 0xa4, 0xa9, 0xa7, 0x3e, 0xf6, 0xf4, 0x6d, 0x3a,
  0xf3, 0xc2, 0xbe, 0x3e, 0x60, 0x03, 0x04, 0x3f, 0x6b, 0xc5, 0xf9, 0xbd,
  0xc8, 0xe2, 0x45, 0xbe, 0x82, 0xa1, 0x98, 0x3c, 0x08, 0x9a, 0x20, 0xbe,
  0xf8, 0x00, 0xf8, 0x3d, 0x92, 0xab, 0xb7, 0x3e, 0x4f, 0x7e, 0xa8, 0x3e,
  0xac, 0xc9, 0x8c, 0x3e, 0xa1, 0x8c, 0x2e, 0xbe, 0xbf, 0x54, 0xbb, 0xbd,
  0x1f, 0x4a, 0xc6, 0x3d, 0xd3, 0x5b, 0x11, 0xbe, 0x85, 0x96, 0x86, 0x3e,
  0x92, 0x6b, 0x52, 0x3e, 0x1c, 0x05, 0x66, 0x3d, 0x0f, 0xe7, 0xaa, 0x3e,
  0x47, 0xab, 0x12, 0xbd, 0x5c, 0xdf, 0xe6, 0x3d, 0x2e, 0x83, 0xd8, 0x3d,
  0x0b, 0x98, 0x14, 0xbe, 0x96, 0xb5, 0x91, 0xbd, 0x6e, 0x43, 0xd2, 0x3d,
  0x95, 0xc3, 0x5b, 0xbd, 0xd9, 0xf0, 0x17, 0x3e, 0x3a, 0xc9, 0xfa, 0xbb,
  0x6f, 0xf9, 0x11, 0x3d, 0x6a, 0x5d, 0x5c, 0x3d, 0x4e, 0xe9, 0x75, 0xbd,
  0x52, 0x32, 0x6f, 0x3e, 0x3b, 0xc7, 0x10, 0x3e, 0x20, 0x40, 0x6f, 0x3d,
  0xa7, 0xd1, 0xca, 0xbb, 0x8e, 0x7a, 0x77, 0xbe, 0x35, 0x0c, 0x37, 0xbe,
  0xaf, 0x82, 0x82, 0xbe, 0xcc, 0xf9, 0xc5, 0x3d, 0x09, 0x09, 0xe0, 0x3d,
  0xea, 0xde, 0xef, 0x3d, 0xb0, 0x7b, 0xb8, 0x3e, 0xab, 0xe0, 0x02, 0x3f,
  0x73, 0xfd, 0x3d, 0x3d, 0x5b, 0x85, 0x3b, 0x3e, 0x2d, 0x28, 0xfd, 0x3e,
  0x1c, 0xde, 0x99, 0x3e, 0x01, 0x2d, 0x02, 0x3e, 0x98, 0x42, 0x0d, 0xbe,
  0xf2, 0xed, 0xce, 0xbd, 0x40, 0x9a, 0x8f, 0x3b, 0xfa, 0x4b, 0xb5, 0x3e,
  0x63, 0x37, 0x71, 0x3e, 0x7b, 0x12, 0x84, 0x3e, 0x17, 0x2d, 0xa9, 0x3e,
  0xbb, 0xca, 0xe3, 0x3d, 0x1c, 0xd3, 0xc0, 0x3d, 0x84, 0x95, 0xe8, 0xbd,
  0x25, 0x42, 0xa3, 0xbe, 0x3d, 0xb8, 0xa1, 0x3d, 0xf7, 0x5f, 0x2c, 0x3e,
  0x90, 0xd4, 0x81, 0x3d, 0xd6, 0xd1, 0x88, 0x3d, 0x2f, 0x4b, 0x72, 0x3e,
  0xa3, 0x18, 0x8f, 0xbd, 0x3d, 0xbb, 0x3f, 0x3e, 0xd7, 0x58, 0x31, 0xbd,
  0x19, 0xf7, 0xa2, 0x3e, 0x51, 0x6c, 0x0e, 0x3e, 0xe2, 0x6a, 0x6c, 0x3e,
  0x8d, 0x0a, 0xfa, 0x3b, 0x78, 0x7d, 0x47, 0x3d, 0xda, 0x75, 0x00, 0xbd,
  0xc5, 0x67, 0x47, 0x3e, 0x1b, 0xc6, 0x6a, 0xbe, 0x95, 0x22, 0xdd, 0x3e,
  0x36, 0x79, 0xdd, 0x3e, 0xd7, 0x04, 0x83, 0x3e, 0x96, 0xac, 0xb4, 0x3e,
  0x9c, 0xa5, 0xd9, 0x3d, 0x18, 0x96, 0xeb, 0x3c, 0xbf, 0x66, 0x15, 0x3d,
  0x2f, 0x45, 0x27, 0xbe, 0x38, 0xfe, 0x4e, 0x3e, 0xb2, 0xce, 0xe4, 0xbd,
  0x3d, 0xcd, 0x27, 0xbe, 0x5a, 0x52, 0xdc, 0x3a, 0xc0, 0xa9, 0x8c, 0x3e,
  0x54, 0x6a, 0x20, 0xbe, 0x6c, 0xf3, 0x36, 0xbe, 0x95, 0xca, 0x01, 0x3d,
  0xc7, 0xa4, 0xb1, 0x3b, 0x66, 0x3f, 0xb7, 0x3e, 0x4e, 0xd7, 0x08, 0xbe,
  0x7e, 0x6c, 0x3e, 0x3e, 0xd8, 0xb6, 0xc2, 0xbc, 0x6b, 0x83, 0x9e, 0x3c,
  0x93, 0x29, 0xb6, 0xbe, 0xd9, 0x5e, 0x76, 0xbd, 0xf0, 0x35, 0x85, 0x3e,
  0xaa, 0xf8, 0x01, 0x3e, 0xf5, 0x68, 0x35, 0xbd, 0xfb, 0xbf, 0x9f, 0xbd,
  0x46, 0x3c, 0x16, 0xbd, 0x72, 0x00, 0x71, 0x3d, 0x33, 0xad, 0xa4, 0xbe,
  0xf9, 0x5c, 0x90, 0xbd, 0xa2, 0xee, 0xff, 0xff, 0x04, 0x00, 0x00, 0x00,
  0x00, 0x0a, 0x00, 0x00, 0xc3, 0x32, 0x79, 0xbd, 0x58, 0xfe, 0xaa, 0xbd,
  0x68, 0x1f, 0x73, 0xbe, 0x0b, 0x8f, 0x4f, 0xbe, 0xe7, 0xf6, 0x8f, 0xbe,
  0xa3, 0x96, 0x9f, 0xbe, 0x6e, 0x1e, 0x9e, 0x3e, 0x1b, 0x8a, 0x95, 0x3d,
  0x3f, 0xcd, 0x11, 0x3c, 0x1e, 0x39, 0x39, 0xbe, 0xf7, 0x10, 0x50, 0xbe,
  0xe3, 0xa7, 0x8f, 0xbe, 0x11, 0xa4, 0x14, 0x3e, 0xf2, 0xc0, 0x97, 0x3d,
  0xf0, 0xc1, 0xc4, 0x3c, 0x85, 0xfe, 0x02, 0xbe, 0x41, 0x36, 0x02, 0x3e,
  0x06, 0x12, 0xcf, 0x3c, 0x31, 0x69, 0x3e, 0xbe, 0x29, 0x95, 0x52, 0xbe,
  0xad, 0x31, 0x1c, 0x3d, 0xb5, 0x78, 0xd9, 0xbd, 0xd6, 0x94, 0x4f, 0xbe,
  0x86, 0x5c, 0x35, 0x3c, 0xa9, 0xf7, 0x18, 0x3c, 0x87, 0xb3, 0x2c, 0xbe,
  0xd4, 0x00, 0x11, 0x3e, 0xcd, 0x8f, 0x37, 0x3e, 0x2f, 0xdb, 0x91, 0xbe,
  0xa9, 0x78, 0x09, 0xbd, 0xf1, 0xf7, 0x0a, 0xbe, 0x03, 0xc1, 0x4f, 0xbe,
  0x2b, 0x79, 0x22, 0x3e, 0xcc, 0xb8, 0x0c, 0xbe, 0x9f, 0x64, 0x87, 0x3d,
  0x8f, 0x76, 0xd4, 0xbd, 0xfb, 0x07, 0x03, 0xbe, 0x60, 0x7f, 0xbc, 0xbd,
  0xcc, 0xbf, 0x93, 0xbd, 0xa8, 0x1d, 0x86, 0x3d, 0x2b, 0x05, 0x35, 0xbe,
  0x2c, 0x31, 0x2c, 0xbe, 0xab, 0x8c, 0x64, 0xbe, 0xe9, 0x17, 0x44, 0x3e,
  0x29, 0xaa, 0x97, 0xbe, 0x03, 0xf6, 0x6a, 0xbe, 0xbb, 0x1f, 0xbb, 0x3d,
  0x5b, 0x83, 0x05, 0xbe, 0x46, 0x27, 0xa0, 0xbe, 0x68, 0x50, 0x92, 0xbe,
  0xbd, 0x21, 0xf1, 0x3b, 0xfb, 0xa2, 0xee, 0x3d, 0xbc, 0x7d, 0x37, 0x3c,
  0x17, 0x69, 0xc5, 0x3d, 0xbf, 0x78, 0x5e, 0x3d, 0x9e, 0x39, 0x8e, 0x3d,
  0x3d, 0x4f, 0x36, 0x3e, 0xe2, 0xf0, 0x98, 0xbd, 0x99, 0xba, 0x4e, 0xbe,
  0x2d, 0x17, 0xba, 0xbe, 0xdb, 0xea, 0x90, 0xbc, 0x0d, 0x2b, 0x4a, 0xbe,
  0x6f, 0x7c, 0xa0, 0xbe, 0x73, 0xfb, 0xd2, 0xbe, 0x72, 0x0d, 0x5d, 0xbe,
  0x14, 0x2d, 0x64, 0x3d, 0x87, 0xc0, 0xb5, 0xbd, 0xf1, 0xc4, 0x9e, 0xbc,
  0x59, 0x6b, 0xd3, 0x3d, 0x65, 0x57, 0x5c, 0x3d, 0x14, 0xf1, 0x10, 0xbe,
  0x40, 0x8c, 0x0e, 0xbe, 0x24, 0x39, 0xf6, 0x3d, 0x95, 0x7d, 0xb0, 0xbe,
  0x95, 0xe1, 0x83, 0xbe, 0xd3, 0x9f, 0x08, 0xbe, 0xc1, 0xf5, 0x34, 0xbe,
  0x2a, 0x58, 0x1a, 0x3e, 0xec, 0x6c, 0xb3, 0xbe, 0x5c, 0xf7, 0x89, 0xbd,
  0xd2, 0x30, 0x07, 0xbe, 0xa5, 0x83, 0x54, 0xbe, 0xb2, 0x6e, 0x2e, 0x3d,
  0x91, 0x6c, 0x7d, 0xbe, 0xd3, 0x4f, 0x0c, 0x3c, 0xbc, 0x9a, 0x7b, 0x3d,
  0x80, 0xcd, 0x3d, 0x3e, 0x94, 0x3c, 0x71, 0x3e, 0x0f, 0xa6, 0xb3, 0xbe,
  0x17, 0x38, 0xb4, 0xbe, 0x5e, 0xb3, 0xcf, 0xbe, 0x03, 0x26, 0x97, 0x3d,
  0x6a, 0x7b, 0x96, 0xbe, 0x19, 0x11, 0xa2, 0xbd, 0x02, 0xf0, 0x88, 0xbe,
  0x27, 0x44, 0x84, 0x3d, 0x7f, 0x98, 0x9e, 0x3c, 0xe4, 0xf4, 0xb9, 0x3d,
  0xeb, 0x57, 0x09, 0x3e, 0x21, 0xdc, 0xb4, 0xbe, 0xf2, 0x08, 0xb7, 0xbe,
  0x1e, 0x55, 0x4d, 0xbe, 0xe6, 0x7f, 0x0b, 0x3e, 0x7f, 0x67, 0xcf, 0x3e,
  0x61, 0xe6, 0x6b, 0xbe, 0xaa, 0xd4, 0x3f, 0xbe, 0xf2, 0x55, 0x90, 0x3c,
  0x2d, 0x4c, 0xa4, 0xbd, 0xe6, 0xd4, 0x16, 0x3e, 0x5c, 0xf2, 0x29, 0xbd,
  0x06, 0x05, 0xfe, 0x3d, 0x2c, 0x8b, 0x78, 0x3e, 0x28, 0x94, 0x61, 0xbe,
  0x8e, 0x20, 0x91, 0xbe, 0x48, 0x35, 0xc5, 0xbe, 0xcb, 0xe7, 0x5d, 0xbe,
  0xce, 0x1f, 0x6e, 0x3e, 0x48, 0x7e, 0x98, 0x3c, 0xb1, 0x43, 0x56, 0xbd,
  0xe0, 0x1b, 0x0d, 0x3c, 0xfb, 0xad, 0xae, 0xbc, 0xd2, 0x4c, 0x90, 0xbe,
  0x9e, 0x74, 0x80, 0x3d, 0xe0, 0xa8, 0x8e, 0x3d, 0x50, 0x27, 0x9d, 0xbe,
  0xc3, 0xbd, 0x23, 0x3e, 0x3f, 0x58, 0x44, 0x3e, 0x01, 0x02, 0xb5, 0x3e,
  0xd9, 0x4c, 0x53, 0x3e, 0x0b, 0x22, 0xc6, 0xbc, 0x89, 0x54, 0x9f, 0x3d,
  0x1a, 0xd0, 0x70, 0x3e, 0x40, 0xb4, 0x47, 0x3e, 0x79, 0x65, 0x85, 0x3e,
  0x0f, 0x34, 0x04, 0x3e, 0x2f, 0xbb, 0xcc, 0x3e, 0x7a, 0xe0, 0xc9, 0xbc,
  0x0a, 0x97, 0x87, 0xbe, 0x43, 0xb5, 0xd7, 0x3d, 0xba, 0x2f, 0x1f, 0x3e,
  0x6c, 0x4e, 0x60, 0xbe, 0xc0, 0x4a, 0xdc, 0x3b, 0xb2, 0xeb, 0xd1, 0xbe,
  0x6e, 0xfb, 0xfe, 0x3b, 0xe4, 0xb0, 0x77, 0xbe, 0xd1, 0x63, 0x56, 0xbe,
  0x37, 0xe1, 0x2e, 0xbe, 0x08, 0x5a, 0xf1, 0x3c, 0x0b, 0x14, 0x5a, 0xbe,
  0x09, 0x9b, 0x3d, 0xbe, 0x8d, 0x9d, 0x8f, 0xbe, 0xf6, 0x5b, 0xc0, 0xbe,
  0xf0, 0x97, 0x3a, 0xbe, 0x6b, 0xed, 0x08, 0x3e, 0x61, 0x40, 0x7d, 0xbe,
  0xba, 0xbb, 0x86, 0xbd, 0x40, 0xdb, 0xb9, 0x3d, 0x03, 0x37, 0x00, 0xbd,
  0xfa, 0x40, 0x1f, 0xbd, 0xfa, 0x34, 0x1e, 0xbe, 0xca, 0x8b, 0x84, 0xbe,
  0x4a, 0x6e, 0x37, 0xbe, 0x5d, 0x1a, 0xe0, 0xbd, 0x9d, 0x19, 0x07, 0xbf,
  0x1d, 0xea, 0xc5, 0x3c, 0xa4, 0xd9, 0xa0, 0xbe, 0xd4, 0xbd, 0x4b, 0xbe,
  0x32, 0x57, 0xb4, 0x3b, 0x42, 0xca, 0x6c, 0x3b, 0x33, 0xde, 0xc4, 0x3d,
  0x75, 0xbf, 0x87, 0xbc, 0xb5, 0x17, 0x27, 0xbe, 0x83, 0xa3, 0xd6, 0x3d,
  0x45, 0x15, 0x0e, 0x3d, 0xce, 0xb9, 0x65, 0xbe, 0xfc, 0x19, 0x87, 0xbe,
  0x7e, 0xa5, 0x51, 0xbe, 0x64, 0x68, 0xaf, 0x3d, 0x41, 0x57, 0xde, 0xbe,
  0xe9, 0x90, 0x65, 0xbd, 0xd2, 0xfa, 0xd0, 0xbd, 0x62, 0x8e, 0x71, 0xbe,
  0xb4, 0x83, 0x27, 0x3c, 0xb3, 0xbd, 0x59, 0xbd, 0x84, 0x46, 0xe7, 0x3d,
  0x30, 0x1e, 0x82, 0xbe, 0xaa, 0xcb, 0x31, 0xbe, 0xe3, 0xd1, 0x65, 0xbe,
  0x85, 0x01, 0x48, 0xbe, 0x5f, 0x64, 0x29, 0x3e, 0xd8, 0xd3, 0x41, 0x3c,
  0xa1, 0xd1, 0x3a, 0x3e, 0x41, 0xa8, 0x77, 0x3b, 0x4d, 0xb3, 0x33, 0x3f,
  0x28, 0xd4, 0x19, 0x3d, 0xbb, 0x3c, 0xb5, 0x3e, 0x79, 0x66, 0x89, 0x3e,
  0xfd, 0x77, 0xb7, 0x3e, 0x4e, 0x44, 0xec, 0x3e, 0x05, 0x9e, 0xe1, 0x3d,
  0x7f, 0xd4, 0x64, 0x3e, 0x24, 0x97, 0x11, 0x3f, 0x2a, 0x5c, 0x09, 0x3e,
  0xc8, 0x73, 0x0a, 0x3e, 0x3f, 0x40, 0xe6, 0x3e, 0xd5, 0x9e, 0x4f, 0xbe,
  0xfa, 0xb3, 0x0c, 0x3e, 0xe3, 0xd6, 0x28, 0x3e, 0x90, 0x0f, 0xdb, 0x3e,
  0x02, 0x58, 0x2e, 0x3e, 0x7d, 0x2d, 0x89, 0x3d, 0xc8, 0xbf, 0x04, 0x3e,
  0x14, 0x2c, 0x88, 0xbe, 0xc1, 0x9d, 0x68, 0x3e, 0x71, 0x85, 0xd3, 0xbe,
  0xa8, 0x1d, 0x57, 0xbd, 0xb0, 0xf6, 0x80, 0x3e, 0xa5, 0xbe, 0x88, 0x3e,
  0xe9, 0x9c, 0xba, 0x3d, 0x70, 0x9a, 0x99, 0xbd, 0x94, 0x5d, 0x89, 0xbd,
  0x1e, 0xa8, 0xce, 0xbe, 0xb3, 0x10, 0xaa, 0xbe, 0xb7, 0xee, 0x54, 0xbe,
  0x86, 0xf5, 0xa1, 0x3e, 0x98, 0x81, 0xae, 0x3e, 0x37, 0x40, 0x9f, 0x3e,
  0xa0, 0x12, 0x51, 0x3e, 0x29, 0xeb, 0x05, 0xbd, 0xb6, 0x3b, 0xd7, 0x3d,
  0x65, 0x43, 0x15, 0xbe, 0xcb, 0xb7, 0xa7, 0xbe, 0x75, 0x47, 0xca, 0xbc,
  0x8f, 0xef, 0xcb, 0x3d, 0xb5, 0x9c, 0xf4, 0xbd, 0x11, 0x7b, 0xd9, 0xbc,
  0x1e, 0x0f, 0x5a, 0xbe, 0xdc, 0x32, 0x02, 0xbe, 0x35, 0x80, 0xcd, 0xbd,
  0x8a, 0x50, 0xac, 0xbe, 0x54, 0xba, 0xc1, 0x3b, 0x51, 0x66, 0x88, 0x3e,
  0xce, 0x96, 0x21, 0x3e, 0x69, 0xf1, 0xb2, 0xbd, 0x76, 0x7d, 0xca, 0xbd,
  0xa4, 0xa5, 0xdf, 0x3d, 0xc5, 0xd5, 0x1c, 0xbe, 0xe9, 0xd3, 0xff, 0xbc,
  0x52, 0xff, 0x84, 0xbe, 0x41, 0xad, 0x24, 0xbe, 0x3b, 0x49, 0xa6, 0xbe,
  0x43, 0xb4, 0x9b, 0xbe, 0xfd, 0x6c, 0x26, 0x3e, 0x65, 0x48, 0x8d, 0xbe,
  0xfe, 0xf8, 0x63, 0xbd, 0x6a, 0x67, 0xa8, 0xbe, 0xd2, 0xbb, 0x18, 0x3f,
  0xc3, 0x34, 0xd8, 0x3e, 0xd2, 0x32, 0x4f, 0x3e, 0x7e, 0xb2, 0xc5, 0x3e,
  0x97, 0x4f, 0xc7, 0x3e, 0xad, 0xc8, 0xd0, 0x3e, 0x6b, 0x0c, 0xa1, 0x3e,
  0xa3, 0x31, 0x9d, 0xbc, 0xc3, 0x29, 0xc2, 0x3e, 0x2e, 0x09, 0xdd, 0x3b,
  0xab, 0x2d, 0xb4, 0x3e, 0xa8, 0xd9, 0x07, 0xbd, 0x4b, 0x1a, 0xd2, 0xbd,
  0x32, 0x31, 0xd3, 0xbc, 0x4b, 0xb4, 0x13, 0x3e, 0x51, 0x89, 0xf9, 0x3e,
  0xf3, 0x8c, 0x83, 0x3e, 0x5a, 0x7e, 0x5d, 0xbd, 0xba, 0xd8, 0x86, 0x3d,
  0x2b, 0x85, 0x49, 0x3e, 0x2e, 0x03, 0xe1, 0x3c, 0xba, 0xfa, 0xa3, 0x3e,
  0xc5, 0xc8, 0x19, 0x3e, 0xcf, 0xf4, 0xd2, 0x3e, 0xfa, 0xe3, 0xda, 0x3a,
  0xc8, 0x2f, 0x87, 0x3e, 0x86, 0xcc, 0xd4, 0x3d, 0xb7, 0xd5, 0x39, 0x3e,
  0xa5, 0xba, 0x4a, 0x3d, 0x69, 0xa8, 0x0b, 0x3d, 0x0f, 0xef, 0x2d, 0x3e,
  0x28, 0x85, 0x65, 0xbe, 0x7c, 0x1d, 0x1b, 0x3f, 0x92, 0x24, 0x7d, 0xbd,
  0x96, 0x3e, 0x77, 0x3e, 0x4e, 0xfd, 0x5e, 0x3e, 0x13, 0xcd, 0x34, 0x3d,
  0x57, 0x9d, 0x94, 0x3d, 0x8d, 0x9e, 0xc6, 0xbd, 0xbd, 0x98, 0x23, 0x3c,
  0xde, 0xf6, 0xc8, 0x3e, 0xcb, 0x41, 0x35, 0x3d, 0xb0, 0x17, 0xe8, 0x3e,
  0xae, 0xbd, 0x84, 0xbd, 0x3d, 0xca, 0x11, 0x3e, 0x38, 0x7b, 0xc9, 0xbb,
  0x48, 0xd1, 0xf0, 0x3c, 0xcc, 0x9f, 0xf9, 0x3c, 0x43, 0xc5, 0x63, 0x3e,
  0xc8, 0xf9, 0x23, 0x3e, 0xfe, 0x52, 0x45, 0xbe, 0x63, 0x6e, 0xee, 0x3b,
  0x30, 0x4b, 0xc6, 0x3d, 0x98, 0xc2, 0x99, 0xbe, 0xf7, 0xfb, 0xc3, 0x3c,
  0x7c, 0xfb, 0xd7, 0x3e, 0x60, 0xac, 0x5a, 0x3e, 0xef, 0x40, 0x44, 0x3e,
  0xec, 0x8d, 0x74, 0x3e, 0x06, 0x00, 0xe6, 0xbd, 0x46, 0x5d, 0x62, 0xbd,
  0x19, 0xf1, 0x38, 0x3e, 0x30, 0x53, 0x7e, 0x3e, 0xa2, 0x86, 0x40, 0x3e,
  0xd6, 0x24, 0xfc, 0x3d, 0x4c, 0x8d, 0x2c, 0xbb, 0x2c, 0xbf, 0xe1, 0x3d,
  0x47, 0x45, 0xf7, 0x3d, 0xc8, 0x44, 0x83, 0x3e, 0x72, 0x81, 0xa9, 0x3e,
  0x80, 0xe5, 0x03, 0x3c, 0xed, 0x3c, 0x31, 0xbe, 0xc6, 0x70, 0xe7, 0x3e,
  0x6b, 0x46, 0xa6, 0xbd, 0x6a, 0x74, 0x1a, 0x3e, 0x2b, 0x9e, 0x5b, 0x3d,
  0x5b, 0xca, 0x8c, 0xbe, 0x13, 0x51, 0x87, 0x3d, 0x2e, 0xe0, 0x91, 0x3d,
  0x0e, 0x13, 0x20, 0xbe, 0x12, 0x21, 0x35, 0xbe, 0x9e, 0x61, 0x08, 0xbe,
  0x16, 0xef, 0xcc, 0x3e, 0x9b, 0xc3, 0xbb, 0x3d, 0x7c, 0x1d, 0x58, 0x3c,
  0x8d, 0xe9, 0x50, 0xbd, 0x24, 0x4d, 0x00, 0xbe, 0xb5, 0x0b, 0x98, 0x3e,
  0xa3, 0xff, 0xe2, 0xbd, 0xcd, 0x03, 0x81, 0x3d, 0x35, 0x55, 0x02, 0xbc,
  0x96, 0xa6, 0xcd, 0xbd, 0x2a, 0x7d, 0xf0, 0x3d, 0xb0, 0x19, 0xa7, 0xbe,
  0xf7, 0xf4, 0x88, 0xbd, 0x16, 0x53, 0x9c, 0xbe, 0x86, 0x30, 0x1b, 0x3d,
  0xd8, 0x95, 0x32, 0xbd, 0x20, 0xd1, 0xbf, 0x3d, 0x85, 0x9d, 0x39, 0x3e,
  0x14, 0x4f, 0x89, 0x3d, 0x15, 0x3b, 0x59, 0xbe, 0x6d, 0xa2, 0x01, 0xbe,
  0x5e, 0xdb, 0x52, 0xbe, 0x56, 0x92, 0x58, 0x3d, 0x3c, 0xd6, 0xb2, 0x3c,
  0x20, 0x52, 0xad, 0x3d, 0xc6, 0xfc, 0x95, 0xbd, 0x84, 0x4c, 0x25, 0x3e,
  0xeb, 0x3b, 0x45, 0xbe, 0x54, 0xa0, 0x85, 0x3d, 0xc4, 0x90, 0xdb, 0x3e,
  0xe2, 0x6c, 0x4f, 0x3e, 0x60, 0x35, 0x55, 0x3c, 0x02, 0x4c, 0x87, 0x3d,
  0x1f, 0x94, 0xc4, 0x3d, 0x35, 0xa2, 0x2b, 0xbd, 0x2f, 0x2a, 0x5d, 0x3e,
  0x3f, 0x8b, 0x83, 0x3d, 0x27, 0x24, 0x12, 0xbd, 0xb8, 0x85, 0x86, 0x3e,
  0x2f, 0x73, 0xcc, 0xbd, 0x77, 0xb3, 0xb5, 0x3e, 0x25, 0xaf, 0xd4, 0x3e,
  0x34, 0xd1, 0x9a, 0x3e, 0x52, 0xc4, 0x95, 0x3e, 0x99, 0x08, 0x1a, 0x3e,
  0x57, 0xd3, 0x42, 0x3e, 0xf8, 0x52, 0xdc, 0x3e, 0xf8, 0x0f, 0x8f, 0x3e,
  0xd3, 0x50, 0xc2, 0x3d, 0xc3, 0x6b, 0x3d, 0x3e, 0x46, 0x13, 0xeb, 0x3e,
  0xa0, 0x86, 0xc9, 0x3d, 0xfe, 0x7e, 0x0c, 0x3e, 0x68, 0x15, 0xca, 0x3e,
  0x6b, 0x8e, 0x44, 0xbe, 0xa6, 0xd8, 0x83, 0x3e, 0x36, 0x27, 0xf3, 0xbd,
  0xf3, 0xa7, 0x98, 0x3e, 0x38, 0x9d, 0x2b, 0xbe, 0xf9, 0x3c, 0x61, 0xbe,
  0x14, 0x1c, 0xde, 0xbb, 0xdb, 0x1b, 0x6d, 0xbd, 0x5f, 0x29, 0xdd, 0x3c,
  0x45, 0x8d, 0x8f, 0xbd, 0xd3, 0xaf, 0xc3, 0x3d, 0x70, 0x8d, 0xfd, 0x3d,
  0x61, 0xcc, 0xdc, 0xbc, 0xe2, 0x3e, 0xb6, 0x3d, 0x02, 0xdc, 0x10, 0x3d,
  0x15, 0x5e, 0x5b, 0x3e, 0x17, 0xae, 0x8b, 0xbe, 0x45, 0xce, 0x3b, 0xbe,
  0xcc, 0x4e, 0xbc, 0xbd, 0x32, 0xd0, 0xf7, 0xbd, 0xa6, 0xcd, 0x20, 0xbe,
  0xbb, 0xc7, 0xbc, 0xbc, 0x77, 0xc3, 0x80, 0xbe, 0x24, 0x45, 0x38, 0x3e,
  0xc9, 0x98, 0x2f, 0x3d, 0x66, 0x50, 0x40, 0xbe, 0x7b, 0xbc, 0xfc, 0xbd,
  0x68, 0x8e, 0x35, 0x3d, 0xc7, 0x9d, 0x03, 0xbe, 0x73, 0x7f, 0x47, 0x3e,
  0x99, 0xf9, 0x3a, 0xbd, 0x86, 0x5a, 0xa2, 0x3e, 0x9b, 0xac, 0x18, 0x3b,
  0x7a, 0x5f, 0xfb, 0xbd, 0x15, 0xac, 0x98, 0xbe, 0xd2, 0x57, 0x50, 0xbe,
  0x1a, 0x37, 0x8c, 0xbc, 0x7f, 0xf7, 0x1d, 0x3c, 0xe0, 0x81, 0x16, 0x3d,
  0x2b, 0xbb, 0xd8, 0x3e, 0x19, 0xb2, 0x45, 0x3e, 0xce, 0xd0, 0xdf, 0xbd,
  0x8b, 0x8a, 0xd4, 0xbd, 0xad, 0x52, 0x06, 0x3e, 0x42, 0x74, 0x12, 0x3e,
  0xa0, 0xf3, 0xa6, 0x3e, 0x74, 0x83, 0x9a, 0x3e, 0x66, 0xe6, 0xb1, 0x3e,
  0xfd, 0xb1, 0x2e, 0x3e, 0xd7, 0x75, 0x83, 0x3e, 0xf6, 0x95, 0x71, 0x3e,
  0x91, 0xd2, 0xe6, 0x3e, 0x64, 0x26, 0x91, 0x3e, 0xa8, 0x77, 0xbc, 0x3e,
  0xdb, 0x3e, 0x15, 0x3e, 0x59, 0x94, 0xf5, 0x3e, 0x90, 0x96, 0xf4, 0x3d,
  0xd5, 0x85, 0x8d, 0x3e, 0x34, 0x21, 0xad, 0xbe, 0x48, 0xfa, 0x3a, 0x3e,
  0xb8, 0xa6, 0x0e, 0x3e, 0x93, 0xcb, 0x25, 0x3e, 0x8b, 0x66, 0xd2, 0x3d,
  0x6b, 0x70, 0x12, 0x3e, 0x9c, 0x7c, 0x39, 0xbe, 0x44, 0x09, 0x5e, 0x3d,
  0xa6, 0xca, 0xae, 0x3d, 0xfa, 0x0f, 0xa4, 0x3e, 0xba, 0x52, 0x55, 0xbd,
  0x72, 0xe3, 0xe4, 0x3d, 0x49, 0x0f, 0x6f, 0xbc, 0x36, 0x70, 0x32, 0x3e,
  0x55, 0xea, 0xc2, 0xbe, 0x11, 0x3f, 0xaa, 0xbd, 0x05, 0x9b, 0x2d, 0xbc,
  0x2b, 0x27, 0x06, 0xbd, 0xc1, 0xfe, 0x3f, 0xbe, 0x59, 0xa5, 0xdf, 0xbd,
  0x9a, 0x6c, 0x92, 0x3e, 0xef, 0x3e, 0x81, 0x3e, 0x42, 0x00, 0xed, 0x3e,
  0xeb, 0x8e, 0x2f, 0xb9, 0x02, 0x90, 0x2e, 0x3e, 0x83, 0x4b, 0x53, 0x3e,
  0x97, 0xbd, 0x58, 0x3c, 0x40, 0x41, 0x00, 0x3f, 0x02, 0x78, 0x2b, 0x3b,
  0x43, 0xb0, 0x74, 0x3e, 0xbd, 0x33, 0x8d, 0x3e, 0x27, 0xe0, 0x47, 0x3e,
  0x88, 0xa9, 0xd0, 0xbc, 0x58, 0x89, 0x55, 0x3e, 0x01, 0xd1, 0x87, 0x3e,
  0x80, 0x9a, 0x23, 0x3e, 0x81, 0xc4, 0x94, 0x3d, 0xb5, 0xe5, 0x49, 0x3e,
  0x9d, 0x48, 0x16, 0x3e, 0x06, 0x8b, 0x18, 0x3e, 0xaf, 0x76, 0x73, 0x3e,
  0x25, 0x0e, 0x50, 0x3e, 0xa6, 0xb5, 0x14, 0x3d, 0x03, 0x27, 0xa0, 0x3e,
  0xf0, 0x43, 0xa3, 0x3e, 0x13, 0xd2, 0xcb, 0x3c, 0xeb, 0x25, 0x24, 0x3e,
  0x5f, 0xe3, 0x38, 0xbe, 0x75, 0x67, 0x22, 0x3e, 0x4c, 0xcb, 0xeb, 0x3d,
  0x2c, 0x28, 0xeb, 0x3e, 0x30, 0x79, 0xa4, 0x3e, 0xe1, 0x3d, 0xcc, 0x3e,
  0x83, 0x98, 0x65, 0x3c, 0x0a, 0x18, 0xcb, 0x3e, 0xc1, 0xf9, 0x02, 0x3e,
  0x44, 0x77, 0x8e, 0x3e, 0xd7, 0xab, 0x16, 0x3e, 0xca, 0xa6, 0x06, 0x3f,
  0x0a, 0x12, 0xc3, 0x3d, 0x7d, 0x11, 0x1d, 0x3e, 0x92, 0xce, 0xa9, 0x3e,
  0x61, 0xb5, 0xa0, 0xbd, 0xa4, 0x58, 0x4d, 0x3e, 0x42, 0x67, 0xef, 0x3c,
  0xc2, 0x73, 0x70, 0x3d, 0x9d, 0x85, 0x69, 0xbe, 0x37, 0xe6, 0xbf, 0xbd,
  0xd4, 0x7c, 0x50, 0x3d, 0xd4, 0xb3, 0x24, 0x3e, 0xaf, 0xcb, 0x84, 0x3e,
  0x8c, 0x9e, 0xdb, 0x3d, 0x98, 0xc9, 0x65, 0x3c, 0xa3, 0xc4, 0x8c, 0x3c,
  0xd0, 0x5a, 0xa7, 0x3e, 0x8d, 0x29, 0xc0, 0xbd, 0x1d, 0xf3, 0x26, 0x3d,
  0xe5, 0x88, 0xab, 0xbe, 0x09, 0xea, 0x3e, 0x3d, 0xb3, 0x8d, 0xb7, 0x3e,
  0xca, 0xd3, 0x2c, 0xbe, 0xa2, 0x9b, 0x6c, 0xbe, 0xed, 0x1d, 0x88, 0x3d,
  0x43, 0x2f, 0xb2, 0xbe, 0x48, 0x66, 0x70, 0xbe, 0x5e, 0x10, 0x2b, 0x3e,
  0xdf, 0x39, 0x3b, 0xbe, 0xd8, 0x5c, 0xd5, 0xbd, 0x44, 0x78, 0x01, 0xbe,
  0xc1, 0x5a, 0x0b, 0x3e, 0x5d, 0xdc, 0x26, 0x3c, 0x4a, 0x31, 0xcd, 0xbd,
  0x93, 0xd7, 0x28, 0x3e, 0x0c, 0x4d, 0x80, 0xbe, 0xc7, 0x11, 0x77, 0xbe,
  0x81, 0xc0, 0x74, 0x3e, 0xe7, 0x0d, 0x9c, 0x3d, 0xd2, 0xed, 0x95, 0x3e,
  0x7c, 0xe6, 0x11, 0xbd, 0xc7, 0x8e, 0x29, 0x3e, 0x56, 0x93, 0xbd, 0xbe,
  0x7d, 0xed, 0x99, 0xbe, 0x99, 0x20, 0x0d, 0xbe, 0x6b, 0x89, 0x31, 0xbe,
  0xf7, 0x2e, 0xd5, 0x3d, 0x13, 0x3f, 0x63, 0x3e, 0xa1, 0xc8, 0xd8, 0xbd,
  0x9c, 0x56, 0x1a, 0xbd, 0x39, 0x69, 0x47, 0x3e, 0xa9, 0x57, 0xf5, 0xbb,
  0xbc, 0xf3, 0x12, 0x3d, 0x08, 0xfd, 0xf1, 0x3d, 0xa4, 0x05, 0x1e, 0xbe,
  0x8b, 0x51, 0xc5, 0x3e, 0xd6, 0x56, 0x4a, 0x3e, 0x17, 0x5d, 0x7d, 0x3e,
  0x9f, 0x76, 0x82, 0x3d, 0xd6, 0xf3, 0x34, 0x3e, 0x94, 0xba, 0x29, 0xbe,
  0x4e, 0xef, 0x98, 0x3d, 0xa5, 0x93, 0xe2, 0x3e, 0x84, 0xc4, 0x37, 0x3e,
  0x74, 0xb2, 0x01, 0xbe, 0xf5, 0x3b, 0x2b, 0x3e, 0x97, 0xdf, 0x17, 0x3e,
  0xb8, 0x78, 0x6f, 0x3e, 0x34, 0x96, 0x5d, 0xbd, 0x88, 0x24, 0x7c, 0xbd,
  0x9d, 0x6b, 0x2f, 0x3c, 0x61, 0x03, 0xe5, 0x3b, 0x67, 0xe0, 0x8f, 0x3e,
  0xdf, 0x07, 0xaa, 0xbc, 0x9c, 0x10, 0x79, 0x3e, 0x64, 0xf3, 0xa3, 0x3d,
  0xbd, 0x35, 0x61, 0x3e, 0x5e, 0xda, 0xc8, 0xbd, 0x0d, 0x55, 0x32, 0x3b,
  0x4d, 0x56, 0x32, 0xbe, 0xf0, 0x8f, 0x5e, 0xbe, 0xee, 0xc1, 0xa6, 0xbd,
  0xfc, 0xb1, 0x8d, 0xbe, 0xed, 0xe8, 0x0a, 0xbc, 0xf3, 0xc7, 0x1c, 0xbe,
  0x02, 0xfa, 0x83, 0xbe, 0x5a, 0xed, 0xfd, 0xbb, 0x38, 0x13, 0x8b, 0xbc,
  0x26, 0x53, 0x8c, 0xbd, 0x84, 0x8d, 0x55, 0xbd, 0x12, 0x3b, 0x89, 0xbd,
  0x86, 0x50, 0xb8, 0x3d, 0xe4, 0xf4, 0x67, 0xbe, 0x06, 0x70, 0x36, 0x3d,
  0x8c, 0x4f, 0x2e, 0xbd, 0xdf, 0x7c, 0xb0, 0xbc, 0x74, 0x72, 0xd0, 0x3d,
  0xd1, 0x2d, 0x88, 0xbe, 0x50, 0xa6, 0xe0, 0xbc, 0x2e, 0x30, 0x1c, 0x3e,
  0x4f, 0x3f, 0x9f, 0x3d, 0xbf, 0xa5, 0x68, 0xbe, 0x2e, 0x54, 0x93, 0xbe,
  0xf8, 0xfe, 0x33, 0xbd, 0xd2, 0x95, 0x95, 0xbe, 0xd5, 0x66, 0xbb, 0x3d,
  0x61, 0x56, 0x2f, 0xbe, 0x3d, 0xc4, 0x8e, 0x3e, 0x49, 0x5f, 0xea, 0xbc,
  0x2c, 0x82, 0xef, 0xbd, 0x8d, 0x3b, 0x89, 0x3d, 0x85, 0x77, 0xf6, 0x3d,
  0x18, 0x30, 0x9a, 0xbd, 0xee, 0x5a, 0x05, 0x3e, 0xab, 0x97, 0x25, 0xbe,
  0x9a, 0xc3, 0x76, 0x3e, 0x8b, 0x38, 0x37, 0xbe, 0xdd, 0x40, 0x13, 0x3d,
  0x75, 0x01, 0x9e, 0xbd, 0x68, 0x9a, 0x4c, 0x3e, 0x60, 0xb1, 0x7d, 0x3d,
  0xc2, 0xcc, 0x82, 0x3e, 0xf8, 0x2a, 0x20, 0xbc, 0xfc, 0x93, 0xd8, 0x3e,
  0x87, 0xf2, 0x87, 0xbd, 0x90, 0xed, 0x3f, 0xbe, 0xce, 0xdd, 0xa6, 0xbe,
  0x49, 0xd0, 0xac, 0xbe, 0xad, 0x59, 0x84, 0x3c, 0x94, 0xd8, 0x27, 0x3e,
  0x46, 0xc0, 0x04, 0x3e, 0x0f, 0x4d, 0x2e, 0x3e, 0xae, 0xf8, 0xff, 0xff,
  0x04, 0x00, 0x00, 0x00, 0x28, 0x00, 0x00, 0x00, 0x6f, 0xfe, 0x0e, 0x3f,
  0xbf, 0x92, 0xbd, 0x3e, 0xd3, 0xed, 0xf7, 0x3e, 0xab, 0x25, 0xf1, 0x3e,
  0x8b, 0x34, 0xf6, 0x3e, 0xbe, 0xae, 0x6b, 0x3e, 0x10, 0x8c, 0x90, 0x3e,
  0x8a, 0x25, 0xcb, 0x3e, 0x7d, 0x73, 0x55, 0x3e, 0x38, 0x9b, 0xc9, 0x3e,
  0xe2, 0xf8, 0xff, 0xff, 0x04, 0x00, 0x00, 0x00, 0x28, 0x00, 0x00, 0x00,
  0xe1, 0x64, 0x9a, 0xbe, 0x33, 0x4e, 0x0b, 0xbe, 0x2a, 0x9f, 0xab, 0xbd,
  0x05, 0x17, 0xbc, 0x3d, 0x52, 0x5d, 0x09, 0xbe, 0x54, 0x05, 0x29, 0x3e,
  0x4a, 0x97, 0x47, 0xbe, 0xf5, 0xc8, 0x22, 0xbe, 0x5e, 0x4f, 0xc0, 0x3c,
  0x5a, 0xb6, 0x1f, 0xbe, 0x16, 0xf9, 0xff, 0xff, 0x04, 0x00, 0x00, 0x00,
  0x28, 0x00, 0x00, 0x00, 0x6f, 0x16, 0x9e, 0x3f, 0x00, 0xee, 0x94, 0x3f,
  0x2d, 0x34, 0x85, 0x3f, 0xaf, 0x8d, 0x89, 0x3f, 0x07, 0xd5, 0x92, 0x3f,
  0xf0, 0xf8, 0x8a, 0x3f, 0x93, 0x78, 0x8a, 0x3f, 0x3b, 0xfe, 0x8c, 0x3f,
  0xca, 0x57, 0x8c, 0x3f, 0x10, 0xcf, 0x8c, 0x3f, 0x4a, 0xf9, 0xff, 0xff,
  0x04, 0x00, 0x00, 0x00, 0x28, 0x00, 0x00, 0x00, 0x97, 0xc3, 0xb0, 0x3e,
  0xd5, 0xa4, 0x56, 0x3e, 0x9e, 0x98, 0xc9, 0x3d, 0x4f, 0x32, 0x73, 0x3e,
  0xe1, 0x06, 0xf4, 0x3e, 0x3b, 0xcb, 0x31, 0x3e, 0x73, 0x7e, 0x57, 0x3e,
  0x30, 0xf5, 0x94, 0x3e, 0x8a, 0xc9, 0xdc, 0x3d, 0x1b, 0xe3, 0x97, 0x3e,
  0x7e, 0xf9, 0xff, 0xff, 0x04, 0x00, 0x00, 0x00, 0x90, 0x01, 0x00, 0x00,
  0xa2, 0x08, 0xd9, 0xbe, 0x6a, 0x84, 0xe4, 0xbe, 0xb0, 0xf7, 0x00, 0x3e,
  0x82, 0x14, 0x00, 0x3e, 0x0c, 0xa7, 0xcb, 0xbe, 0xdb, 0x09, 0x83, 0x3e,
  0xfd, 0x9f, 0xf3, 0xbe, 0x44, 0x96, 0x97, 0xbe, 0xb3, 0xb8, 0xbd, 0xbe,
  0x4c, 0xf7, 0x16, 0xbf, 0xae, 0xec, 0x0e, 0xbf, 0xd7, 0x3b, 0xea, 0xbd,
  0x10, 0x78, 0xa6, 0xbd, 0x0f, 0xaf, 0x8f, 0x3d, 0x09, 0x77, 0xea, 0x3e,
  0xfa, 0xbf, 0x84, 0xbe, 0x91, 0xad, 0x04, 0x3f, 0x43, 0xa1, 0x77, 0x3d,
  0xaa, 0x18, 0x17, 0x3d, 0x73, 0x25, 0xd2, 0xbe, 0xad, 0xe4, 0x17, 0xbe,
  0xee, 0x7d, 0x44, 0xbe, 0xf5, 0xcb, 0x8a, 0xbe, 0x84, 0x6e, 0xd0, 0xbd,
  0x78, 0x40, 0xde, 0x3e, 0xca, 0x6a, 0x83, 0xbe, 0xee, 0x0b, 0x11, 0x3f,
  0x5e, 0x32, 0x84, 0xbe, 0x6a, 0xbe, 0xe0, 0xbe, 0x31, 0xd9, 0x07, 0xbe,
  0x73, 0x83, 0x43, 0xbe, 0x4f, 0xf6, 0xb4, 0xbd, 0x63, 0xa7, 0xae, 0xbe,
  0x29, 0x01, 0x96, 0x3e, 0xa5, 0x04, 0x82, 0xbe, 0x9b, 0x20, 0xff, 0x3d,
  0xbd, 0x27, 0xaa, 0x3e, 0xb2, 0xd1, 0x22, 0x3c, 0x3a, 0x63, 0x70, 0xbe,
  0x3a, 0xbd, 0xda, 0xbe, 0x38, 0x02, 0x15, 0xbf, 0xb7, 0xfa, 0xcf, 0x3d,
  0x6c, 0xf9, 0xb9, 0xbe, 0xd8, 0x05, 0x26, 0x3e, 0xeb, 0x07, 0xa0, 0xbd,
  0xd6, 0x45, 0x99, 0xbe, 0xff, 0xd2, 0x0a, 0x3f, 0x80, 0xe1, 0x4b, 0x3e,
  0x0d, 0x2f, 0xa5, 0xbe, 0x35, 0xcc, 0xf0, 0xbe, 0x05, 0x45, 0xe6, 0xbe,
  0x0b, 0x88, 0x16, 0x3d, 0xb1, 0xd2, 0x3b, 0xbe, 0x74, 0xe9, 0xcb, 0xbc,
  0x5f, 0xdd, 0x36, 0xbe, 0x51, 0xbf, 0xd0, 0x3c, 0x88, 0x14, 0xbd, 0x3d,
  0x00, 0x38, 0x65, 0x3e, 0x03, 0x8a, 0x41, 0xbd, 0xb6, 0x95, 0xf0, 0xbc,
  0x5f, 0x93, 0x67, 0xbe, 0xab, 0x61, 0xc6, 0x3e, 0x59, 0xd3, 0x00, 0x3d,
  0xa7, 0x66, 0x50, 0x3d, 0x0e, 0x01, 0x2f, 0x3e, 0x55, 0xfb, 0x97, 0xbe,
  0x1d, 0xc5, 0xbc, 0x3d, 0xe8, 0xd9, 0xc2, 0xbd, 0x21, 0x4b, 0x03, 0xbf,
  0xa9, 0x91, 0x04, 0x3d, 0x95, 0xc6, 0xdc, 0xbe, 0x14, 0x29, 0x5f, 0xbd,
  0x0e, 0x2f, 0x21, 0x3e, 0x43, 0xca, 0x09, 0xbe, 0xbe, 0xaa, 0xa4, 0x3e,
  0x2e, 0xfa, 0x0e, 0x3e, 0x05, 0x94, 0xcd, 0x3e, 0x66, 0xcb, 0x98, 0xbd,
  0x51, 0xe4, 0xa5, 0xbd, 0x64, 0x4c, 0x6c, 0xbe, 0x34, 0x97, 0x74, 0xbd,
  0xba, 0xb8, 0xce, 0x3e, 0x93, 0x74, 0xd9, 0xbe, 0xfc, 0xb7, 0x2b, 0x3e,
  0xda, 0x57, 0x53, 0x3f, 0x2d, 0x85, 0x61, 0xbd, 0x76, 0xb1, 0xba, 0x3e,
  0x32, 0x7e, 0x21, 0x3d, 0x41, 0xe4, 0xac, 0xbc, 0x5c, 0xe1, 0x8a, 0x3d,
  0x24, 0x1a, 0x30, 0xbf, 0x5f, 0x8c, 0xc9, 0xbe, 0x81, 0xa7, 0x49, 0xbe,
  0x60, 0x20, 0x85, 0x3e, 0x96, 0xd1, 0xa5, 0xbe, 0xda, 0x05, 0x75, 0x3e,
  0x7a, 0x1e, 0x37, 0xbe, 0xd6, 0x31, 0x47, 0xbe, 0xd2, 0x57, 0x6b, 0xbd,
  0xbe, 0xa6, 0xa0, 0xbe, 0x1a, 0xfb, 0xff, 0xff, 0x04, 0x00, 0x00, 0x00,
  0x90, 0x01, 0x00, 0x00, 0x29, 0x31, 0x4d, 0x3e, 0x77, 0xe1, 0x82, 0x3e,
  0x14, 0xc1, 0x4e, 0x3e, 0xf9, 0xf5, 0x01, 0xbe, 0xe6, 0x9e, 0x19, 0x3e,
  0x8a, 0xaf, 0x4d, 0xbe, 0x68, 0x3c, 0x19, 0x3e, 0xf8, 0x5a, 0x0f, 0x3f,
  0x54, 0xd6, 0x65, 0xbe, 0xaa, 0xa9, 0xfc, 0x3e, 0x89, 0x97, 0x96, 0xbd,
  0x91, 0x6c, 0xf0, 0x3d, 0x20, 0x98, 0xd3, 0xbd, 0x3b, 0xcb, 0xcf, 0x3d,
  0x78, 0x05, 0x11, 0x3d, 0xb0, 0x18, 0xd4, 0xbe, 0xd7, 0x85, 0x2a, 0x3e,
  0xf2, 0xa8, 0x29, 0x3e, 0x2b, 0x46, 0x3b, 0xbe, 0x78, 0x87, 0x9e, 0xbe,
  0xb0, 0x49, 0x38, 0x3d, 0x11, 0x07, 0x9b, 0xbe, 0xc4, 0x9b, 0x97, 0x3e,
  0xcc, 0x7d, 0xe3, 0x3c, 0x3e, 0x31, 0xa4, 0xbe, 0x43, 0xa2, 0x57, 0xbd,
  0x8d, 0xf8, 0xf2, 0xbe, 0xd7, 0x25, 0xe0, 0xbc, 0x33, 0x39, 0x59, 0x3e,
  0x39, 0x3b, 0xb8, 0xbd, 0x32, 0xe9, 0x6d, 0x3d, 0xaf, 0xb8, 0xfa, 0xbe,
  0x32, 0xa5, 0xd0, 0x3a, 0x9e, 0x34, 0x7e, 0x3d, 0xbb, 0xbc, 0x14, 0xbf,
  0x52, 0x4e, 0x23, 0xbe, 0x18, 0x24, 0x19, 0xbe, 0x89, 0x53, 0x06, 0xbe,
  0x6b, 0x56, 0x38, 0x3e, 0x24, 0x45, 0x14, 0xbd, 0xee, 0x0a, 0x13, 0x3e,
  0xd9, 0x4f, 0x2f, 0x3f, 0xa3, 0xc3, 0x96, 0x3e, 0xf3, 0x98, 0x7d, 0x3e,
  0x80, 0xe7, 0x51, 0x3e, 0x5d, 0x80, 0x52, 0xbe, 0x34, 0x74, 0xcb, 0x3e,
  0xa5, 0x0a, 0x5b, 0x3d, 0xb3, 0xfa, 0x05, 0x3e, 0xf6, 0xa2, 0x0e, 0x3e,
  0x86, 0x77, 0x45, 0xbd, 0xf9, 0x0f, 0x22, 0xbe, 0x9d, 0xa1, 0xc9, 0xbc,
  0x99, 0x2b, 0x00, 0xbe, 0x0f, 0xdd, 0x68, 0xbe, 0x2b, 0xd0, 0xf0, 0x3d,
  0x69, 0x2f, 0x2b, 0x3e, 0x88, 0x3b, 0xc3, 0x3d, 0xce, 0x9d, 0xa3, 0x3e,
  0xd2, 0x2f, 0xee, 0xbc, 0x33, 0x58, 0x3b, 0xbe, 0x5f, 0xe0, 0x73, 0x3e,
  0xcf, 0x48, 0x8f, 0xbd, 0x23, 0xbd, 0xdc, 0x3d, 0xb7, 0x87, 0x9c, 0x3e,
  0xc6, 0x2d, 0xf8, 0xbe, 0x48, 0x93, 0xf3, 0x3d, 0x53, 0x90, 0x54, 0x3d,
  0x82, 0x7e, 0x8b, 0xbe, 0xaf, 0xf3, 0x67, 0xbd, 0x92, 0x26, 0x41, 0xbe,
  0x65, 0x48, 0xfe, 0xbd, 0xaa, 0xe7, 0xda, 0xbd, 0x8d, 0xb9, 0x19, 0x3e,
  0x75, 0x41, 0x18, 0x3e, 0xe2, 0x6b, 0x24, 0xbe, 0x16, 0x90, 0xb0, 0x3e,
  0x0d, 0x00, 0xf2, 0x3d, 0x14, 0xce, 0x49, 0xbe, 0xa5, 0xa3, 0xd9, 0x3e,
  0x55, 0xd9, 0x59, 0x3e, 0x61, 0x2e, 0x8e, 0xbe, 0xff, 0x08, 0x81, 0x3e,
  0xb1, 0x37, 0x3b, 0xbe, 0x4b, 0x9a, 0xcb, 0x3d, 0xa6, 0x5e, 0x89, 0x3e,
  0x5f, 0x1d, 0x17, 0x3d, 0xfb, 0xb4, 0x35, 0xbd, 0x69, 0x8a, 0x8a, 0x3d,
  0xc1, 0x06, 0x45, 0xbe, 0xa5, 0xa7, 0x1b, 0x3e, 0xa2, 0xaa, 0xdb, 0x3e,
  0xe6, 0xf0, 0x0e, 0x3e, 0x6f, 0x60, 0x8d, 0x3e, 0x49, 0x90, 0x53, 0x3e,
  0x60, 0xb3, 0xb6, 0xbe, 0x80, 0x24, 0x93, 0x3e, 0x1e, 0xbc, 0xc2, 0x3e,
  0xc7, 0xad, 0x8e, 0xbe, 0x98, 0x97, 0xc1, 0x3e, 0xb6, 0xfc, 0xff, 0xff,
  0x04, 0x00, 0x00, 0x00, 0x90, 0x01, 0x00, 0x00, 0x9f, 0x7d, 0x86, 0xbe,
  0xce, 0x06, 0x85, 0xbd, 0x1d, 0x28, 0xa4, 0xbb, 0x43, 0xbf, 0xa7, 0xbb,
  0xa7, 0xea, 0x98, 0xbe, 0x13, 0x96, 0xe6, 0x3d, 0x71, 0xea, 0x44, 0xbe,
  0xc8, 0x89, 0xf5, 0xbe, 0x1f, 0x89, 0x9e, 0x3d, 0xa7, 0x23, 0xd8, 0xbe,
  0xf7, 0x98, 0xe9, 0x3c, 0xcf, 0x19, 0x04, 0xbe, 0x69, 0x46, 0x58, 0xbe,
  0x53, 0x08, 0x93, 0x3d, 0x30, 0xcc, 0x85, 0x3d, 0x44, 0x44, 0x35, 0xbc,
  0x53, 0xca, 0x3c, 0x3e, 0x19, 0xd5, 0x3e, 0x3d, 0x4a, 0xfa, 0x0d, 0xbe,
  0x19, 0x13, 0xfc, 0x3d, 0x9b, 0x93, 0xf5, 0xbd, 0x55, 0x11, 0x2b, 0xbc,
  0x51, 0x12, 0x4b, 0xbd, 0x19, 0x6f, 0xe2, 0x3d, 0x8e, 0x18, 0x5f, 0x3d,
  0x80, 0xca, 0x3a, 0xbe, 0x4c, 0xc8, 0x0b, 0xbe, 0x54, 0x3f, 0xd6, 0xba,
  0x05, 0xf4, 0xa5, 0x3e, 0xfc, 0x38, 0x59, 0x3e, 0x85, 0xcc, 0x8f, 0xbd,
  0x39, 0xcd, 0x6e, 0xbe, 0xb4, 0xde, 0x4c, 0xbe, 0x92, 0xb3, 0x96, 0x3d,
  0x51, 0xb3, 0x9c, 0xbd, 0x6c, 0xbd, 0x15, 0x3e, 0x98, 0x45, 0x59, 0x3d,
  0x81, 0x6d, 0xde, 0x3e, 0x9b, 0x63, 0x04, 0xbe, 0x3e, 0x9b, 0x06, 0x3d,
  0x51, 0x26, 0xd6, 0xbe, 0x86, 0xdf, 0xa0, 0x3e, 0x8a, 0x9b, 0x45, 0xbe,
  0xac, 0x7b, 0xa0, 0xbd, 0x03, 0x22, 0xf7, 0xbd, 0x7b, 0xe9, 0x25, 0xbe,
  0xe1, 0xef, 0x49, 0x3e, 0x10, 0x72, 0x9f, 0x3e, 0xf3, 0xca, 0x82, 0x3d,
  0xa6, 0xce, 0x7c, 0xbd, 0x4e, 0x2e, 0x8b, 0xbe, 0x04, 0x11, 0x0c, 0x3e,
  0xc1, 0x76, 0x8f, 0x3d, 0xd3, 0xa7, 0xd6, 0x3e, 0xc0, 0xc5, 0x68, 0xbe,
  0x0d, 0x20, 0x92, 0xbd, 0xab, 0xfa, 0x70, 0x3d, 0x04, 0xd3, 0x5f, 0xbe,
  0x4a, 0xde, 0x36, 0xbd, 0x24, 0xd1, 0x40, 0xbe, 0x81, 0xbe, 0xf8, 0x3c,
  0x9b, 0xb1, 0xdc, 0x3e, 0xe5, 0xcb, 0xb9, 0xbd, 0xd4, 0xca, 0x23, 0x3e,
  0x1a, 0x8f, 0x36, 0xbd, 0xd3, 0x68, 0x4c, 0xbe, 0x88, 0x92, 0x12, 0xbe,
  0x35, 0x26, 0xc3, 0x3e, 0x7d, 0x4e, 0x5f, 0x3d, 0x6e, 0x9e, 0xc5, 0xbe,
  0xd7, 0x9f, 0x5b, 0xbc, 0xda, 0x07, 0x33, 0x3e, 0x3e, 0x3d, 0x7c, 0x3e,
  0x6f, 0xd9, 0xb0, 0xbd, 0x77, 0x28, 0x04, 0x3f, 0x59, 0x03, 0x4d, 0xbd,
  0x39, 0x42, 0xc7, 0xbd, 0xbc, 0x75, 0x58, 0xbd, 0x65, 0xcd, 0x45, 0x3d,
  0xcc, 0x03, 0xca, 0xbd, 0xa7, 0x76, 0x7d, 0xbe, 0xa5, 0xf6, 0xa8, 0x3d,
  0x0a, 0xe4, 0x5f, 0xbe, 0xbb, 0xf6, 0x3d, 0x3e, 0xf8, 0x0f, 0x5b, 0x3e,
  0x3b, 0x4e, 0xf5, 0x3d, 0xb8, 0x6e, 0xea, 0x3e, 0xfa, 0x1a, 0x8c, 0x3d,
  0x10, 0xff, 0x89, 0xbd, 0x4e, 0x58, 0x82, 0xbe, 0x80, 0xf3, 0x9a, 0xbc,
  0x64, 0x54, 0x1f, 0xbe, 0xdf, 0xed, 0x6a, 0xbe, 0x59, 0xe3, 0xa8, 0x3c,
  0x38, 0x97, 0x32, 0xbe, 0x9a, 0x90, 0xce, 0x3e, 0xd4, 0x9f, 0xc2, 0xbe,
  0x6d, 0x46, 0x2b, 0xbe, 0x86, 0xb6, 0x19, 0x3d, 0xb5, 0xb7, 0xe4, 0x3d,
  0x52, 0xfe, 0xff, 0xff, 0x04, 0x00, 0x00, 0x00, 0x90, 0x01, 0x00, 0x00,
  0x0a, 0x34, 0x36, 0xbe, 0x02, 0x63, 0x16, 0xbe, 0x86, 0x8b, 0xda, 0xbe,
  0xe3, 0x82, 0xbe, 0x3e, 0xd8, 0x89, 0xe9, 0xbe, 0x90, 0xe2, 0x90, 0x3e,
  0xbe, 0xb0, 0xe8, 0xbb, 0xcb, 0xca, 0xb4, 0xbe, 0xb1, 0xfa, 0x12, 0x3e,
  0x81, 0x30, 0xb6, 0xbe, 0x4f, 0x50, 0xd4, 0xbe, 0xef, 0x2b, 0x87, 0xbd,
  0x2c, 0x4a, 0xd0, 0x3e, 0x51, 0xfb, 0x19, 0x3e, 0xc3, 0xcb, 0xd7, 0x3e,
  0xbc, 0x86, 0xad, 0xbe, 0xc4, 0x38, 0x63, 0x3e, 0x39, 0xec, 0xa5, 0x3b,
  0xe2, 0xd5, 0x01, 0xbe, 0x6e, 0xea, 0x90, 0xbe, 0xe9, 0x96, 0xa5, 0x3e,
  0x81, 0x59, 0xb0, 0x3e, 0xe0, 0xff, 0x26, 0x3e, 0x12, 0x40, 0x91, 0xbe,
  0x84, 0xf6, 0x62, 0x3f, 0x0d, 0xc6, 0xea, 0xbc, 0x27, 0x8e, 0x26, 0x3f,
  0xe7, 0x9e, 0xa0, 0x3c, 0xf4, 0x4e, 0x6e, 0xbd, 0x50, 0x2c, 0xf2, 0x3c,
  0x07, 0x9a, 0xa5, 0xbd, 0xe1, 0x6e, 0xba, 0x3c, 0x6e, 0x02, 0x03, 0xbf,
  0x26, 0x31, 0x07, 0xbe, 0xf7, 0xe5, 0x08, 0x3e, 0x37, 0xd5, 0x5d, 0xbe,
  0xf3, 0x1c, 0x7b, 0xbd, 0x53, 0x86, 0x31, 0x3e, 0x56, 0x88, 0xdb, 0x3c,
  0x05, 0x48, 0x0c, 0x3d, 0x7e, 0x01, 0xcf, 0xbe, 0x00, 0x23, 0x3f, 0xbb,
  0x3b, 0x0e, 0xfd, 0xbd, 0x75, 0xdd, 0x6d, 0x3e, 0x1e, 0xcb, 0x40, 0xbd,
  0x8d, 0x9d, 0x2a, 0xbf, 0x4c, 0xe1, 0x35, 0x3e, 0x9d, 0x8a, 0xde, 0x3c,
  0x35, 0xfb, 0x10, 0xbf, 0x77, 0x61, 0xcb, 0xbe, 0xba, 0x85, 0x59, 0xbe,
  0x77, 0xce, 0x23, 0xbf, 0x9f, 0xa8, 0x6b, 0x3e, 0xc4, 0x29, 0xab, 0x3e,
  0x9a, 0xd4, 0x98, 0xbe, 0x78, 0x98, 0xb2, 0xbd, 0x02, 0x13, 0x0a, 0x3e,
  0x1b, 0xa3, 0xe6, 0x3d, 0x8c, 0xcf, 0x49, 0xbe, 0x00, 0x53, 0xde, 0xbe,
  0xfa, 0x23, 0x9b, 0xbd, 0x50, 0xdb, 0x00, 0xbf, 0xf6, 0xeb, 0xd2, 0x3c,
  0xca, 0x50, 0x0d, 0x3f, 0x52, 0xe2, 0xe9, 0x3c, 0xf0, 0xa2, 0x84, 0xbe,
  0xef, 0x45, 0xac, 0x3d, 0x55, 0x87, 0x2c, 0xbe, 0xb0, 0xb2, 0x73, 0x3d,
  0x1c, 0xe9, 0x81, 0xbe, 0x38, 0x04, 0x10, 0xbf, 0x11, 0x92, 0xd2, 0xbb,
  0x83, 0xe2, 0x51, 0x3e, 0xa2, 0x8d, 0xed, 0x3e, 0x92, 0x6b, 0x91, 0x3e,
  0xe1, 0x7d, 0x85, 0xbe, 0x42, 0xb8, 0xed, 0x3d, 0xb5, 0x37, 0xd3, 0x3d,
  0xb1, 0xf9, 0xa7, 0xbc, 0x7b, 0x0a, 0xd0, 0xbd, 0x4e, 0xa1, 0x3a, 0xbe,
  0xf1, 0xe7, 0x15, 0xbe, 0x62, 0x44, 0x8e, 0xbe, 0x61, 0xd5, 0x5a, 0x3d,
  0x39, 0xf6, 0x0f, 0xbf, 0x8d, 0x5b, 0x36, 0xbc, 0x5c, 0x2c, 0xe4, 0x3d,
  0x74, 0x44, 0x78, 0xbd, 0x1e, 0x4d, 0x95, 0xbd, 0xea, 0xd3, 0x83, 0x3b,
  0xd5, 0x71, 0xd7, 0xbe, 0xa2, 0x34, 0x16, 0x3e, 0x95, 0x88, 0xbf, 0xbd,
  0x32, 0x24, 0x3f, 0x3e, 0xef, 0x85, 0xad, 0x3d, 0x80, 0x46, 0x99, 0xbd,
  0x64, 0xf6, 0x9f, 0x3e, 0x59, 0x43, 0x67, 0xbe, 0xfd, 0xd4, 0x91, 0xbd,
  0xd1, 0x5e, 0x2d, 0xbe, 0xee, 0xff, 0xff, 0xff, 0x04, 0x00, 0x00, 0x00,
  0x04, 0x00, 0x00, 0x00, 0xda, 0x35, 0xb1, 0xbd, 0x00, 0x00, 0x06, 0x00,
  0x08, 0x00, 0x04, 0x00, 0x06, 0x00, 0x00, 0x00, 0x04, 0x00, 0x00, 0x00,
  0x28, 0x00, 0x00, 0x00, 0x00, 0x00, 0x00, 0x00, 0x00, 0x00, 0x00, 0x00,
  0x00, 0x00, 0x00, 0x00, 0x00, 0x00, 0x00, 0x00, 0x00, 0x00, 0x00, 0x00,
  0x00, 0x00, 0x00, 0x00, 0x00, 0x00, 0x00, 0x00, 0x00, 0x00, 0x00, 0x00,
  0x00, 0x00, 0x00, 0x00, 0x00, 0x00, 0x00, 0x00, 0x70, 0xf7, 0xff, 0xff,
  0x74, 0xf7, 0xff, 0xff, 0x0f, 0x00, 0x00, 0x00, 0x4d, 0x4c, 0x49, 0x52,
  0x20, 0x43, 0x6f, 0x6e, 0x76, 0x65, 0x72, 0x74, 0x65, 0x64, 0x2e, 0x00,
  0x01, 0x00, 0x00, 0x00, 0x14, 0x00, 0x00, 0x00, 0x00, 0x00, 0x0e, 0x00,
  0x18, 0x00, 0x14, 0x00, 0x10, 0x00, 0x0c, 0x00, 0x08, 0x00, 0x04, 0x00,
  0x0e, 0x00, 0x00, 0x00, 0x14, 0x00, 0x00, 0x00, 0x1c, 0x00, 0x00, 0x00,
  0xa4, 0x01, 0x00, 0x00, 0xa8, 0x01, 0x00, 0x00, 0xac, 0x01, 0x00, 0x00,
  0x04, 0x00, 0x00, 0x00, 0x6d, 0x61, 0x69, 0x6e, 0x00, 0x00, 0x00, 0x00,
  0x04, 0x00, 0x00, 0x00, 0xec, 0x00, 0x00, 0x00, 0x7c, 0x00, 0x00, 0x00,
  0x34, 0x00, 0x00, 0x00, 0x10, 0x00, 0x00, 0x00, 0x00, 0x00, 0x0a, 0x00,
  0x10, 0x00, 0x0c, 0x00, 0x08, 0x00, 0x04, 0x00, 0x0a, 0x00, 0x00, 0x00,
  0x0c, 0x00, 0x00, 0x00, 0x10, 0x00, 0x00, 0x00, 0x03, 0x00, 0x00, 0x00,
  0x01, 0x00, 0x00, 0x00, 0x17, 0x00, 0x00, 0x00, 0x01, 0x00, 0x00, 0x00,
  0x16, 0x00, 0x00, 0x00, 0xca, 0xff, 0xff, 0xff, 0x14, 0x00, 0x00, 0x00,
  0x00, 0x00, 0x00, 0x08, 0x10, 0x00, 0x00, 0x00, 0x14, 0x00, 0x00, 0x00,
  0x02, 0x00, 0x00, 0x00, 0x20, 0xf8, 0xff, 0xff, 0x01, 0x00, 0x00, 0x00,
  0x16, 0x00, 0x00, 0x00, 0x03, 0x00, 0x00, 0x00, 0x15, 0x00, 0x00, 0x00,
  0x0f, 0x00, 0x00, 0x00, 0x02, 0x00, 0x00, 0x00, 0x00, 0x00, 0x0e, 0x00,
  0x1a, 0x00, 0x14, 0x00, 0x10, 0x00, 0x0c, 0x00, 0x0b, 0x00, 0x04, 0x00,
  0x0e, 0x00, 0x00, 0x00, 0x24, 0x00, 0x00, 0x00, 0x00, 0x00, 0x00, 0x20,
  0x2c, 0x00, 0x00, 0x00, 0x30, 0x00, 0x00, 0x00, 0x01, 0x00, 0x00, 0x00,
  0x00, 0x00, 0x0e, 0x00, 0x10, 0x00, 0x0c, 0x00, 0x08, 0x00, 0x00, 0x00,
  0x00, 0x00, 0x04, 0x00, 0x0e, 0x00, 0x00, 0x00, 0x02, 0x00, 0x00, 0x00,
  0x05, 0x00, 0x00, 0x00, 0x05, 0x00, 0x00, 0x00, 0x01, 0x00, 0x00, 0x00,
  0x15, 0x00, 0x00, 0x00, 0x04, 0x00, 0x00, 0x00, 0x14, 0x00, 0x00, 0x00,
  0x10, 0x00, 0x00, 0x00, 0x11, 0x00, 0x00, 0x00, 0x12, 0x00, 0x00, 0x00,
  0x00, 0x00, 0x16, 0x00, 0x18, 0x00, 0x00, 0x00, 0x14, 0x00, 0x10, 0x00,
  0x0f, 0x00, 0x08, 0x00, 0x00, 0x00, 0x00, 0x00, 0x00, 0x00, 0x04, 0x00,
  0x16, 0x00, 0x00, 0x00, 0x14, 0x00, 0x00, 0x00, 0x1c, 0x00, 0x00, 0x00,
  0x00, 0x00, 0x00, 0x47, 0x20, 0x00, 0x00, 0x00, 0x24, 0x00, 0x00, 0x00,
  0x00, 0x00, 0x00, 0x00, 0x08, 0x00, 0x0c, 0x00, 0x0b, 0x00, 0x04, 0x00,
  0x08, 0x00, 0x00, 0x00, 0x00, 0x00, 0x20, 0x41, 0x00, 0x00, 0x00, 0x04,
  0x01, 0x00, 0x00, 0x00, 0x14, 0x00, 0x00, 0x00, 0x18, 0x00, 0x00, 0x00,
  0x00, 0x00, 0x00, 0x00, 0x0b, 0x00, 0x00, 0x00, 0x0c, 0x00, 0x00, 0x00,
  0x0d, 0x00, 0x00, 0x00, 0x0e, 0x00, 0x00, 0x00, 0x03, 0x00, 0x00, 0x00,
  0x04, 0x00, 0x00, 0x00, 0x05, 0x00, 0x00, 0x00, 0x06, 0x00, 0x00, 0x00,
  0xff, 0xff, 0xff, 0xff, 0xff, 0xff, 0xff, 0xff, 0xff, 0xff, 0xff, 0xff,
  0x07, 0x00, 0x00, 0x00, 0x08, 0x00, 0x00, 0x00, 0x09, 0x00, 0x00, 0x00,
  0x0a, 0x00, 0x00, 0x00, 0xff, 0xff, 0xff, 0xff, 0xff, 0xff, 0xff, 0xff,
  0x01, 0x00, 0x00, 0x00, 0x13, 0x00, 0x00, 0x00, 0xff, 0xff, 0xff, 0xff,
  0xff, 0xff, 0xff, 0xff, 0xff, 0xff, 0xff, 0xff, 0xff, 0xff, 0xff, 0xff,
  0x01, 0x00, 0x00, 0x00, 0x17, 0x00, 0x00, 0x00, 0x01, 0x00, 0x00, 0x00,
  0x00, 0x00, 0x00, 0x00, 0x18, 0x00, 0x00, 0x00, 0x80, 0x06, 0x00, 0x00,
  0x24, 0x06, 0x00, 0x00, 0xb8, 0x05, 0x00, 0x00, 0x78, 0x05, 0x00, 0x00,
  0x38, 0x05, 0x00, 0x00, 0xf8, 0x04, 0x00, 0x00, 0xb8, 0x04, 0x00, 0x00,
  0x7c, 0x04, 0x00, 0x00, 0x40, 0x04, 0x00, 0x00, 0x04, 0x04, 0x00, 0x00,
  0xc8, 0x03, 0x00, 0x00, 0x88, 0x03, 0x00, 0x00, 0x48, 0x03, 0x00, 0x00,
  0x04, 0x03, 0x00, 0x00, 0xc0, 0x02, 0x00, 0x00, 0x78, 0x02, 0x00, 0x00,
  0x34, 0x02, 0x00, 0x00, 0xd8, 0x01, 0x00, 0x00, 0x94, 0x01, 0x00, 0x00,
  0x50, 0x01, 0x00, 0x00, 0xf8, 0x00, 0x00, 0x00, 0xb4, 0x00, 0x00, 0x00,
  0x50, 0x00, 0x00, 0x00, 0x04, 0x00, 0x00, 0x00, 0xf6, 0xf9, 0xff, 0xff,
  0x00, 0x00, 0x00, 0x01, 0x10, 0x00, 0x00, 0x00, 0x10, 0x00, 0x00, 0x00,
  0x18, 0x00, 0x00, 0x00, 0x28, 0x00, 0x00, 0x00, 0xe0, 0xf9, 0xff, 0xff,
  0x19, 0x00, 0x00, 0x00, 0x53, 0x74, 0x61, 0x74, 0x65, 0x66, 0x75, 0x6c,
  0x50, 0x61, 0x72, 0x74, 0x69, 0x74, 0x69, 0x6f, 0x6e, 0x65, 0x64, 0x43,
  0x61, 0x6c, 0x6c, 0x3a, 0x30, 0x00, 0x00, 0x00, 0x02, 0x00, 0x00, 0x00,
  0x01, 0x00, 0x00, 0x00, 0x01, 0x00, 0x00, 0x00, 0x3e, 0xfa, 0xff, 0xff,
  0x00, 0x00, 0x00, 0x01, 0x10, 0x00, 0x00, 0x00, 0x10, 0x00, 0x00, 0x00,
  0x17, 0x00, 0x00, 0x00, 0x40, 0x00, 0x00, 0x00, 0x28, 0xfa, 0xff, 0xff,
  0x30, 0x00, 0x00, 0x00, 0x73, 0x65, 0x71, 0x75, 0x65, 0x6e, 0x74, 0x69,
  0x61, 0x6c, 0x2f, 0x64, 0x65, 0x6e, 0x73, 0x65, 0x2f, 0x4d, 0x61, 0x74,
  0x4d, 0x75, 0x6c, 0x3b, 0x73, 0x65, 0x71, 0x75, 0x65, 0x6e, 0x74, 0x69,
  0x61, 0x6c, 0x2f, 0x64, 0x65, 0x6e, 0x73, 0x65, 0x2f, 0x42, 0x69, 0x61,
  0x73, 0x41, 0x64, 0x64, 0x00, 0x00, 0x00, 0x00, 0x02, 0x00, 0x00, 0x00,
  0x01, 0x00, 0x00, 0x00, 0x01, 0x00, 0x00, 0x00, 0x9e, 0xfa, 0xff, 0xff,
  0x00, 0x00, 0x00, 0x01, 0x10, 0x00, 0x00, 0x00, 0x10, 0x00, 0x00, 0x00,
  0x16, 0x00, 0x00, 0x00, 0x20, 0x00, 0x00, 0x00, 0x88, 0xfa, 0xff, 0xff,
  0x11, 0x00, 0x00, 0x00, 0x74, 0x66, 0x6c, 0x2e, 0x73, 0x74, 0x72, 0x69,
  0x64, 0x65, 0x64, 0x5f, 0x73, 0x6c, 0x69, 0x63, 0x65, 0x00, 0x00, 0x00,
  0x02, 0x00, 0x00, 0x00, 0x01, 0x00, 0x00, 0x00, 0x0a, 0x00, 0x00, 0x00,
  0xde, 0xfa, 0xff, 0xff, 0x00, 0x00, 0x00, 0x01, 0x10, 0x00, 0x00, 0x00,
  0x10, 0x00, 0x00, 0x00, 0x15, 0x00, 0x00, 0x00, 0x30, 0x00, 0x00, 0x00,
  0xc8, 0xfa, 0xff, 0xff, 0x20, 0x00, 0x00, 0x00, 0x74, 0x66, 0x6c, 0x2e,
  0x75, 0x6e, 0x69, 0x64, 0x69, 0x72, 0x65, 0x63, 0x74, 0x69, 0x6f, 0x6e,
  0x61, 0x6c, 0x5f, 0x73, 0x65, 0x71, 0x75, 0x65, 0x6e, 0x63, 0x65, 0x5f,
  0x6c, 0x73, 0x74, 0x6d, 0x00, 0x00, 0x00, 0x00, 0x03, 0x00, 0x00, 0x00,
  0x01, 0x00, 0x00, 0x00, 0x14, 0x00, 0x00, 0x00, 0x0a, 0x00, 0x00, 0x00,
  0x8a, 0xfb, 0xff, 0xff, 0x00, 0x00, 0x01, 0x01, 0x0c, 0x00, 0x00, 0x00,
  0x0c, 0x00, 0x00, 0x00, 0x24, 0x00, 0x00, 0x00, 0x18, 0xfb, 0xff, 0xff,
  0x16, 0x00, 0x00, 0x00, 0x73, 0x65, 0x71, 0x75, 0x65, 0x6e, 0x74, 0x69,
  0x61, 0x6c, 0x2f, 0x6c, 0x73, 0x74, 0x6d, 0x2f, 0x7a, 0x65, 0x72, 0x6f,
  0x73, 0x31, 0x00, 0x00, 0x02, 0x00, 0x00, 0x00, 0x01, 0x00, 0x00, 0x00,
  0x0a, 0x00, 0x00, 0x00, 0x7e, 0xff, 0xff, 0xff, 0x00, 0x00, 0x00, 0x01,
  0x14, 0x00, 0x00, 0x00, 0x14, 0x00, 0x00, 0x00, 0x13, 0x00, 0x00, 0x00,
  0x00, 0x00, 0x00, 0x02, 0x20, 0x00, 0x00, 0x00, 0x60, 0xfb, 0xff, 0xff,
  0x10, 0x00, 0x00, 0x00, 0x61, 0x72, 0x69, 0x74, 0x68, 0x2e, 0x63, 0x6f,
  0x6e, 0x73, 0x74, 0x61, 0x6e, 0x74, 0x31, 0x34, 0x00, 0x00, 0x00, 0x00,
  0x01, 0x00, 0x00, 0x00, 0x03, 0x00, 0x00, 0x00, 0xbe, 0xff, 0xff, 0xff,
  0x00, 0x00, 0x00, 0x01, 0x14, 0x00, 0x00, 0x00, 0x14, 0x00, 0x00, 0x00,
  0x12, 0x00, 0x00, 0x00, 0x00, 0x00, 0x00, 0x02, 0x20, 0x00, 0x00, 0x00,
  0xa0, 0xfb, 0xff, 0xff, 0x10, 0x00, 0x00, 0x00, 0x61, 0x72, 0x69, 0x74,
  0x68, 0x2e, 0x63, 0x6f, 0x6e, 0x73, 0x74, 0x61, 0x6e, 0x74, 0x31, 0x33,
  0x00, 0x00, 0x00, 0x00, 0x01, 0x00, 0x00, 0x00, 0x03, 0x00, 0x00, 0x00,
  0x00, 0x00, 0x16, 0x00, 0x1c, 0x00, 0x18, 0x00, 0x17, 0x00, 0x10, 0x00,
  0x0c, 0x00, 0x08, 0x00, 0x00, 0x00, 0x00, 0x00, 0x00, 0x00, 0x07, 0x00,
  0x16, 0x00, 0x00, 0x00, 0x00, 0x00, 0x00, 0x01, 0x14, 0x00, 0x00, 0x00,
  0x14, 0x00, 0x00, 0x00, 0x11, 0x00, 0x00, 0x00, 0x00, 0x00, 0x00, 0x02,
  0x20, 0x00, 0x00, 0x00, 0xf8, 0xfb, 0xff, 0xff, 0x10, 0x00, 0x00, 0x00,
  0x61, 0x72, 0x69, 0x74, 0x68, 0x2e, 0x63, 0x6f, 0x6e, 0x73, 0x74, 0x61,
  0x6e, 0x74, 0x31, 0x32, 0x00, 0x00, 0x00, 0x00, 0x01, 0x00, 0x00, 0x00,
  0x03, 0x00, 0x00, 0x00, 0x4a, 0xfc, 0xff, 0xff, 0x00, 0x00, 0x00, 0x01,
  0x10, 0x00, 0x00, 0x00, 0x10, 0x00, 0x00, 0x00, 0x10, 0x00, 0x00, 0x00,
  0x24, 0x00, 0x00, 0x00, 0x34, 0xfc, 0xff, 0xff, 0x17, 0x00, 0x00, 0x00,
  0x73, 0x65, 0x71, 0x75, 0x65, 0x6e, 0x74, 0x69, 0x61, 0x6c, 0x2f, 0x64,
  0x65, 0x6e, 0x73, 0x65, 0x2f, 0x4d, 0x61, 0x74, 0x4d, 0x75, 0x6c, 0x00,
  0x02, 0x00, 0x00, 0x00, 0x01, 0x00, 0x00, 0x00, 0x0a, 0x00, 0x00, 0x00,
  0x8e, 0xfc, 0xff, 0xff, 0x00, 0x00, 0x00, 0x01, 0x10, 0x00, 0x00, 0x00,
  0x10, 0x00, 0x00, 0x00, 0x0f, 0x00, 0x00, 0x00, 0x20, 0x00, 0x00, 0x00,
  0x78, 0xfc, 0xff, 0xff, 0x10, 0x00, 0x00, 0x00, 0x61, 0x72, 0x69, 0x74,
  0x68, 0x2e, 0x63, 0x6f, 0x6e, 0x73, 0x74, 0x61, 0x6e, 0x74, 0x31, 0x31,
  0x00, 0x00, 0x00, 0x00, 0x02, 0x00, 0x00, 0x00, 0x0a, 0x00, 0x00, 0x00,
  0x40, 0x00, 0x00, 0x00, 0xce, 0xfc, 0xff, 0xff, 0x00, 0x00, 0x00, 0x01,
  0x10, 0x00, 0x00, 0x00, 0x10, 0x00, 0x00, 0x00, 0x0e, 0x00, 0x00, 0x00,
  0x20, 0x00, 0x00, 0x00, 0xb8, 0xfc, 0xff, 0xff, 0x10, 0x00, 0x00, 0x00,
  0x61, 0x72, 0x69, 0x74, 0x68, 0x2e, 0x63, 0x6f, 0x6e, 0x73, 0x74, 0x61,
  0x6e, 0x74, 0x31, 0x30, 0x00, 0x00, 0x00, 0x00, 0x02, 0x00, 0x00, 0x00,
  0x0a, 0x00, 0x00, 0x00, 0x40, 0x00, 0x00, 0x00, 0x0e, 0xfd, 0xff, 0xff,
  0x00, 0x00, 0x00, 0x01, 0x10, 0x00, 0x00, 0x00, 0x10, 0x00, 0x00, 0x00,
  0x0d, 0x00, 0x00, 0x00, 0x1c, 0x00, 0x00, 0x00, 0xf8, 0xfc, 0xff, 0xff,
  0x0f, 0x00, 0x00, 0x00, 0x61, 0x72, 0x69, 0x74, 0x68, 0x2e, 0x63, 0x6f,
  0x6e, 0x73, 0x74, 0x61, 0x6e, 0x74, 0x39, 0x00, 0x02, 0x00, 0x00, 0x00,
  0x0a, 0x00, 0x00, 0x00, 0x40, 0x00, 0x00, 0x00, 0x4a, 0xfd, 0xff, 0xff,
  0x00, 0x00, 0x00, 0x01, 0x10, 0x00, 0x00, 0x00, 0x10, 0x00, 0x00, 0x00,
  0x0c, 0x00, 0x00, 0x00, 0x1c, 0x00, 0x00, 0x00, 0x34, 0xfd, 0xff, 0xff,
  0x0f, 0x00, 0x00, 0x00, 0x61, 0x72, 0x69, 0x74, 0x68, 0x2e, 0x63, 0x6f,
  0x6e, 0x73, 0x74, 0x61, 0x6e, 0x74, 0x38, 0x00, 0x02, 0x00, 0x00, 0x00,
  0x0a, 0x00, 0x00, 0x00, 0x40, 0x00, 0x00, 0x00, 0x86, 0xfd, 0xff, 0xff,
  0x00, 0x00, 0x00, 0x01, 0x10, 0x00, 0x00, 0x00, 0x10, 0x00, 0x00, 0x00,
  0x0b, 0x00, 0x00, 0x00, 0x1c, 0x00, 0x00, 0x00, 0x70, 0xfd, 0xff, 0xff,
  0x0f, 0x00, 0x00, 0x00, 0x61, 0x72, 0x69, 0x74, 0x68, 0x2e, 0x63, 0x6f,
  0x6e, 0x73, 0x74, 0x61, 0x6e, 0x74, 0x37, 0x00, 0x01, 0x00, 0x00, 0x00,
  0x0a, 0x00, 0x00, 0x00, 0xbe, 0xfd, 0xff, 0xff, 0x00, 0x00, 0x00, 0x01,
  0x10, 0x00, 0x00, 0x00, 0x10, 0x00, 0x00, 0x00, 0x0a, 0x00, 0x00, 0x00,
  0x1c, 0x00, 0x00, 0x00, 0xa8, 0xfd, 0xff, 0xff, 0x0f, 0x00, 0x00, 0x00,
  0x61, 0x72, 0x69, 0x74, 0x68, 0x2e, 0x63, 0x6f, 0x6e, 0x73, 0x74, 0x61,
  0x6e, 0x74, 0x36, 0x00, 0x01, 0x00, 0x00, 0x00, 0x0a, 0x00, 0x00, 0x00,
  0xf6, 0xfd, 0xff, 0xff, 0x00, 0x00, 0x00, 0x01, 0x10, 0x00, 0x00, 0x00,
  0x10, 0x00, 0x00, 0x00, 0x09, 0x00, 0x00, 0x00, 0x1c, 0x00, 0x00, 0x00,
  0xe0, 0xfd, 0xff, 0xff, 0x0f, 0x00, 0x00, 0x00, 0x61, 0x72, 0x69, 0x74,
  0x68, 0x2e, 0x63, 0x6f, 0x6e, 0x73, 0x74, 0x61, 0x6e, 0x74, 0x35, 0x00,
  0x01, 0x00, 0x00, 0x00, 0x0a, 0x00, 0x00, 0x00, 0x2e, 0xfe, 0xff, 0xff,
  0x00, 0x00, 0x00, 0x01, 0x10, 0x00, 0x00, 0x00, 0x10, 0x00, 0x00, 0x00,
  0x08, 0x00, 0x00, 0x00, 0x1c, 0x00, 0x00, 0x00, 0x18, 0xfe, 0xff, 0xff,
  0x0f, 0x00, 0x00, 0x00, 0x61, 0x72, 0x69, 0x74, 0x68, 0x2e, 0x63, 0x6f,
  0x6e, 0x73, 0x74, 0x61, 0x6e, 0x74, 0x34, 0x00, 0x01, 0x00, 0x00, 0x00,
  0x0a, 0x00, 0x00, 0x00, 0x66, 0xfe, 0xff, 0xff, 0x00, 0x00, 0x00, 0x01,
  0x10, 0x00, 0x00, 0x00, 0x10, 0x00, 0x00, 0x00, 0x07, 0x00, 0x00, 0x00,
  0x1c, 0x00, 0x00, 0x00, 0x50, 0xfe, 0xff, 0xff, 0x0f, 0x00, 0x00, 0x00,
  0x61, 0x72, 0x69, 0x74, 0x68, 0x2e, 0x63, 0x6f, 0x6e, 0x73, 0x74, 0x61,
  0x6e, 0x74, 0x33, 0x00, 0x02, 0x00, 0x00, 0x00, 0x0a, 0x00, 0x00, 0x00,
  0x0a, 0x00, 0x00, 0x00, 0xa2, 0xfe, 0xff, 0xff, 0x00, 0x00, 0x00, 0x01,
  0x10, 0x00, 0x00, 0x00, 0x10, 0x00, 0x00, 0x00, 0x06, 0x00, 0x00, 0x00,
  0x1c, 0x00, 0x00, 0x00, 0x8c, 0xfe, 0xff, 0xff, 0x0f, 0x00, 0x00, 0x00,
  0x61, 0x72, 0x69, 0x74, 0x68, 0x2e, 0x63, 0x6f, 0x6e, 0x73, 0x74, 0x61,
  0x6e, 0x74, 0x32, 0x00, 0x02, 0x00, 0x00, 0x00, 0x0a, 0x00, 0x00, 0x00,
  0x0a, 0x00, 0x00, 0x00, 0xde, 0xfe, 0xff, 0xff, 0x00, 0x00, 0x00, 0x01,
  0x10, 0x00, 0x00, 0x00, 0x10, 0x00, 0x00, 0x00, 0x05, 0x00, 0x00, 0x00,
  0x1c, 0x00, 0x00, 0x00, 0xc8, 0xfe, 0xff, 0xff, 0x0f, 0x00, 0x00, 0x00,
  0x61, 0x72, 0x69, 0x74, 0x68, 0x2e, 0x63, 0x6f, 0x6e, 0x73, 0x74, 0x61,
  0x6e, 0x74, 0x31, 0x00, 0x02, 0x00, 0x00, 0x00, 0x0a, 0x00, 0x00, 0x00,
  0x0a, 0x00, 0x00, 0x00, 0x1a, 0xff, 0xff, 0xff, 0x00, 0x00, 0x00, 0x01,
  0x10, 0x00, 0x00, 0x00, 0x10, 0x00, 0x00, 0x00, 0x04, 0x00, 0x00, 0x00,
  0x1c, 0x00, 0x00, 0x00, 0x04, 0xff, 0xff, 0xff, 0x0e, 0x00, 0x00, 0x00,
  0x61, 0x72, 0x69, 0x74, 0x68, 0x2e, 0x63, 0x6f, 0x6e, 0x73, 0x74, 0x61,
  0x6e, 0x74, 0x00, 0x00, 0x02, 0x00, 0x00, 0x00, 0x0a, 0x00, 0x00, 0x00,
  0x0a, 0x00, 0x00, 0x00, 0x56, 0xff, 0xff, 0xff, 0x00, 0x00, 0x00, 0x01,
  0x10, 0x00, 0x00, 0x00, 0x10, 0x00, 0x00, 0x00, 0x03, 0x00, 0x00, 0x00,
  0x34, 0x00, 0x00, 0x00, 0x40, 0xff, 0xff, 0xff, 0x27, 0x00, 0x00, 0x00,
  0x73, 0x65, 0x71, 0x75, 0x65, 0x6e, 0x74, 0x69, 0x61, 0x6c, 0x2f, 0x64,
  0x65, 0x6e, 0x73, 0x65, 0x2f, 0x42, 0x69, 0x61, 0x73, 0x41, 0x64, 0x64,
  0x2f, 0x52, 0x65, 0x61, 0x64, 0x56, 0x61, 0x72, 0x69, 0x61, 0x62, 0x6c,
  0x65, 0x4f, 0x70, 0x00, 0x01, 0x00, 0x00, 0x00, 0x01, 0x00, 0x00, 0x00,
  0x00, 0x00, 0x16, 0x00, 0x14, 0x00, 0x10, 0x00, 0x00, 0x00, 0x00, 0x00,
  0x0c, 0x00, 0x08, 0x00, 0x07, 0x00, 0x00, 0x00, 0x00, 0x00, 0x06, 0x00,
  0x16, 0x00, 0x00, 0x00, 0x00, 0x00, 0x01, 0x01, 0x0c, 0x00, 0x00, 0x00,
  0x0c, 0x00, 0x00, 0x00, 0x24, 0x00, 0x00, 0x00, 0xa4, 0xff, 0xff, 0xff,
  0x15, 0x00, 0x00, 0x00, 0x73, 0x65, 0x71, 0x75, 0x65, 0x6e, 0x74, 0x69,
  0x61, 0x6c, 0x2f, 0x6c, 0x73, 0x74, 0x6d, 0x2f, 0x7a, 0x65, 0x72, 0x6f,
  0x73, 0x00, 0x00, 0x00, 0x02, 0x00, 0x00, 0x00, 0x01, 0x00, 0x00, 0x00,
  0x0a, 0x00, 0x00, 0x00, 0x00, 0x00, 0x16, 0x00, 0x18, 0x00, 0x14, 0x00,
  0x00, 0x00, 0x10, 0x00, 0x0c, 0x00, 0x08, 0x00, 0x00, 0x00, 0x00, 0x00,
  0x00, 0x00, 0x07, 0x00, 0x16, 0x00, 0x00, 0x00, 0x00, 0x00, 0x00, 0x01,
  0x14, 0x00, 0x00, 0x00, 0x14, 0x00, 0x00, 0x00, 0x01, 0x00, 0x00, 0x00,
  0x30, 0x00, 0x00, 0x00, 0x04, 0x00, 0x04, 0x00, 0x04, 0x00, 0x00, 0x00,
  0x1c, 0x00, 0x00, 0x00, 0x73, 0x65, 0x72, 0x76, 0x69, 0x6e, 0x67, 0x5f,
  0x64, 0x65, 0x66, 0x61, 0x75, 0x6c, 0x74, 0x5f, 0x6c, 0x73, 0x74, 0x6d,
  0x5f, 0x69, 0x6e, 0x70, 0x75, 0x74, 0x3a, 0x30, 0x00, 0x00, 0x00, 0x00,
  0x03, 0x00, 0x00, 0x00, 0x01, 0x00, 0x00, 0x00, 0x14, 0x00, 0x00, 0x00,
  0x40, 0x00, 0x00, 0x00, 0x04, 0x00, 0x00, 0x00, 0x40, 0x00, 0x00, 0x00,
  0x24, 0x00, 0x00, 0x00, 0x14, 0x00, 0x00, 0x00, 0x04, 0x00, 0x00, 0x00,
  0xdc, 0xff, 0xff, 0xff, 0x0e, 0x00, 0x00, 0x00, 0x00, 0x00, 0x00, 0x0e,
  0xe8, 0xff, 0xff, 0xff, 0x09, 0x00, 0x00, 0x00, 0x00, 0x00, 0x00, 0x09,
  0xf4, 0xff, 0xff, 0xff, 0x2d, 0x00, 0x00, 0x00, 0x00, 0x00, 0x00, 0x2d,
  0x0c, 0x00, 0x0c, 0x00, 0x0b, 0x00, 0x00, 0x00, 0x00, 0x00, 0x04, 0x00,
  0x0c, 0x00, 0x00, 0x00, 0x2c, 0x00, 0x00, 0x00, 0x00, 0x00, 0x00, 0x2c};
unsigned int model_tflite_len = 15240;

unsigned char* get_model_data() {
  return (unsigned char*)g_tof_detector_model_data;
}
